#version: 0.2
e n
e r
c h
Ġ d
i n
i e
Ġ w
u n
Ġ s
i ch
Ġ e
a n
s t
a s
e i
Ġd ie
Ġ a
Ġ un
Ġ m
Ġe in
t e
g e
Ã ¼
Ġ i
o n
Ġ v
Ġ S
i r
s ch
Ġ h
Ġ n
Ġ z
l l
Ã ¤
Ġun d
Ġd as
a r
g en
t en
Ġ b
e s
h r
Ġz u
Ġ k
Ġd er
o r
e in
a t
i t
e m
d er
Ġ in
a u
Ġw ir
Ġ M
Ġa u
Ġi st
Ã ¶
ich t
d e
d en
a l
Ġ A
a ch
i er
Ġ f
l ich
b en
Ġ g
b er
Ġ G
e l
u r
Ġ ge
t er
Ġ ich
Ġ B
Ġ W
Ġe s
Ġ K
un g
l e
s e
Ġ an
Ġ E
Ġ F
Ġ er
Ġs ie
U n
s en
Ġd en
Ġ P
Ã¼ r
Ġ D
m m
r o
Ġ L
u m
n en
i g
Ġn icht
Ġv er
l s
Ġ T
Ġ I
ei t
Ġv on
Ġdas s
r e
Ġb e
i s
Ġein e
c k
s er
Ġau f
Un d
an n
Ġh a
Ġs o
Ã Ł
t z
e h
Ġm it
ĠS ie
i on
in d
Ġw ie
i sch
a m
Ġ H
en n
Ġ R
Ġa ls
r a
Ġw ar
Ġs ch
Ġ V
Ġs ich
u s
k t
en t
Ġ l
e u
Ġ o
Ġ t
f t
a hr
o l
Ã¼ ber
Ġs ind
Ã¶ n
b e
e hr
Ġha ben
Ġf Ã¼r
Ġ Z
ll e
Ġ j
st e
Ġh at
Ġm an
I ch
Ġ N
Ġau s
Ġ J
a g
Ġ um
an d
ie l
i l
i k
Ã¤ n
f f
ĠS t
Ġ Ã¼ber
Ġk Ã¶n
ein e
Ġ p
o ch
u t
Ġw er
ll en
t w
st en
o m
Ġ "
h l
Ġ â
Ġd a
ĠG e
ei l
Ġdie se
ĠS ch
Ġd em
Ġw as
Ġi m
D ie
i gen
D as
er n
h en
r ei
Ġi hr
Ġ -
b t
Ġw enn
Ġun s
s p
Ġein en
ch en
mm en
Ġdie s
ier en
E s
en sch
n e
ĠV er
W ir
ĠkÃ¶n nen
Ġd es
Ġun ser
Ġj e
i en
Ġwer den
ĠJ ahr
w ei
i v
Ġo der
un gen
r au
z u
ĠP ro
Ġ C
Ġv or
eh en
i ge
ĠI n
Ġs ein
el t
ier t
Ġ O
ĠA r
sch a
r Ã¼
at ion
Ġan der
Ġk ann
Ġw o
Ġau ch
Ġa ber
Ġein er
S ie
m en
Ġâ Ģ
Ġein em
ĠM ensch
g t
ĠA n
ĠE r
Ġn ach
Ġ 1
an z
k en
Ġm ein
or t
Ġm ach
u ch
h nen
Ġn ur
Ġwir d
Ġe tw
Ġs ehr
Ġb ei
ĠB e
isch en
Ġh ier
Ġa ll
0 0
un d
Ã¶ r
o s
h t
Ġd ar
au s
i bt
ĠMensch en
f en
Ġ ent
h n
Ġ- -
Ġm ich
ur ch
Ġs t
A ber
Ã¤ ch
Ġg ibt
is sen
Ġ le
o t
ĠâĢ ĵ
Ġw ur
ĠR e
l au
Ġd ann
Ã¤ t
Ġs p
h al
Ġals o
i ll
tz t
a b
eu te
ĠL e
in g
r u
Ġn och
o g
der n
ĠE n
scha ft
Ġetw as
b l
i ck
r ie
o mmen
mm er
Ġh er
e t
te t
an g
Ġs ehen
Ġha be
Ġw ei
ĠW elt
Ġv ie
Ġs a
Ġm ir
Ġdie ser
u l
b ei
Ġm ehr
h eit
Ġd urch
Ġ Un
ĠS p
Ġk l
isch e
er s
ro ÃŁ
o p
Ġs ag
Ġ re
m al
lich en
k eit
w e
a ll
Ġ gen
ach t
Ġv iel
an k
h e
. "
ff en
ĠLe ben
h er
lich e
A ls
Ã¼ s
Ġ U
Ã¤ r
Ġa lle
ch t
Ġ 2
us s
f ach
Ġg anz
k lich
en d
Ġwur de
Ġzu m
Ġm Ã¶
Ġun ter
r in
as s
es s
f Ã¼
r i
ĠZ eit
Ġw Ã¼r
z e
Ã¤ hr
ĠI hnen
b st
W enn
u f
as sen
Ġmach en
tz en
o ll
Ġs te
Ġg roÃŁ
e ch
Ġa b
Ġz wei
Ġwir klich
f or
Ġein fach
ĠGe sch
Ġi mmer
w er
Ġm eine
ung s
Ġb es
o b
rÃ¼ ck
f l
Ġ r
Ġa m
in ge
Ġk on
Ġw eil
ter n
b ar
Ġt un
ch te
e kt
mm t
Ġf Ã¼
sch ie
ar t
n er
n te
a ten
Ġ Ã
ĠE in
a d
Ġn eu
i st
Ġm Ã¼s
Ġhat te
i z
in den
Ġunser e
E in
a p
l ie
Ġb is
Ġâ Ļ
Ġdies es
eh men
ch e
ĠI ch
el bst
le ich
Ġh in
p er
Ã¼ ck
Ġk eine
ge l
ei ten
E r
g er
i m
g lich
Ġihr e
ion en
Ġw issen
ĠG r
ig er
r ach
ste ll
ĠmÃ¼s sen
ĠL eute
e st
hl en
un kt
s a
Als o
Ġdies em
d em
Ġso ll
om p
I n
Ġvie le
p t
Ġwar en
ÃŁ en
ĠAr t
it te
ol og
k e
r Ã¤
Ġd am
Ġsag te
Ġsa gen
ĠD inge
l t
Ġdie sen
gen d
un den
ĠJahr en
Ġ Und
ĠI hr
bl em
ĠG es
Ġwei ter
Ġbe g
Ġl ie
Ġb in
ĠW ir
il d
Ã¤ u
s am
Ġein es
d u
z en
a ge
ein en
Ġander e
k ommen
Ġge w
at s
e d
ĠâĻ «
v er
h m
ĠO r
Ġje tzt
ĠK on
Ġz ei
Ġk o
Ġander en
it Ã¤t
st er
Ġwie der
l an
au f
Ġe igen
ich te
W as
de t
icht ig
lle icht
in der
n is
Ġg lau
ĠwÃ¼r de
ge b
ĠPro blem
p p
Ġall es
Ġzu r
z i
e g
Ã¼ n
ĠE s
Ġs elbst
Ġn ie
Ġdam it
se hen
Ġd u
Ġver b
Ġa r
Ġw en
u g
au en
el n
an de
ĠC h
y st
Ġge ht
Ã¤n der
un der
a st
Ġge m
ĠM ill
ĠW as
l er
sp iel
ĠA us
Ġver s
ĠJahr e
hal ten
te s
yst em
Ġo b
Ġzu rÃ¼ck
Ġb er
al e
b eit
Ġg er
k l
o ff
Ġm uss
r Ã¶
ra gen
ĠV or
p f
Ġw el
m er
w ar
ÃŁ er
an gen
Ġden n
in n
Ġg ut
Ã¤ re
sch l
n ten
am en
ĠF rau
ig keit
Ġsch on
D er
Ã¤ch lich
v on
ĠD as
r an
Ġher aus
d es
z eu
ĠN e
a ar
W ie
Ġver st
M an
l ei
v or
o k
ĠmÃ¶ chte
r it
ste llen
e ll
ier te
Ġi hnen
f ahr
z ent
Ġbe st
ech n
a hl
ĠB ei
rin gen
Ġzu sa
ĠK inder
Ġvie lleicht
er t
Ġle tz
ation en
Ġp ass
Ġzusa mmen
i mm
h a
ĠH er
Ġs on
ĠT eil
ats Ã¤chlich
Ġb rau
ĠI de
ĠG eh
Ġp ro
Ġd rei
Ġ 3
Ġda von
z ie
ĠF l
a de
Ġd ort
Ġar bei
al en
h ne
u chen
re chen
al t
an t
Ġg leich
ĠL and
Ġh eute
hal b
a gen
e k
ĠA uf
Ġhat ten
for m
w o
00 0
Ġgen au
Ġin ter
at Ã¼r
N un
ĠGesch ichte
ck en
at t
. .
es en
Ġein ige
Ġbe t
at er
ich ten
Ġk ein
wei se
m lich
ĠA u
ĠT echn
Ã¤n dern
au t
ĠB ild
el d
an den
au m
ne t
Ġi hn
Ġj em
z Ã¤
ĠkÃ¶n nte
a k
ĠAr beit
Die s
ĠD ie
Ġi r
ra ge
sch en
en nen
at z
u d
ĠZ u
iel en
ĠF or
ĠK l
olog ie
Ġz w
Ġwo llen
ĠB l
un de
or en
Ġp aar
ir n
ĠU m
Ġmein er
in e
Ġwo ll
Ġge hen
Ġwur den
re ich
Ġein z
Ġw ahr
Ġdar Ã¼ber
f Ã¼r
ra g
q u
Ġn un
f r
w ick
Ã¤ d
Ġwer de
unkt ion
Ġb en
ĠUn ter
? "
t lich
Ġbes ser
u tzen
hr en
Ġt atsÃ¤chlich
H ier
e ich
schie den
Ġver w
g ar
ĠK o
ĠIn ter
Ġg rÃ¶
ĠBei spiel
Ġan ge
h Ã¶r
Ã¤hr end
Ġz ie
at ur
ĠB er
ĠW ei
ach e
Ġwei ÃŁ
f ol
Ġunser er
Ġg ab
a h
atÃ¼r lich
at iv
ei sten
Ġson dern
Ġg u
ĠGe b
Ġs eine
an der
Ã¤n d
Ġbe de
ĠW issen
Die se
ĠS o
Ġbe k
Ġw Ã¤re
Ġle ben
ĠWas ser
a kt
Ġneu e
o de
sch ei
Ġda zu
ul t
f e
sch ein
Ġv om
Ġw ill
Ġden ke
Ġge f
Ġ 5
t eil
ĠF re
i te
ĠG en
ĠA b
Ġh Ã¤t
Ã¶ glich
ach en
h in
ei te
Ġir gend
g ie
Ġf inden
b r
ĠA ut
Ġden ken
Ġent wick
Ġk ommen
Ġso gar
m e
Ġden en
u tz
Ġmach t
Ġein mal
Ã¶ ff
itte l
Ġh ei
ĠGr und
m a
Ġge gen
ĠA l
Ġl ang
Ġzw ischen
ĠM on
Ġge s
Ġger ade
ĠT ag
ľ ber
Ġgem acht
ar k
Ġglau be
f ten
ier ung
Ġer zÃ¤
Ġf unktion
Ġw ichtig
Ġinter ess
Ġge ben
ĠGeh irn
Ġko mmt
ers on
Ġ2 0
in gen
Ã¤ h
ande l
ge ben
Ġe x
ĠF rage
r ank
Ġer st
ĠLeben s
ik a
en den
rÃ¼ n
k eiten
ĠEn t
l Ã¼ck
Ġbede u
Ġo hne
Ġm us
y s
ĠN ach
Ġn Ã¤ch
g an
Ġje der
h em
ĠFrau en
Ġletz ten
t schaft
ĠD ank
Ġnicht s
ĠM al
a te
Ġ1 9
Ġihr en
Ġzei gen
al ten
ĠwÃ¼r den
e llen
S o
Ġda fÃ¼r
Ġver l
o d
we g
ach te
J e
Ġkon nte
i c
Ġpass iert
Ġver schieden
ge f
Ġer sten
a y
Ġ 4
ch ten
Ġsie ht
ĠD aten
ge hen
Ã¤ l
ĠPro zent
ch er
ik an
Ġm eisten
g r
Ġverst ehen
ne ll
ĠM ed
ÃŁ t
ĠRe g
i mmt
Ġdar an
s s
isch er
ru pp
Ġw Ã¤hrend
Ġbe sch
w ir
au fen
ie le
ĠMill ionen
Ġetw a
ĠE x
s el
f er
Ġm al
st and
w ie
Ġer ste
ÃŁ e
Ġwar um
er st
Ġl assen
Ġsich er
ĠM e
Ġsoll te
z eit
hr t
or d
b s
ĠH and
s icht
â Ģ
Ġm ensch
Ġsoll ten
er k
t s
ag t
Ġn atÃ¼rlich
ĠP h
ig n
y p
j ekt
lich er
iv ers
Ġsch w
ĠIde e
o gen
Ġ1 0
ier e
Ġmein en
al s
uch t
stell t
er gie
Ġmein em
e lle
ĠkÃ¶n nten
omp u
ge w
Ġsch nell
ĠÃ ľber
c e
Ġwoll te
ĠG eld
ĠP erson
f te
Ġge l
Ġk omp
ig t
Ã¤ lt
Ġj a
ĠR aum
i a
Ġge sch
t ro
Ġge b
Ġganz e
ĠgroÃŁ e
i de
p ro
au pt
ra mm
ĠW eg
schie d
Ġjem and
ck t
an ge
ll t
Ã¶ s
Ġsp rechen
Ã¶r per
Ġzie mlich
in nen
Ã¤r en
Ġsch a
on der
Ġkl ein
Ġin s
Ġbe kommen
Ġihr er
oll ar
ĠSch l
r icht
l ung
Ġarbei ten
Ã¤n g
Ġda bei
ĠM it
ĠIn form
ad t
Ġg ing
kt iv
Ġsag t
Ġk am
ĠS e
ĠM ar
ĠS te
k un
Ġh Ã¶r
er nen
i o
ĠS ystem
ier ten
tw ort
ompu ter
Ġdar auf
ar um
ĠG er
ĠÃ Ħ
schein lich
Ġn ehmen
am il
t t
ei st
D a
ol ut
st r
ut ter
kt ur
lau b
d ien
en z
a hm
Ã¤ ter
ĠP lan
m us
or den
ĠA ber
ĠUn ivers
ĠIhr e
Ġber eit
Q u
ol it
f inden
rei ben
ĠK re
ra d
Ġwen iger
ĠEn de
el e
ur z
Ġkl einen
p l
Ġsch l
fÃ¼ hl
Ġd och
ĠK ind
ĠP l
ĠD ollar
" .
Ġv ier
ĠD es
ĠG em
ĠR o
S ch
i d
kun ft
Ein e
ĠSt ra
ĠWissen schaft
l o
k er
ĠM en
Ġbedeu tet
ar bei
ĠE l
ĠB o
r at
Ġunser en
ĠF amil
ĠU S
s st
enn t
ĠM in
Ġso l
ĠÃ ĸ
i al
Ġd ir
it z
us st
Ġ Qu
or gen
ĠM us
ann t
as ch
ĠVer b
Ġun g
ĠEn tw
ĠS ache
gan is
ĠR ei
Ġd achte
ĠEn ergie
ĠTechn ologie
Ã¤ ft
ĠM Ã¶glich
ĠC omputer
ank e
te te
Ġb ringen
ru ck
n o
g l
Ġi hm
ĠSt a
Ġwel che
ĠM ann
m p
Ġs eit
Ġkl eine
ĠmÃ¶ glich
Ġbrau chen
Ġge sehen
Ġeigen tlich
ĠW e
ĠT e
n it
t r
om ent
Ġs ei
al d
ĠL ie
iv e
Ġ Y
ra ft
un k
ach sen
u ten
un ter
ĠgroÃŁ en
Ġge st
ĠS eite
a ben
Ġwen ig
f all
e tz
Ã¤ tz
it ion
ĠWei se
" ,
sch w
ĠM Ã¤n
ige s
i sten
Ġje den
Ġ en
Ġaus ge
A n
ĠGe w
al is
scha ften
I m
ĠSt adt
Ġganz en
op f
ĠSch u
ich er
in de
ar d
n ung
le gen
Ġ 6
Ġsch le
Ġk einen
ra f
Ġh och
Ġau ÃŁer
eh t
ĠhÃ¤t te
Ġv oll
hal t
fol g
u st
Ġa l
ĠM an
we gen
ĠZu kunft
ĠMen ge
hl t
ĠK Ã¶rper
ĠW och
Ġsp Ã¤ter
Ã¶ff ent
Ġges agt
stell ung
ĠT age
Ġvers uchen
ĠG rupp
ĠL icht
ĠfÃ¼ n
o ur
ult ur
f ft
ern t
i p
Ã¤ hn
Ġg ern
le ben
Ġglau ben
t h
in det
is s
den ken
ach ten
rie ben
or mal
Ġver m
ĠGe d
wo hl
ĠB uch
ĠG roÃŁ
und heit
ĠOr t
h ol
Ġviel en
ĠK ar
.. .
le x
Ġbei m
es sen
Ġung laub
ĠEntw ick
i ar
ĠF il
as se
ei m
ĠW ie
le kt
ĠAu gen
ĠâĢ ŀ
ĠM a
ĠSp iel
Ġ te
Ã¶ l
Ġste llen
Ġkon nten
e ten
au sen
eil en
al itÃ¤t
Ġhei ÃŁt
Ġf est
g ramm
ĠD e
Ġeigen en
Ġo ft
Ġge hÃ¶r
Ġl ernen
fahr en
ĠGem ein
ĠF all
ĠVer s
Ġbes onder
Ġge t
Ġso zi
ah men
Ġf ast
Ġfunktion iert
el fen
zeu g
D ann
n ehmen
on nen
ru ktur
st Ã¤nd
a den
Ġ2 00
ĠfÃ¼n f
se tzen
reich en
Ġw under
Ġin dem
ĠW o
Ġje des
Ġscha ffen
a llen
Ġn Ã¤
Ã¤nder t
lie ÃŁ
Ġ rie
ĠSt ud
ge s
Ġbe f
ĠN atur
ei le
rei s
ĠgrÃ¶ ÃŁ
i um
st off
ĠEr de
ĠUn tern
fr ika
rit t
Ġgu te
s o
Ġl ange
o ten
Ġsch wer
ze ich
Ġo ffen
S t
s atz
Ġn utzen
ĠM utter
ĠM oment
ĠProblem e
ĠSch ul
ĠH aus
Ġg l
h o
ĠMill iar
au se
W arum
in ner
gef Ã¤hr
âĢ ľ
ĠP at
h le
ĠSp rach
i b
ĠInter net
ot t
ech s
nis se
ĠPro du
ei den
lich keit
Ġsein er
ik er
m pf
z ahl
ĠGes ell
sp ro
E D
w usst
isch es
v olut
et t
a ck
Ġsa h
Ġwahr scheinlich
ĠW enn
Ġall er
Ġh elfen
ĠGes undheit
a hlen
Ġa llen
es ser
a mmen
Ġ 8
eu ten
Ġw eit
ĠK am
ĠAn g
k on
Ġw eg
it u
Ġander s
Ġ c
Ġf ol
Ġein ge
Ġgen ug
Ġzei gt
Ġher um
Ã¼n st
Ġsch Ã¶n
ch mal
Ġunser em
Ġneu en
du z
Ġw icht
Ġf rÃ¼
ĠerzÃ¤ hlen
il der
Ġkl ar
volut ion
D enn
f angen
ĠFor m
ĠH in
h eiten
den t
ĠnÃ¤ch sten
g lichen
Ġver k
Ġ 7
os sen
ĠUS A
p h
un st
y n
Ġk ennen
Ġbeg ann
r en
lich es
Ġn e
rau m
g leich
ĠL ehr
ĠW ahr
k ay
w elt
rie g
Ġs e
ĠgrÃ¶ ÃŁer
Ġw us
scha ffen
Ġbe h
k o
z ess
schei d
' s
a be
Ġun gefÃ¤hr
Ġw e
Ġbet rach
g angen
l Ã¶
l and
Ġb auen
Ġ1 00
Ġje de
Ġst ar
r on
ĠV ide
andel n
ken nen
u ft
ĠM o
um en
Ġ1 5
eh n
ĠGe gen
Ġr ichtig
h under
f Ã¤
Ġb lei
se tzt
ll ig
ĠM et
in a
re ffen
Ġbe vor
zie h
Ġgem ein
Ġ3 0
Ġ5 0
Ġlie gt
Ġver Ã¤ndern
Ġbis schen
ĠPlan eten
Ã¶ t
ĠA mer
ĠDes ign
Ġ 9
Ġre cht
ĠB Ã¼r
ĠNe w
ek te
Ġh Ã¶
Ġn ormal
er e
mm un
ĠL euten
Ġsein en
en s
ig keiten
Ġg ar
ĠF Ã¤h
Ã¤ch e
ĠPro jekt
Ġf al
ĠK unst
eu t
for der
b o
Ġk urz
ĠSchu le
as st
Je tzt
ĠR ob
ĠIde en
ch n
ĠM ater
Ã¤n de
in k
Ã¤d chen
ĠF ot
ĠInform ationen
ĠW er
ĠÃ¼ber all
m Ã¶
ĠSch w
a v
sch e
kt ion
om en
ĠEr fahr
d ig
Ġ ro
Ġsag ten
Ġste hen
ĠFor sch
u tzt
ĠMus ik
an ken
m it
m ittel
Ġer n
Ġin ner
M it
Ã¼ tz
ĠD i
ĠT ED
rin gt
it zen
ĠgehÃ¶r t
is mus
ĠA t
ĠAr ten
Ġvers uch
ĠM u
l os
ĠM ode
Ġer kl
ĠK opf
Ġhin ter
or ten
ĠP unkt
Ġdar um
Ġn ennen
Ġan zu
ien ten
m and
Ġschw ier
i mmen
en ken
ĠS u
ĠWir tschaft
ĠK rank
ĠAn twort
s y
Ġe ben
Ġmus ste
ĠA ls
us ammen
Ġihr em
Ġre den
ĠMilliar den
wer k
ge sch
ĠUntern ehmen
er en
anz en
p r
Ġs el
rie b
Ã¤n ger
Ġander es
ĠV ort
ie f
ze pt
iz in
Ġd ich
ĠGeb Ã¤u
schei den
Ġbereit s
ĠNe tz
f ang
Ġb em
b ringen
ĠEx per
ĠMÃ¤n ner
o lle
Ġh al
au er
ĠgroÃŁ art
V ielen
Ġe uch
ĠJahr hunder
u bl
ĠUnivers um
g ung
ĠSt u
ĠB i
ge m
ĠF ragen
ĠR icht
amen s
ri ff
Ġentwick elt
ein ander
Ġf ragen
ĠGesch ichten
s k
v oll
Ġer kennen
ĠBe d
Ġer reichen
ĠMin uten
z ei
ĠB Ã¼
Ã¶ hn
Ġf rag
ĠAut o
w as
Ġh alten
Ġste ht
ĠL Ã¶s
Ġbesonder s
Ġo ben
Ġer h
ĠGesell schaft
Ġsp ielen
Ġn amens
ie lleicht
Ã¶ sen
om e
Ġben utzen
Ġverschieden e
iel t
Ġent de
ĠFamil ie
i f
ĠO b
in en
ĠhÃ¤t ten
ĠM Ã¤dchen
Ġsein em
Ġgern e
il fe
ĠVer halten
Ġ Ã¼
a un
a hn
p en
er v
ann te
zent r
ck e
ind ung
M eine
n ahm
Ġd e
Ġmach te
ande lt
r as
ĠA frika
Ġdar in
ĠhÃ¶r en
ĠEnt scheid
ĠFil m
Ġer f
ĠK or
Ġh o
Ġ Ã¤hn
de ut
D anke
o ter
ĠG l
ĠT hem
ĠGrupp e
ak ter
i ent
Ġs echs
un ge
ro m
Ġgl ob
k te
Ġbe ein
ĠSt Ã¼ck
Ġwo hl
Ġst att
gr und
sch nit
M ein
ĠEr geb
bar e
r ichten
Ġje dem
Ġbrau cht
ĠG lÃ¼ck
in dern
gel n
Ġbest imm
ĠFl ug
Ã¶l ker
on en
ur s
eu er
ĠBe weg
ĠOr ganis
b ild
k ehr
Ã¼ t
Ġge sam
ĠIn dien
lieÃŁ lich
ĠM acht
le t
ĠF ar
ing s
Dies es
ĠAng st
ĠS elbst
Ġentwick eln
s on
ĠF ir
A ll
Ġ ch
en det
mal s
se tz
Ã¤ch t
Ġr icht
o ck
an ten
ĠZ usammen
Ġvor stellen
ĠHer z
ĠEl tern
Ġrie s
ĠPat ienten
d r
ĠB ilder
F Ã¼r
Ã¤ uf
um e
he or
Ã¼ tzen
Ġt ro
fÃ¼ hrt
as e
Ġm ag
sy ch
Ġg lÃ¼ck
a mm
s ystem
ĠGe fÃ¼hl
ĠL uft
ik ro
A uf
p unkt
ĠMÃ¶glich keit
ĠFre und
e zie
gen ommen
Ġf lie
ĠB au
ĠK ultur
Ġer halten
ĠâĻ ª
Ġein igen
ĠS Ã¼
Ġbe wegen
zu g
ĠU r
er r
ĠSt unden
ĠV ater
Ġirgend wie
a i
ĠSprach e
an te
Ġn a
ur op
i der
ik en
Ġverschieden en
icher heit
ĠB eh
re ten
ĠSt r
g te
Ã¤ sst
ĠF Ã¼
Ġbei den
ers Ã¶n
Ġ %
Ġh off
Ġer w
o w
u er
ĠF ol
Ġman chmal
h aupt
an nen
zeu gen
Ġ Ã¤ndern
in ieren
es se
ok rat
Ġa lt
Ġwoll ten
o hn
or k
s ie
ĠW ort
ĠfÃ¼ hren
V or
Ã¤ ten
ĠBer eich
g al
ĠD u
ĠVer Ã¤nder
ĠAr m
Ġf rei
Un ser
ĠR Ã¼ck
Ġd rau
Ġbe sten
ge stellt
Ġste ll
Ġeinz ige
te ten
ĠL in
Ġab s
ĠnÃ¤ mlich
ĠVide o
v est
ten s
ĠG rÃ¼n
Ġer k
ĠH ause
Ġeinz el
ĠReg ierung
U m
g ang
ur e
ĠSt Ã¤d
ĠMe er
is k
ubl ik
Ġver t
b te
Ġun be
ĠS achen
Ġf or
ĠP art
ĠGen er
Ġunter schied
ĠRob oter
in anz
ĠBe g
ĠS inn
ĠD em
z t
Ġverw enden
te l
Ġver Ã¤ndert
h Ã¤ng
ĠA m
ĠBe zieh
ĠGes icht
I hr
Ġe her
Ġunglaub lich
Ġp er
zu stellen
Ġsa ge
Ġd r
eh e
sten s
fÃ¼ hr
on e
Ġinner halb
ar ten
ĠM asch
hl te
Ġbeg innen
Ġ Ã¶ffent
Ġmensch lichen
B ei
er weise
Ġf and
J a
rei fen
ĠW erk
ĠK indern
Ġgemein sam
st ehen
ĠM ein
ĠAuf g
ĠGebÃ¤u de
d ruck
ĠÃ¼ber haupt
Ġwel ch
Ġwe gen
V ielleicht
k ten
te m
y m
den ten
Ġl os
ĠHer aus
ĠKre bs
Ġb rach
ĠK omp
sen t
ĠH Ã¶
ick en
Ġget an
en zen
ĠG ott
hem at
ĠP ol
no v
ie t
ber fl
ĠP o
schl ossen
ĠS k
ĠS on
ĠZ iel
ĠF ahr
mm e
ĠL Ã¤nder
u ÃŁ
Ġ [
er ikan
Ġab ge
fÃ¼ hren
Ġgleich en
a z
ein t
Z u
Ġbe ob
ĠN eu
Ġan sch
rau en
Ġg r
Ġvers ucht
Ġz war
ig ten
ff ekt
v Ã¶lker
Ġsch auen
r acht
on t
ĠL age
iv i
D och
ĠEntwick lung
h an
in gt
Ġver d
Ġall em
Ġwel tw
ativ e
en de
at hemat
ab or
u te
ĠAr ch
Ġp olit
ĠK n
Ġt reffen
ĠWoch en
ĠMater ial
Ġauf ge
k Ã¼
ĠD er
am p
Ġl ei
ĠHeraus forder
ĠB ab
Ġj en
ĠCh ina
a w
ent r
ĠK rieg
ĠT o
Ã¤n gt
i ff
f el
ĠN acht
ublik um
en k
h aus
ei gen
ĠGr Ã¶
Ġnie mand
ĠUm welt
i men
Ġaus zu
ĠAls o
Ġ rau
wer t
d lich
Ġmein es
Ġmus sten
ĠB r
um ent
ĠRe st
O der
ĠP ar
ĠAn t
bar en
nahm e
ei ster
Ġb el
ach st
ĠPro zess
Ġwus ste
ĠErfahr ung
os s
Ġd re
ĠAn fang
m Ã¶glich
w Ã¤r
ur en
ĠD ingen
Ġfol gen
N ach
Ġb l
S te
Ġk amen
enn e
aus o
Ġweiter e
Ġ4 0
el ig
ĠT iere
Ġ ...
Ġent f
ĠnÃ¤ch ste
ĠT ier
s ein
Ġle icht
ran ken
Ġ1 8
Ġpro duz
d och
s Ã¤tz
Ġv Ã¶
ĠP rÃ¤
Ã¤ch st
ar e
ar beit
ĠfÃ¼ hlen
ag er
ĠEs sen
ĠM ittel
Ġer re
ĠVer ein
eh l
Ġbek o
i an
ar en
ĠA ll
ĠP ap
tz lich
Ġt ut
ĠGr unde
Ġs ter
ĠGesch Ã¤ft
ĠLehr er
achst um
D es
an ach
ĠK ap
ann ten
Ġsol che
ĠTage s
Ġer sch
ra gt
an twort
ĠFre unde
ĠS icherheit
Ġf l
ĠZ ug
zie hen
it ze
rie den
Ġex ist
Ġun ten
ĠSt ruktur
Die ser
Ġvor her
Ġeigen e
ĠY ork
ol d
ĠJ a
ĠJ e
Ġ1 2
ll igen
ĠE igen
ĠF rei
ran sp
ĠKl im
Ġmensch liche
Ġfal sch
n ahmen
Ġw orden
Ġauf zu
ĠS itu
ation al
sp h
all s
ĠKon t
a x
m an
Ġletz te
Ġerst aun
ĠMÃ¶glich keiten
or te
Ġer war
ĠP f
Ġl Ã¤sst
ĠC o
ation s
Ġunter s
ĠBo den
Ġw Ã¤ren
Ġb ringt
Ġdam als
ĠUnter schied
Ġw or
Ġder en
ĠPro gramm
ĠIn st
ze an
h Ã¤lt
ĠG leich
Ġver schw
Ġje doch
Ġher vor
l ungs
ĠD urch
im ent
Ġ '
ĠVer t
m in
iz ieren
x t
st att
ĠR es
ste t
Ġgr und
k sam
el ten
Ġer lau
Ġsch reiben
ha ft
ĠGed anken
d rÃ¼ck
ĠH ilfe
sicht lich
tro ll
fall s
ĠvÃ¶ llig
ĠS ek
ĠM ikro
ĠB es
Ġob wohl
ahr en
ien en
ze llen
Ġgleich e
ĠP r
Ġm o
Ġ or
ĠS ter
ĠBe t
imm e
ĠT yp
Ġber Ã¼
u e
ĠJ ob
Ġblei ben
Ġfrag te
b auen
op p
lan gen
inn t
ĠThem a
Ġh under
uch e
og raf
fl uss
Ġdir ekt
ĠSta aten
w esen
ĠF ort
Ġent scheiden
Ġl Ã¶sen
iz iert
olog ien
ge t
ĠF ern
ĠD r
Ġdes sen
b au
b ung
bl ick
ĠMar kt
Ġso llen
Ġt eil
Ġp h
ĠSch we
lie ÃŁen
ĠWoch e
Ġer inner
ing er
Ġ2 5
Ġfunktion ieren
u b
Ġs uchen
Ġbest eht
S p
W o
Z um
ĠD N
ra kt
Ġst ark
Ġbetrach ten
m ot
ĠN u
Ġverb esser
hÃ¶r en
ĠMon ate
b es
sch t
ĠP olit
ĠL i
am ent
il den
ausen de
f ort
z ogen
eh m
ĠH aupt
wir k
c en
al ien
ĠK Ã¼
ĠN amen
lÃ¶ tzlich
Ġt eilen
zi p
ikan er
Ġzu vor
fl anzen
Ã¤ hlen
ĠO zean
Ġgen auso
schnit t
ĠL Ã¤ndern
ĠT r
geb ung
tr em
l icht
Ġp ersÃ¶n
ĠNe ur
ĠE lekt
sp r
erst Ã¶r
Ġschwier ig
Ġge d
arbei tet
Ġz ehn
at ten
os it
Ġinteress ant
W issen
v ers
ĠK raft
ĠH a
Ġste llt
V er
ĠZ ellen
Ġsp rach
ri fft
ĠGes etz
Ġben Ã¶t
Ġlang sam
zei gt
a f
o ol
el be
ĠK at
Ġer mÃ¶
ĠD ar
ĠfÃ¼ hrt
Ġgef unden
Ġtro tz
on d
am e
Ġbem er
ĠLÃ¶s ung
w end
ĠN ahr
inn ern
ĠFamil ien
ĠTe am
Ġge scha
Ġzwei te
akt ion
ch ter
Ġunser es
heor ie
W eil
wei sen
ĠIhr en
Ġverb unden
ĠÃĸ l
Ġin te
ĠgrÃ¶ÃŁ ten
ge gen
or e
Ġsie ben
ro p
ĠFÃ¤h igkeit
L assen
N ein
sp iele
Ġster ben
ie ten
ĠMode ll
Ġb itte
Ġk aufen
zeu ge
ĠMed ik
berfl Ã¤che
al ter
ĠH o
Ġam erikan
Ġkomp lex
N icht
ĠW ahl
ĠP er
j ekte
ben e
Ġsch eint
ĠEr folg
ite in
ĠAut os
P ro
ĠP rin
ig ung
ff e
tw orten
sp ir
iv en
Ġlie be
ĠLie be
ĠgrÃ¶ÃŁ te
al er
Ġander er
ĠEn gl
b ten
Ġl esen
rei ten
ĠL abor
Ġheraus zu
au ft
ĠB ru
Ġdrau ÃŁen
l ine
ĠB ro
spro chen
ĠZ ahl
ĠIn d
ĠBeweg ung
ĠGemein schaft
Ġbeein fl
Ġwelch es
vÃ¶lker ung
d ie
j Ã¤hr
Ġd ein
Ġha st
ĠBe deut
ĠfÃ¼ hr
un ehmen
Ġm itein
Ġein s
Ġer innern
ĠIn nov
Ã¤u ft
wo hn
ff iz
a ÃŁ
D u
ĠI s
ĠSt and
Ġn ahm
ĠF r
ĠP ublikum
war e
Ġsch lieÃŁlich
Ġgel ernt
Ġg ro
l assen
iv er
du st
Ġgew esen
ĠArch ite
j en
Ġer schaffen
ĠT ats
Ã¼nst ler
it y
ag ieren
sie ht
z w
Ġhin ein
ĠMed ien
b el
an s
Ġf anden
Ġbe wusst
och en
o se
in ne
Ġpass ieren
ĠAl ter
Ġs ehe
an ce
i mmer
ĠM il
Ġes sen
re ck
eh ler
ol z
ik o
Ġerkl Ã¤ren
ĠglÃ¼ck lich
i ft
ĠE is
ĠE urop
Ġgegen Ã¼ber
ĠRei he
W er
n ern
Ġl Ã¤nger
ĠVerb indung
G e
Ġer le
ĠBÃ¼r ger
ĠMu ster
A m
ĠG o
ĠN icht
Ġ6 0
f ern
Ġw achsen
Ġer folg
Ã¤l ter
ĠJahrhunder t
was ser
l in
Ã¤ ÃŁ
es e
Ġdar aus
ĠTechn ik
Ġjem als
ĠÃĦ r
f in
g liche
Ġb ist
it ut
le tt
Ġsch war
rei bt
Ġunter st
Ġgew orden
gew Ã¶hn
Ġgeb aut
ink s
Ġn immt
Ġhin aus
Ã¤l fte
Ġschle cht
ges sen
ĠWahr heit
ĠStu denten
ĠSÃ¼ d
ĠW ert
ĠZ wei
ĠÃ¼ br
O kay
Ġkon zentr
f Ã¤h
n t
Ġ qu
ge fÃ¼hl
Ġf r
ĠK ranken
ivi du
Ġmitein ander
ĠmÃ¶ chten
ĠFÃ¼ hr
m o
Ġb r
it Ã¤ten
Ġaus sehen
ĠSch ritt
ĠEr w
Ġwissen schaft
ĠTechn ologien
ĠRicht ung
g n
or al
ĠR is
zeu gt
ĠBl ut
ĠWissenschaft ler
Ġne ben
Ã¤ mp
ĠH off
ĠV ir
Ġdes halb
ĠAn zahl
Ġnach dem
d ass
Ġmach e
Ġbeg innt
Ġan fangen
Ġbe w
Ġverl oren
Ġklein es
lau f
ei d
Ã¶r ter
ĠPl atz
H eute
Ġklein er
Ġ8 0
B e
k el
r Ã¤n
Ġver sch
ĠC hr
ativ en
j a
at or
ĠBl ick
Ġper f
Ġso fort
wei s
mer ksam
ig it
Ġt ief
dust rie
C A
ĠS icht
Ġge zeigt
kt u
Ã¤n gen
Ġp lÃ¶tzlich
Unser e
Ġd anach
Ġein zu
Ġh il
Ġsch rieb
ĠEr k
l ang
ĠT est
rau ch
ri ft
ĠAufg abe
w and
Ġb i
Ġf indet
ĠRe cht
Ġstell te
ĠÃ¼ber ras
ĠIhr em
ĠKrank heit
Ġl aufen
sp ekt
ĠUm gebung
V iele
d urch
Ã¤n den
Ġwer t
Ġgu ten
ĠA ben
ĠF uÃŁ
f on
Ġbesch Ã¤ft
ĠForsch ung
Ġrau s
e y
zeit ig
ĠTats ache
s m
st ra
Ġgen annt
ed izin
Ste llen
as z
Ġin d
ĠM ot
ĠIhr er
G en
as en
es ent
Ġf ort
Ġall ein
ech an
ĠVor stellung
ĠRo lle
wusst sein
ĠVerÃ¤nder ung
ĠT eile
unk te
ĠhÃ¶ her
Ġentf ernt
Ġbeko mmt
s i
ĠDank e
ĠBedeut ung
e zi
Ġa cht
Ġg rÃ¼n
Ġverw endet
ĠRei se
Ġsch au
ĠSitu ation
k raft
p rÃ¤
de te
sp rechen
Ġnach zu
ĠCh ar
Ġe gal
Ġk Ã¼
ur t
ĠH Ã¤lfte
Ġt at
Ġt Ã¶
ĠGew alt
. âĢľ
N atÃ¼rlich
c t
Ġa ktiv
ĠB el
ra ten
Ã¤n ge
Ġson st
K Ã¶n
gen de
Ġbe we
ĠBild ung
ĠGrÃ¶ ÃŁe
re cht
Ġsa mm
Ġe lekt
ĠS onnen
ier ungen
ĠD a
Ġver Ã¶ffent
Ġnach denken
rad ition
ĠFot o
ĠG al
el te
ĠRe alitÃ¤t
Ġben utzt
a ce
z us
in es
ĠM ag
ĠM itte
Ġgef Ã¤hr
ĠKam er
ĠStÃ¤d te
ĠA ktiv
Ã¤u ser
Ġnie mals
Ã¤nd ig
Ġhoff e
ĠMein ung
O h
l age
Ġge h
Ġre ich
g ten
i ten
ĠHerausforder ung
Ġ rei
ĠT Ã¼r
ĠSt imme
Ġbei de
ĠStud ie
z Ã¼
Ġ Ã¶ff
sph Ã¤re
m ent
ich tet
ro h
Ġbe ste
ys ik
ĠStra ÃŁen
imm el
Ġjem anden
tro lle
Ġweltw eit
Ġerre icht
Ã¤ ss
ĠK il
teil t
wir tschaft
Ġsozi ale
ĠVort rag
ar m
ĠM athemat
ĠK Ã¶n
ĠF Ã¤
Ġver rÃ¼ck
Ġbek annt
Ġte chn
Ġerfolg reich
a ffen
ĠT em
ck er
ĠmÃ¶ gen
lan t
ĠDem okrat
Ġk re
Ġal ten
ĠEntscheid ungen
â Ļ
Ġg ingen
tz ut
pp e
rit ten
Ġbek am
Ġex trem
ĠF isch
eu tzut
ĠN ord
om b
ĠEr d
ap p
ĠInform ation
eutzut age
Ġr ein
Ġzei ge
Ġkomp lett
Ġ ur
Ġt oll
uch s
Ġent st
et te
T atsÃ¤chlich
Ġkon troll
Ġzie hen
arbei ten
v e
Ġ ru
Ġge geben
Ġhin zu
Ġgen ommen
ĠStra ÃŁe
ĠPrin zip
ei g
ĠJ u
des sen
ert ig
t u
ar te
Ġb lau
ĠT at
eh mer
Ġlie ben
t ten
Ġa k
Ġf ahren
Ġda her
ĠCh em
ĠKo lle
ĠG eist
ĠW achstum
ite l
ĠEntwick lungs
Ġwicht iger
ĠSon ne
ar kt
ra b
Ġl au
ol ogen
ĠSch Ã¼
ĠMed izin
Ġschnell er
bild ung
ie gen
Ã¤ llt
or f
le kÃ¼
ĠR ad
ĠP reis
Ġmach ten
Ġst and
ant ast
jen igen
w issen
Ġe mpf
sch ul
Ġz er
ar i
Ã¶ st
re ch
ĠZ ahlen
schie ht
ĠKo sten
Ġse tzen
ĠDN A
ĠD ro
ri m
Ġinteress iert
ĠGe f
og ra
ist an
I st
st Ã¼ck
Ã¤ tzen
ar r
Ġge schieht
ĠK al
ĠSt rom
ist er
Ġbrach te
ĠVerein igten
Z wei
ĠB Ã¤
ĠAmer ika
Ġherauszu finden
st ein
le gt
ft ware
ĠO berflÃ¤che
ran s
Ġgeb oren
st ruktur
ĠMe ter
au ern
Ġf asz
ĠR u
Ġlie gen
Ġflie gen
v iel
z te
Ġn ennt
geb racht
ĠFÃ¤h igkeiten
ĠErgeb nis
ĠFir ma
5 0
k re
at te
am er
ĠZ eu
Ein ige
ĠMa ÃŁ
ĠfrÃ¼ her
ĠPap ier
W Ã¤hrend
g or
i le
s sen
in z
on s
ĠB akter
ĠF ehler
is se
Ġ1 1
uch ten
ĠEin z
Ġb as
ind ungen
Ġst immt
ĠNach richten
Ġabs olut
Ġt ot
Ġen or
ĠGener ation
ĠMasch ine
au ber
ĠI m
Ġbe d
tw as
ab hÃ¤ng
og le
itz t
ĠBezieh ung
Ġ 000
ra in
ĠIn f
ess our
Ġgesam te
Ġeinfach e
ob il
Ġneu es
sa mm
ĠGesundheit s
ĠFort sch
schl agen
! "
a lle
ie g
Ġz erstÃ¶r
Ġwir tschaft
im p
schl ag
Je der
ĠKar te
ĠBÃ¼ cher
wirk ungen
it ter
ĠJahr z
inde st
h and
Ġd achten
ie gel
Ġn ein
Ġer for
ĠD ruck
ĠZ eich
ik el
Ġbeg annen
Ġsozi alen
o llen
ĠG el
ĠD ing
ĠH ier
gend es
Ġd igit
ĠT od
Ġl ok
Ã¼s s
Ġgesch rieben
ĠEurop a
e cht
t ler
ĠT ele
merksam keit
ver b
Ã¤mp fen
c o
g lie
Ġzu erst
ĠA pp
Ġge sprochen
se ll
Ġt ragen
ik ation
Ġ9 0
f ess
Ġh eut
Ġver urs
ĠSt at
ĠÃ¼ber t
igen s
ell er
Ġver g
is st
Ã¼s sel
ĠKo mmun
Ġ19 9
ĠProdu kt
l ungen
Ġge be
Ġan statt
ĠV iel
us sen
ĠRe volution
ĠDie s
ĠExper iment
ĠHoff nung
ĠP ark
im e
ĠWir klich
v ent
Â »
is u
ĠH och
Ġp rÃ¤
ĠgroÃŁ er
Ġab zu
ĠAuf merksamkeit
Ġbewe gt
Ġgleich zeitig
o te
ĠD o
ra te
Ġl ern
Ġpass ierte
Ġern st
ĠS eiten
al es
ĠBe wusstsein
Ġsa hen
b eh
Ġ Ã¤lter
ĠS au
Ġb ein
lau fen
ĠÃ¤hn lich
ĠBeh and
Des halb
ĠPolit ik
i ot
p fen
Â «
ne te
iv il
de ck
ĠE volution
am a
ĠBe vÃ¶lkerung
hn ung
ĠEin e
pf er
ĠGrupp en
ĠSchul en
f eld
h ode
ĠP sych
alt ung
Ġverl assen
Ġbeob achten
ĠL eiden
Ġvor bei
ĠIn te
Ġwicht ige
Ġbestimm ten
in s
in ken
ie ll
de l
Ġer g
Ġst ud
Ġko sten
ĠHin ter
ĠZug ang
Ġf re
ĠD orf
ĠÃ¼ber w
Ġbest immt
Ġna he
h ang
Ġver fÃ¼
im ul
ĠVers uch
Ġf inanz
Ġge arbeitet
Ġan f
Ġj unge
Ġschle chte
ĠnÃ¤ her
Ġversuch te
Ġan sehen
ĠR essour
ick t
x u
ĠG u
ĠK Ã¼nstler
Ġ1 6
ĠMon aten
Ġkomp l
ele gen
Ġk ur
Ġf inde
olog ische
S ehen
or fen
Ġau t
mm ern
ĠU hr
ĠOr te
Ġe hr
Ġbedeu ten
All es
l ern
ri st
ĠEin fluss
ĠUnivers itÃ¤t
ĠArm ut
ĠP flanzen
ĠH immel
elt sam
Ġst Ã¤ndig
A lle
ĠW Ã¶rter
ĠKon trolle
ĠSo hn
br acht
Ã ľber
Ġ end
Ġn atÃ¼r
Ġin spir
Ġf antast
ĠK a
ĠRe geln
Ġsp ezie
ĠStud ien
w Ã¼r
Ġin tern
ĠW ind
ĠK an
ĠD enn
ĠSp ezie
ĠKon zept
Ġbesser e
Ġ Ã¶
Ġs itzen
Ġm edizin
Ġb lo
Ġb ald
ĠB aum
ĠMensch heit
her ap
ap an
ĠWe bs
err or
ĠDemokrat ie
D am
ĠRe gen
ĠWo hl
Ġverbesser n
i x
l es
Ġw ider
Ġin vest
ab el
Ġoffen sichtlich
ĠSu per
Ġricht ige
Ã¼ tzt
ind igkeit
ĠH ig
Ġp rakt
ĠEr inner
Ġ1 4
Ġblei bt
ĠMedik amen
Ġf alls
Ġricht igen
I V
ie s
Ġge k
schl uss
ĠNach bar
stÃ¤nd nis
Ġwus sten
gem ein
Ġeinzel ne
ĠGo ogle
b lich
st es
Ã¤ hlt
at isch
Ġver gessen
ĠSch Ã¶n
Ġihr es
ĠKrank heiten
d igen
m achen
ĠSte lle
ko mmt
u fen
Ġb ilden
ĠT rÃ¤
ĠBe sch
ab il
ri se
pp en
ĠDie se
ĠSo ftware
Ġmo der
it Ã¤r
ig ner
ĠH Ã¼
ĠgroÃŁ es
ĠMit gefÃ¼hl
ausen d
ĠPol iz
Ġbemer ken
f re
t o
Ġp osit
ĠmÃ¶ glichen
zÃ¤ hl
Ã¤tz e
M ensch
ĠM orgen
iel ten
ĠPh il
ĠMo lekÃ¼
ĠS ym
ĠL auf
eit s
eit ung
ĠH el
Ġda hin
ĠOr ten
Ã¼n ft
d ung
sch ung
um s
ĠBei spiele
Ġarbei tete
Ġansch auen
ĠK ern
ĠT on
ĠT agen
be t
ĠVer gangen
sch ir
at h
ĠH IV
ĠPro te
Ġkann st
ĠSp aÃŁ
ĠGr enzen
Ġverl ieren
Ġer zeugen
Ġver h
Ġl inks
uch te
kl Ã¤r
qu enz
ĠNach richt
ĠEntscheid ung
ĠZeu g
or ge
Ġden kt
ĠGeb iet
Ġvoll er
Ġe chte
ĠA d
ĠK u
Ġaus sieht
lau ben
Ġzum indest
ek ten
Sch auen
âĻ «
st o
ei sen
Ã¤ chen
or g
Ġf ertig
Ġp l
ĠerzÃ¤ hlt
Ġerlau bt
ĠVergangen heit
ĠB us
Ġnachzu denken
ĠSchÃ¼ ler
ĠWirklich keit
D ar
u z
Ġd eine
ĠV ol
ĠAn ge
rÃ¤ fte
ĠOr d
teil en
Ġerkl Ã¤r
g o
r ig
au p
Ġge bracht
Ã¼r z
ĠT error
Ġproduz ieren
it al
ĠB ot
ĠL eist
ig te
Ġman che
wer fen
Ġirgend wo
ĠGal ax
m ut
m Ã¤ÃŁ
ĠM iss
ier ter
Ġst Ã¤r
Ġre g
Ġarbei tet
ĠSpezie s
w ill
st ru
ĠW orte
ĠF euer
Ġsch reck
ĠKon fl
ĠPerson en
Ġh Ã¤uf
Ã¤ te
ste lle
mer z
Ġkein er
tro ffen
ĠGer Ã¤t
Ġgesam ten
ĠSek unden
a il
e ben
f alt
st a
kt or
ĠO n
ĠAr bei
ĠEr f
op h
zeich net
ĠInst itut
ĠfÃ¼hr te
s ion
Ġauf t
ĠR elig
fol gen
Ġsol chen
Ġversuch e
Ġtrotz dem
ĠInnov ation
V on
w eil
Ġd est
Ġw inz
Ġm orgen
Ġk aum
ĠM Ã¼
ĠW and
ĠE bene
ĠT h
Ġt raf
ĠN ein
Ġgew alt
Ġ7 0
ĠFir men
Ġ1 7
ĠGesch w
Ġgew innen
ĠErgeb nisse
N ur
Ġs eltsam
ĠS ol
ĠS ign
ĠB ill
le tz
Ġbe finden
il det
Ġre tten
Ġinteress ante
fer enz
licher weise
ĠEl em
hol en
ĠMathemat ik
ĠBakter ien
m et
ĠS c
Ġh eutzutage
al tet
ĠH Ã¤nde
ĠVer antwort
Ġbestimm te
A uch
Ã¤ st
ĠD et
ĠT heorie
ĠâĢ Ķ
ing ungen
zi mmer
utz ung
Ġe t
Ġb au
or ben
Ġge kommen
ĠZ uf
ĠZ entr
ĠN erv
Ġum zu
Ġzei gte
ĠArbeit s
ĠMon at
Ġgesch ehen
ĠOb jekt
A us
N a
u p
Ġn enne
Ġr unter
ĠBab y
ogra ph
b all
f g
Ġer fahren
Ġso dass
Ġverb inden
pr ess
Ġglob alen
an ter
Ġh ol
gen ie
Ã¶ pf
rei tet
wer ke
Ġries ige
Ġunters uchen
Ġauf re
os ition
ĠCh ance
Ġ20 1
Ġne un
Ġeinzel nen
u hr
Ġun mÃ¶glich
it ten
ĠG ol
Ġvor h
Ġgef ragt
ĠSta mm
ĠNetz werk
ome ter
ĠMeer es
Ġdr itte
ĠRessour cen
in iert
ĠR au
ĠV ielen
sp rach
per atur
Ã¼ cht
Ġauf grund
tw end
ĠLand es
Ġerh Ã¶
ĠGef Ã¤ng
w enden
ge st
ĠF rieden
ĠH e
Ġt Ã¤
ĠN ot
Ġr und
ĠLin ie
D enken
ĠG ra
ĠN Ã¤
ass ung
Ein es
ei ter
ck te
Ġt ie
ation alen
ĠEr n
ĠBe zug
rÃ¤ gt
Ġal te
ĠAmer ikaner
Ġentde cken
Ġhil ft
o v
em and
ĠD ien
re t
is ieren
eh me
ĠJ ohn
Ġle bt
Ġirgend w
ĠgroÃŁart ige
k ul
sch Ã¶n
ĠD enken
ĠGe fÃ¼
zi al
ss ystem
ĠKam pf
ĠKolle gen
ĠTele fon
l am
ĠS y
Ġha b
ĠH eim
Ġj ungen
Ġre duz
Ġnie dr
Ġheraus finden
Ġverst anden
Ġd anke
ber t
ĠN a
sp rÃ¼n
ĠPart ner
ĠOrd nung
g rupp
Ġzu fÃ¤
Ġso wohl
ĠH aut
Ġp sych
ĠJahr es
ĠO per
Ã¶r der
Ġent schieden
ĠAus wirkungen
ĠhÃ¶r te
ĠgroÃŁart ig
ĠPrÃ¤ si
Ġor ganis
fg han
Ġd unk
sch u
ĠF e
re che
Ġl eisten
Ġl Ã¤uft
ĠAn der
ed es
lei st
stÃ¤nd ig
ĠDi ag
o twend
Ġw ann
Ġm oral
Ġh inge
rei se
ĠerzÃ¤ hlte
ĠReg ierungen
gl icht
gleich en
st re
as che
Ġein ander
Ġv isu
Ġh Ã¤lt
Ġge stellt
Ġda durch
Ġ1 3
Ġzwei ten
ode ll
ĠHÃ¶ he
ĠNahr ung
st Ã¤nde
ĠD ann
ĠD isk
tw or
ĠVer l
ation ale
ab r
Ġgen et
olog ischen
Ġko mmun
ĠermÃ¶ glicht
ĠErw achsen
Ġsamm eln
g rÃ¼n
i lle
w art
ĠS inne
Ġf ing
ĠG elegen
Ġl ag
Ġarbei te
ĠFor men
stoff e
Ġrecht s
Ġnormal erweise
ĠÃ¶ffent lichen
mot ion
a c
o u
v olle
z ahlen
z unehmen
ĠB as
Ġwar ten
Ġt au
ĠC ar
ast rop
ĠWie der
u de
in ter
de ten
Ġge schaffen
ĠF rÃ¼
Ġt radition
ĠMill ion
arbei ter
ĠWo hn
ĠÃ¼br igens
z wei
Ġdie jenigen
au r
re g
Ġent we
ĠGeh eim
Ġeinz ig
fr ikan
ĠauÃŁer halb
b uch
n ungen
Ġun er
ĠM ark
Ġ2 1
Ġbest ehen
ativ itÃ¤t
Ġbef indet
Ġc a
ĠMet hode
ĠhÃ¶ ch
ter t
schie de
ĠFot os
ĠBru st
ro chen
Ġver ste
ĠZ ivil
ĠRe aktion
ĠGeb urt
ĠGehirn s
ĠSystem e
ĠBÃ¼r o
h y
sch n
Ġh andelt
ĠA k
ĠW esen
ĠC O
ĠIn vest
ĠAr zt
Ġher unter
Da her
yn am
Ġentde ckt
ĠOrganis ation
ĠBezieh ungen
ffiz ien
ĠKranken haus
Ġi s
ĠK er
Ġsch Ã¼tzen
Ġo f
Ġt aten
fol ge
ĠSe x
l en
p ar
r itte
ie ÃŁen
Ġm essen
it i
Ġge sp
le b
anz e
Ġbis her
ĠSchl Ã¼ssel
ĠGrÃ¼n de
ĠFrei heit
Ġdest o
g reifen
ĠB ienen
Ã¤n omen
ĠSt re
Ġst a
Ġwel cher
ĠFl uss
Ġeben so
v en
un Ã¤chst
ar f
it er
Ã¼r f
ĠH irn
ra k
Ã¤hr t
ĠEnt deck
Mensch en
R e
st ern
as chen
sch te
ĠM y
ur g
ĠK ur
ĠVer stÃ¤ndnis
Ġsp ielt
stell ungen
Ġgew Ã¶hn
Ġeinz igen
ĠBer g
ĠGer Ã¤u
Ġsel ben
ĠBeg inn
m t
Ġan t
ĠT ransp
ick s
ĠLie bl
Ġbetrach tet
ĠFlug zeug
ĠArchite ktur
Ġunterst Ã¼tzen
O b
st Ã¤
Ġm Ã¤cht
Ã¶ nen
ĠW arum
is ion
iv at
lie gen
ĠGes pr
ĠDro gen
n ehm
on ie
or n
ĠV o
wÃ¤r ts
ĠLi ste
KÃ¶n nen
Ġentwe der
i llen
t ag
Ġ Ã¤u
Ġe ffekt
Ã¼ gen
ĠS and
ĠL Ã¶
ĠfÃ¼ hlte
sel ben
dien en
ĠFar be
ĠAben d
Ġg rÃ¼
Ġbe an
ĠJ ungen
ĠSt unde
Ġher stellen
geb aut
ĠKlim aw
ĠberÃ¼ hm
ĠKÃ¶n ig
schir m
i for
o o
ie ls
st ag
ĠP unkte
ĠVer fÃ¼
ĠZeit punkt
ap t
ĠArt ikel
Ġlie f
ĠHer r
ĠBÃ¼ hne
Ġph ys
z er
Ġge troffen
Ġdass elbe
ĠH ar
Ġo pt
ĠN ame
ĠRe gel
lo se
An der
ĠMasch inen
Ġgrund legen
Ġd rin
ach tet
ung er
le bt
ĠIn genie
Ġdurch ge
ĠHer zen
ĠInter esse
Ġgu ter
ĠBehand lung
a ke
p assen
s uch
Ġs etz
Ġer leben
ĠT raum
ieren d
Ihr e
Ġerwar ten
Ġ Â»
ĠN un
ĠO kay
ĠAn al
Ġgu tes
ĠÃĸ k
Ġbel ie
Ġamerikan ischen
Ã¤ mpf
or gt
am b
il dern
ma ÃŁen
ĠErfahr ungen
ĠJahrhunder ts
Ġheut igen
k ur
k op
z ut
se h
be d
il ien
ĠIn se
ĠMu se
ĠLÃ¶s ungen
Ġhunder t
st Ã¼tz
Ġun ver
sch er
ĠE rei
ĠL ond
Ġmehr ere
Ġwen ige
Ġben utz
ĠMar s
Ġc ool
Ġbeh aup
Ġerinner e
ĠEngl isch
ĠÃĦr zte
ie te
ĠW eil
ĠP ass
ĠP oten
ĠT isch
Ġum ge
ĠEin kommen
rit ann
Ġjen e
ĠInd ividu
ĠGefÃ¤ng nis
un t
Ġn ahmen
Ġk n
ĠF inanz
ĠF inger
ĠN ational
Ã¶r p
rÃ¼ck en
gef unden
f assen
p lan
s ser
Ġa ktu
ĠS an
ĠB en
Ġsch icken
Ġsp richt
bar keit
ĠEinz el
en te
ei gt
Ġun ge
ĠS a
ur m
ĠF el
Ġso wie
ent lich
ist or
ĠGen e
ĠfrÃ¼ h
Ġverk aufen
Ġeben falls
g aben
v ie
Ġ on
hr e
ĠF akt
gn or
b rechen
Ġw Ã¼n
Ġw Ã¤hlen
el che
ĠW orten
ĠF en
Ġvor aus
ĠIn str
et ten
pt ion
ma ÃŁ
gr ess
ĠQu ad
Ġbeh andeln
Ġsel ten
ĠVerÃ¤nder ungen
ĠRis iko
i kt
s ichtig
ei en
Ġk rei
ĠM Ã¤r
Ã¶ se
Ġf Ã¤llt
ĠB all
ra struktur
ĠZ eiten
Ġp r
pro du
ĠÃĦ n
ĠWe ge
Ġehr lich
k rieg
ier ungs
rÃ¤ ge
ĠBer uf
ĠSo mmer
Ġ5 00
ĠKamer a
ifor n
g ien
l agen
in os
Ġh art
Ġk m
Ġeinfach en
ist isch
ĠTeil en
Ġjemand em
Ġerf unden
ai ls
Ġged acht
ĠMedikamen te
ĠVerantwort ung
A r
d ings
p rÃ¼
s eite
um or
ĠT he
is ser
ĠauÃŁer gewÃ¶hn
ĠBed Ã¼rf
Ã¼t ter
old aten
wend ung
Ġgescha h
Ġinte lligen
ĠErk ennt
f ter
k am
Ġw esent
or ganis
ĠA fghan
be wer
il t
ĠAu ge
alis mus
Ġunterschied liche
imen te
ritann ien
Ġd Ã¼r
ĠS er
au l
Ġer wei
ĠIn dustrie
ĠEigen schaften
Ġelekt r
zus agen
ĠLond on
p ekt
sch utz
ĠA hnung
ĠF unktion
ĠN ie
ĠJ apan
we ch
Ġko mme
Ġunglaub liche
ĠVol k
Ġk ultur
ĠK ol
ĠMÃ¤n nern
Ġexist iert
" -
b ald
un sch
ĠK reis
ĠL ernen
ĠT ieren
is iert
ĠH y
ĠVer gleich
ĠO K
we be
Ġverb ringen
ĠKomp lex
Ġkonzentr ieren
b ieren
te chn
Ġb ill
ĠW under
ĠÃ¼ber leben
ĠSch war
Ġ19 8
erst off
ĠStÃ¤d ten
prÃ¤ sent
Ġfasz inieren
ĠNÃ¤ he
ĠÃ¤u ÃŁer
en ze
st ieg
Ġn utz
rei b
ĠZu stand
Ġwunder bar
ĠÃ¶ff nen
ĠverrÃ¼ck t
ĠB ar
ieren den
Ġnach halt
Ġent sp
ĠWe sten
alis ierung
our n
ĠfrÃ¼ hen
ĠWer te
Ġlern te
b ol
b ritannien
f rage
t ra
Ġd ank
Ġz eich
au ert
ĠM ut
Ġf angen
Ġso bald
rau cht
Ġeigen es
ĠFre unden
ĠBi ologie
ĠChar akter
ĠInte lligen
ĠRelig ion
Ġe motion
st adt
ein er
ĠG lauben
Ġge gangen
ĠW ol
enn ung
Ġange fangen
ĠSchÃ¶n heit
A u
m asch
Ġun abhÃ¤ng
Ġi dent
it ionen
Ġt rifft
ĠSch utz
ĠPro jekte
Ġsp reche
ĠSp itze
ĠPh ysik
Ġkontroll ieren
ĠVerfÃ¼ gung
s eit
ĠW Ã¼r
hl ten
ĠAn tworten
ĠFre ude
ĠKar r
Ġur sprÃ¼n
sell schaft
1 9
a fen
b Ã¼
d as
ge g
Ġge he
ĠW ald
och ter
ĠKo mm
ĠReg ion
ĠDes igner
ĠÃĸ ff
ĠMaterial ien
u ster
ie lle
Ġf allen
Ġent stehen
rach te
Ġbeg onnen
ha ben
ĠhÃ¶r t
Ġen g
ĠWahr scheinlich
ĠGelegen heit
g ier
or gung
ĠI dent
ik as
ĠPro t
Ġher zustellen
Ã¤r m
ĠProdu kte
Ġries igen
Ġgescha fft
h ei
ĠG rad
Ġer zeugt
ieren de
Ġsein es
ĠUnter stÃ¼tz
ĠSchl uss
ĠgrÃ¶ÃŁer e
drÃ¼ck en
ĠSau erstoff
Ġw est
Ġe cht
an e
icht bar
Ġgen utzt
isten z
kon om
fÃ¤ lle
Ġglob ale
Ġch ines
Ġbeeinfl usst
ace bo
s inn
ĠB io
ĠW affen
ĠZ elle
op er
Ein er
Ġlie ÃŁ
Ġbrau chte
Ġ3 00
ĠgrÃ¶ÃŁer en
ĠWirtschaft s
ĠNu mmer
Ġak zept
ĠInf rastruktur
ĠJahrz eh
ĠKommun ikation
ĠErei g
Ġon line
2 0
ĠW or
ĠT al
ĠT ro
Ġauf genommen
ĠOr gan
ĠVerb indungen
halt ung
ĠGeschÃ¤ft s
ĠhÃ¤uf ig
I D
a in
ĠK rie
ĠT ochter
ne ten
ĠAr me
Ġre agieren
Ġ2 4
stell te
Ġwichtig sten
ĠÃľber leben
ĠStra te
ĠAt mo
setz ung
Ġerw Ã¤hn
Gen au
d re
o x
Ġk or
Ġk Ã¤mpfen
ĠM assen
le f
Ġbe zahl
Ġmit tler
ĠSch iff
ne tz
ĠC l
ĠFar ben
Ġpolit ischen
Ġerstaun lich
wohn er
ĠViel falt
ĠHig h
ĠPoliz ei
ĠFen ster
ĠW ider
ĠP al
Ġso gen
am i
ĠfÃ¼ hlt
lan ge
ett bewer
ĠKn ochen
sÃ¤tz lich
ĠermÃ¶ glichen
ĠÃ¼berras chen
ĠLeiden schaft
a ber
f s
h Ã¶
h ause
ge ht
ĠS uche
Ġn otwend
Ġwir k
ra el
eu tlich
ut lich
ĠO pfer
sa gen
Ġweiter hin
ĠAus druck
ĠUnter schiede
gesch ichte
E n
te xt
Ġf ehl
Ġver antwort
ri ffen
ĠKon s
ĠKl asse
Ġschl imm
zeich nen
ĠRÃ¼ck en
min ister
Ġbeeinfl ussen
ĠEntwicklungs l
Ġend lich
ĠGeschw indigkeit
J edes
r um
sch auen
at ter
ĠE p
ĠH Ã¤user
Ġl ust
ru g
he ben
Ã¼s se
ĠfÃ¼ hle
ĠAl tern
ĠKre ativitÃ¤t
ĠGroÃŁ britannien
ĠWerk zeuge
k ung
an a
Ġh andeln
Ġn Ã¶t
Ġb lie
Ġk enne
ĠM ehr
ĠP il
Ġo kay
Ġt yp
ĠAn satz
Ġent lang
Ġeinfach er
ist ische
wie sen
ĠPh Ã¤nomen
ĠPl ast
hol t
ĠGl as
Ġproduz iert
ĠPr ivat
ĠNahr ungs
ĠBÃ¤ ume
m el
w ahr
Ġd eutlich
st ab
Ġg ilt
ĠB u
ĠB ank
ĠK lei
le un
Ġl angen
ĠZ w
ĠO sten
Man chmal
Ġdort hin
Ġsei en
Ġvert rau
ĠKil ometer
Ġkompl iz
Ġh ielt
Ġn Ã¼tz
le cht
ver t
schl Ã¤
ĠGeh ir
ĠKl assen
ĠMon d
ĠSchl ag
ĠVers ion
tem ber
ĠTo des
ĠStand ard
N och
r enz
z ur
ĠS h
ĠL och
ĠV ari
Ġt ransp
und ament
ekt ion
art ig
ierte l
ak ten
ĠWe b
Dam it
ĠGefÃ¼ hle
f allen
g ra
Ġn ehme
Ġb uch
Ġk rit
ĠK Ã¶rp
Ġan al
ĠD el
Ġsch aut
ĠSp ort
ĠGew icht
Ġstell ten
Ġerlau ben
Ġa bst
ĠW al
op ul
br uch
ĠSchl af
Ġde fin
fÃ¼hr er
ĠTem peratur
gor it
N ehmen
d imen
s wer
Ġer stellen
ĠD enk
Ġver bl
Ã¤nder te
Ġentst eht
ĠAfghan istan
S A
k a
Â ł
Ġ Ã¤ndert
Ġg aben
ĠZ it
Ã¶r t
Ġko stet
Ġbeh andelt
umen te
ĠZusammen hang
ĠBeg riff
spekt ive
ĠStat ist
acebo ok
h ilfe
ge d
Ġzu g
ĠK unden
ĠH olz
ĠR Ã¤
ĠJ unge
Ġdar f
ot yp
Ġsp ezi
Ġganz es
ĠTe xt
ĠGesell schaften
Ġpolit ische
ĠMÃ¼ ll
H aben
ei tet
Ġk Ã¼rz
ĠF rank
ĠT el
ind ust
Ġda gegen
os ystem
Ġent schied
et ter
for men
ĠEin satz
ande ls
ĠProdu ktion
ĠNeur onen
vie w
ĠKarr iere
a cken
f isch
g ern
l aden
s eln
Ġk Ã¼nst
ĠP osition
ĠD av
Ġl eiden
Ġle gen
pf el
Ġverk auft
mÃ¶ gen
ĠTyp en
zw ischen
ĠVir us
Ġerfor schen
ĠZeich en
ĠBot schaft
d it
k auf
p fl
ĠS atz
sch rÃ¤n
Ġk rie
ĠA fr
ĠP e
Ġj Ã¼n
ik al
Ã¤n glich
Ġp assen
et r
ger e
Ġbet rifft
ĠKo hlen
alis ieren
ĠKar ten
ĠBed ingungen
Ġerh Ã¤lt
iforn ien
indust rie
b ank
c y
f it
Ã¼ h
Ġan d
ĠT im
and a
Ġr es
art ige
Er stens
ĠMater ie
ĠWerk zeug
ĠverÃ¶ffent licht
ĠDisk uss
f il
o ge
Ġa frikan
Ġi P
ĠG ang
ĠF acebook
be weg
Ġda vor
ĠSch rift
sp l
Ġall eine
Ġst eigen
ĠRe p
Ġsa ÃŁ
Ġweiter es
ok ument
ĠLebens mittel
Ġ19 7
Ã¤l te
Ġsol ch
ho den
ĠverfÃ¼ g
ĠKomplex itÃ¤t
o st
ĠS al
ĠW unsch
re cher
ĠO h
uf e
ĠAus bildung
Ġletz tes
ĠQu alitÃ¤t
Ġch em
ĠRes ult
ĠbenÃ¶t igen
ĠFortsch ritt
Ġverurs acht
Ġblo ÃŁ
Ġinvest ieren
ĠUnterstÃ¼tz ung
ĠAtmo sphÃ¤re
v el
y r
ten d
Ġha bt
ĠH aar
Ġsch n
Ã¤hr ung
Ġgew onnen
Ġbesch reiben
ĠGemein de
dig ung
ĠKont akt
ĠDr ittel
klÃ¤r ung
d ingt
ĠS oldaten
Ġh e
ĠP ort
ĠT itel
ĠÃ¼ber zeugt
ĠBe f
Man che
Ġentwick elten
gew icht
ho w
ĠKor allen
ĠAufg aben
ĠSek unde
Ġkommun izieren
Ġs Ã¼
st imm
ĠS zen
Ġver n
ĠZ iele
ot ograf
Ġsp Ã¼r
hal te
Ġbeg eister
wir ken
ĠAm eisen
ĠKlimaw andel
i mal
s Ã¤chlich
v ollen
Ġ us
Ġd auer
on g
Ġv ir
ĠA uss
ber eich
om at
zu bringen
Ã¶r dern
urch t
Ġkl ingt
spiel t
Ġscha fft
inde stens
ĠUniversum s
Ġlei der
elig i
ĠKlim a
ID S
or m
ĠB rie
ĠD is
ĠH eil
ĠH und
Ġum gehen
Ġ2 000
ap pen
schl oss
lo sen
ĠFern sehen
ĠZentr um
ĠÃĸk osystem
ĠInse kten
ĠIntelligen z
i pp
k n
Ġz entr
ar ch
ĠA bst
ĠW andel
ĠK op
ĠF eld
re u
ĠÃ¼ber zeugen
Ġneu er
ĠUnter such
Ġunbe dingt
ĠJu gend
Ġbuch stÃ¤
en der
ser v
am es
rÃ¼ck e
Ġr el
hin dern
ĠSe e
Ġverm utlich
Ġwunder schÃ¶n
ĠSter ne
ĠFÃ¤ llen
Ġlau tet
ourn al
dimen sion
Ġm erk
Ġh aupt
au ran
ĠF ach
Ġer fÃ¼
ĠSt Ã¤r
Ġre chten
ĠAu ft
ate ll
ĠMit glie
ĠZusammen arbeit
hÃ¤lt nis
ĠHinter grund
S eit
in ation
as i
ei ls
ĠB and
ĠB ud
ĠK ir
ĠE ind
ĠT rans
Ġo ber
Ġt rau
Ġt olle
ĠC ity
ĠÃ ľ
Ġheraus gefunden
ĠBl og
ĠauÃŁer dem
Ġvoll kommen
ĠOrganis ationen
aur ier
Ġdurchge fÃ¼hrt
f rist
h ar
ĠW ar
ann e
Ġdies elbe
os oph
for d
Ġverb reitet
ĠGen om
Ġ19 6
ĠHand y
Ġunterschied lichen
ĠHerausforder ungen
ĠBab ys
ĠJob s
imp an
ĠÃ¼bert ragen
ĠVo gel
c a
Ġk rank
Ġin st
ĠM ich
Ġge ha
ĠF ein
ĠSp ielen
stell er
In ter
Ġwieder um
ĠSchw ier
Ġfrag ten
ĠOb jekte
ĠGrÃ¼n den
Ġdre hen
ĠbeschÃ¤ft igt
Au ÃŁer
ĠWahrscheinlich keit
Ġs orgen
Ġs itzt
ĠS Ã¤u
ĠK Ã¤
ĠD eut
Ġver dienen
Ã¤n n
ĠSp iele
Ġbes itzen
ĠProblem en
ater ial
Ġsicher lich
Ġgest alten
Ġsel ber
ĠGesetz e
kre bs
fess or
ĠerklÃ¤r t
g ument
m ung
Ġ .
Ġwir st
ĠM c
Ġge fÃ¼hrt
ĠB al
ĠW est
le ge
ĠF abr
ĠI rak
Ġbe zahlen
ĠH under
Ġent w
Ġsp iel
Ġab sch
richt ung
ĠGroÃŁ teil
ehn t
fÃ¼hr ung
ĠbenÃ¶t igt
ĠPlast ik
Ġus w
ĠbuchstÃ¤ blich
S elbst
f Ã¤lt
l ing
u ll
Ġb itten
Ġzu k
ĠE i
ĠI st
ĠZ we
ĠSch merz
ĠC he
ĠRe d
ru f
ri d
Ġste cken
tern ehmen
spiel er
ĠLand wirtschaft
hÃ¶r t
fol gt
Ġerst es
pl atz
let te
ĠJe tzt
Ġerwar tet
ĠVert rauen
opp elt
Ġind ividu
ĠBas is
Ġa t
ĠM asse
Ġge langen
ĠB eine
is ation
ent wick
ĠSt off
ĠRe ich
ekt or
ĠMe x
ĠSte llen
zeich en
ĠschÃ¶n e
ĠnatÃ¼r liche
ĠzufÃ¤ llig
B is
N ie
ch tz
ie ÃŁ
Ġs u
Ġs inn
Ã¼ gel
ĠM obil
ĠW Ã¼
is ierung
Ġso zusagen
Ġander em
Ã¤t sel
ist ischen
Ġhin weg
ĠKon ferenz
Ġbest immen
fr ont
Ã¤cht nis
ĠkÃ¼ mmern
ĠstÃ¤r ker
ĠIdent itÃ¤t
f ert
g rÃ¶
r ing
ie llen
Ġm indestens
Ã¶ tet
Ġwer fen
Ġwo hin
Ġre prÃ¤sent
fÃ¼ gen
ad a
ha fte
ĠBild schirm
akt ionen
Ġho hen
Ġdre ht
ĠBro t
wissen schaft
Ġmoder nen
ĠdÃ¼r fen
Ġzuk Ã¼nft
a ir
p e
u h
Ġ &
Ġn ah
Ġder zeit
ĠA ffen
ĠG raf
Ġl Ã¤ch
ungs kraft
teil ung
ic e
ĠSte in
ĠMilliar de
Ġwissenschaft liche
ĠDien st
Ġm ot
ĠS orgen
ĠM Ã¶
ĠF o
Ġauf w
Ġt ra
Ġaus einander
ĠJ o
Ġent werfen
ĠRe de
Ġste ckt
spiel en
ĠzurÃ¼ck zu
Ġbet eil
Ġerinner t
Zwei tens
ĠLeist ung
ĠtÃ¤ glich
, "
s se
Ġw Ã¤chst
Ġh Ã¤ngt
al a
ier tes
ĠF est
ĠL os
Ġver le
ĠBe tt
Ġst olz
for schung
stell ten
Ġlie ber
lei sch
Ġverw ir
ĠKind heit
Ġfal sche
herap ie
ĠMuse um
inos aurier
C hr
D urch
m ann
w in
Ã¤ be
ĠD re
Ġver lie
Ġt ausende
Ġda ÃŁ
ĠBe ste
Ġr eligi
Ġ15 0
ĠÃ¶ffent liche
b and
i ste
m arkt
ch ern
Ġd isk
ĠG old
ĠK en
Ġver folgen
ĠR at
ĠR om
ĠN utzen
ĠSch n
ungs system
Ġinter agieren
ĠSta at
ĠForsch er
ĠGol f
Ġirgendw ann
g s
i ag
s h
Ġ rad
Ġe l
Ġein setzen
sch au
ĠB ildern
Ġer Ã¶ff
ĠT rain
Ġsch einen
ĠGe fahr
ĠC olle
Ġweiter en
ĠKon text
Ġglau bt
ĠCh in
ĠAu str
Ġverw andeln
Ġinteress anter
Ġte sten
Ġget Ã¶tet
Ġwe der
ĠStruktur en
jÃ¤hr igen
ĠÃ¼berras cht
ĠErinner ung
3 0
u ern
z eiten
Ġ ,
Ġi gnor
ĠS atell
Ġf ragt
Ġan s
ĠSch impan
ĠPro j
kl us
ĠGer Ã¤te
nit t
ausen den
ĠMode lle
ĠThem en
Ġperf ekt
ĠMot or
ĠtÃ¶ ten
ĠKa ffe
apt op
g abe
m acht
sch m
ur f
ĠE cke
Ġsch lie
ĠVer kehr
ad em
gel aden
alis iert
ib el
ĠOn line
ĠInstitut ionen
ĠÃĦn der
Ġhaupt sÃ¤chlich
M ir
f rieden
l Ã¶s
n issen
p ag
w eit
on om
ĠP aar
ĠD ir
Ġver ein
ĠT w
ĠT au
ĠH il
Ġl aut
ĠGe st
ĠSch wei
Ġwei ss
acht ung
ri z
ĠTeil chen
ĠAut or
Ġletzten dlich
pro gramm
ĠGegen teil
ink el
Ġhal te
ĠFÃ¼hr ung
ĠKal ifornien
ĠÃĸff ent
K l
M S
i dem
w ahl
an st
Ġm athemat
ĠE m
ĠF Ã¼r
ĠL ern
ĠR ahmen
Ġsch ick
Ġt ue
ut t
ĠSch au
Ġverb racht
Ġwichtig ste
Ġinteress ieren
ĠmÃ¶glich erweise
gende twas
ĠHeim at
k rank
l Ã¤ss
n immt
r y
ei ste
ĠS yn
ĠF ran
Ġsch lieÃŁen
ĠN orden
Ġaus sch
Ġgegen seit
ĠnÃ¤ch stes
ĠSe p
ĠWahr nehm
ĠBru der
ĠPrÃ¤si dent
Ġbegeister t
d ige
ar b
ber n
le g
ĠE ing
ĠI ran
Ġbe geg
ĠN ation
ĠO der
qu enzen
Ġ4 00
Ġvoll stÃ¤ndig
ĠgefÃ¤hr lich
ĠAktiv itÃ¤t
Ġvorh anden
ĠLiebl ings
ĠKohlen stoff
G ut
L etz
Ġ X
Ġd einen
at oren
ĠM os
ĠF ische
Ġaus b
Ġre gel
Ġgen er
Ġgew isse
ver stÃ¤nd
Ġbesser en
akt iv
ĠDe press
Ġeinge setzt
Ġversuch ten
ĠBau ern
jÃ¤hr ige
Ġgeha bt
b liche
ei der
Ġm er
ĠM eilen
ĠA sp
Ġf rage
ĠL iter
Ġver hindern
ĠV Ã¶
ĠV ision
Ġaus geb
ĠJ ungs
rei te
ing u
wo od
Ġges und
richt ungen
Ġschl immer
ĠBo ot
Ġschwar z
ĠChr is
Ġkre ativ
K o
h i
h men
h Ã¤user
Ġz unehmen
al te
Ġan twor
am t
ĠZ immer
ĠAu ÃŁen
ĠerzÃ¤ hle
ĠSprach en
ĠVerhalten s
Ġexist ieren
Ġamerikan ische
Ġbas iert
ĠGalax ien
b ahn
st au
Ġb ieten
Ġer ster
ĠD inosaurier
ĠT re
ĠGe webe
sp iels
ĠVer stand
Ġste lle
Ġgew isser
lan gt
ĠKo hle
ĠFil me
Ġwunder bare
Ġstar b
ĠVide os
Ġnormal en
Ġho he
Zu erst
Ġbemer kt
ĠEngl and
Ġvir tu
ĠÃĸffent lichkeit
ĠSep tember
b lichkeit
k le
s weise
y l
Ġd auert
ie ben
Ġs auber
Ġein sch
Ã¼ hr
ĠM aus
Ġg Ã¤be
ĠF leisch
am in
ĠH aufen
om it
Ġir gendetwas
ĠAugen blick
ĠMil itÃ¤r
Ġprakt isch
ĠNerv en
schu le
T he
a frika
s ver
Ġ Ġ
as ste
Ġein t
Ġein st
ĠP u
ĠH Ã¤nden
ĠR and
Ġsch Ã¶nen
ĠSt ift
Ġdurch schnitt
Ġunter scheiden
Ġarbei teten
Ã¤ng st
Ġte uer
kehr en
Ġabs ol
Ġunterschied lich
ĠBr enn
ĠElekt ro
ĠFr em
Ġhol en
Ġpr iv
Ġentw orfen
f ragen
p o
r ennen
Ġn annte
Ġk ennt
ĠM I
ĠG ut
ĠC on
ĠSp ekt
ech sel
Ġwen igen
fahr t
Ã¤d t
hin gt
ĠFol ge
Ġhunder te
ĠErkennt nis
Ġverantwort lich
d s
m utter
p ort
s wert
un ken
Ġm eist
Ġf iel
ĠB ras
rei en
Ġ3 5
utz er
pro blem
St att
ĠExper ten
ĠStr ess
Ġkur ze
ĠLauf e
ĠGespr Ã¤ch
chtz eit
e x
l y
n ehmer
Ġein iger
ĠS il
ĠM echan
ĠL og
Ġsch ien
Ġl inken
ĠVer letz
ĠIn ner
Ġle bte
Ġher r
olog isch
age ment
ĠGed anke
ĠPat ient
ĠSchwe ster
fÃ¤h igkeit
Ġschau te
ĠprÃ¤ sent
Ġbean tworten
ĠDav id
hingt on
i den
k an
z y
ich ard
Ġn eg
Ġk ap
ier er
Ġge halten
ĠW esent
ĠW ettbewer
ĠE he
ĠT er
eu cht
wer den
art igen
weg s
Ġmeisten s
Ġse xu
Ġbem erk
ĠElekt ron
ĠIs rael
ĠQuad rat
h te
k eln
Ġd ritten
sch rift
ĠW ill
Ġauf hÃ¶ren
Ġso mit
ĠH all
ĠN or
ĠkÃ¶n nt
hl ung
ĠO x
Ġnoch mal
ul ieren
ĠmÃ¼s ste
ĠGr as
Ġlie ÃŁen
Ġange sehen
ĠSo zial
no st
Ġwicht igen
Ġse tzt
ĠGl ob
ĠRest auran
Ġentst anden
vent ion
Ġentsp richt
r gend
s ichten
ie sen
ge geben
ĠM und
ĠL aptop
be wesen
ĠZ Ã¤
ag iert
ĠBe weis
Ġeigen t
ĠLie d
ĠDe b
ĠDe fin
Ġhal b
Ġhoff entlich
ĠTr end
mÃ¤ÃŁ ig
ĠKonfl ikt
b as
c is
h eim
p ret
ie tet
sch auer
Ġk om
Ġf otograf
ĠF ehl
Ġver gleichen
ĠH om
ĠSch ei
ĠIn nen
og nit
ĠSp r
ĠU N
ungs k
Ã¤u se
ĠLand schaft
Ġbek amen
Je de
ĠPh ys
Ġaller dings
ĠGegen satz
Ġerk annte
Ġerle bt
ĠMolekÃ¼ le
masch ine
ĠKÃ¶rp ers
L e
a he
f ische
ei ger
Ġk auf
ĠD en
ĠD unk
ig sten
ck ten
Ġmit ten
ĠC ol
ot h
et ing
Ġkl ass
ze lle
sam t
ĠCh ir
Ġber ech
Ġdenn och
ĠAl gorit
ĠSte uer
ĠMin ute
ĠSpiel er
hÃ¤ng ig
ĠTo i
sÃ¤tz e
ĠKat astrop
ĠPer spektive
Ġtot al
ĠIndividu en
d igt
Ġd ran
ĠS ehen
Ġz og
ĠM em
ĠA s
ĠF ig
ĠP fl
Ġsch m
us ion
ĠN ationen
ĠJ ournal
ab ei
Ġher gestellt
ĠIhr es
Ġgenau er
ĠExper imente
Ġho ffen
ĠRad io
echt igkeit
grupp e
Ġeffekt iv
ĠEind ruck
D en
D ort
m eister
p te
s ionen
t rag
an en
st Ã¤nden
ĠS amm
Ġn utzt
ĠM at
Ġf Ã¶rdern
ro tz
isch t
ĠR Ã¤tsel
Ġdem okrat
ĠAn w
ĠWas hington
Ġirgend ein
Ġmus st
gew alt
Ġschle chter
Ġro ten
ĠDi men
riff e
ĠMedik ament
Ġsta mmt
ĠColle ge
p ft
w achstum
ĠM omen
ĠA ma
ĠW ichtig
ĠK rÃ¤fte
ĠE ffekt
ol oge
igen d
ĠBe ob
ri ppe
ĠZeit alter
ĠGr enze
Ġbrau chten
ic a
Ġgel esen
ĠQu anten
Ġgest ern
wÃ¤r t
Ġersch einen
a tes
d lichen
f inieren
g yp
r asch
Ġz ahlen
es kop
ĠG anze
ĠW ellen
ĠK omb
Ġver f
Ġauf bauen
Ġsch lau
Ġl ernt
Ġt rin
ĠN an
ĠIn sel
og ar
Ġviel er
hm us
Ġpro gramm
eich er
Ġentwick elte
ord nung
ĠBeweg ungen
Ġbrach ten
ĠGleich e
ĠDiag ramm
ĠEntdeck ung
ĠGehir ne
Ġanal ys
ĠTw itter
F alls
T echn
a ster
v ard
Ġe chten
Ġzu zu
ĠM Ã¼tter
ĠG ar
Ġer finden
ĠP fer
Ġwie so
Ġt ausend
ĠO pt
os m
ri ften
Ġwel chen
Ġbrau che
onder e
ĠUntern ehmer
Ġstar ke
ĠForsch ungs
ĠMiss ion
Ġreduz ieren
ĠSatell iten
ich en
ĠA kt
ach er
ĠG as
Un ter
ĠT ie
ĠI mpf
re chte
Ġbe schlossen
Ġauf s
Ġauf gew
ĠSt immen
ĠRe chte
ak te
Ġschl agen
sk op
Ġverschw inden
ĠpersÃ¶n lich
Ġbezahl t
Ġrel ativ
Ġdisk ut
. ,
K ann
l d
u se
y se
Ġa g
Ġein deut
te st
ĠA tem
ĠG i
Ġo h
Ġt rÃ¤gt
ĠZ ell
ĠSch ne
rau chen
ĠEr leb
ru ption
et rie
ĠSp iegel
ers eits
Ã¤hr en
bar es
Ġverb rachte
Ġwahr e
ĠHin sicht
Ġnormal e
ĠKont in
ĠPolit iker
Ġbein hal
AuÃŁer dem
riz itÃ¤t
ĠBras ilien
E igen
l Ã¤uf
ĠS ens
Ġz unÃ¤chst
ĠB ein
ĠE lef
ĠF ett
he k
Ġverb reiten
ade l
ĠZu cker
ele v
Ġgest orben
Ġen gl
ĠGemein den
ko sten
ĠMet ap
ĠMet hoden
ĠVort eil
ĠFol gendes
Ġinte gr
ĠMil ch
Ġreich en
ĠGesundheits wesen
Ġstud ieren
Ġlust ig
ĠSchimpan sen
2 00
a ff
d ru
w agen
Ġ rÃ¼ck
Ġm Ã¤nn
Ã¼ te
Ġz eit
ĠF le
ĠF akten
ĠD am
Ġbe halten
Ġl as
ĠN A
rei sen
ĠC om
Ġvor ber
oll y
ĠZu hause
Ġstar ten
ĠLin ien
amer ika
Ġident if
O K
u mm
u ck
Ġf uhr
ĠK rise
ĠH yp
ĠVer br
rÃ¼ ben
ĠAn sicht
Ġab hÃ¤ngig
Ã¼n f
ĠAus maÃŁ
schl and
ĠSta ats
forder t
Ġkurz em
ĠFol gen
Ġkur zen
ĠDet ails
Ã¶pf e
Ġtie fer
ĠnÃ¶t ig
M ann
h am
j ahr
u x
w ach
Ġz ahl
Ġk Ã¶rper
au chen
ĠA spekt
Ġf Ã¤ngt
Ġge Ã¤ndert
ĠE mpf
Ġj Ã¤hr
ĠLe bewesen
Ġnie der
ĠKl ein
ĠKl ang
Ġverm ittel
ĠBuch st
ĠAt om
Ġhal be
ĠOrganis men
ĠGener ationen
ĠMikro ben
Ġschwar ze
Ġmedizin ische
ĠProt otyp
ĠkÃ¼rz lich
ĠAustr alien
ĠFran cis
? âĢľ
A b
h Ã¼
o sen
Ã ©
ar a
it t
ĠK rit
Ġan geb
ĠL aden
Ġver gangen
ĠN iger
ik e
Ġent gegen
Ġher an
ant as
ĠInter essen
ĠEx istenz
ĠgehÃ¶r en
ĠNetz werke
mÃ¶glich keiten
ĠWebs ite
ĠArbei ten
ĠElem ente
Chr is
S ind
m ehr
o c
Ġd rÃ¼ben
Ġm eiste
Ã¼ ge
Ġz Ã¤hlen
at ik
Ġf ern
Ġf Ã¤h
Ġge tr
um b
ĠT anz
isch em
Ġp ar
Ġwo bei
Ġle bten
Ġre icht
rach ten
Ġbeg renz
mer zen
Ġzusammen ge
ĠWei le
Ġ4 5
Ġgesch ickt
Ġde finieren
ohn t
Ġbeob achtet
ĠbeschÃ¤ft igen
ĠnatÃ¼r lichen
ĠKonfl ik
Ġopt im
Ġblie b
Ġzug Ã¤nglich
ĠDiskuss ion
K eine
b y
u be
Ġw echs
Ġe ure
st eigen
ĠS itz
Ġin form
au st
ĠW etter
ĠE d
um an
Ġbe schloss
Ġp asst
ĠPro fessor
ĠC ode
Ġent sprechen
ĠWelt raum
ĠVor fahren
ĠFl ag
atur en
olit ik
ĠTe x
mot ionen
Ġwissenschaft lichen
Ġaufre gend
I P
k r
Ġk omb
ĠG arten
ff er
Ġp lan
ĠBe weise
Ġdar stellen
bl iot
Ġre de
ĠUm feld
schein t
ĠAb schluss
ĠStr eit
Ġsprach en
Ġkomplex e
ĠIs lam
ĠzerstÃ¶r t
verb rauch
ĠTrÃ¤ ume
Ġmorgen s
Ġgrundlegen de
ĠGraf ik
ĠWahrnehm ung
O k
p art
an cen
st ung
Ġun gewÃ¶hn
Ġm ass
ĠB ri
Ġan wenden
ĠE motionen
Ġer scheint
ĠP ak
ĠD ach
om ben
ĠO ber
ĠAr men
ĠAn gel
ĠEr klÃ¤rung
Ġst eigt
Ġsp annen
ĠGesch lecht
ed ia
Ġverb indet
kl en
ĠArbeit spl
ate gor
Ġerk ennt
Ġdr am
ĠElekt rizitÃ¤t
ĠVir en
Ġtradition ellen
spiels weise
p on
t in
t ial
Ġd auern
Ġw uchs
on es
Ġh istor
ĠK urz
ĠSch ool
Ġdes wegen
ĠBe st
Ġst op
Ã¤t igkeit
ru fen
ĠGen au
Ġex per
Ġbesch leun
Ġfol gt
let ten
Ġenor me
ĠEntwicklungsl Ã¤ndern
ĠverfÃ¼g bar
ĠMI T
Z ur
p asst
t on
z on
on str
Ġb at
Ġzu t
ein bar
em ent
icht er
ĠA ch
ĠB lau
ĠW ik
Ġver schl
ĠT ausende
Ġbe wer
Ġl a
ehr en
ĠVer hÃ¤ltnis
Ġall gem
Ġkl in
ers agen
end ung
ĠEin fach
ĠKon se
Ġverw ende
sicht s
ĠQu elle
Ġausge st
ĠGed icht
umen ten
Ġaufzu bauen
ĠBes itz
wirk ung
ĠÃ¼br ig
ĠTest s
ĠMaÃŁ stab
ĠzerstÃ¶r en
ĠNachbar n
ĠKer l
Ġsetz te
ĠZit at
beweg ung
ĠSchwier igkeiten
Nie mand
B itte
k arte
m ark
Ġ 0
ge ber
Ġan nehmen
ĠF ischer
Ġer stellt
ĠP ersÃ¶n
re cken
Ġauf gebaut
ĠH ack
ĠSch atten
rÃ¤ umen
ĠÃĦ gyp
ĠKap ital
ograf ie
ĠWohl stand
ĠSol ar
ĠThe ater
Ġspiel te
ĠZwe ck
S ehr
T rotz
m ord
t alien
en ter
ei se
ĠS en
ĠA IDS
ĠL ang
ĠI mp
ĠV iertel
ol er
her r
Ġgew issen
ell es
ĠInter ess
ĠMit arbeiter
ĠPlan et
Ġschle chten
ĠFreund in
Ġlei d
ĠGrÃ¶ ÃŁen
ĠFÃ¤ lle
Ġru h
ograph ie
Ob wohl
Ġwesent lich
ĠerwÃ¤hn t
ĠKaffe e
Eigen tlich
Ġvermittel n
. Â«
H ey
g ibt
in o
Ġa bl
ĠS l
ĠS ei
ar ia
gen er
Ġb eit
or ient
Ġver halten
Ġum geben
Ã¤n e
ĠmÃ¼s sten
rÃ¤ ume
Ġzie ht
Ġhei ÃŁen
str en
ĠKre uz
Ġsol cher
ĠKor ruption
ĠBereich en
ĠAll es
spr uch
sprach e
ĠnÃ¼tz lich
ĠTim es
Ġmot iv
verstÃ¤nd lich
r t
Ġun end
Ġm iss
Ã¤ hm
em ber
Ġau ÃŁen
Ġg rau
Ġkann te
ĠVor stell
ĠAu ff
Ġscha ff
ĠKultur en
Ġfor men
ĠKap it
Ġwor Ã¼ber
ĠDN S
ĠNu ll
vers orgung
zÃ¼ glich
Ġenor m
Ġerg ibt
ĠErwachsen en
Ġw Ã¼
st u
Ġi de
Ġn erv
Ġzu sÃ¤tz
Ġin f
ĠM erk
Ġge p
ro t
Ġt reten
ĠSt au
ern e
ul en
ger Ã¤t
ĠOr ig
zie ht
ĠKl in
ĠBer echn
ĠSe ele
Ġrie f
Ġentde ckte
ĠUr s
ĠNeu es
ĠFern seh
ĠArchite kten
ĠNicht s
Ġwirtschaft lichen
ĠMex iko
M ail
a el
b i
f ir
j emand
n ach
Ã¼ lt
it iv
ĠB atter
Ġer setzen
eh lt
ĠR uss
Ġsch Ã¤tzen
ĠJ ul
ĠVer w
ĠC ent
ige m
ĠAn rei
anz Ã¶s
Ġst ill
Ġlang weil
ĠEnt fern
gehen d
ĠhÃ¶ re
ĠFahr rad
ĠDurch schnitt
Ġgro ss
Ġqu asi
ĠChem ie
Ġgebe ten
Ġschreck lich
ĠGerÃ¤u sch
ĠHar vard
ĠfÃ¤h ig
W e
a zi
r es
Ġi lle
al k
Ġer mut
ag o
ik alien
ĠSt art
ĠSch nitt
Ġvor ne
ĠBe stand
Ġst abil
Ġre al
inder t
ander t
ic ro
Ġmensch licher
Ġgel Ã¶st
ĠVerb esser
ĠGew inn
Ġverm eiden
Ġstatt dessen
ĠSitu ationen
Ġverbesser t
ĠErw art
Ġbein ahe
Ġinspir iert
ĠVerl ust
ĠGeheim nis
ĠZivil isation
ĠDeut schland
f rei
n chen
p el
Ġd ur
Ġh eil
Ġg eist
ĠB on
ĠD rei
ĠI ll
Ġbe weg
ĠÃ¼ber prÃ¼
ĠIn halt
Ã¶r en
Ġent stand
Ġger ing
ĠVor aus
Ġbet ro
ĠInter aktion
Ġgef angen
iss ionen
zieh ung
Ġro t
urop Ã¤
ĠBereich e
Ġwelch em
Ġunters ucht
ĠpersÃ¶n lichen
ĠArbei ter
ĠSign al
ĠBuchst aben
a ffe
l inge
Ã¶ pfen
le kul
ĠT onnen
ĠR iesen
Ġaus ger
Ġp oten
Ġvor an
ĠEr zÃ¤hl
Ġhin ten
ĠAus wahl
qu alitÃ¤t
Ġlang er
Ġlang frist
Je den
Ġschw immen
ĠpersÃ¶n liche
Ġnotwend ig
ĠDefin ition
G er
L eute
S e
l a
Ġd om
an tes
st on
te ls
ĠL es
Ġver sp
ĠT or
eu ern
eu ert
wei le
Ġher ein
Ġbes uchen
sam keit
ĠVor h
ĠFl Ã¼cht
fer nen
ĠGer icht
ĠTe en
ĠKam pag
ĠBed roh
zentr um
Nach dem
bes ondere
Ġunterst Ã¼tzt
Ġverg rÃ¶
ĠElem ent
ĠunabhÃ¤ng ig
ĠWesent lichen
W ei
r ichtet
u mmer
ie in
ar tet
at ische
Ġin dustrie
ĠD och
ĠL ungen
Ġver teilt
ĠT un
ĠT rag
il de
ĠAn teil
Ġst anden
gel assen
ĠWissen s
âĢ ŀ
Ġseit dem
ĠGroÃŁ mutter
Ġbesonder e
lÃ¶ sen
Ġschwier iger
ĠStu dent
Ġerw Ã¤
ĠPo st
spr ung
ĠRis iken
ĠkÃ¼ mmer
Ġfantast isch
grÃ¼n det
ĠPass w
Ġwest lichen
ĠStrate gie
b ieten
c om
g ing
h ung
o zi
t eile
v ol
ein halb
ĠW illen
am erikan
ĠR ichard
ĠZ ahn
lle ktiv
om atisch
ĠAn wendung
Ġhier her
Ã¤t ter
ĠSp ezi
ob ald
fl ug
Ġverst eht
Ġverst ehe
lei tet
Ġschl afen
ĠWer bung
if iz
ĠSÃ¼ den
ow issen
Ġerstaun liche
ĠberÃ¼ hrt
Ġbau ten
ĠOper ation
Ġdunk le
ĠAnder son
ĠNie der
ĠVÃ¶ gel
Ġbeinhal tet
B eim
d aten
n Ã¼
Ġd Ã¼n
in t
Ġw es
Ġm ut
Ġm ult
Ġh Ã¼
hr op
den kt
Ġf undament
ĠW urz
ĠK urs
ĠL ager
Ġbe weisen
ĠJ an
ĠSt ock
ĠGe gend
rei bung
ĠO ffen
Ġmein te
und es
Ã¶r ungen
ĠRe chen
et ik
Ġste uern
ĠKon gress
Ġleben s
Ġex pl
Ġbesch rieben
Ġfest stellen
dig lich
Ġerh ielt
fÃ¤h ig
ĠGu tes
Ġintern ationalen
ĠErinner ungen
ĠWor ld
ĠStÃ¤r ke
Ġeindeut ig
I rgend
M ehr
S ein
p ol
r ang
Ġd ra
te sten
Ã¤ sser
Ġb ietet
ĠE ier
ĠE chtzeit
ĠT eu
Ġauf nehmen
kt on
ĠSt ufe
wei te
Ġvor zustellen
Ġdar unter
Ġent hÃ¤lt
Ġsp Ã¤t
Ġste he
Ġbes agt
Ġkon stru
Ġko llektiv
ĠCh ic
ĠStu hl
Ġfor m
ĠPrÃ¤ sent
ĠPf und
drÃ¼ck t
ĠErk rank
Ġblau en
samm elt
Ġwirtschaft liche
Ġdigit alen
ime ter
ĠGalax ie
ĠFrÃ¼ h
Ġbelie b
wech sel
ĠKomm ent
lÃ¶s ung
ĠKomb ination
K on
K ein
b lichen
p ha
z ig
Ġs ucht
Ġs yn
Ġf urcht
ĠG ot
el ben
ĠB rÃ¼
ĠSch lei
Ġent fernen
Ġle diglich
Ġsp aren
Ġgen Ã¼
Ġlie fern
ĠHer ren
Ġpro fit
id a
oment an
ĠSchul d
bo den
ĠBel ohn
ĠChem ikalien
sta at
Ġet c
ĠInstr ument
ĠBedÃ¼rf nisse
Ġfaszinieren d
Ġvertrau t
P S
o ÃŁen
Ġs tet
Ġs ingen
as er
Ã¤ fte
ĠA lle
Ġge sellschaft
Ġge spielt
Ġge grÃ¼ndet
ĠK om
ĠP ingu
ĠI r
ĠR oll
Ġt rag
ĠZ auber
ĠÃ¼ber nehmen
rei f
ru str
et ische
rin ge
sa h
Ġweiter er
ha ften
Ġgef Ã¤llt
ma ck
lÃ¼ck licherweise
Ġsei d
Ġne ur
ĠÃ¤hn liche
Ġgemeinsam e
ĠKomp onen
Ġfolgen de
ĠRes pekt
ĠGeist es
Ġlok alen
Ġspezie ll
ĠPoten tial
ĠÃ¤uÃŁer st
ĠWol ken
ĠBrie f
1 0
b Ã¼r
b chen
b urg
i ppen
k reis
s um
Ġm in
ge schw
ir d
Ġin nov
ĠM ess
Ġge lebt
ĠW el
ĠW ild
Ġver ab
ĠH em
ĠV ern
Ġj unger
ag s
Ġar men
andel te
ide o
no se
ive au
ĠBi bliot
ĠPar ad
Ġleicht er
fess ion
ĠÃ¼berw inden
Ġkompl iziert
ĠPhil osoph
ĠHel den
ĠZuf all
grupp en
Ġkrei eren
gere gt
ĠHil fs
ĠFrancis co
ĠTeu fel
E nt
z um
z esse
in kt
Ġs ichtbar
as h
Ġzu ge
ben en
ĠB rÃ¼cke
ĠW inter
le y
Ġer z
Ġver Ã¤nderte
ĠT umor
ĠH ei
ĠH unde
ĠR ake
ĠfÃ¼r s
ĠC y
ĠO k
Ã¶r ung
Ġdurch s
ver mÃ¶gen
ĠzurÃ¼ck ge
ok us
ĠÃľber rasch
ĠMen gen
nit ten
lieÃŁ end
spro zess
Ġstatt f
ĠBau ch
ĠOzean e
Ġbr ill
Ġintern ationale
Ġmoder ne
ĠSym bol
ffizien z
Ġwirk liche
ĠEp idem
ĠMehr heit
Ġkrie gen
Ġdurchschnitt liche
ĠKontin ent
f ig
n ungs
ei er
ĠS kl
sch riften
Ġk ognit
Ġf il
ĠG ro
ĠK r
ĠK rÃ¤
ĠP rim
ĠT a
ĠR ot
ĠV ielleicht
be vÃ¶lkerung
Ġman chen
ĠBe tr
ang er
ĠEin heit
lie d
unkt ionen
Ġglau bte
ĠNe ben
Wie so
fahr er
ĠGrund lage
ĠgroÃŁart igen
Ġdrau f
wÃ¤r mung
ĠSicherheit s
Ġgrund le
ĠKÃ¼ ste
zw ungen
ĠJahrz ehnt
ĠDo ktor
Ġdahin ter
ĠErf indung
Ġakzept ieren
Ġtransp ort
Ġverbl Ã¼
g as
h ls
o le
in f
Ġa rab
Ã¼ hen
Ġb rit
Ġin nen
ĠA ir
ĠA llt
Ġver ring
Ġso viel
Ġsch einbar
eil ung
ĠSch Ã¤
ĠSch icks
Ġdies elben
ru h
Ã¼s sen
ĠGes amt
Ġverw andelt
ĠWei hn
Ġhei sst
Ġfunktion ierte
gr enz
ĠY ou
ĠJe der
ĠAktiv itÃ¤ten
Ġfasz iniert
Ġerwei tern
ĠJahrzeh nten
Ġgegenseit ig
ĠMomen te
- ,
E rin
L eider
h Ã¤ngen
Ġw Ã¼s
ĠM oral
Ġf roh
ber g
ĠW ein
Ġan genommen
is on
lle ktu
ĠN ase
ĠSch le
sp iegel
ĠAn im
ĠEr st
Ġviel es
ĠLeben ser
ĠmÃ¶ gliche
ĠEin stellung
Ã¼ck en
Ġgew Ã¤hlt
Ġzei gten
lei b
ĠAuf nahme
ĠBild ungs
ĠBl umen
ĠInter view
schei det
ĠMal aria
Ġmensch liches
ĠGer echtigkeit
ĠPl att
ĠGem Ã¤l
unk ten
ĠGed Ã¤chtnis
ĠGegen wart
los igkeit
ĠChr ist
Ġmedizin ischen
Ġpl atz
ĠerhÃ¶ hen
ĠFabr ik
ĠKen ia
W Ã¼r
k ungen
k rie
Ã Ħ
st ud
ei ern
ge samt
ĠS eh
ĠS am
ĠW Ã¤l
ĠK abel
ĠD amen
ig ste
re tt
Ġvor zu
Ã¶r m
Ġre alen
ri min
ĠZeit ung
zi pl
Ġbest Ã¤t
Ġhei ÃŁ
rupp en
ip s
Ġunglaub lichen
ĠVort eile
tel n
arbeit ung
ĠPf lege
ĠSign ale
Ġbau te
Ander e
ĠEreig nis
ĠStatist iken
ĠWÃ¼ ste
P ublikum
b iert
i ber
un ternehmen
Ġe ffizien
Ġm ark
ĠS tern
ĠG re
ur er
ĠT op
Ġl og
Ġl achen
Ġall gemein
hn t
ĠEn g
ĠUn gleich
Ġbes itzt
ĠWir kung
ĠGeb iete
ĠGem Ã¼
hol fen
Ġ9 9
Ġro te
Ġunbe k
Ġjen er
ĠInnov ationen
ĠSÃ¼d afrika
Ġelekt ron
ĠFortsch ritte
sto ffen
ĠTerror ismus
ĠNA SA
ĠPak istan
A l
G es
W elche
b ungen
f lekt
f Ã¶rm
m echan
u hren
Ġs enden
at astrop
Ġf Ã¤hrt
Ġg ra
Ġge schlossen
ĠB arr
ĠW echsel
Ġan sieht
ĠF liegen
Ġbe zeichnen
ĠH or
ĠR hy
Ġl Ã¤nd
be k
ĠSch ritte
ĠO pen
os h
ĠLe ktion
et tet
Ġar me
Ġbesser es
Ġgef allen
ĠÃľber zeug
Ġfal schen
ĠGesicht er
ĠNeur owissen
erstÃ¶r ung
lin ie
ĠSym pt
ĠBill ionen
Na ja
ĠÃ¼berraschen d
ĠTel eskop
ĠUntersuch ung
ĠKir che
ĠLiter atur
ĠDunk el
ĠErleb nis
ĠChic ago
D ollar
f ar
n Ã¼tz
t age
an c
ge setz
sch icht
es ie
Ġzu st
it ation
Ġin tens
ĠW elten
ĠP an
ĠT rau
ĠT ief
ĠT radition
Ġl eiten
ĠÃ¼ber legen
rei be
sp ar
ne y
Ġdar gestellt
Ġwei ÃŁen
ul pt
Ġkon front
Er st
sam en
ĠBl att
Ġbede ut
ĠEx p
ĠPh ot
ĠInform ations
ĠRo h
Ġ7 5
ĠKrieg s
Ġbeko mme
Ġgrund sÃ¤tzlich
ĠErd be
Ġanf ing
Ġaut omatisch
ĠWebs eite
ĠStamm zellen
ĠTransp ort
Ġbehaup ten
Ġzeich nen
bÃ¼ cher
ĠRuss land
b eln
k or
k al
l im
m ar
o ÃŁ
w en
ĠS how
ĠA str
ĠW agen
ĠD at
Ġsch ne
Ã¶n t
ĠJ un
and id
ĠRe ch
Ġsp ringen
Ġdurch fÃ¼hren
ĠUn i
ĠEin stein
Ġhin unter
rÃ¤ ger
ver halten
Ġzusammen zu
reich e
Ġwill st
Ġex tra
Ġgeb raucht
ĠHin dern
mittel n
zei gen
ĠFol ie
ĠBes onder
Ġperf ekte
ĠiP h
Ġdauer te
ĠSÃ¤u get
Ġaufgew achsen
ĠElef anten
Ġwechs eln
ĠAngel es
ĠGot tes
A ch
D abei
E x
d am
m ensch
Ġ ra
st ar
Ġm och
sch iff
Ġzu frieden
ĠM io
ĠA ss
Ġf ingen
ĠB em
ĠB ur
ĠP aten
ĠL ab
Ġver z
ĠT om
ĠT our
ĠT heor
Ġso was
Ġaus gew
ĠÃ¼ber ein
Ġwo fÃ¼r
men ge
bst off
fl iegen
ler nen
pro bieren
ktiv itÃ¤t
Ġ6 00
ib an
Ġbeob achte
ĠSter nen
ĠTr ick
ĠfÃ¼hr ten
ĠFÃ¼hr er
Ġrei sen
ysik al
Dam als
ĠLÃ¶ cher
ĠMetap her
S eine
S ystem
a hnen
o ber
der t
se e
ĠP aul
ĠH unger
Ġl anden
Ġt he
Ġt rans
ĠN utzung
ĠSt ahl
Ġbei bringen
ĠUn fall
ze pte
ĠCh ancen
ĠVor stellungen
ĠZu schauer
qu elle
Ġbek annten
ĠAb sicht
ĠVerb rechen
no ten
halt igkeit
ĠGemein schaften
Ġerw achsen
Ġverschw unden
ĠMag az
ĠPrinzip ien
wissen schaften
Ġdigit ale
Ġbemerken swer
Ġposit ive
ĠGeburt stag
ĠAfr ikas
ĠResult at
Ġmer ken
antas ie
S ogar
W or
p hen
Ġd rÃ¼cken
ge fÃ¼
sch Ã¤tzen
or es
ĠG anz
ĠP ri
Ġum her
ĠO kt
ĠAn nahme
Ġbei spielsweise
Ġ2 3
Ġzwei mal
Ġber ichten
ic s
Ġ200 8
Ġverk nÃ¼
Ġstar ben
Ġvert rauen
Ġgemeinsam en
Ġblau e
Ġlok ale
ĠMolekÃ¼ l
Ġtra fen
schm utzung
Ġbemerk te
A mer
a ckt
Ġ ult
st eh
Ġa chten
Ã¤ tzt
ĠD ia
ĠT ri
ste chn
Ġum s
ĠIn spir
ĠBe vÃ¶lker
Ġdurch zu
Ġunter en
Ġbes orgt
Ġverst and
ĠUnter haltung
ĠSk ulpt
Ġph ysikal
ĠDar stellung
Ġschwar zen
beh Ã¶r
Ġkosten los
ĠÃ¶ k
ĠÃ¶ konom
Ġafrikan ischen
ĠAuss age
Statt dessen
Ġtrin ken
D anach
k arten
m essen
t Ã¤u
Ġh ielten
Ã¤ hl
Ġge holfen
ĠT Ã¶
ĠH andel
Ġo k
Ġdar stellt
ĠWelt krieg
ĠSp ann
bar er
Ġselbst verstÃ¤ndlich
ĠAus stellung
Ġirgend jemand
ĠPh ase
ĠhÃ¶r ten
Ġal tern
hol z
ib iot
Ġbeein dru
ĠSk el
ĠBes uch
Ġkomplex en
Ġspezie llen
ĠKan ada
leist ungen
schn eiden
Ġsogen annte
wahr scheinlich
cy c
ĠNiger ia
azi f
ĠgenÃ¼ gend
E twas
S obald
a os
e p
i h
l ager
m uster
z n
ei det
Ġm echan
sch aut
Ã¤ um
Ġb aut
ĠM ult
ĠA ktion
Ġg Ã¼nst
ter e
ĠB undes
ĠE mp
ĠF lie
Ġer m
Ġer he
ĠP opul
ehr t
ĠN oten
Ã¤n ner
om be
ĠVer wand
ĠO hren
ĠAn wend
Ġst Ã¤dt
Ġle be
ats Ã¤ch
ran che
Ġverl ang
ompu tern
dien st
orden tlich
Ġsozi al
Ġoffen en
ahn sinn
ĠStr and
Ġlangsam er
Ġbi ologische
leist ung
zwei f
Ġis ol
Ġsta at
ĠgrÃ¼ nen
ĠAs ien
ĠVorstell ungskraft
ĠTeen ager
G anz
G roÃŁ
S ol
i as
m odell
p reis
s es
Ġ enden
ch tern
Ġw isst
Ġe uropÃ¤
st Ã¶
ĠS MS
Ġn annten
Ġwir ken
ĠA c
Ġan hand
ĠL achen
ĠT reib
Ġso lange
ĠV Ã¶lker
Ġt reiben
Ġt atsÃ¤ch
Ġj ung
ĠJ ames
and t
il en
Ġvor ge
Ġent halten
ĠRe tt
ul iert
Ġ2 2
ĠGesch enk
Ã¼ck e
Ġheraus f
Ġeinige s
Ġbet reiben
zÃ¤ hlen
ĠBer icht
ĠweiÃŁ e
ĠAb fall
ĠReg ionen
Ġbesch rÃ¤n
Ġgeb rochen
ĠMÃ¤n nchen
Ġerk annt
Des wegen
Ġkonzentr iert
fre und
ath ie
Ġorganis ieren
Ġdunk el
Ġverste ckt
ĠKlassen zimmer
ged acht
Ġsu per
Ġantwor tete
Ġstop pen
ĠMerk mal
Ġbetro ffen
ĠKampag ne
ĠSchicks al
N A
R eg
T ube
g roÃŁ
Ġd ynam
ge sellschaft
on y
ĠS amen
ir itu
ĠA lt
Ġf ehlt
Ġver glichen
is ierte
Ġsch we
ĠV en
kt ionen
ĠZ ent
ĠSt ad
ĠSch aden
ĠIn s
ĠO st
ĠAr gument
rÃ¼ stung
Ġnach ts
Ġnach gedacht
Ã¶r tlich
tzt lich
Ġunter richten
fÃ¼ llt
du ktiv
ster ben
rit tens
Ġzusammen arbeiten
akt or
ĠReg ierungs
Ã¤lt igen
ip edia
Ġverk auf
kehr t
ĠÃ¶ffent lich
ĠKap itel
Ġwor auf
ĠHo tel
Ġfr em
Ġwert voll
ĠSonnen licht
Ġposit iv
Ã¤st h
ĠErn Ã¤hrung
ynam ik
ĠEreig nisse
ĠWider stand
ĠFrank reich
Ġbeteil igt
ĠDeb atte
ĠAma zon
ĠPrÃ¤sent ation
b ringt
n ommen
p unkte
u ls
Ġ $
an al
st anden
Ġh Ã¤ngen
Ġk op
Ġwir kt
ĠG rippe
ĠE th
ĠF utter
sen s
ĠT it
Ġvon einander
am our
Ġsch reibt
Ġl and
ĠZ er
Ġwo her
Ġ1 000
Ġre chte
Ġre par
we ich
Ġhin auf
ok uss
ĠUnter richt
Ġange t
erson en
pl os
ĠQu ellen
Ġausge setzt
ĠMan gel
mit tag
son dern
Ġfrei en
lin ien
ĠMot iv
ĠSonnen system
ĠDies es
Ġmoral ische
ĠGerÃ¤u sche
ĠMÃ¤r kte
Ġtrau rig
Ġbegeg nen
ĠRestauran t
olly wood
J emand
d liche
l ad
o berflÃ¤che
Ġs uchte
Ġe w
on ien
ĠS m
Ġder selben
ĠM eine
al ent
ĠA st
ĠA lex
ĠF okus
ĠP en
ĠP ra
ĠT ab
Ġbe wirken
ion s
am s
Ġum fassen
Ġp ri
ĠGe orge
ĠVer d
ĠAn fÃ¼hrer
Ġre agiert
Ġ2 7
Ġeinfach es
gel t
schein end
ĠUnivers ity
ĠBo ston
ĠY or
ow n
ĠPar is
ĠEigen t
ĠFrei will
Ġteil weise
ĠMag ie
ĠSy mm
ĠJahrzeh nte
ĠRÃ¤ ume
ĠWettbewer b
iein halb
geschw indigkeit
Ġgrundle gend
B o
S c
f rau
l esen
t eils
Ã ľ
Ġd oppelt
in al
Ġs ystem
Ġun mittel
Ġh eilen
Ġz it
ĠA p
ĠG PS
Ġge lie
ĠK oll
ĠL a
ĠT ur
ĠSt an
ien ce
rÃ¼ che
ĠSp an
Ġneu gier
Ġglau bten
geb iet
Ġbet rieben
Ġbek annte
Ġirgend eine
ĠSchl acht
ĠKind es
ĠMus iker
Ġwenig stens
Ġen tz
ĠSpiel zeug
ĠVers uche
ho f
Ġansch aut
Ġverd ient
Ġweltw eiten
Ġgro sse
ĠverÃ¶ffent lichen
imul ation
Ġgek auft
ĠerhÃ¶ ht
Ġreduz iert
ĠArme e
Ġvergangen en
ĠEntfern ung
Ġwes halb
ĠYou Tube
ĠiPh one
h ir
m anden
o der
p flanzen
t ragen
u ar
v an
Ġd ick
un klen
ĠS el
Ġn ett
ĠB eit
ĠK ategor
Ġer geben
ĠL ad
Ġbe zÃ¼glich
ĠV oll
be kommen
Ġj ahr
il itÃ¤r
om as
ĠC omputern
ĠRe zept
Ġgen ieÃŁen
ĠZeit raum
wer ken
Ġbes essen
ster o
ĠCh aos
Ġbest and
ĠFl Ã¤che
ĠFl Ã¼ss
ĠHand ys
Ġgel ang
Ġins besondere
ĠRo ck
Ã¤tz ung
Ġfol gendes
ĠAt lant
Ġhal f
ĠBi om
ĠAnt ibiot
ĠProgramm e
ĠgrÃ¼n den
ĠRu he
ĠStat us
ĠPoten zial
Ġres pekt
ĠAsp ekte
ĠBibliot hek
D rei
G leich
c in
un ruh
Ġm omentan
Ġbe enden
Ġl Ã¶
Ġl ande
ĠZ erstÃ¶rung
ag te
ĠÃ¼ber qu
ĠSch icht
Ġmehr eren
Ġr isk
Ġr elev
Ã¼n der
Ġar m
Ġvers orgen
Ġverst Ã¤r
ĠAuf nahmen
ĠNach haltigkeit
pro v
Ġern eut
ĠStÃ¼ck e
amp e
Ġfolgen den
ĠPr esse
ĠSchwe den
Ge sch
ĠZwei fel
Ġschau ten
ĠChar les
ĠverÃ¶ffent lich
Ġkontroll iert
ĠMark eting
ĠInstr umente
ĠKrie ges
ĠspÃ¼r en
ĠFein d
ĠPersÃ¶n lichkeit
K inder
w inkel
Ġd ienen
Ġein geladen
Ġh ieÃŁ
Ġk alt
it s
au ten
ĠM icro
Ġge le
Ġan g
Ġan gen
ĠD Ã¶r
ĠSch wer
scha fft
Ã¤t te
hal ts
ick et
ang s
Ġunter wegs
fl u
iz ont
Ġpro fession
Ġpro duktiv
ĠWei s
Ġ19 4
Ġverl iert
fÃ¤ llt
Ġmo dern
Ġor gan
ĠDar win
Ġinte llektu
ĠSicht weise
Ġgeh ei
zÃ¼ ge
Ġhinzu fÃ¼gen
ĠHÃ¼ hn
ĠProte ine
Ã¶rder t
ĠFakt or
ĠursprÃ¼n glich
ĠKlei dung
Ġmerk wÃ¼r
ĠDepress ion
ĠSchne e
pon ent
ĠWik ipedia
ĠKonse quenzen
ĠGemÃ¤l de
ĠBevÃ¶lker ungs
F l
W el
b ie
d ro
h Ã¤ngt
t Ã¤
u gen
z ten
Ġd okument
ĠS uch
ĠM ach
ĠA kte
ĠB eute
Ġauf geregt
ĠN adel
ĠSch alt
Das s
ot s
ob el
fl Ã¤che
gel Ã¶st
ster blichkeit
Ġwieder holen
Ġnie manden
war d
Ġletz ter
eich ern
Ġange ht
ĠSo zi
Ġbedeu tete
ate in
ĠGer Ã¼
ĠÃĦ ra
ĠDe cke
spro blem
Ġhinter lassen
berfl Ã¤chen
Ġwor an
Ġ25 0
ĠKranken hÃ¤user
Ġhil f
ĠKamer as
Ġbas ierend
Ġverurs achen
ussen dlich
Ġ201 0
ĠDimen sionen
ĠCy ber
D arum
N ormal
W elt
b ilder
k Ã¼n
l Ã¤nd
s u
v in
w ald
Ġw id
an dern
st itut
ĠM el
de cken
ĠA stero
ur ce
Ġge bl
ĠW itz
ĠE hem
Ġt rug
ĠN est
ĠVer kauf
Ġwo von
ĠRe aktionen
Ġre ch
Ġger ettet
ha f
Ġleben dig
io x
ĠKre dit
Ġgar ant
ĠGebÃ¤u den
ĠRicht ungen
Ġentscheiden d
Sp iel
Ġdein er
ĠAlter s
ĠhÃ¶her e
ĠKur ve
techn ologie
schlÃ¤ ge
Ġzunehmen d
ly mp
ĠTie fe
ĠErwart ungen
5 00
B er
M ich
V ideo
b ack
b ilden
g ste
t akt
er in
Ġd eut
Ġd iag
ir bt
sch reiben
ein s
at ischen
ĠM ass
ĠM art
ĠM eister
se her
Ġver an
Ġbe zeichnet
Ġbe unruh
ĠJ ung
ĠVer fahren
ĠIn tern
ill ionen
Ã¤r me
end es
ĠEin s
itte lt
auf nahme
Ġber Ã¼ck
ĠKl av
erk ennung
ho ben
Ġeinge fÃ¼hrt
ron t
Ġerf assen
ĠGesicht s
kÃ¼ ste
ĠTeam s
ĠWachstum s
del n
Ġinspir ieren
abil itÃ¤t
ĠDet ail
Ġumzu gehen
wart ung
ĠStre et
ĠEntdeck ungen
ĠWÃ¼r de
ĠZw ischen
Ġeigent liche
ĠPhys iker
Ġvorber eitet
ĠHyp oth
ĠVerbr eitung
ĠÃľberrasch ung
ĠJun i
ĠInspir ation
B G
g ut
i at
i pl
v ater
v iele
z ir
Ġs eht
Ġm ikro
ir e
ir gend
ĠA th
Ġf okuss
Ġge zogen
ĠW h
Ġan passen
ĠP rÃ¼
ĠT oten
Ġmit tels
Ġsch merz
ste te
ik ations
ĠSch m
Ġuns ichtbar
ĠVer lauf
ĠAn geb
Ġle gt
schaft ler
we llen
ĠGesch Ã¤fte
Ġko mm
ĠHer stellung
ĠAu ÃŁer
ĠGeb rauch
ĠSte ve
Ġwunder baren
ĠGegen den
Ġschwier ige
Ġdein em
rim ine
ĠPsych ologie
ĠgrÃ¼ ne
Ġgrundlegen den
ĠFakt oren
ĠwÃ¼n schte
Ġelektr ische
Ġdefin iert
ĠMobil te
ĠAlgorit hmen
ĠGemÃ¼ se
ĠErdbe ben
I mmer
P l
d ach
m on
s icherheit
Ġe volution
Ġa d
ĠM r
ĠM as
ĠM ale
ĠG anzen
ĠB IP
ĠD okument
ĠL eiter
Ġsch ul
ĠN ur
ĠN Ã¤hr
Ġaus geben
ĠSt imm
ĠSch ok
rei ft
Ġvor hin
ĠAn stieg
ĠEn d
ĠUn ser
for dern
Ġbes uchte
Ġbeg reifen
sam e
Ã¼n den
ĠTeil nehmer
Ġdrei dimension
ĠPh o
pro zess
ĠBo x
th ese
zeich nungen
ĠMet all
mit glie
ĠSu b
Ġbeein druck
schnit tlich
zÃ¼ g
stÃ¼ck e
Ġinvest iert
ĠErwachsen e
Ġkn app
ĠMich ael
ĠChin esen
Ġgetr ennt
ĠFlag ge
ĠDunkel heit
ĠTheor ien
m esser
Ġm el
sch ten
Ġz Ã¼
Ã¤ den
or a
or y
el en
ĠW ahlen
Ġden selben
ĠD sch
ĠD ial
ĠT reffen
ĠT aschen
ĠH al
ĠV iele
be tes
Ġaus ser
ĠSt Ã¤
ĠÃ¼ber sch
Ġp rÃ¼
anz t
Ġmach st
Ġle hren
Ġsp Ã¤ten
ĠAus gang
ĠAuf bau
eich ert
ĠweiÃŁ t
Ġbek Ã¤mpfen
Ġleben den
An statt
ĠSchu he
Ġern Ã¤hren
schnit ts
han a
ĠEigen schaft
gn Ã¼gen
Be vor
Ġru fen
Ġstud iert
Ġspezie lle
ĠHig gs
ĠAnge legen
Ġgenet ische
ĠIngenie ur
ĠEi sen
ĠBedroh ung
ĠWeis heit
H all
Z unÃ¤chst
e ter
e ct
h st
k st
k Ã¶rper
p ark
ĠS Ã¤
Ġn eigen
au men
icht um
Ġf e
ĠB an
ĠB ord
ĠW icht
ĠK art
Ġan halten
Ã¼r en
ĠI talien
ĠH itze
Ġaus s
ien s
Ġvor sichtig
ĠAr zn
scha ff
Ã¤ch er
ger t
Ġlie bte
ichte te
ĠzurÃ¼ck kehren
Ġwahr nehmen
ĠBer ge
Ġinteress anten
Ã¤h ern
ĠEx trem
Ġstar ken
Ġanzu sehen
system e
ĠGener al
ĠAnt i
Ġentf ern
ffiz ient
ĠIs land
Ġgro ssen
zus p
Ġfantast ische
ĠNachbar schaft
ĠIngenie ure
produ ktion
Ġsogen annten
ĠKons um
ĠDenk weise
ĠerfÃ¼ llen
Ġober en
Ġat men
ĠProj ekten
ĠÃĦnder ungen
ĠZÃ¤ hne
Ġkauf te
ĠOpt im
ĠverblÃ¼ ffen
D H
L asst
O hne
W ann
b rech
d i
g Ã¤nger
h euer
k ultur
t ion
Ġ Ã¤r
Ġw Ã¤r
Ġs Ã¤
Ġz Ã¤hlt
ll ung
ĠM isch
lich keiten
ĠB ang
ĠE hr
ĠD an
ĠL aufen
ĠSch ild
ĠSch merzen
ĠC enter
ĠIn iti
Ġbei gebracht
rin k
Ġkon sum
ĠProblem s
ĠFl Ã¼gel
ĠWei bchen
ĠMed ium
Ġschl ug
ĠRei hen
Ġwunder voll
spro gramm
ĠAng riff
Ġc m
ĠUr sprung
Ġna ja
ĠPo llen
ĠAben te
Ġbemerken swert
ĠerklÃ¤r te
ĠBrust krebs
ĠAnal yse
ĠauÃŁergewÃ¶hn lich
Ġdank bar
ĠAfr ikaner
Ġchem ische
Ġplan en
ĠÃĦgyp ten
ĠlÃ¤nd lichen
Ã¶nt gen
A ut
K urz
b an
b rauch
i ls
o h
s un
in ess
Ġs ens
Ġs org
Ġm ent
ĠS ing
Ġh arte
Ġb rechen
em in
der m
le icht
ĠF unktionen
ĠP osit
ro ht
ĠL o
ĠI mmun
Ġso weit
ÃŁ ern
ĠR uf
ra un
ra tet
ĠN iveau
Ġaus machen
Ġvor n
ĠAn ruf
Ã¶r tern
ĠEn kel
ĠWelt bevÃ¶lkerung
ĠGesch mack
Ġbes ucht
des ign
ĠUm stÃ¤nden
ĠWasser stoff
akt oren
ĠAb s
Ġges unden
ischer weise
Ġbesch reibt
fÃ¼hl t
Sch lieÃŁlich
ĠWissenschaft lern
Ġ200 7
Ġschwer e
ĠSchul ter
kon omen
ĠHin blick
av en
Ġwor um
ĠKat ze
Nicht s
Ġtechn ischen
Ġerfor scht
Ġgenet ischen
stau sch
ĠInner en
Techn ologie
stu hl
ĠLebenser wartung
ĠYor ker
B et
N e
S oll
f ung
k ap
v iert
Ġ Ã¤lte
ei ben
te x
Ã¼ d
Ġh ind
Ġk oll
ĠM or
ĠE t
ig ht
ĠT in
Ġbe herr
Ġsch ock
Ġl in
be g
ĠJ ack
ff ekte
Ġp f
tw ick
ĠC amp
Ġst re
ot a
og ramm
ap pt
Ġgew ann
ĠKon go
Ġgem essen
Ġger e
ĠBl ock
Ġex ponent
Ġverschieden er
gehen sweise
wir kt
ĠSystem en
Ġ6 5
so ft
ens eits
ĠSu bst
ĠRicht ige
ĠOb ama
ĠglÃ¼ck licher
ĠKn ie
Ġjen en
Ġbl ind
ĠBro w
ĠTerror isten
ĠGespr Ã¤che
ĠSa al
Ġkultur elle
oper ation
ĠChe f
Ġberech nen
ĠwÃ¼ tend
ĠSympt ome
Ġkonfront iert
" ]
D em
T e
d ringen
Ġun vor
ĠS orge
Ġz we
Ġge zwungen
ĠL eid
Ġmit nehmen
ĠN utz
ĠkÃ¶n ne
ĠVer m
Ã¤ch eln
ab l
ĠLe vel
Ġviel mehr
rin zip
Ġange hen
ĠAut om
gef allen
âĢ Ŀ
ĠSystem s
ĠÃĦ l
ĠRei sen
Ġgest artet
alis ierte
ĠGesundheit ssystem
Ġho her
ĠNeu igkeiten
ĠberÃ¼ hren
Ġfr anzÃ¶s
Ġbi ologischen
Ġkre ativen
Ġernst haft
ĠhÃ¶ch sten
ĠInvest itionen
Ġchines ische
mel zen
stimm ung
ĠlÃ¤ch er
ĠTrain ing
ĠSpekt rum
ĠSpr ung
ĠGi pfel
ĠHack er
Ġnerv Ã¶s
ĠAntibiot ika
ĠKlav ier
B l
G ibt
W ahr
a mmt
b rochen
d y
f assung
u en
v ir
z iel
Ġd unklen
Ġe th
an lage
Ġh assen
Ġf oss
Ġer l
ĠL inks
Ġver folgt
Ġwie viel
hl end
Ġda zwischen
ĠVer wendung
ĠVer gnÃ¼gen
ĠO berflÃ¤chen
Ġall tÃ¤
Ã¤t ten
fach e
fÃ¼ hlen
ĠEin richtungen
che ster
Ġgew iss
Ġko mmer
pp ich
ĠAus nahme
ĠzurÃ¼ck gehen
ĠMe tern
Ġgel assen
ĠÃĦ hn
Ġbesonder en
ĠAmer ikan
Ġern euer
ĠDi pl
ĠBeh inder
ĠGleich gewicht
opp el
ĠÃ¶ fter
ĠKu h
sto ÃŁen
Ġwinz ig
Ġwinz igen
Ġvisu elle
Ġkor re
ĠAltern ative
Ġvern Ã¼nft
ĠMitglie der
Inter ess
rid ge
Ġsinn voll
ĠChir ur
Ġidentif izieren
ĠJan uar
Ġdiag nost
- -
F rauen
H eutzutage
O ffen
k ord
w Ã¤hlen
x is
ch tet
ch ite
Ã¼ ter
au cht
Ġge te
ĠB ibel
Ġan stelle
ĠE uch
Ã¼r zen
ĠH ir
ĠR itu
ĠV ag
Ġt r
Ġman ip
ĠGe fangen
ĠSch reiben
iv es
ĠC art
ĠEr ste
Ġst irbt
rie bs
Ġsa ÃŁen
Ġab gesch
geb iete
Ġwen den
Wie der
ha i
ĠGeb ur
utz end
Ġmus ikal
ĠÃľber wach
ĠMus l
Ġal ter
ĠMa mm
gem acht
ĠNeu gier
ivi leg
Ġ12 0
Ġmo lekul
ose xu
ĠhÃ¶her en
Ġschau e
Ġlern ten
Ġseltsam e
twor tet
Ġuner war
ĠMos k
Ġregel mÃ¤ÃŁig
Ġkap utt
Ġruh ig
Ġlangweil ig
ĠerwÃ¤ hnen
ĠBelohn ung
ĠEpidem ie
ĠPlatt form
ĠSkel ett
Hall o
Ġhind urch
F re
V ers
W ow
m at
p s
t ausende
st ation
Ġa tt
Ġun iver
Ġm on
ar s
Ġk let
ĠM ama
ĠG let
ĠG hana
Ġge setzt
Ġver kl
Ġver gleich
ĠH aw
ĠR Ã¶
Ġt anzen
Ã¤n z
rei bstoff
ĠPro zesse
Ġst immen
Ġst ieg
Ġle er
ad urch
In ner
olog ischer
Ġlie b
ĠKon stru
ĠVor gang
ĠVor schlag
Ġ3 2
ĠBl Ã¤tter
qu em
Ġange messen
ĠAl pha
ĠNach frage
Da fÃ¼r
ĠUnivers itÃ¤ten
mp h
ĠGroÃŁ en
ĠDesign s
Ġries iges
ĠFÃ¼ ÃŁe
ĠFahr zeug
Ġjen em
ian er
ĠBet on
ĠgrÃ¼n dete
Ġelektr ischen
ĠWirtschafts wachstum
ĠPrivat sphÃ¤re
ĠjÃ¼n ger
ĠSzen e
ĠwunderschÃ¶n e
Ġirgendein em
ĠSens oren
ĠKonflik te
ĠTrag Ã¶
ĠKomponen ten
iox id
A R
H er
i se
p ass
w enn
Ġw em
Ġs ub
Ġh Ã¤ss
ar enz
Ġb ildet
ĠM ad
de ckt
ĠA rab
Ġf rustr
lich em
Ġge fl
Ġge teilt
Ġge eig
ĠK e
le tzt
le ger
Ġan scheinend
ĠF a
ĠF rie
ĠD ame
um pf
Ġver pf
ĠR Ã¶ntgen
ĠV on
ik ale
tw a
ĠSch am
ĠPro ben
et isch
Ġ2 6
Ġ2 8
Ġunter nehmen
ger ufen
ger Ã¤te
ĠKon z
lei ter
ek tes
Ġinter pret
Ġkein es
ĠDie ser
ĠUm gang
ĠAut ob
Ġhei raten
ĠGer uch
ĠMus kel
alis ierten
Ġ200 5
ium s
âĢľ .
ĠfrÃ¼ he
ĠPart ei
Ġdre hte
ian ischen
ĠSchwe stern
ĠHa iti
âĻ ª
arr y
ĠProte in
Ġmoral ischen
Ġphys ische
Ġbenutz e
ĠBedÃ¼rf nis
ĠSchwar z
Ġmittler en
Ġignor ieren
ĠKatastrop he
Trotz dem
ĠKapit alismus
Erin nern
ĠWÃ¤l der
ĠTreib haus
ĠStan ford
O s
T alk
b it
f unktion
j ekten
m aterial
p ut
w achsen
Ġ Ã¤rm
ch es
Ġw omit
Ġm isst
Ġm ilitÃ¤r
Ġein geb
ge spr
Ġv ierte
ĠS ha
Ġin vol
ĠM ig
ĠG rie
ĠG ute
ĠB ier
ĠK le
ĠE ur
ĠF undament
ĠF Ã¼nf
Un s
Ġver ur
ĠT Ã¤u
ĠO l
ĠO hr
Ġsp iritu
fach en
ed y
kl asse
ĠFl Ã¤chen
sel be
ord net
ĠÃľber gang
Ġins gesamt
ĠMus keln
ĠMan h
stÃ¤nd ige
ĠStud io
ko hol
Ġro m
ĠAt omen
ĠOrganis mus
Ã¼t te
Ġflie gt
Ġpolit isch
ĠVert ei
ĠKÃ¼ che
ĠKÃ¶n nen
Ġ199 0
ĠTrÃ¤ nen
Dar Ã¼ber
ĠPrÃ¤si denten
ĠmÃ¤cht ig
ĠStrate gien
Ġmittler weile
Ġ196 0
ĠPrototyp en
ĠEinfach heit
ĠBatter ie
Ġneugier ig
F or
I S
g Ã¤nge
g Ã¼lt
k ol
u a
w ehr
w andeln
Ġ Ã¤nderte
Ġw elt
as ern
Ġwir ksam
ĠM ent
Ã¶ ch
icht ung
Ġge Ã¶ff
ĠB enz
ĠB ase
ĠW ut
le gte
ĠE hre
ĠE ffizienz
ĠP azif
ĠD on
ĠD utzend
ĠL ast
ĠT herap
ann ter
ĠH umor
Ġum so
ik ationen
ĠVer schw
ĠVer langen
ĠAn stren
Ġst ammen
Ġle g
et a
Ġwei bliche
Ġr um
ist in
rÃ¤ um
Ã¤u de
form ation
br igens
ĠAut ismus
ĠSe quenz
Ġwunder volle
Ġschwer er
ĠGl Ã¼h
ĠPol io
Ġabge sehen
ĠGeschÃ¤ft sm
orte x
ĠHa ie
ĠMathemat iker
Ġfre und
ĠMedikamen ten
zÃ¤hl er
ĠSc ience
Ġorganis iert
ĠHÃ¶he punkt
Ġis lam
ĠLiebl ing
ĠOrgan e
fÃ¤lt ig
Ġschick te
Ã¼hr ung
ĠFig ur
Ġanalys ieren
ĠUrs ache
Ġexpl od
ĠPhilosoph ie
ĠWeihn acht
ĠDia betes
Ġrepar ieren
ĠSchok ol
D e
G eh
M A
f ischen
g in
h el
i op
k opf
Ġw Ã¤
st eine
ei ge
Ġm obil
Ġein gehen
Ġh and
Ġh uman
ll ige
Ã¤ men
Ġin zwischen
de uten
Ġf eiern
Ġg ift
Ã¼r zt
ĠD aumen
ĠV alle
Ġt re
Ġj apan
wei ls
ort h
Ġbei des
Ġle uchten
ĠLe ber
Ġre flekt
auf gaben
Ġ3 6
Ġgegen wÃ¤rt
Ġmus lim
ĠMar ken
ĠDes halb
ĠRo llen
ĠKar ik
Ġ200 9
mÃ¶ gliche
ĠBed arf
ĠKn opf
Ġneben bei
Ġind ischen
schul digung
ĠApp le
sta aten
ĠTh omas
ĠDiag nose
ĠgewÃ¶hn t
Ġsetz ten
ĠSal z
ĠBud get
ĠHunder te
Letz ten
ĠWichtig ste
Ġspannen d
ĠMotiv ation
Ġrom ant
N eu
T est
o ben
u le
w endet
y to
Ġd ient
ei tern
Ġh y
Ġzu recht
Ġge sammelt
Ġver lieÃŁ
is men
ĠH ard
ĠH andeln
ĠR el
ĠV ie
ol a
ĠN Ã¤ch
rei de
ĠVer mÃ¶gen
Ġje weils
rau cher
zu kommen
Ġnach denkt
ĠEn er
Ġdurch schnittlich
Ġre t
Ġbes eit
Ġr ichten
Ein s
Ġwieder holt
Ġber uh
ĠAuf stieg
ĠUm stÃ¤nde
ĠGeb ieten
Ġleben de
Ġex akt
ord nen
Ġklein ere
ĠMann es
Ġsozi aler
ĠÃ¤hn lichen
ĠHÃ¶ hlen
ĠKat zen
Ã¤mp ft
Ġempf inden
Ġenor men
samm lung
Ġechte s
Dar auf
Ġhinge hen
Ġtradition elle
Ander s
Ġbenutz ten
Ġkompliz ierter
ĠMitglie d
ĠerÃ¶ff net
ĠLog ik
Ġexper iment
Ġbeit ragen
Ġinf iziert
Ġpoten t
Ġarab ischen
zipl in
Normal erweise
Ġkommer zie
Inner halb
F rÃ¼
M achen
b ir
h h
k omp
l eiten
o hlen
v o
w affen
Ġd rÃ¼ck
Ġs imul
Ġe hem
st Ã¤d
as k
ĠW Ã¤nde
ĠF antasie
ĠT asche
is h
ra ktiv
Ġl eist
ĠZ um
ag ern
ĠGe t
ĠSch auen
ĠVer z
ĠIn tu
ob by
ĠEin schrÃ¤n
Ġger aten
ĠFl or
ĠTechn iken
Ġwahr en
eite te
Ġverl or
gef Ã¤
rupp e
ĠMe ere
ogen ese
ĠMar ke
ĠÃĸ konomen
Ġfest gestellt
Ġoffen bar
ĠInternet s
Ġgemein nÃ¼tz
Ã¤uf er
Ġflie ÃŁt
ĠKÃ¼ hl
Ġqu al
Ġkre ative
amer a
ĠfrÃ¼her en
Ġnahe zu
ĠKu gel
Ġaktu elle
Ġemotion ale
Ġabst ra
ĠResult ate
ĠHaar e
arch ie
Ko mm
ĠTex as
ĠStau b
ĠVerbesser ung
ĠSpezi al
ĠAnwend ungen
ĠMicro soft
ĠCart o
G ehen
P lÃ¶tzlich
b aut
e tzen
i os
j et
l ament
p ern
p olitik
r ieren
en kt
an lagen
st at
st eht
as sten
ei fen
ge setzt
ĠS ektor
Ġh eben
Ġn u
Ã¤ ger
ar y
Ġin t
Ġin klus
ĠA ug
Ġf ein
Ġf rie
Ġf lex
le hnen
Ġan tworten
Ġan bieten
Ġer laub
ĠL Ã¤cheln
ig ungen
Ġver arbeiten
ĠSt ick
Wir klich
Ġvor gestellt
ĠâĢ ľ
Ġle tztlich
Ã¤t ig
ĠSp innen
Ġre st
wer te
ekt ar
zen ten
Ġgew orfen
ed back
Ġverb r
Ġverst Ã¤nd
Ġson der
Ġkein em
ak u
Ġeinz iges
Ġwahr haft
qu ellen
ĠAl kohol
ĠHand lungen
ĠMit tler
Da zu
Ġung lÃ¼ck
itu te
ĠSchw eine
Ġro b
Ġinner e
ĠBÃ¼ chern
Ġtro cken
err t
ĠDurch schnitts
ĠverrÃ¼ck te
Ġheut ige
Ġtau chen
ĠhÃ¶ch ste
ĠTransp arenz
ĠSer ie
Ġchines ischen
ĠKons umenten
ĠToi letten
ĠPfl anze
Ġbegrenz t
ĠKlin ik
Ġstet s
ĠUngleich heit
Ġverpf lich
L ie
M ails
P A
e ah
k Ã¤
l Ã¤sst
n icht
w Ã¤
Ġd anken
Ġs ym
ei gung
Ġm y
ĠS ur
Ġzu hÃ¶ren
Ġk g
ĠA ct
Ġge fahren
ĠB omben
le fon
ĠE benen
ĠF al
ĠP reise
ĠD ist
ĠR os
Ġaus gehen
ĠSt ich
ĠÃ¼ber setzen
ĠÃ¼ber lebt
Ġuns icht
wei st
Ġvor wÃ¤rts
Ġle gte
ĠUn g
Ġre icher
schie ben
Ġhin sichtlich
Ã¼n de
Ġverb rei
ĠVor der
ak ul
?" ,
Ġbede ckt
me ter
ĠLebens raum
ĠEnt steh
âĢ ĵ
ĠRo bert
Sch l
ĠMa c
ĠVers orgung
Ġbef assen
Ġbef reien
sk raft
ĠGlÃ¼ck s
Ġweltw eite
Ġfl og
ĠErfolg s
Pro jekt
ĠRecht s
ĠÃ¶ff net
ĠMaÃŁ nahmen
ĠDruck er
Ġanf Ã¤ngt
ĠBus h
Ġverste cken
Ġ198 0
Ġschlimm sten
ĠRÃ¼cken mark
ĠSchlag z
ĠreprÃ¤sent iert
Ġverle tzt
Ġverlie bt
ĠÃĦnder ung
ĠSchau spieler
ĠFrem den
Ġdiskut ieren
ĠjÃ¤hr lich
Ġdur fte
Ġmoch te
ĠPri or
Ġgete stet
ĠgeÃ¶ff net
ĠValle y
H at
M asch
Z usammen
e der
f asst
g anda
h il
n Ã¤
o od
as ien
ĠS ar
ĠS erv
sch alten
Ġb o
ĠM Ã¤use
ĠA bl
ĠG ramm
Ġge legen
Ġge langt
ter en
le chter
ĠF er
Ġver Ã¤nder
Ġver teilen
ĠT u
ĠT um
ĠT herapie
Ġwar tet
Ġsch reibe
Ġl asse
Ġt rat
ĠZ ut
ste ckt
Ġaus macht
sp unkt
ĠVer zwei
ĠVer teilung
ĠIn seln
ĠAn weis
ĠAn sichten
ĠBe wohner
Ġst at
ĠfÃ¼ llen
iz z
Ein en
du ktion
ĠAus land
ĠAus rÃ¼stung
Ġ19 50
ĠEx plos
ĠEnergie verbrauch
Ġausge geben
St ud
ott o
ron en
ĠMo unt
ĠSchw anz
ĠUnternehmen s
ĠGebÃ¤u des
Ġerh ielten
setz ungen
Ġfrei will
amp ag
Pro gramm
jÃ¤hr iger
Ġintern ational
ĠErf inder
ĠFel s
Ġkrei ert
organis ationen
Ġbill ig
dre hen
ĠEntwicklungsl Ã¤nder
Ġinst all
Ġpriv aten
ĠToi lette
ĠAch se
Ġbeeindruck end
1 8
C hin
J Ã¤hr
b aum
p ack
s itzen
t hmus
un ft
Ġs an
an ischen
sch lieÃŁen
Ġf air
ur a
ĠW affe
ĠW Ã¤rme
ĠK y
ĠK och
Ã¼r ze
Ġver lei
re ht
Ġauf einander
ĠH orm
ĠV i
be finden
be zogen
and em
ĠSt il
anz ig
Ġent war
lau be
ul d
ri c
im b
ĠKon zentr
ĠKon zepte
ĠWas ch
Ġbet rÃ¤gt
ak er
ĠUnter wasser
ĠAb hÃ¤ng
Ġhei m
Ġges unde
stand s
ĠEntw urf
no w
Ã¶l f
Ġbef est
Ġoffen e
mit h
Ġsel be
ĠFahr er
Ġauszu drÃ¼cken
Ġverschw indet
ĠBet rieb
ĠÃ¤lter e
Ġbedeuten d
Ġposit iven
Ġschreck liche
Ġniedr ig
Ġniedr iger
ĠhÃ¶ch st
ĠMy th
ĠberÃ¼hm t
Ġphys ischen
Ġaktu ellen
Ġunge heuer
Ġkultur ellen
ĠSchwar ze
hei mer
Ġzentr ale
krank heiten
Ġaussch lieÃŁlich
ĠOx ford
ĠPfer d
ĠkÃ¼mmer t
ĠWurz eln
ĠBetr acht
Ġverring ern
ĠFlÃ¼ss igkeit
Ġgele hrt
ĠEhem ann
ĠDial og
ĠManh att
yto cin
Ġleist ungs
B ahn
F rau
F ast
G em
V iel
W Ã¤re
a fe
c ar
u cken
ge gangen
ar ren
or ien
ĠM eg
el tern
Ġge g
Ġge fr
ĠB is
le ver
ĠP op
ĠL ive
eit ungen
re ut
Ġsch rieben
Ġl asst
Ġj enseits
Ġaus drÃ¼cken
ĠJ er
Ġwer det
bt eilung
sp anne
ĠVer hand
ĠC r
Ġher ab
fl ie
Ġkon serv
ĠKon d
ĠAus gaben
ode lle
Ġ19 5
ĠTe e
icher ung
Ġal tes
ĠschÃ¶n er
Ġglob al
ĠSÃ¼ ÃŁ
ĠFahr zeuge
Ġkomplex er
Ġerle digen
ĠÃ¤lter en
ĠInte gr
Ġfre ie
ĠTh un
Ġumzu setzen
Ġirgendw elche
ĠFe edback
Ġeinzig artig
bed ingungen
Ġbenutz te
Ġwirk lichen
ĠPe ter
ĠAuft rag
aktiv itÃ¤t
ĠMechan ismus
ĠBerechn ungen
Ãľ brigens
ĠAbente uer
C h
J ahr
b ru
Ġ Ã¶rt
an y
ĠS mith
ir ca
sch ild
Ġn ationale
Ġk Ã¼nstler
Ġder er
at ers
ĠB itte
ĠK ok
ĠK uchen
ĠK Ã¼nst
ĠK osm
ĠD ort
ĠT reibstoff
ĠH Ã¶r
ĠR atten
Ġl Ã¶st
Ġt rain
ien e
zu gehen
ĠPro be
ĠC A
ĠAn h
all er
Ġunter halten
Ġunter halb
ĠEin blick
ap s
In dem
ver kehr
Ġbet reffen
ic al
pro jekt
Ġgest altet
ĠGed ichte
ĠHin weise
ĠLehr ern
ĠBi ologen
ĠSelbst mord
ĠUr kn
urop a
Ġ[ "
az itÃ¤t
wert ung
ĠBr ut
ĠAll gem
rieden heit
ĠGleich ung
wesen heit
Ġteil nehmen
ĠBlick winkel
ĠOn kel
stre ben
ĠFrÃ¼ hl
ĠInvest ition
ĠberÃ¼hm te
ĠauÃŁergewÃ¶hn liche
Ġbill iger
ĠkÃ¼nst liche
ĠzukÃ¼nft igen
ĠWill i
ĠhÃ¼ b
ĠPingu ine
ĠEng agement
ĠBeit rag
ĠAngeb ot
ĠGrie chen
G ott
b inden
k u
o cken
u ste
Ġe mp
Ġa ben
Ã¼ chtern
on ym
Ġh ung
Ġz ogen
at om
Ġin tu
ach s
Ġf uhren
Ġge gessen
ĠE ver
ĠP ause
ĠL u
ĠL aut
ĠL ux
um pen
ig ant
Ġver langen
Ġver gewalt
ck s
ĠH andels
Ġsch ief
Ġo per
be ziehen
ste cken
ut h
Ġdem onstr
ĠPro p
men gen
Ġst ra
ĠRe ichtum
Ġsp ont
ill er
ĠLe g
og ie
ĠSp e
Ġkl ingen
op hren
ĠU ganda
Ġr as
Ġr Ã¼ber
iz ophren
iger weise
Ġko oper
Ġdu mm
ĠAus wirkung
ĠzurÃ¼ck kommen
Ġber u
ĠFl asche
ĠBl ase
ĠKo hlend
ĠLicht er
Ġ200 4
Ġ7 00
ĠWer ke
Ġanzu gehen
Ġflie ÃŁen
ĠHÃ¶ lle
ĠBÃ¼rger meister
Ġbew ahren
Ġeinzu setzen
stra ÃŁe
ĠBel ast
ĠTÃ¼r k
abhÃ¤ng igkeit
ĠWohl befinden
ĠLÃ¶ wen
Ġbehaup te
ĠwÃ¼n schen
Ġkompliz ierte
ĠStatist ik
Ġ197 0
ĠSzen ar
ĠzukÃ¼nft ige
ĠNerven zellen
ĠGlob alisierung
ĠKatastrop hen
ĠJournal isten
trag ung
ĠFle derm
Ġdram atisch
Ġallgem einen
fir ma
Ġille gal
WÃ¼r den
ĠPopul ation
ĠPra xis
Ġinklus ive
K W
K opf
R ob
T eil
c i
f ro
h ten
i us
i ppe
n am
w a
Ġ y
ch ron
un dern
Ġs uchten
Ġm ar
ge kommen
Ġh alt
Ġn ationalen
Ġzu sÃ¤tzlich
ĠM Ã¼n
ĠM ahl
ĠM auer
Ġg reifen
el s
ĠK andid
Ġer setzt
ĠH on
Ġsch ie
ste ten
ĠN ov
ĠN utzer
rau t
ĠO ption
Ġent tÃ¤u
ing ung
op s
we ll
Ġkon kur
ke pt
Ġlie bt
Ġar gument
kl ar
ha fen
Ġzw eit
Ã¤nd ler
gr unde
Ġschl ussendlich
Ġverm ittelt
Ġoffen sicht
ĠGegen stÃ¤nde
ĠAmer ikas
mit ten
ĠVort rÃ¤ge
Ġentde ckten
if est
ĠKor e
Ã¼t teln
Ġerk unden
ĠPar lament
ĠRes erv
ĠLi fe
ĠStand punkt
Ġversch m
ĠMag net
Ġtechn ische
ĠBÃ¤ umen
Ġbed roht
Ġblo ck
ĠZuf riedenheit
Ġvorh ersagen
Ã¼cht ig
ĠNot iz
Ġvisu ellen
Ġlief ert
ĠBall on
Ġnachhalt ig
Ġnachhalt ige
grÃ¶ ÃŁe
ĠRake ten
ĠAllt ag
ĠOkt ober
ĠFlie ge
ĠTit an
Ġlin ke
Wahr scheinlich
ĠMusl ime
ĠÃ¤rm sten
ĠBase ball
ĠEntsteh ung
Z eit
b ein
d a
d auer
k s
w ay
y mm
z o
Ã ĸ
st il
st Ã¤r
Ġh ell
Ġb raun
ĠG ift
ĠK eine
ĠK Ã¶pfen
le ute
Ġer langen
ro tt
ĠI mm
Ġbe fr
Ġbe achten
Ġauf merksam
ĠH ai
ĠR ichtig
Ġo ffiz
Ġt heor
Ġaus fÃ¼hren
Ġp fl
ĠIn halte
hn te
Ġst imm
ot o
ul ar
ul ation
ĠSp ur
ĠSp eicher
he ber
Ġunter scheidet
ĠZeit ungen
Ġzwei tens
ĠEin heiten
Ġgew innt
ĠKon troll
ĠKon kur
ĠHer an
gar ten
Ġange kommen
ĠAl z
ĠLebens qualitÃ¤t
Ġgeb ildet
kun st
ĠGroÃŁ vater
Ġfest ge
Ġ8 00
ĠschÃ¶n es
ĠWer ten
Ġschwier igen
ĠGeschichten er
Ġhoff nungs
ĠPart y
ĠHÃ¶ hle
ĠMikro skop
Wo her
ĠFuÃŁ ball
ĠTem po
ĠSchÃ¼ lern
Ġwider sp
Ġwinz ige
ĠGra v
Ġtie fe
ĠFel sen
ĠBeruf s
Ġintelligen te
ĠNie mand
Ġnutz ten
ĠÃľ bung
wissenschaft ler
Ġreligi Ã¶sen
Ġvirtu ellen
ĠStift ung
ĠSamm lung
ĠDam it
ĠArbeitspl atz
ĠIll usion
ĠÃ¼berprÃ¼ fen
Ġprofit ieren
ĠSchÃ¤ del
Ġschne lle
Ġanget rieben
Ġhilf reich
su mmen
ĠMosk it
ĠGlet scher
Ġehem al
B I
E T
a ver
k ette
w ort
er dings
Ġe ffizient
Ã¼ hle
sch Ã¶nen
Ġn Ã¶r
ll te
Ã¤ ser
Ġzu grunde
or ter
au ch
Ġwir ft
ĠM R
ĠA v
lich ung
ter te
ter ung
ĠB einen
ĠB ron
ĠK enn
ĠF ront
Ġer fordert
ĠD ichte
ĠD Ã¼n
ro w
ig ma
ĠT ode
ĠT rink
is ierten
ĠH als
ra y
Ġsch Ã¤d
Ġt reibt
be w
ĠZ ig
Ġum welt
ĠÃ¼ber setzt
ĠGe fahren
ĠSch nell
ĠSch reibt
zu stand
ĠO el
ĠEr schein
Ġst ruktur
ru gen
ĠSp enden
ĠSp uren
we cken
ri x
fl ei
ĠfÃ¼ hlten
gel d
Ġweiter entwick
Ã¤u b
geb ungen
Ġverb rauchen
ĠFl u
reich end
Ġhei ÃŁe
unter richt
th iop
eim ittel
ĠDe z
Ġ200 6
zeich nung
ĠProdu ktivitÃ¤t
Ġc irca
ĠGegen stand
fÃ¤ llig
Ġbevor zu
ĠFot ograf
werk raft
gesch Ã¤ft
ĠÃ¼ ben
ĠFlug zeuge
Ã¤cht igen
ĠEurop Ã¤
Ġqu er
ĠKil o
ĠRu anda
organis ation
minister ium
Ġafrikan ische
ĠSchrift steller
ĠGest altung
Ġsexu elle
ĠTrend s
ĠHom o
Ġprogramm ieren
ĠungewÃ¶hn lich
ĠzusÃ¤tz liche
Jeden falls
zweif elt
ĠSymm etrie
Ġgebl ieben
B r
B es
O r
b reite
g riffen
l n
l em
u den
v as
en ten
Ġd icht
in ationen
an i
Ġm alen
ge hÃ¶r
ĠS atur
at i
ĠM ist
ĠA uch
ĠG and
ur r
Ġer t
Ġer richten
ĠD inger
ĠD ynamik
ĠL au
ĠT V
ĠT Ã¤tigkeit
ĠI d
re ter
Ġbe denken
Ġauf recht
ĠH aben
Ġsch ieÃŁen
Ġl agen
Ġt rennen
il deten
ĠSt ille
ĠSt Ã¶rungen
ĠVer anst
ĠO lymp
ĠMensch lichkeit
ĠAn erkennung
Ġall zu
Ġsp iele
ĠWelt all
op t
ĠEin ige
ger ung
Ġweiter machen
du str
Ġverb raucht
Ġir r
ĠWei ter
Ġges Ã¼nder
ĠerzÃ¤ hlten
Ġbesch Ã¼tzen
Ġsicher stellen
âĢ ¹
Ġc lever
ĠHin weis
Ġfor der
Ġabge schlossen
ĠJe ff
Ġerinner te
jen ige
ĠÃĦr zten
eid ung
Ġrei ste
ĠHÃ¼ gel
ĠAd am
Ġauft reten
ĠCar ol
sichtig t
ĠNahrungs mittel
ĠDienst leistungen
Ġausgeb ildet
Ġpriv ate
ĠAstr on
Ġpri mit
ĠAstero iden
Ġatt raktiv
ĠGlÃ¼h bir
ĠManhatt an
ĠKohlend ioxid
ĠAlz heimer
8 0
B C
M Ã¶
P M
S icher
] .
c ol
f lex
k rise
m od
r is
s ucht
s itz
s orge
er kennen
in son
Ġs ign
st rÃ¤ger
ei s
Ġun angen
Ã¼ ster
ĠS eil
Ġn irgend
Ã¤ me
Ġzu gleich
ĠW elle
ĠK ing
ĠK noten
ĠF alle
ĠP enn
ĠP unkten
ĠL esen
Ġver ne
re gung
Ġbe endet
ÃŁ te
eh nte
Ġt o
Ġt ollen
Ã¶n e
be sch
ĠN obel
ag d
Ġdies mal
ĠIn tens
ĠIn dustr
ĠAn zeichen
Ġle eren
ab y
bl ock
Ġher bei
wer ten
ob i
fl Ã¤chen
im a
Ġbeg rÃ¼
ver l
ĠCh ip
.. ."
ĠAu stausch
Ġzw ingen
Ġeinz iger
ĠKo operation
ĠAut oren
ĠLehr e
ens ystem
Ġwohl haben
Ġfolgen der
ĠGleich heit
drÃ¼ck e
ĠNord amerika
eig ern
ĠApp ar
ĠhÃ¤uf iger
gra ben
ĠAbst and
ĠerfÃ¼ llt
ĠKÃ¤ fer
ĠElektron en
ĠFig uren
ĠMat he
Ġallgem eine
Ġerz ielen
ĠGre en
tage ssen
ĠMart in
ĠGebur ts
ĠBenz in
ĠPazif ik
ĠIntu ition
ĠMittler en
ĠAllgem einen
M et
S S
g rad
h andel
k amen
u ell
v ern
Ġ ass
un e
Ġs inken
Ġe chter
Ġm Ã¼
sch el
Ã¤ nen
Ġk osm
au ben
ĠA pfel
Ġg igant
ĠG riff
ĠG ates
ĠK Ã¶pfe
Ġan sprechen
Un ternehmen
ĠT aten
am ide
ĠH ollywood
ĠR io
ĠR iff
Ġl enken
Ġt rage
Ġt ausenden
om os
ĠSch werkraft
Ġuns icher
ĠC al
ĠC amb
ĠâĢ º
ĠEr wÃ¤rmung
ĠEin wohner
ĠCh ines
des igner
ĠKinder sterblichkeit
ĠHer kunft
Ġdrei mal
ĠKl uft
oren en
Ġeinz eln
Ġange passt
ativ er
ander s
Ġirgend was
Ġen det
ip end
ĠStud ium
fÃ¤ llen
Ġ9 5
Ġanzu schauen
gesch ritten
Ġerf uhr
Ġstatt finden
ĠFlug hafen
ĠBeweg ungs
ĠBeh Ã¶r
ĠPo cken
ĠInst itute
ĠKÃ¼ sten
rop fen
Ġbew Ã¤ltigen
ĠAben dessen
ĠVortrag s
Ġtoll es
Ġverh ei
Ġreg ion
Ġet hn
press iv
ĠOper ationen
Ġgenet isch
ĠKreis lauf
ĠursprÃ¼n gliche
Ġchem ischen
yr amide
ĠDepress ionen
zum achen
Ġult im
ĠEmp athie
ĠSm art
schaff ung
ĠTragÃ¶ die
FrÃ¼ her
E C
F ol
L A
T ja
d acht
g ungen
i ffen
k atastrop
l Ã¤nder
Ġd eta
ie geln
Ġw eh
st el
st isch
ĠS ir
ĠS Ã¤tze
sch uss
Ġk auft
Ġk ochen
ĠM ak
ĠA cht
ĠG Ã¼te
Ġer mÃ¶glich
ĠP C
ĠD om
ĠT enden
Ġbe ziehen
Ġbe dienen
am pen
ĠH ut
ĠH aust
ra ht
ĠV iet
Ġl ive
il dete
Ġp ol
sp art
ensch we
ĠVer stehen
Ġvor kommen
ĠEr ziehung
ru fe
et ischen
ĠWelt bank
Ġr ennen
ichte ten
Ġzw Ã¶lf
ĠUm frage
Ġange schaut
Ġsicher er
ivers itÃ¤t
Ġgesch Ã¼tzt
Ġschl Ã¤
ĠLie fer
ard o
Ġverm ute
ĠMa ÃŁe
Ġsozi ales
Ġwunder schÃ¶nen
âĢľ ,
Denn och
Ġstar tete
bo le
ĠSu mme
fang s
son sten
ĠMein ungen
ĠKomp rom
ĠFern seher
bes itz
ĠTr icks
wohn heiten
Ġperf ekten
Ġak adem
ĠViel zahl
sto ÃŁ
ĠLeist ungen
ĠstÃ¤r k
Ġauft auchen
ĠtÃ¤ glichen
ĠErn st
ĠVolk s
ĠKrie ge
ka sten
Ġleiden schaft
ĠUntersuch ungen
ĠFabr iken
ĠStoff wechsel
Ġschlie ÃŁt
ĠOx ytocin
Ġkom isch
ĠKurz em
Ġschaff te
Ġbeweg te
ĠvergrÃ¶ ÃŁer
ĠPan ik
Ġdurchzu fÃ¼hren
ĠAmazon as
ĠMisch ung
Ġgere det
ĠVag ina
ĠFlor ida
ĠAbhÃ¤ng igkeit
ĠSchreibt isch
flei sch
ĠDez ember
ĠSatur n
ĠCamb ridge
Ġdeta ill
' .
1 5
D on
F Ã¼nf
G lÃ¼cklicherweise
P at
g ner
g Ã¤ng
h aufen
i ale
l ass
o tel
s rate
u k
u tet
Ġw ach
Ġw eich
Ġs enken
st rÃ¶
Ġun wahrscheinlich
ar akter
em p
Ġin mitten
al itÃ¤ten
ach el
ier bar
ĠB ahn
ĠW att
Ġan erk
ĠD ass
ĠL Ã¤rm
ĠL Ã¼cke
ĠL atein
ra ben
Ġsch me
ĠV is
Ġt rÃ¤umen
be ll
Ġj Ã¼d
Ġaus lÃ¶
ĠSch all
Ġent schlossen
Ġst Ã¤nd
Ġst oÃŁen
ot ter
Ġher z
ĠSp iels
Ġzwei tes
geb Ã¤ude
ha ber
ant om
ĠMit tagessen
ĠStra hlung
ĠMin ister
ĠLie bes
ĠMa i
Ġhal ben
Ã¼t tern
ĠPo ster
Ġverd opp
Ġverd oppelt
Ġbl icken
Ġersch ien
ĠPr em
ĠPr ivileg
get ragen
ĠDar m
Ġerle digt
Ġfr essen
Ġempf ind
Ġbas ieren
ĠZeich nungen
ĠKommun ikations
Ġfinanz ieren
ĠRegen wald
Ġet abl
Ã¶rder ung
ĠKÃ¶nig in
Ġbelie bt
techn ik
Ġabsch lieÃŁen
Ġtra inieren
onom ie
Ġgewisser maÃŁen
Ġherr scht
ĠHall o
ĠNor wegen
Ġvieler lei
Ġoptim istisch
Ġkomb inieren
Ġbewer ten
ĠFischer ei
ĠErkrank ungen
Ġausgew Ã¤hlt
Ġbemerkenswer te
ĠzÃ¼ chten
Ġzwe ieinhalb
Ġinvol viert
ĠEur o
ĠEner gien
bru ar
A frika
F il
N ull
O ft
a a
b ele
b rachte
d rom
j e
k rÃ¤
l ings
l Ã¤uft
o kl
r ien
w Ã¤l
w jet
st immen
Ġein stellen
ge ord
ge webe
Ã¼ ben
Ġk Ã¤mpf
de st
al em
Ġf ett
ber gen
ĠG ast
Ġge schlagen
Ġge fÃ¼llt
ĠB anken
ĠK ann
ĠK iste
Ġan kommen
Ġan stellen
ĠE ffekte
ĠF ro
ĠD auer
Ġbe ur
Ġbe fÃ¼r
Ġauf geben
ĠV ier
us sten
ĠN atÃ¼rlich
Ġaus sah
Ġp o
ĠSch lange
ĠC D
ĠC lo
Ġkann ten
uch sen
Ġsp ielten
et tel
ul in
ĠSp itzen
Ġre ale
Ġre volution
Ã¤hr ungs
fl ung
ĠEin kauf
rach en
rÃ¶ h
Ġbet reten
ĠInter pret
ĠgrÃ¶ sser
Ġange sichts
ativ es
ĠGen en
Ġirgend einer
Ġinteress antes
Ġbesch Ã¤d
Ġschw ach
tt ausende
Sch on
ĠGew Ã¤sser
Ġwunder vollen
ĠStud ierenden
Ġkurz er
setz ten
ĠFÃ¼ ÃŁen
Ġverd ammt
ĠKont inen
Ġwissenschaft lich
ĠBewusstsein s
ĠSuper markt
Ġverh indert
ĠInstitut ion
ĠNa hen
ĠursprÃ¼n glichen
Ġwest liche
ĠTal ent
ĠBand breite
ĠRom an
ĠDir ektor
ĠAutor itÃ¤t
ĠCon ne
ĠChir urg
Ã¤hm t
Wei ÃŁt
ĠAnim ation
ĠÃľberzeug ung
Ġbeobachte te
Ġtrans form
behÃ¶r de
Ã¤hl er
Ġlande te
Ġexponent iell
ĠFrÃ¼hl ing
1 2
E gal
M Ã¤dchen
g ab
h us
l iste
p aar
v ille
w ich
in sel
Ġw ein
Ġs imp
Ġun f
Ġm ater
Ġein nehmen
Ã¼ ten
ar zt
or s
ĠM esser
ĠA qu
ĠF und
ĠF oss
mm el
ĠL Ã¤nge
Ġver hÃ¤lt
Ġver langt
ĠT ausenden
re icht
Ġbe wirkt
Ġmit teilen
ĠH u
Ġl ass
Ġt ritt
ehr te
ste ck
ĠN ormal
ik eln
ĠÃ¼ber lassen
ĠSch ichten
ĠSch Ã¶pf
ĠVer sagen
Ġwo zu
ĠAn f
ĠEr forschung
ĠBe sten
Ġsp eichern
ob ile
art iges
Ġneu lich
ist ent
Ġbeg inne
Ġgew achsen
Ġber uf
ĠGeh alt
Ġpro bieren
Ġ3 3
andel ten
ay a
ĠMed ia
ĠSe xu
laub nis
ĠKre aturen
ĠStra f
lo ser
ĠÃĸ konom
ĠFil ter
kon stru
Ġinner en
Ġerf asst
ĠKor an
ĠÃ¤hn liches
ĠVideo spiele
ĠAm eise
ĠBr uch
ĠVerein ten
Ġfl Ã¼ss
ĠInst all
Ġentscheiden de
ĠArchite kt
ĠMot oren
Ġfort geschritten
samm eln
ĠverfÃ¼ gen
Ġfinanz iellen
ĠWÃ¶rter buch
Ãľber all
ĠBesch reibung
ĠBus iness
ĠFe bruar
Ġunver m
ĠBen utzer
gnor anz
ĠHy per
ĠRep ubl
Letz tes
problem e
ĠElektron ik
ĠAlgorit hmus
Ġunend lich
Ġschaff ten
ĠAnrei ze
ĠBrÃ¼ der
ĠRoll stuhl
Ġstattf indet
ĠHindern isse
Ġrelev ant
ĠprÃ¼ fen
ĠImmun system
Ġnu kle
Gem ein
ĠTÃ¼rk ei
B eg
C o
b elt
b rÃ¼che
i ologie
k lichen
l as
p ra
u el
v id
Ġ Ã¤
Ġ tend
Ġb rei
Ġzu geben
ĠM andel
ĠA g
ĠA re
ĠA mp
ĠW inkel
ĠK auf
Ġan kommt
ĠF in
ĠL assen
ĠL aser
Ġver zweifelt
ĠT ra
Ġbe Ã¤ngst
Ġsch eitern
kt oren
be wusstsein
ĠfÃ¼r chte
Ã¤n zen
ĠSt ar
ĠPro f
ĠEr satz
uch tet
ĠBe k
ĠBe w
lau bt
ĠEin richtung
ist ischer
Ġlie st
Ġwieder her
auf bau
Ġverb oten
Ġber ichtet
Ġger inger
Ġger echt
ĠVor les
Ġbrau ch
ĠGeh Ã¶r
ĠAuf lÃ¶sung
ĠAuf zeichnungen
form t
Ġwahr schein
hÃ¶r er
ĠDaten bank
gr enzen
ĠÃĦ thiop
ahm e
ĠPlan ung
legen en
Ġ200 1
hunder t
ĠOb jekten
ĠUr heber
tem peratur
ĠDer ek
ĠMittel punkt
ĠAll gemein
Ġerstaun lichen
Ġph il
Sp Ã¤ter
iver sen
ĠFÃ¼hr ungsk
ĠÃ¼berw Ã¤lt
Ġfinanz iert
Ġpl us
Ġgewalt ige
ĠgewÃ¶hn lich
ĠberÃ¼hm ten
ĠEinzel nen
Ġand auern
ĠBud d
Ġindividu ellen
ĠReich weite
Ġschick ten
lÃ¤ss ig
ĠVerletz ungen
ĠprÃ¤sent ieren
ĠFett leib
Ġengl ischen
ĠInteress ante
Ġsyn th
Ġbrit ischen
ĠErst aun
Ġeffizien ter
ĠSkulpt ur
lad ung
ĠÃ¼berqu eren
Ġwid men
ĠStÃ¤ mme
ĠHard ware
Ġsym bol
ĠVerzwei flung
' ,
? Â«
B F
B ild
K ommen
L eben
M us
V ier
a ot
b eu
c l
g sten
k inder
m Ã¤r
o tern
t heorie
u ge
v is
er ei
st rom
ei de
Ġm et
sch ungen
ar ma
Ġb rÃ¤
Ġb ele
Ã¶ ser
al tete
ĠB ay
ĠW Ã¼n
ĠW ende
ĠK ab
ĠK Ã¤mpf
ĠD ok
ĠD ichter
ĠL unge
Ġver dien
ĠI gnoranz
ĠH ill
ĠH eld
ĠN at
ĠN och
ĠJ on
ag os
il em
Ġim it
sp ezi
sp recher
ĠBe scheid
Ġhier fÃ¼r
Ġle gten
ab le
ru cken
op e
we ge
Ġviel mals
Ġunter sch
sa ge
ĠwÃ¼rde st
ran ten
Ġgleich er
agen t
Ġgenau e
ĠNach mittag
ic on
erst ehen
ĠHand lung
ĠSe c
ĠLie der
ĠGew inner
ust ern
Ġ200 3
Ġ8 5
Ġeinge schlossen
ĠRicht er
voll er
Ġch aot
ĠBeh aupt
ĠSk i
ĠProzess es
Ã¤chst es
aren ergie
ĠFÃ¼hr ungs
ĠBlut gefÃ¤
Ġgeh eim
ĠHoch zeit
ĠprÃ¤ zi
ĠÃ¼berw achen
ĠBesch Ã¤ft
ĠAnge stellten
ĠRelig ionen
ĠFrieden s
ĠKÃ¶nig reich
ĠErkennt nisse
masch inen
ĠWider spruch
ĠAltern ativen
Ġdefin itiv
ĠWÃ¼ sten
ĠMÃ¶ bel
Ġrad ikal
ĠFÃ¼hrung sp
Ġeinsch lieÃŁlich
Ġfotograf iert
Ġexper imente
Ġbeschleun igen
Ġzut ief
ĠOrig inal
Ġille g
Ġdra ht
ĠwÃ¼s ste
ĠRech ner
Ġbeeindru cken
ĠstÃ¤dt ischen
Ġjahr el
ĠArzn eimittel
ĠlÃ¤cher lich
ĠSchokol ade
ĠTrink wasser
ĠZig ar
ĠViet nam
D adurch
E l
E ben
P lan
b ogen
f abr
g ase
p erson
p assung
ĠS imulation
Ġz un
es pe
at tet
ber eit
ĠG uten
ĠG Ã¶t
Ġge kl
ĠB ig
ĠP re
ĠD ick
ĠD op
ĠD igit
ĠD oppel
ĠL ED
ĠT ax
Ġbe zieht
ann er
eh le
ĠH ol
ĠH eute
ĠH ub
ĠR ein
Ġwar m
ĠV an
ĠV ul
ĠZ ur
ĠSch ock
ĠSch izophren
ĠPro b
ĠC or
Ġwo durch
os n
Ġst imul
Ġst eigern
Ġle hr
Ġle ichte
ot ten
Ġsp r
Ġsp ekt
ill a
bl asen
rie ch
ul ierung
ĠUn abhÃ¤ngigkeit
Ġ2 9
Ġunter richtet
ech net
ungs los
ap ier
ap ital
ed och
Ġverb rennen
kl ang
Ġbet onen
ĠUm gebungen
gef asst
Ġsicher zustellen
Ġkomp lette
ĠSchl imm
rad itionen
ĠMan ager
hlt Ã¤tigkeit
ĠGroÃŁ e
ĠKrank enschwe
ĠgroÃŁart iger
Ġerf and
ĠFar m
Ġch ron
ĠDem onstr
imen ten
Ġerstaun t
spr uchs
ĠZwei ten
Ġbi ologisch
ĠKal orien
ĠInf ektion
ĠGel Ã¤nde
Ġstud ierte
ĠSym bole
Ġtie fen
ĠGeheim nisse
ĠKol onie
ĠTal iban
gra mmen
ĠBal ance
Ġindividu elle
ĠJo e
ĠDre ie
ĠerÃ¶ff nen
ĠEm issionen
ĠAuff assung
ĠAnrei z
ĠVorh ersagen
ĠvergrÃ¶ ÃŁern
ĠHor izont
ĠSel ektion
zir k
ĠUnser e
ĠOptim ismus
ĠReihen folge
ĠTÃ¤u schung
ĠLux us
ĠFettleib igkeit
Ġzutief st
A pp
C omputer
E twa
G r
S u
W ill
f iz
g st
k ind
m eld
p rim
Ã ¡
Î ²
en a
Ġw ild
ĠS us
ll ten
gen den
hr er
Ġk at
ĠM ir
Ã¶ mm
Ġf arb
Ġf rÃ¶h
ber eitung
ĠB rÃ¼cken
ĠD ek
ĠL ar
ĠT ropfen
Ġauf zunehmen
ĠH ass
ol um
be llen
ĠN otwend
Ġaus lÃ¤nd
Ġaus wÃ¤hlen
Ġaus reichend
ĠJ es
Ġum setzen
ĠSt abilitÃ¤t
och t
ut s
ĠVer pfl
wei ten
ĠC E
Ġbei zubringen
ĠBe teil
os op
Ġdar zustellen
Ġst ren
Ġkl ug
ze ll
fl os
ist r
im on
rÃ¤ gen
zen z
schl afen
ĠFl ut
Ġinter akt
ĠBl asen
ĠGrund lagen
Ġges ucht
od ie
gef angen
sicht igen
âĢ ĺ
ĠSte ine
ĠÃĦ qu
ĠPl atten
ennt nis
schw ing
ĠWo hnung
ĠProdu kten
bo ard
ĠRob ot
ĠTED Talk
ĠAt ome
Ġdr Ã¼ber
fÃ¼hr ten
ĠPo esie
iff er
ĠBr and
ĠAnt arkt
ĠAnt hrop
ehl en
ĠSter blichkeit
rop ie
ĠFr ucht
Ġbr eit
Ġbr ennen
stra te
app e
schul dig
schul digen
viel falt
ĠApp l
Ġumge kehrt
ĠIndividu um
wech seln
Ġblie ben
ĠBlog s
ĠDre h
Ġvirtu elle
ĠBesitz er
oler anz
ĠKomment are
ĠVern unft
ĠHilfs mittel
rimin alitÃ¤t
ĠMagaz in
ĠZent imeter
ĠHypoth ese
ĠDipl omat
ĠChirur gen
Ġgeeig net
ĠVie h
ĠAug ust
aver ei
ĠTenden z
ĠschlÃ¤ gt
ĠConne ct
A A
A IDS
G lauben
H e
] ,
d o
d ann
f iel
f ace
f aktoren
g ei
k rÃ¤fte
w ichtig
Ġd an
in i
Ġm ax
Ġm aÃŁ
ge zogen
Ġv ierten
ĠS ehr
Ġb iz
Ġb zw
ĠM otto
de lt
den n
ach ter
ĠG ore
Ġge prÃ¤
ĠB rit
se ktor
Ġan zunehmen
ĠL ust
ĠL KW
um p
Ġver fl
ĠT her
ĠT ran
ĠI ron
ĠH ung
ĠR ennen
ra v
Ġj agen
ag ert
il itÃ¤t
Ã¤n zer
ĠSt ap
ĠSt urm
ĠÃ¼ber s
Die sen
ĠEr le
ĠEr laubnis
os is
Ġsp az
ab b
ĠEn des
bl icken
ĠgroÃŁ em
Ġbes ie
geb nisse
Ã¤nder ung
pf ern
ha fter
ĠWei ÃŁen
ic tion
ĠPh antom
pl Ã¤tze
iss ion
ĠMa is
Ġget ragen
Ġget rieben
Ġgl amour
ĠMet han
Ġanzu wenden
All erdings
fÃ¼hr te
ĠHÃ¶ hen
Ġniemand em
Ġfl ach
ĠCo us
Ġged reht
ĠVir gin
Ġtief greifen
Ġfort sch
ĠtÃ¶ tet
KÃ¶n nte
ĠDa her
ĠFeuer wehr
ĠSol arenergie
ĠRau ch
Ġeinzig artige
ĠAk adem
Ġeffekt iver
ĠKlimaw andels
ĠEinkommen s
kam pf
ĠStandard s
ĠDiskuss ionen
fil m
ĠiP od
ĠHeil ung
ĠKop ie
Ġmerk te
ĠKÃ¤ se
Ġbeteil igen
Ġeigent lichen
Ġklass ische
Ġschm utz
ĠDimen sion
ĠmÃ¤nn liche
fir men
Ġermut igen
frei heit
Ġindustrie lle
ĠTun n
ĠPassw Ã¶rter
ĠOffen heit
Ġgesellschaft lichen
fig ur
Ġtransport ieren
ĠwÃ¼s sten
ĠRhy thmus
Ġintens iv
ĠExp ed
ĠPho sph
Ġkorre kt
Ġverur teilt
ĠSchlagz eilen
ĠExplos ion
ĠAnh Ã¤nger
ymm etr
Ġspekt akul
. :
1 00
6 0
9 9
A h
B M
D r
M odell
a o
a ÃŁen
h inge
h ielt
k ern
k urs
n a
v al
w ol
y t
z ieren
Ġ rÃ¼
in ierte
Ġs c
Ġs endet
Ġe ur
Ġe uer
st ock
st heorie
Ġun aus
Ã¼ hren
Ġv ollen
sch rank
Ġz ivil
Ġk al
it Ã¤re
ĠA gen
Ġf alten
ber eiten
Ġge leitet
ter ten
ĠB Ã¶r
ĠW ale
ĠK reise
se y
Ġan re
ĠF ing
ĠL ou
ĠT sun
Ġbe wiesen
Ġwie gt
Ġwar f
Ġwar st
Ġl ese
ft ig
ĠN ar
Ġp ein
Ġall m
ĠLe go
Ġnoch mals
ĠUn sicherheit
Ġre det
all el
fÃ¼ gt
ekt ionen
iz itÃ¤t
ĠGes etzen
ver schmutzung
Ã¼n dung
Ġvers agt
lei den
ok raten
ĠFl aschen
form ationen
Ġinter view
ĠKl ar
Ġange wand
ĠMon t
Ã¤l en
ĠEx tra
ĠPerson al
Ġgel ingt
ĠMar y
ĠWe gen
Ġgest ohlen
Ġjeden falls
ĠMan agement
ĠGroÃŁ eltern
Ġte ure
Ġeinge stellt
ĠRob otern
ĠgroÃŁart iges
zei ge
Ġglob aler
ĠFar b
err y
ĠSchwe fel
Pro blem
Ġaktiv ieren
rig ht
Ġkeiner lei
ĠErf indungen
ĠZentr al
ĠGol den
ĠStre cke
oo le
Ġdrin gend
ĠFel der
ĠerwÃ¤hn te
ĠKlei der
Ġtrau r
ĠChin as
ĠRestauran ts
ĠLaptop s
ĠAnw alt
ĠWichtig keit
ĠBeob achtung
ĠImpf stoff
ĠArbeitspl Ã¤tze
Ġbeschleun igt
ĠWel tw
ĠPrim aten
mechan ik
ĠSÃ¤uget iere
ĠTÃ¶ chter
ĠSpann ung
ih ad
Ġverkauf te
ĠGerÃ¼ st
ĠHal b
Ġkonsum ieren
Ġsorg fÃ¤ltig
ĠUrkn all
/ &
C har
D A
M ar
S W
S yn
a j
b le
b ran
c omputer
d iger
k Ã¼r
k ins
k reisen
l eitung
m ed
n eu
o hnen
p al
t reten
Ġ :
ie fer
Ġw einen
st immt
ĠS echs
ĠS endung
Ã¤ le
Ġb aten
Ġzu letzt
Ġf Ã¤
ĠG aler
ĠB ob
ĠB Ã¤ren
ĠB ranche
ĠE U
ĠF ert
sen den
ĠL Ã¼gen
ĠT ank
re bs
is er
Ġauf stehen
Ġmit tel
ĠH altung
ĠZ us
ĠZ will
ĠN Ã¤chstes
ag net
ĠSt ory
ĠÃ¼ber denken
Ġim p
ĠVer Ã¶ffent
scha fter
ĠAn liegen
und ation
ĠMenschen rechte
Ġst r
Ġst reiten
ick te
Ġdurch laufen
op ter
ĠgroÃŁ zÃ¼g
fl Ã¼ss
Ġkon st
ĠfÃ¼ t
art h
In dustrie
ĠOr chester
Ġwieder ver
auf nahmen
zent ren
att ung
ĠBild ungssystem
ĠUnter halt
Ġbesser er
ĠInter aktionen
ĠSo wjet
stand ard
yp en
Ġgel ben
pro be
ĠPl Ã¤ne
Sch au
ĠVerb raucher
ĠRei s
ĠBuch es
ĠWo hltÃ¤tigkeit
Ġschwer en
Ġaller er
Ġeinge schrÃ¤n
ĠWer be
ĠDi kt
ĠBed auern
if iziert
ĠKor tex
ĠIndien s
ĠHerz inf
Ġdrau ssen
Ġerk annten
Bei de
ĠPol y
ĠSon g
ĠFrei zeit
ĠHa fen
wohn ern
Ġaktiv iert
ĠÃ¶ff nete
ĠverrÃ¼ck ten
vent ionen
rate g
Ġfre ue
Ġschlechte s
Ġfantast ischen
ĠStre ben
Ġbean twortet
Ġdrin nen
Ġakzept iert
ĠPil z
ĠreprÃ¤sent ieren
Ġreligi Ã¶se
ĠBrenn stoff
Ġberech net
ĠKrit ik
Ġklin ische
ĠImp uls
Ġgep lant
ĠBerechn ung
ĠLes er
burg h
Ġmin imal
ĠSkl aven
ĠSchle chte
ĠPaten t
ĠMerkmal e
ĠIniti ative
ĠSubst anz
ĠStick stoff
Ġass ozi
ĠSchizophren ie
ĠNotwend igkeit
N ummer
R B
S agen
S omit
Z w
e get
g Ã¼nst
h ett
y a
y le
er ung
Ġs icht
ich ern
Ġb Ã¶se
Ġzu einander
or gan
it h
em en
ĠM od
Ġg ol
ĠG laube
el son
ĠB Ã¶se
ĠW all
ĠK ub
ĠE le
ĠL ein
ĠL iz
Ġver p
Ġver raten
ĠT ed
Ġmit hilfe
ĠH en
ĠR ay
ra ham
ĠV aters
us ste
Ġl ine
ĠfÃ¼r chten
ĠN eg
ag ten
il z
il and
ĠSt ate
ĠÃ¼ber le
Ġim prov
ĠVer k
iv itÃ¤t
ĠPro to
ĠC ra
ers age
Ġre gener
ĠU lt
Ġr Ã¤um
Ein mal
ĠWir bel
Ġar chite
ĠAus sehen
ĠVor bild
ĠNe andert
ĠBl ack
Ġwahr genommen
qu e
ĠBer gen
ĠSo c
Ġ5 5
Ġerst mals
ĠEnt ropie
achte l
fer enzen
âĢ Ļ
Ġgeb unden
Ġklein eren
ĠMit tag
ĠPl Ã¤tze
ĠTe ppich
ĠLicht s
ib le
ko mm
Ġgemein schaft
Ġnormal es
Ġhal fen
if izieren
ĠKomp l
ĠSon nt
Ġlei se
ĠBr un
ĠPar as
ĠPap a
ĠCo unt
ĠDurch messer
ĠSchwe llen
ĠLi ber
Ver b
ĠFr eit
KÃ¶n nten
ĠgefÃ¤hr liche
ĠKolle ge
Ġlau ter
ĠEinz ige
Ġlok al
Ã¼ss eln
Ġfinanz iell
Ġfinanz ielle
ĠLeist ungs
ĠMÃ¼ he
Ġeinzig artigen
schn itte
ĠInvest oren
ĠInse kt
Ġintelligen t
Ġerwei tert
ĠWor tes
Ã¼h ungen
ĠsÃ¼ ÃŁ
ĠFo undation
Ġmathemat ische
bas ierte
Ġag gress
Ġkomb iniert
Ġverwende ten
Ġmotiv ieren
ĠJul i
Ger ade
ĠNeben wirkungen
ĠeuropÃ¤ ischen
ĠRett ung
ĠbeschrÃ¤n kt
Ġland wirtschaft
Ġew ig
ĠKategor ie
Ġfokuss ieren
ĠKonstru ktion
ĠGet reide
ĠAnweis ungen
Ġvergewalt igt
ĠHon ig
osop hen
4 0
C H
I s
N etz
P er
R ichtig
S P
d achte
h irn
r or
r ein
r Ã¤t
u ckt
Ġw ahnsinn
Ġein gebaut
Ġh om
Ġh arten
Ã¤ ume
Ġb richt
ĠM inder
Ã¶ hnen
Ġf assen
ĠG rÃ¼
Ġge str
Ġge folgt
ĠW Ã¶rtern
ĠF BI
ĠL aw
ĠT ast
ÃŁ ig
ĠR ande
Ġl Ã¼gen
ĠJ az
ĠSch reib
rei ÃŁen
ĠVer sprechen
ĠVer schmutzung
zu halten
rÃ¼ sen
Ġmein t
Ġst rateg
ot herapie
ab druck
ĠLe der
rie be
Ġdurch aus
ĠSp er
Ã¤r ten
for scher
Ġkon tin
lie ÃŁt
Ã¤u sen
Ġpro blem
ant hrop
ĠKo ord
Ġkommen den
Ġjeder mann
Ġ4 2
erk rank
gew orfen
pro biert
Ġc oole
ome tern
setz te
Ġries iger
ĠglÃ¼ck liche
ĠAm y
Ġerre ichte
Des ign
old at
ĠVert rag
ĠpersÃ¶n licher
gegen wÃ¤rt
ĠBro okl
ĠChr omos
ĠTÃ¼r en
Ġschreck lichen
ĠNerv ensystem
anter weise
gest euer
ĠWohn zimmer
ĠAnal ogie
zut reten
ĠWol ke
Ġschlimm ste
Ġtyp ische
Ġschn eiden
Ġzentr alen
Ġverle tzen
ĠGest alt
ĠQuanten mechanik
Ġangeb oten
ĠGrÃ¶ÃŁen ordnung
ĠSl ums
ĠSei fe
Ġmiss b
ĠSkl averei
krie gen
ĠFreiwill igen
haf tes
Ġentfern ten
Ġfoss ilen
ĠKarik atur
Ġerlaub te
Chin a
Ġverhei ratet
ĠSmart ph
Ġdan eben
D rittens
K B
W ar
d ieren
i ktion
u ter
u ert
w ann
er te
in er
Ġw andern
Ġs au
Ġs orgt
Ġe le
ei ert
Ġein fÃ¼hren
ĠS ah
ir tschaft
ar men
gen der
Ġf ahr
Ġg reif
Ġge legt
ĠK Ã¼n
se x
Ġan ziehen
ĠF asern
ĠP andem
ro s
Ġver deut
Ġver letz
ĠT raditionen
Ġbe scheiden
ck el
Ġmit gebracht
ĠH ipp
ĠR asse
Ġwar tete
ĠV it
ĠV isu
ĠZ ehen
ĠJ im
Ġum fasst
om etr
eil t
sp lan
ĠPro fit
ĠC lin
ĠAr g
ĠAn nahmen
ĠAn lage
Ġent setz
Ġher stellt
et s
Ġdurch gehen
we lle
her z
ĠU fer
Ã¤r t
Ġr uss
bar ung
im ieren
rach ter
stell bar
sam er
Ġgew ohnt
ver standen
geb ieten
Ġger inge
ok al
rit ts
fahr ung
Ġbet r
ah ll
br icht
ĠnatÃ¼rlich er
ĠRaum es
ĠRaum schiff
ide e
Da vid
Ġschl icht
Ġdir ekte
ĠauÃŁer ordentlich
ĠDe te
Ġbef and
Ġwicht iges
Ġse quenz
ĠStu fen
Ġvert eid
ende te
ĠBab ies
Ġjen es
ĠAnt rieb
Ġfl ogen
Ġteil t
ĠbenÃ¶t igte
Wer den
Ge w
ĠBÃ¼rger krieg
Ġbew ahr
Gen auso
Ġtechn isch
Ġerfolgreich e
ĠDro hnen
ogra fen
vent uell
ĠPsych ologen
ĠPoliz isten
Ġgewalt igen
ĠRau b
ĠMÃ¤r kten
wech s
Ġnutz te
Ġemotion alen
Ġfehl en
ĠPil ot
ĠKÃ¶rp ern
Ġsolch es
ĠlÃ¤ch eln
ĠHeimat stadt
ĠElektro den
Ġprogramm iert
ĠrÃ¼ck wÃ¤rts
Ġklin ischen
Ġelektron ische
ĠNeurowissen schaft
ĠTief see
Ex per
ĠtatsÃ¤ch lichen
ĠMobilte lef
ĠNÃ¤hr stoffe
ĠDsch ihad
ĠverblÃ¼ffen d
Ġtrain iert
ĠKandid aten
gehÃ¶r igkeit
col n
ĠDop amin
Ġangewand t
Ġarchite kton
1 1
D o
D ank
M ach
c ode
h Ã¤u
r el
s w
u gend
v iertel
z one
ie ber
Ġm ed
Ġein fallen
ge ls
on ach
ĠS w
Ġh Ã¤
Ġh ey
Ġn ational
Ġb inden
Ġb ild
Ġb ringe
Ġk le
Ġk raft
or ischen
at schen
em pf
ĠG Ã¼ter
ĠB amb
ĠB ombe
se el
ĠE twas
Un gefÃ¤hr
Ġden kst
ĠD V
ĠD Ã¼
ĠL eit
ĠT iger
ĠI I
Ġauf gestellt
ĠR assen
ĠR atte
Ġsch ufen
ĠV Ã¤ter
Ġl an
be cken
be tt
ĠZ un
Ġaus zur
Ġaus probieren
ĠJ ose
ik alen
Ġp flanzen
ĠSch Ã¤tzung
rei ber
Wir d
wei ÃŁ
Ġwo anders
ĠEr wei
os kop
Ã¤ch ter
rie f
et ro
Ġkl op
Ġab hÃ¤ngt
ungs mittel
Ġbis lang
Ã¤u ber
ver sprechen
ĠKon vers
ĠKon serv
geb ildet
Ġverb orgen
alt ungen
ĠBer eit
ĠBer Ã¼hrung
ĠWei zen
Ġneue sten
ĠAl b
Ġgesch m
Ġgest iegen
Ġanders wo
lÃ¶ ser
Ġgemein t
ĠKunst stoff
av ig
Ã¼tz e
ĠOb dach
Ġglob ales
ĠSinn es
ĠLehrer in
ĠProgramm ierer
vers icht
wend ig
ift ung
Be weg
Ġfre uen
ĠGu mm
Ġaut omat
ĠAnge sicht
Ġaufre gende
Ġ201 1
Ġ201 2
ĠJohn son
Ġhinge gen
ĠmÃ¤cht ige
Ġphys isch
Ġsowie so
ĠKol onien
19 9
ĠPal Ã¤st
Ġtyp ischen
schlÃ¤ gen
Ġaufw uchs
Ġschwarz es
ĠSil icon
ĠInnen stadt
ĠBeob acht
ĠGar age
ĠPfer de
ĠFlÃ¼cht linge
amerikan ischen
ĠWurz el
ĠErkrank ung
ĠKomment ar
Ġfurcht bar
Ġkognit ive
Ġtransport iert
ĠbestÃ¤t igen
ĠverknÃ¼ pft
Ġphysikal ischen
ĠtatsÃ¤ch liche
ĠRett ungs
ĠSpan ien
ĠDÃ¶r fer
rimine llen
ĠAngelegen heit
gespr Ã¤ch
Ġrest lichen
Ġverbrei tete
ĠKonzentr ation
Ġspont an
ĠBehÃ¶r den
Ġverdopp eln
ĠPrem ier
ĠJaz z
. '
J ohn
M o
R o
k ennung
l ers
m itte
m edizin
r and
s al
Ġ ue
Ġw ette
Ġs erv
ich e
an ia
st ers
st eigt
Ġein bringen
ĠS hang
ĠS now
sch rau
ar re
Ġb ot
Ġzu hause
it Ã¤ren
Ã¶ tt
ier st
Ġg riech
ĠG ehen
Ġge z
Ġge sen
ĠW aren
le uchten
Ġan spruchs
Un g
ĠL ong
ĠT es
ĠT atsÃ¤chlich
Ġauf halten
Ġso lle
ĠSie ben
ĠH ell
ĠH ektar
Ġsch mal
ĠZ y
Ġaus probiert
ĠJ ur
ĠSt olz
ĠÃ¼ber l
om Ã¶glich
ĠSch ach
sp ringen
Ġje gliche
zu cht
ĠPro v
Ġvor schlagen
ĠIn der
ĠEr nte
Ġst ol
Ġle hrt
ĠLe tz
bl att
ungs weise
ĠmÃ¼s st
iz ierten
Ein fach
In s
ĠHer steller
ĠLand schaften
ĠKl ass
ĠBer at
ĠSo uth
Ġwill kommen
Ġ20 50
Ġjeder zeit
Ġbesch rieb
Ġmensch lich
lo w
Ġausge drÃ¼ckt
Ġverm uten
Ġklar e
Ġverk Ã¼n
ren zen
ĠgrÃ¶ÃŁer es
Ã¼tz ten
Ġhinter her
ĠNetz werken
Ġde prim
Ġries ig
Ġ% .
okrat ie
ĠfÃ¼hren den
ĠAm b
ĠWerk zeugen
Ġlos zu
ĠPo wer
Ġansch au
Ġauszu probieren
Ġfl u
ĠDurch bruch
ĠgrÃ¶ÃŁten teils
Ġwachsen de
Ġwachsen den
ĠÃĦr ger
Ġbr ut
stra hl
Ġind ische
Ġtechn ologische
ĠTem pel
ĠBakter ium
beh alten
Ġanf ingen
ĠZuf Ã¤
ograph ic
ĠRau schen
ĠWohn ungen
bÃ¼ chern
hei mlich
Ġkrit ische
ĠDel f
ĠVerkehr s
ĠTau ch
ĠTre ppe
eucht ung
Ġintegr ieren
Ġintegr iert
Ġentsprechen d
ĠInteress antes
We gen
ĠPassw ort
ĠRake te
ĠInterview s
ĠRhy th
Amer ikaner
Ġstaat lichen
ĠAtlant ik
ĠverÃ¶ffentlich te
ĠHÃ¼hn er
Ġschul dig
Ġbeherr schen
Offen sichtlich
ĠÃľberwach ung
Ġuniver se
ĠDist anz
izz a
Ġaben ds
ĠKonkur renz
Ġwahrschein licher
ĠÃĦthiop ien
ilem ma
ĠprÃ¤zi se
Ġele gan
7 0
C O
E m
L and
V ort
W eiter
b licherweise
d igkeit
k rÃ¶
l ast
m te
m asse
m Ã¤nner
s zeit
ie hen
Ġe ventuell
an zug
st amm
Ġein ig
Ã¼ bt
Ġi sst
Ã¤ ge
ar den
ar ent
Ġk art
ĠM eile
ĠA tt
ĠA ffe
Ġg rauen
ber echt
Ġge schei
ĠB esser
ĠW ander
Ġan hÃ¶ren
Ġver anst
ĠT enn
is ationen
ĠH um
ĠR ing
ra gend
Ġsch enken
Ġt rugen
Ã¼ber greifen
be stand
ĠN ick
Ġum gew
ĠSt rÃ¶
ĠÃ¼ber nommen
Ġp erson
om etrie
ĠGe fÃ¤
ĠSch langen
ĠPro g
ĠC el
ĠAr kt
Ġwo hnen
ĠAn passung
ĠEr t
Ġhier bei
ot ische
ĠEn zy
Ġdurch einander
ĠUn fÃ¤lle
Ġviel fÃ¤lt
fÃ¼ llen
Ġr ational
bar t
ĠEin fÃ¼hrung
est er
In stitut
geb rochen
Ġob jekt
Ġzusammen fassen
ĠZu hÃ¶ren
ĠFor d
ĠBl ind
Ġange wendet
Ġwill kÃ¼r
ĠFre quenz
ĠAb sichten
ĠAl gen
cher ch
als o
onder s
Ġklein sten
ĠMin er
ĠVerb rauch
ĠComputer s
ĠmÃ¶glich st
ĠY o
Ġwenig sten
ĠMan chmal
Ġfest halten
Ġbef rie
ĠHaus halt
ib ilitÃ¤t
ack te
yn man
Ġbetrach te
ĠNew s
ĠProjekt s
ĠSchw immen
dig ungs
Mein er
ĠLin coln
Ġvert reten
Ġpolit ischer
ĠKap azitÃ¤t
Ġexist ierte
Wo llen
ĠOzean s
af Ã©
ond s
ore a
Ġerle bte
stra hlung
Ġempf angen
ĠKal k
Ġbedeuten de
ĠHimmel s
ĠBaum k
Ġauft au
ĠStamm es
ov a
Ġmoral isch
reg ion
ĠgewÃ¶hn liche
ĠTrans formation
ĠBal ken
ĠMÃ¶ gliche
Ġverwir klichen
ĠVerhaltens weisen
Ġneg ativen
ĠTer min
Ġanalys iert
Ġzuzu hÃ¶ren
Ġmass ive
Ġausgest orben
ĠKlin iken
ĠBestand teil
Ġkollektiv en
Ġzust immen
Ġbedeut sam
Sol che
Reg ierung
ĠberÃ¼ck sichtigt
Ġstre ben
ĠBrow n
Ġdiagnost iziert
ĠKonz ert
Ġinterpret ieren
Ġmuslim ischen
ĠEinschrÃ¤n kungen
ampag ne
Ġverlei hen
Ġgeg laubt
ĠWilli am
ĠHeran gehensweise
ĠMR T
ĠmÃ¼ de
ĠInterpret ation
Ġjahrel ang
ĠJes us
ĠBrookl yn
Ġlan det
" ?
B A
K einer
L ass
M al
O L
P o
a ste
a sten
b em
d iert
h ern
h aut
i alen
i br
l eitungen
m inen
n ess
z og
Â °
en ke
er es
er kt
un tern
Ġe urer
an fall
Ġun heimlich
Ġein einhalb
ĠS om
ĠS qu
ĠS eiden
ĠS av
ir ekt
sch altet
sch Ã¤tzung
Ġh ing
Ġh andelte
ar er
ar ter
Ġb ahn
at sch
au schen
al teten
Ġf ange
ur ger
Ġge lei
Ġge laufen
ĠK ochen
Ġan n
ĠE go
ĠF ischen
ĠF unk
ĠF eucht
Ġer heben
ĠP est
ĠL ine
ig nen
Ġbe quem
Ġsch wei
Ġsch uf
Ġsch Ã¤tze
ĠV ent
ĠSt Ã¶rung
Ġp rim
Ġp opul
hl st
ĠSch ein
ĠSch ad
ĠVer sch
ĠVer rÃ¼ck
ĠVer gewalt
Ġander erseits
ĠEr ic
ĠRe par
ru he
schaft s
et ts
Ġre cyc
Ġre cherch
Ġunter einander
ri sen
Ġste hlen
Ġste uert
Ġkon vention
ĠEin en
ad s
olog isches
rÃ¤ der
gend a
ster i
Ġwieder hol
ĠAus schnitt
Ġvers orgt
lei d
ak s
Ġange zogen
ĠWei sen
br eitung
Ġges unken
ic o
ss lich
Ġsicher en
Ġgel Ã¤hmt
no sen
ĠEntwick lungen
Ġfest zustellen
Ġrie cht
zahl t
kon trolle
ĠForm el
Ġstar teten
Ġhal bes
ĠJahrhunder te
voll es
ĠFilm em
Ġch arakter
ĠUr laub
ĠRÃ¼ck seite
Ġfor dern
Ġfor mt
ĠPart eien
ĠÃ¶ffent licher
Ġunters uchten
ĠKÃ¼ chen
Wissen schaftler
ans as
itut ion
ĠFuÃŁ gÃ¤nger
ĠbeschÃ¤ft igte
Ġgeh st
Ġbed roh
ĠZeich nung
rist all
ĠKan al
uz z
Ġgewalt ig
ĠNot fall
zut ragen
Ġumge setzt
ĠBen j
ĠMÃ¤r z
Ġintelligen ten
Ġwesent lichen
ĠunabhÃ¤ng ige
hÃ¶ he
ĠRÃ¤ umen
Ġhe bt
ĠPort ra
Ġverwir r
Ġgener ell
Ġabsol ute
Ġneg ativ
eiger ung
ĠmÃ¤nn lichen
Ġidentif iziert
Ġhistor ischen
Ġmotiv iert
ĠUrs achen
ĠBestand teile
ĠHem is
Ġbrit ische
ĠbestÃ¤t igt
Ġlog isch
Ġbeeindru ckt
ĠVerwand ten
ĠAlex ander
Ġunmittel bar
ĠBeute l
Ġrech nen
Ġgarant iert
Ġschmerz haft
ĠWicht iges
Interess anterweise
Ġlieb sten
Ġgefl ogen
ĠTreibhaus gase
ĠSha k
Ġexperiment ieren
ĠdrÃ¼ck t
ĠermÃ¶glich te
ĠAntarkt is
Ġgol den
ĠDV D
G o
T ech
U p
Z ahl
b rett
d is
d ungs
d licher
f a
f one
i tes
k unden
k reise
u str
z el
Ġ raten
er ing
Ġd rittens
Ġw omÃ¶glich
un ion
Ġs ech
Ġs inkt
Ġs kal
Ġm od
ĠS ind
ir m
sch ern
Ġn imm
Ã¤ mmer
or ische
ĠM agen
ĠM att
Ġf ix
ĠG it
Ġge formt
ĠB ogen
ĠW arte
ĠK os
Ġan gel
Ġan kam
Ġan sonsten
ĠE arth
ĠP ack
ĠL ib
Ġver eint
ĠT i
ĠT eller
ĠT Ã¶ne
re ckt
Ġauf weisen
ĠR ate
ra st
eu chten
Ġt anz
be wohner
ĠZ elt
ĠN orth
Ġaus gel
Ġaus gelÃ¶st
ĠJ ust
ĠJ emand
ĠSt immt
ĠSt reifen
ĠÃ¼ber sehen
ut her
sp unkte
ĠC ap
ĠAn wesenheit
ĠEr den
Ġmein ten
Ġall gegenwÃ¤rt
Ġent schl
Ġent hÃ¼
Ġst ieÃŁ
ĠLe on
Ġwei blichen
ĠSp rit
op Ã¤d
Ġunter e
ess eln
Ġzwei er
Ġbes p
Ġbeg leitet
ĠAus gabe
ĠNe un
Ġ3 50
wo llen
Ġbet rÃ¼
Ġir on
ĠBl itz
ĠUm lauf
qu ot
ĠBeispiel en
ĠBer lin
ĠGen ome
ĠGen etik
ĠAb weich
br y
ĠGrund stÃ¼ck
Ġex ter
ĠEnt schuldigung
So urce
od y
ĠMe eting
Sch aut
ĠMin en
tr Ã¤n
hol ung
ĠUntern ehm
ĠHaus es
Ġweit aus
itu ation
Ġherum zu
mmun ity
mmun ikation
pr esse
ĠExper imenten
ĠRicht linien
euer ung
Ã¤uf e
ĠSk ala
ĠFahr t
ian ische
Ġersch ienen
ĠSter ben
Ġteil ten
ĠInd ones
Ġneben einander
urt eile
recht s
ĠgefÃ¤hr det
ĠAktiv isten
Ġtoll er
ĠJu den
ĠPark s
ĠBehand lungen
wÃ¼r dig
ĠDet ro
ĠMeeres spiegel
ĠGelegen heiten
Ã¤mpf ung
ĠwÃ¼n sche
maÃŁ nahmen
produ kte
Ġfaszinieren de
Ġemotion al
Ġkor rig
Ġspezi fischen
ĠkÃ¼nst lichen
pfl anz
ĠBrie fe
ĠDis ziplin
reu en
ĠMc Don
fert igen
Ġverwir rt
Ġignor iert
Ġgener ieren
ĠQuadrat meter
Ġfotograf ieren
ĠMat rix
ĠAma te
ĠNan o
Ġag ieren
Ġindustrie llen
amerikan ische
Ġkonstru iert
ĠTa fel
Ġgra ben
mensch en
ĠSkulpt uren
Ġschwe ben
ĠIns ulin
ĠEth ik
ĠverÃ¶ffentlich ten
ĠÃ¤lte sten
ĠAutob ahn
ĠAtomen ergie
Ġbeseit igen
ĠZut aten
Ġfreiwill ig
ĠstÃ¤rk sten
ĠEinkauf s
Ġphil osoph
ĠFÃ¼hrungsk rÃ¤fte
ĠSec ond
Ġeur em
ĠCount y
ĠPremier minister
Ġumgew andelt
B est
C l
D aten
F ragen
H a
H off
M acht
P R
S on
i als
k Ã¶mm
l i
o ffen
Ġ /
Ġd rucken
st Ã¼r
st ro
st ad
on a
Ġv ari
ĠS ucht
sch merzen
Ġh or
es st
Ġzu sehen
at ar
Ã¶ scht
Ã¶ konom
Ġf uer
ĠB ol
ĠW ahnsinn
Ġan rufen
ĠF ast
Ġer schafft
Ġer schwing
ĠP yramide
ro llen
Ġver schaffen
Ġver setzt
Ġver arbeitet
tz Ã¼ndung
ĠH ang
ĠH ong
ĠH uman
ĠV aku
Ġt ier
Ġt oten
ehr er
ste uropa
ĠN ieren
il ometer
Ġp acken
om aten
ĠSch alter
ĠSch afe
ĠC re
ĠAn zeige
Ġent scheidet
ot te
ĠRe formen
Ã¤t igen
hal ter
ab len
ĠSp ender
Ġre ag
fÃ¼ llung
ĠfÃ¼ gen
ĠGr Ã¶s
stell igen
Ġbeg rÃ¼n
Ġbeg riffen
Ġlie fen
Ã¤u schen
ver w
ver stÃ¤ndnis
Ġzw anzig
ĠUnter drÃ¼ck
Ġgef il
ĠAb wasser
Ġverl Ã¤uft
ic an
wie gend
pro ben
pro duz
ĠSte uern
lo cken
ĠEl end
Ġunglaub liches
stÃ¤nd igen
ĠSchul den
ĠHaus aufgaben
zahl ung
spro du
Ġfol gte
ph ysik
Ġse x
ĠArten vielfalt
Ġanzu fangen
ĠErgeb nissen
ĠStr assen
ĠPol ar
ĠSk iz
az ier
ĠArch iv
ĠZug riff
ĠBet rachter
ĠChr isten
Ġsamm elt
Ġbein halten
ĠBot schaften
Ġhol te
ĠGra ph
Ġpsych ische
ĠGlauben s
Ġeng agieren
ĠHÃ¤user n
ĠVari ationen
Ġspezi fische
beweg ungen
ĠÃĸkosystem e
ĠJugend lichen
Ġinst itution
entwick lung
ĠSchwei z
ĠSchwei gen
Ġmathemat ischen
ĠEing ang
Ġausb reiten
ĠVerletz lichkeit
Ġneg ative
ĠHall uz
Ġkauf ten
Ġdemokrat ische
ĠTie fen
Ġengl ische
ĠKonflik ten
Ġausgest attet
Ġdom inieren
ĠVorh ersage
ĠdÃ¼n n
Ġfundament ale
ĠFrÃ¼h stÃ¼ck
cyc ling
GroÃŁ e
Ã¤sth esie
ĠEigent um
ĠTherap ien
Ġverpflich tet
ĠMyth os
ĠKore a
ĠvergrÃ¶ÃŁer t
ĠFro sch
ĠMandel a
ĠProb anden
olum ines
ĠRobot ik
ĠgeprÃ¤ gt
ĠLein wand
Ġkontin u
ĠShang hai
2 5
: "
K rieg
L aut
N G
S h
V ir
b us
b ranche
d ichte
h immel
k aufen
m il
s f
v ort
y pt
z ehn
Ġ x
Ġs k
Ġs uche
ei fe
Ġun n
Ġein ger
te ch
Ġi talien
ĠS n
ĠS onder
ir urg
Ġh Ã¤r
Ġh arm
ll er
Ġk alten
Ġk Ã¤me
ein heit
it or
Ġin ne
ĠM i
ĠM ord
Ġau stau
ĠA gr
ĠG ig
ĠG lied
ĠW i
ĠW Ã¤hrend
ĠW ett
ĠK Ã¶
ĠK ra
ĠK ell
le gung
se he
ĠF ang
ĠF Ã¼n
ĠP rie
Ã¼r e
Ã¼r t
ĠD Ã¼r
Ġver einen
ĠT ar
re den
ĠH Ã¤
ĠV eget
ĠZ unge
ĠSt irn
Ġp ost
ĠGe gner
ĠGe ometrie
sp rech
ĠPro stat
ĠC omp
Ġvor kommt
ĠâĢ ¦
ĠAn spruch
ĠEr be
ĠEr klÃ¤r
Ġst amm
ĠRe chten
ĠEn gel
bl eiben
Ġwei sen
mal t
her um
ri f
Ġab gel
Ġzwei ter
art ikel
ĠEin ladung
ad o
ap ur
Ġhin ab
ats on
ĠCh ile
ĠVor lie
ĠHer bst
Ġ3 7
alen te
ĠArbeit sk
ud d
Ġzw ang
ĠBl ume
Ġverw andt
ĠSo urce
teil te
ĠGen ie
ĠAb raham
Ġinteress ierte
Ġerst mal
ĠLebens unter
Ġsicher e
Ġschw amm
Ġschw anger
ĠÃľber fluss
ĠFil men
Ġte urer
ĠVers uchen
Ġrie chen
ĠNatur schutz
Ġnormal er
bo x
Ġkurz es
Ġro llen
gesch rieben
ĠKor alle
ĠGl amour
rom agnet
Ġbeein tr
dr esse
Ġmag net
ĠglÃ¼ck licherweise
ĠNeu seel
ĠJe de
hÃ¤lt nisse
Ġor ient
ĠKÃ¼ he
ĠTr ennung
ĠHo ward
jÃ¤hr iges
Ge b
ĠRis ik
Ġreich e
Ġzer brech
Ġend gÃ¼lt
Ġdunk ler
produ kt
ĠSchluss fol
dre w
En twick
Ġtransp arent
ĠStÃ¤r ken
Kl ar
ĠCol a
Ġdiskut iert
jahr e
ĠTex te
ĠBri an
ĠErzÃ¤hl ungen
Ġlangfrist ige
Ġbelieb igen
Ġinnov ativ
ĠKr am
Ġplatz ieren
fÃ¶rm ige
ĠÃľberzeug ungen
ĠBesonder es
Ġra ff
stechn ologie
ĠVÃ¶lker mord
Ġkop ieren
ĠKategor ien
ĠDÃ¶r fern
ĠmerkwÃ¼r dig
ĠKrankenhÃ¤user n
Bet rachten
ĠAutom obil
ĠRitu ale
Ġvergleich bar
Ġsimul ieren
ĠKÃ¼nst lern
ET I
ĠCarol ina
Null summen
ĠRepubl ikaner
ĠZur Ã¼ck
ĠIron ie
ĠExped ition
Ġpein lich
ĠHemis ph
ĠIndones ien
ĠDetro it
Ġkontinu ier
. -
G l
I de
P ar
V erstehen
W en
h es
i ode
k et
o ster
r ungen
t halb
w el
y d
z in
Ġs er
Ġe hren
an er
an ische
st unden
Ġein her
te in
ge ts
Ġi mmen
on anz
ĠS at
Ġn ette
Ġz ert
gen au
Ġk an
ĠM ur
Ã¶ cke
Ġf Ã¶rdert
ĠG Ã¤n
ĠG ange
ĠG rab
ĠK ro
se g
se t
ĠE c
sen z
ĠP ion
ĠP anz
ĠP izza
ĠL as
Ġver geben
Ġver folg
ĠT ruppen
re gel
re gend
Ġauf stellen
tz u
Ġl itt
ĠN o
ĠN elson
ĠJ et
Ġum wandeln
and te
il a
ĠSt ipend
Ġp reis
och ten
om a
ĠSch er
Ġim pl
ĠVer mut
ĠPro fil
ĠAn zug
ĠEr schaffung
ĠRe den
Ġher kÃ¶mm
ĠUn ger
Ġunter r
ĠZeit ra
wer en
fl Ã¼gel
Ġkon kre
ĠEin es
sa hen
Ġger ufen
ĠNe bel
ha lle
ĠKl Ã¤nge
Ġwoll t
Ġben annt
eich en
ĠgrÃ¶ s
me er
ĠMon ter
Ġges undheit
Ġ20 20
ĠLebens stil
ĠNach denken
hem a
ord nungen
ĠPh asen
ĠPh arma
Ġgel be
Ġgel ungen
Ġklein ste
ĠMit leid
orden t
ĠKre b
id s
Ġung leich
Ġgest oÃŁen
etz ung
Ã¤tz lich
Ġoft mals
Ġbef anden
St u
zess ion
ĠNew ton
ĠFot ografie
dig te
ĠForsch ern
pr il
ĠExper te
Ġbestimm tes
ĠBau steine
ai sen
ĠGrÃ¼n der
Ġlei tet
entr um
ĠUmwelt schutz
eister ung
ĠMittel n
ĠGleich ungen
Ġverschw and
Ġstark es
ĠNu kle
ĠLi ppen
Ġkonzentr ierte
Ġqu ant
Ġfr isch
ĠErd gas
Ġru ft
Ġwirtschaft lich
Ġ199 9
ĠSau di
ĠBehand lungs
Ġerg reifen
Ġkosten gÃ¼nst
ĠRessour ce
Ġaut on
fre quenz
Ġgewalt t
Ġseltsam en
ĠMeeres boden
Ġniedr igen
ĠZivil isationen
Ġgesp eichert
ĠKur se
ĠgewÃ¶hn lichen
seh bar
ĠFinanz ierung
ĠauÃŁergewÃ¶hn lichen
Ġzeich nete
19 8
ĠGehir nen
ĠFein de
ĠRed ner
Ġeint reten
Ġdurchschnitt lichen
port ion
ĠJournal ist
ĠAnw Ã¤lte
lÃ¤uf e
ĠCom ics
ĠKreuz ung
ĠOrig ami
Ġkognit iven
Ġverring ert
ĠGanz es
Ġisol iert
Ġherausf anden
Bo ot
haf tet
ĠberÃ¼ck sichtigen
ĠPrÃ¼ fung
rimine lle
mitglie der
ĠwÃ¤r mer
ĠFrie d
Ġislam ischen
Letzten dlich
ĠverÃ¤nder ten
ĠCr icket
ĠÃ¶rt lichen
ku gel
Ġhung rig
Ġberu ht
ĠNov ember
ĠGand hi
otel es
Ġtend ieren
ĠDemonstr ation
Gr und
ĠHung ers
ĠTsun ami
ĠSowjet union
ĠErwei terung
ĠBenj amin
ĠShak espe
E ffekt
F ir
F angen
H C
J edoch
K ind
M e
M art
M ed
c el
h eil
i bl
i ologen
k ing
m ie
n y
o ckt
s g
u ko
w ander
Ġ ?
in ktiv
Ġw a
Ġw uchsen
Ġs or
Ġs ur
Ġs itze
Ġe uren
an gt
Ġun ber
Ġm ischen
Ġein laden
ĠS ech
ĠS agen
ĠS ud
ĠS ender
sch ool
Ã¤ uren
ten t
Ġzu ver
at a
it a
ĠM ike
Ġau th
Ã¶ ten
Ġg Ã¤ng
ĠG all
ĠK eller
ĠE cken
ĠD abei
ĠL ei
um pe
Ġver setzen
Ġver dr
Ġver sagen
Ġver schieben
ĠT as
ĠT abe
ĠT Ã¤nzer
ĠI BM
re en
Ġbe schaffen
Ġbe auft
am as
ĠH ey
ĠR em
ĠR eh
ra ktion
ĠV in
ent isch
Ġt Ã¤tig
ĠJ ones
ĠJ Ã¤ger
ĠSt ill
ĠSch achtel
Ġvor lesen
ĠO s
ĠEr folge
ĠBe wer
Ã¤ch te
Ã¤t tern
Ġre konstru
Ġgen annten
Ġeinfach ste
Ġr asch
aten t
im it
glich er
ĠGr and
Ġbeg raben
Ġzur zeit
Ġber eiten
Ġger eist
kl in
ragen de
Ġheraus gestellt
zie ll
ĠUm fang
rag ten
Ġange griffen
eisten s
Ġirgend einen
Ġverl Ã¤sst
Ġ4 6
wir t
ĠRo y
ĠRo hr
arbei tern
ĠEl ite
ĠComputer programm
mp or
ĠGew issen
Ã¤hn liche
Ġrie fen
zeich nete
ho le
Ġeinge sp
ĠMo der
ĠBÃ¼r gern
ĠKunst werk
ĠSchw ein
ĠForsch ungen
Ġhinter fragen
ĠAuto un
if ikation
ĠÃ¤hn elt
ĠBeh Ã¤lter
ĠRÃ¼ck meld
Ġfor schen
ĠBeg eisterung
druck s
Ġlei det
wert ungen
Ġunters uchte
ograf ische
Ġkomplex es
Ġaktiv en
arm onie
lant ation
ĠEntwicklungs hilfe
ĠHier archie
gemein schaft
ĠSchÃ¶n e
ĠBesch leun
mÃ¤ÃŁ ige
ĠSy rien
ĠAnder e
ĠAnder en
Ġtau schen
reg ionen
Ġopt imal
Ander erseits
Ġbelie bte
ĠÃĦn gste
ĠCharakter e
ĠWÃ¼r fel
En tw
Ġtyp isch
vert rauen
Ġober e
fert igt
Ġel f
ĠTrain ings
zy klus
ĠMem e
use um
lÃ¤uf ig
ĠKrit iker
Ġangeb lich
Ġhistor ische
Zur Ã¼ck
Ġermut igt
ĠErzÃ¤hl ung
Irgend wie
Ġsyn chron
Ġmark iert
ĠNeurowissen schaftler
anal yse
ĠStimm ung
ĠTin te
Ġmanip ulieren
ĠAnstren gung
Ġtre ffe
ĠPrior itÃ¤ten
ĠGrav itation
ĠBron x
Ġnirgend wo
verl ust
Ġfolgender maÃŁen
Ġeinzeln es
Ġbeur teilen
ĠClo ud
ĠWÃ¼n sche
gei z
ĠPhosph or
ĠFing ern
ĠHerzinf arkt
Ġann Ã¤hern
ĠMcDon ald
ĠLebensunter halt
ĠNeuseel and
A d
D R
E M
L achen
M oment
M illionen
U r
a ida
b rach
f ell
n ie
n ot
n amen
n utzung
o sphÃ¤re
p idem
u v
er ken
Ġs ymmetr
ei ÃŁ
ei hen
Ġa h
Ġun zÃ¤hl
ge sehen
Ã¼ pfen
sch Ã¶pf
Ã¤ glich
gen Ã¶
Ġb lÃ¶
Ġk Ã¼n
em pl
der weise
Ġg reift
ĠG rau
ĠG ru
Ġge zeichnet
Ġge fÃ¼hlt
ĠB M
ĠK ino
ĠF iktion
ĠL Ã¼cken
ĠL iban
ig h
Ġver haftet
ĠT ausend
am ie
ĠH aup
ĠH istor
ĠR ab
ĠR ente
ra fen
ĠV eter
us alem
Ġl i
Ġl ohnt
be wegen
ĠN ote
Ġaus lÃ¶sen
ĠJ osh
ik um
och e
ĠGe ographic
eil er
Ġdem selben
Ġje weil
ĠO ut
Ġander thalb
men te
ĠEr b
ĠEr fÃ¼llung
ĠBe ll
Ġent nehmen
Ġst unden
ĠRe cycling
ab schluss
ĠSp rechen
Ġkl Ã¼
Ġkl asse
we st
ri pt
Ġab sichtlich
ungs f
ĠEin t
ĠEin stellungen
ist isches
ger te
ger issen
ĠGr enz
olog in
Ġweiter zu
ĠWir k
ĠOr bit
ĠKon g
auf gabe
ĠMill imeter
ĠAus nahmen
Ġber eitet
Ġger ichtet
mer k
Ġheraus stellt
Ġ3 1
alt ungs
ĠTechn iker
ak at
ĠZu hÃ¶rer
ĠInter face
teil ten
ĠMon ster
Ġ20 30
wie s
gew inn
ĠRaum s
eist ern
ele y
ĠStra fe
ĠMin i
ĠQu e
Ġgest euert
Ã¤tz ungen
isten ten
Ġen dete
iss heit
iar den
ĠVers icher
Ġ200 2
ges undheit
Ġweit gehend
Ġ7 2
abe th
Ġkurz frist
ĠRÃ¼ck gang
Ġabs or
ĠMein ungs
Ġaufge zeichnet
fel der
ĠAnt ik
Ġbel ohnt
ame ter
ĠFr anz
ĠgrÃ¼n deten
ĠNord pol
Ġur b
Ġbed arf
Ġ199 8
ĠPark inson
ins eln
ĠBesch rÃ¤n
Ġreg ulieren
ĠRau bt
ĠRau chen
ĠDenken s
Ġpsych ologische
stre cken
Ġtau cht
ĠBio sphÃ¤re
Ġres ult
dimension alen
Ġinst inktiv
ĠMobil itÃ¤t
Ġrad ikale
Ġkreativ er
yl inder
ĠFrem de
ĠMechan ismen
ĠVerletz ung
ĠSchei be
Ġdemokrat ischen
ĠDam pf
ĠkÃ¶rper liche
ĠEmpf Ã¤nger
ĠFlag gen
ĠVerbesser ungen
Ġstattf and
ĠTrau er
ĠBem Ã¼hungen
gefÃ¼ hls
Ġphysikal ische
ĠÃ¶konom ischen
ĠÃ¶konom ische
ĠMobilte lefon
ĠAngelegen heiten
ĠBan anen
Ġschock iert
ĠCamp us
pass ungs
ĠMent or
ĠGeschÃ¤ftsm odell
stÃ¤d te
ĠKÃ¼hl schrank
aller erst
Ġkooper ieren
ĠSzenar io
ĠErschein ung
Bes onders
Ġunangen ehm
Beg innen
ĠBeschÃ¤ft igung
ĠZigar etten
Eben so
ĠStap el
ĠWeltw irtschaft
ĠTast atur
ĠSah ara
ĠBamb us
Ġue ber
Ġflu ores
ĠSqu are
genÃ¶ ss
B eh
H and
H err
H Ã¶ren
J o
J unge
P e
d iges
d ose
g ingen
p osit
r ation
s ha
w al
Ġ Â«
Ġ Ã¤ngst
er ien
Ġd opp
Ġw ander
Ġw itz
Ġw onach
Ġs eh
Ġs im
st Ã¼
Ġun kon
Ġein fluss
Ã¼ ht
Ã¼ ler
Ġv olle
gen tin
Ġb Ã¶sen
Ã¶ re
Ã¶ hne
Ã¶ pfer
den ke
ĠA bt
ach lÃ¤ss
Ġg Ã¤nz
ĠG itter
ĠB ern
ĠB ade
ĠW elche
ĠK ein
ĠK um
ĠK off
Ġan z
Ġan stren
ĠE ma
ĠF ass
ĠD icht
ĠL ande
Ġver Ã¤r
Ġver netz
Ġver bergen
ls ystem
ĠI Q
re aktion
Ġbe kl
Ġbe gehen
Ġbe werk
Ġbe wohn
ĠSie d
isch te
am ten
ĠH Ã¼tte
Ġl aden
Ġl iber
Ġt ote
be wusst
ĠZ ehn
ĠN G
om bar
Ġwas chen
sp er
ĠVer schl
ĠVer fassung
ĠVer pack
ĠAr ist
ĠAn ten
ĠEr stes
ĠBe at
ĠBe denken
ĠBe stes
ĠRe cher
lau ch
Ġsp ringt
ĠLe ktionen
Ġsag st
Ġre dete
Ġre alisieren
he ken
Ġunter m
rin ken
ri ent
ĠZeit schriften
ĠZeit spanne
Ġste ckte
ist ik
iger e
sa ck
In dien
Ġdam al
Ã¤u ben
Ġgew Ã¼n
ver se
ĠCh ips
Ã¤nder ungen
ĠFl Ã¼sse
att le
ĠkÃ¶nnte st
Ġange schlossen
Ġange wiesen
ĠBer k
Ġbek annter
Ã¤h lich
Ġersten s
Ġ4 4
Ġ4 8
wir ft
ĠEx empl
ĠÃľber setzung
pro zent
ĠMar ath
ĠGer Ã¤ten
ĠPl at
ĠRo ten
ĠGew inne
ĠFall schirm
ĠVers ionen
ĠWo w
ĠAng i
land schaft
ĠMo z
ĠDi Ã¤t
gesch ichten
ief el
if ik
son st
ĠEltern teil
ĠglÃ¼ck lichen
ow s
ĠWochen ende
Ġauszu sehen
Ġteil te
ĠSchwe lle
ĠTats achen
mo lekÃ¼
ĠHoff nungen
Ġbew aff
Ġwert volle
Gen er
ĠKil ometern
amer as
hand lung
Ġverg leicht
ĠTrÃ¤ umen
ĠstÃ¤r ken
ĠtÃ¤ gliche
ĠPartner schaft
ĠFe ynman
Ġverste ckte
Ġant reibt
ĠHerr n
ĠÃĸk ologie
ĠNational park
Ġaktu ell
Ġnutz e
Ġident isch
ĠPil ze
Ġkrit ischen
Ġsu bt
Ġmer kt
ĠSchei tern
ĠOpt ionen
kr ut
Ġverwende te
ĠSen i
ĠSei de
Ġdur ften
ĠBon ob
Ġlangfrist ig
ĠdÃ¼n ne
ĠWild nis
ĠGro ss
ĠBetr achtung
grenz ung
Ġmark ieren
far be
Ach se
gefÃ¼ gt
ĠAst hm
ĠFreiwill ige
ĠverstÃ¤r kt
ĠAlpha bet
Her z
ĠVertei digung
Ġhy per
Ġret tet
Ġabstra kte
Ġwahrhaft ig
ĠunglÃ¼ck lich
ĠServ ice
Ġintu itiv
Ġdemonstr ieren
Ġbevorzu gen
mÃ¤r kte
ĠTax i
ĠSchlimm ste
ĠTunn el
hinge gen
ĠeingeschrÃ¤n kt
F i
I hnen
L icht
M on
N eben
P h
S tr
S echs
T h
T ag
[ "
b licher
e ffekt
h Ã¤
h ur
i ften
k und
l Ã¤nge
p hin
p rech
r ier
s sch
s or
v ier
z ung
Ġ Ã¶st
en e
en ergie
Ġd ringen
in chen
Ġw echsel
Ġe he
st ritten
Ġa ÃŁ
Ã¼ ll
ĠS orte
ĠS ETI
Ġh yp
Ġn ull
Ġn Ã¤hern
Ã¤ umen
it is
Ġin n
ĠM er
ĠM umb
ĠM Ã¼ttern
ĠM Ã¤usen
Ã¶ pft
de x
ĠA genda
ach eln
Ġf ehler
ĠB or
ĠB iene
ĠW atson
ĠF an
ĠF ra
ĠF emin
sen der
ĠP ir
ĠP rakt
ĠP ix
ĠD od
ĠT we
ĠI T
Ġbe ten
ĠH Ã¼r
ĠH ab
ĠR enn
ĠR ick
ĠR ap
Ġsch reien
Ġl ud
Ġl Ã¤ng
Ġt raum
and ten
il y
ĠSch Ã¤d
sp uren
sp aren
ĠC oll
ĠC afÃ©
Ġvor der
ĠO P
ĠAn lagen
ĠEr stens
ĠEr rungen
Ġbei getragen
Ġent lassen
Ã¤ch ern
ĠRe form
ĠRe prÃ¤sent
ĠRe zession
bl ase
et ings
Ġwei se
Ġkl ang
ĠU p
oll te
ech te
ech ten
Ġab geben
Ġab nehmen
ĠGesch lechter
fl ossen
Ġr eine
Ġkon takt
Ġneu tr
est ern
sa al
olog y
ver fahren
ver arbeitung
ĠKon tro
Ġglau b
Ġgem Ã¤ÃŁ
ĠAus sterben
Ġvers ichern
Ġger ingen
ok oll
ĠmÃ¶chte st
Ġzusammen zubringen
ĠIde al
ĠFl ucht
ek ter
ĠAuf klÃ¤rung
ĠAuf regung
ĠBild es
schen kt
Ã¤d ag
Ġange sprochen
ingen ie
Ã¤h le
Ġ19 00
ĠProzent satz
pl atten
Ġschl age
etz e
Ã¤hn lichen
ĠMa ster
ĠStud ierende
Ġlange s
scheid ung
ĠBÃ¼r os
mÃ¶ glichen
Ġro sa
sy l
Ġho hem
let ter
Ġtro p
ĠStr ich
ĠFol ien
ĠDem okraten
ĠAm t
ĠPf ad
Ġwor in
ĠBet riebs
ĠOzean en
ĠKat he
Ġgro b
Ġversch melzen
spekt iven
si dent
ĠBel euchtung
ĠgefÃ¤hr lichen
ĠKil ogramm
Ġextrem e
ĠHel ium
ĠTon y
ĠProte st
met hode
gest altung
ĠErn Ã¤hrungs
ĠDien ste
ĠGefÃ¼ hlen
Ġniedr ige
ĠzufÃ¤ llige
Ġ13 0
bed ing
ĠSchwar zen
Ġwunderbar es
Ġeng ag
ĠGeschÃ¤fts fÃ¼hrer
tember auben
swer te
ĠProduktion s
ĠkÃ¼nst lich
ĠPort ug
grÃ¶ ÃŁte
Ġinteressanter weise
ĠEing riff
ĠBrenn stoffe
Ġbemerk ten
ĠDen ker
Ġklass ischen
ĠkÃ¶rper lich
ĠÃĦgyp ter
ĠLang zeit
ĠzusÃ¤tz lichen
ĠBatter ien
Ġmut ig
Ġvorge schlagen
ĠPen is
Ġsystem atisch
ĠVoll zeit
ĠlÃ¶ schen
bie ter
Ġdokument ieren
Ġbeunruh igt
ĠIntern ational
ĠGesichts aus
Ġmel den
Ġfe sten
Ġauss uchen
Te am
Ġerneuer bare
ĠBehinder ungen
ĠHaw ai
Ġfrustr iert
ĠVertei digungs
Ġmy steri
Ġunsicht baren
Ġgelegen tlich
Ġentwar f
ĠThun fisch
ĠKok ain
ĠenttÃ¤u scht
Ġkonkur rieren
fabr ik
ĠGÃ¶t ter
Su per
Ġspaz ieren
ĠVerÃ¶ffent lichung
ĠHen ry
ĠSonnt ag
ĠFreit ag
ĠKÃ¼n ste
ĠClin ton
ĠBeobacht ungen
Ġbefrie digen
ĠPest iz
ĠHalluz inationen
ĠErklÃ¤r ungen
ĠTas man
E S
F eld
J H
K omp
M ag
R M
S how
Z us
a der
a ct
b rot
f le
f amil
f rauen
g eist
g rippe
p or
p ersonen
t um
u ÃŁer
v ia
w an
Â ²
en ha
Ġd Ã¼ster
ie dr
Ġw achte
un n
st h
as p
Ġa temberauben
Ġun beh
Ġm odell
Ã¼ hrt
ĠS ein
ĠS Ã¶hne
Ġn ord
ar in
Ġb rÃ¼
Ġzu stÃ¤ndig
ĠM Ã¼cken
ĠM ustern
ĠA h
ĠG eister
ĠB Ã¶
ĠB rad
ĠB indung
ĠW en
ĠW Ã¤hrung
ĠK rab
ĠK riminalitÃ¤t
Ġan sah
ĠE mm
ĠF rÃ¶
ĠF urcht
ĠF rustr
Ġer o
Ġer zeug
Ġer richtet
Ã¼r ger
ĠD al
ĠD raht
ĠD ilemma
ro hen
ĠL ink
ĠT ut
ĠT ans
re de
Ġbe ge
Ġbe arbeiten
Ġauf hÃ¶rt
Ġmit machen
ĠR on
Ġt reu
Ã¶n land
Ġum bringen
Ġum sonst
il anz
ĠÃ¼ber legt
tw Ã¶rtlich
Die jenigen
Das selbe
ĠVer arbeitung
Ġje tz
ĠO rient
rÃ¼ ger
ĠAn kunft
Ġnach ge
Ġst rÃ¶
ot tet
Ġwei ten
heit s
Ġre produz
oll t
ad es
Ã¼ck t
gel enk
Ġko ennen
Ġko ord
ster reich
Ġwieder zu
ĠAus einander
ĠVor gehensweise
Ġbest anden
Ġzusammen gefasst
ĠTeil nahme
Ġ3 000
alt h
ak ult
oren e
fr ar
utzen de
Ġgef iel
Ġ5 000
ĠAb sch
gr enze
ss inn
ĠÃľber tragung
Ġgeb rauchen
ĠMit gefÃ¼hls
ĠÃĦ uÃŁer
ĠKre atur
ĠWissenschaft s
An genommen
folg ung
ĠGed uld
Ġweg zu
Ġklar en
ĠDesign ern
ĠSchw anger
av e
Ã¼tz er
Ġerkl Ã¤re
Ġanzu passen
ĠJahrhunder ten
gem Ã¤ÃŁ
ĠBed ingung
ĠÃ¼ blichen
ras il
ock er
ĠZusammen bruch
amm ern
ĠFreund es
Ġerw ischt
Ġaufge geben
mÃ¶glich keit
Ġvorher r
Ġaufzu geben
Ġerwar tete
Ġhervor bringen
ĠVert rau
ĠVert reter
haft igkeit
Ġhunder ten
Ġentscheiden den
mot or
ĠHo f
Ġdein es
ĠStand ort
ĠFr anzÃ¶s
ĠSÃ¼d pol
Ġtief grÃ¼n
stra fe
Ġsamm elten
app te
ĠChem otherapie
ĠIm prov
ĠGel b
fess oren
ĠKÃ¼nstler in
Ġaut or
fre ie
mÃ¤ÃŁ igen
Ġpsych ischen
ĠWieder aufbau
Ġgesp annt
ĠEinzel ne
reib ungen
ĠPal m
Ġverbl eiben
pfl anzt
ĠRep ublik
ĠsÃ¼ dlich
ĠRed wood
ĠProj ect
ĠSchwei zer
Ġsauber e
ĠSolar zellen
Ġabl Ã¤uft
orient ierte
Ġunend liche
Ġdom in
Ġkonstru ieren
ird ischen
ĠKrÃ¤ hen
Ġplatz iert
ĠDat a
ĠgÃ¼nst ig
ĠEth an
Ġland es
ĠAtlant a
ĠBiom asse
Ġrisk ieren
ĠverstÃ¤r ken
ĠMel odie
Ġveran l
Ġmikro b
ĠSing apur
Ġpf legen
ĠVerm Ã¤chtnis
ĠÃĦl ter
ĠCarto on
ĠCarto ons
ĠverstÃ¤nd lich
ĠFlederm Ã¤use
Rob oter
Ġbefr eit
Ġstimm te
ĠChines isch
katastrop hen
ĠKomprom iss
ĠDok umente
Ġglamour Ã¶s
ĠVirgin ia
Ġwahnsinn ig
ĠMobiltelef one
ĠDelf ine
Ġgelei stet
ĠVaku um
Ġaustau schen
ĠPrie ster
ĠBerk eley
4 7
A M
F ahr
I N
T heorie
W isst
b on
b ro
b Ã¤ren
d io
f ass
f unk
g ur
g ers
h ieren
h od
j izieren
l og
l ingen
p acken
s be
s ign
u zen
u tes
u ana
w is
y er
z essen
in te
Ġw ilde
Ġw Ã¶rtlich
un ts
Ġe is
Ġa bt
Ġa ÃŁen
ge sell
Ã¼ mer
ĠS ant
ĠS oldat
Ġh asse
Ġn atur
Ã¤ hlte
Ã¤ hlten
ar ium
Ġb rasil
Ġk r
em onie
au te
ĠM and
ĠM all
ĠM ah
al og
al isten
Ġf ert
el a
ur b
ĠB lei
ĠW inden
ĠW are
ĠW aisen
le vel
Ġan gebracht
Ġan ony
Ġan fÃ¼hlt
ĠF asz
Ġer holen
Ġsie hst
ĠD ich
Ġver ge
Ġver he
Ġver passen
ĠT ok
ĠI g
Ġbe geben
ser n
ĠR iver
Ġsch ickt
Ġsch rum
Ġsch ieben
Ġt alent
ĠZ ie
Ġj un
ĠJ agd
il zt
ĠÃ¼ber nimmt
ĠGe stein
ĠC any
ĠIn t
ĠO p
ĠO bst
ĠAn forder
Ġent kommen
Ġst imme
Ġle ge
Ġle gal
ĠRe flex
Ã¤t ige
ab sichtig
ru ckt
bl og
Ġwei st
ĠUn sinn
ĠUn iversen
ĠSp azier
op ard
we ichen
Ã¤r er
Ã¤r zte
wer ben
Ġbes aÃŁ
ĠEin sicht
ĠEin nahmen
Ġbeg riff
lan det
Ġeigen er
Ġverb rachten
ĠCh or
Ġgem erkt
ha mm
ĠAuf wand
zÃ¤ hlt
Ġzw angs
ĠBl inden
ine ering
ĠWasser s
ĠAb schnitt
Ġ19 0
Ġbesch ul
Ġmal te
ide os
ĠRo ute
ĠQu er
ĠQu al
unter schiede
Ġausge ht
Ġausge sprochen
ĠGew ehr
ĠVers uchs
ges agt
spro jekt
ĠAng riffe
Ġfol gten
Ġbetrach teten
ĠMo sche
fÃ¤ ll
av a
ĠDi am
Ġanzu bieten
ĠNetz e
Ġbem Ã¼hen
sk rise
ĠBÃ¼ hnen
ĠÃ¼ blicherweise
ĠÃ¤hn eln
All ein
Ã¤cht ig
ĠStr asse
ĠRÃ¼ck kehr
Ġabs ur
ĠVideo spiel
Ġeinzel ner
ĠMeer wasser
Ġunterschied licher
Ġlos werden
Zu schauer
Ġansch lieÃŁen
Ġansch lieÃŁend
Ġaufge hÃ¶rt
ĠEssen z
ĠCo ca
ĠDurch fall
ĠFern e
Ġteil zunehmen
Ġph Ã¤nomen
ĠpersÃ¶n liches
Ġzehn tausende
ĠHa ken
Ġamerikan ischer
ĠPer f
ĠIs ol
Ġerfolg reichen
wasser stoff
sm uster
stra hlen
Ġaktiv e
schul en
ĠInf ektionen
Ġkosten lose
Ġinspir ierend
ĠAnge stellte
ĠMiss brauch
Ġorganis ierten
schu he
Ġvisu ell
ĠMy ster
bed arf
Ġunge he
ĠTro cken
dre ht
ĠTemperatur en
ĠKorallen riffe
ĠKop enha
ĠJugend liche
ĠHunder t
ĠZwe cke
ĠVÃ¶ geln
ĠInner e
ĠprÃ¤sent iert
kan al
ĠCol umb
ĠMem bran
ĠAkt ien
Ġzeit genÃ¶ss
ĠCom ic
ĠkÃ¶rper lichen
ĠGenau igkeit
ĠKonse quenz
ĠVoraus setzungen
ĠFlÃ¼cht lings
ĠNieder lan
ĠKomponen te
Ġeffizien te
ĠRoh stoffe
Ġschne llen
ĠverknÃ¼ pfen
ĠBesuch er
ĠAc c
Ġherausf and
Ġverkauf ten
ĠAst ro
Gleich zeitig
Ġintellektu elle
ĠjÃ¼nger en
ĠAnstren gungen
ĠwÃ¤ hlten
ĠJer usalem
ĠVerhand lungen
ĠGriechen land
ĠProp he
Ġargument ieren
Ġultim ative
gÃ¤ng ig
ĠLou is
Ġallm Ã¤hlich
ĠParas iten
ĠPandem ie
ĠArg umente
Beweg ung
uko se
ĠgÃ¤nz lich
ĠAngi ogenese
ĠMumb ai
ĠTans ania
gesell schaften
B Ã¼
G uten
H inter
J A
L os
M ill
V om
b or
b lau
b Ã¤r
b ri
b ahnen
d ungen
d iag
f ungen
f aktor
h ielten
j o
k Ã¼rz
k orn
k orea
l ade
l uft
o mm
p ten
t ausenden
Â ½
Ġ Q
Ġ ]
Ġ Ã¤nder
Ġ asi
Ġ ordentlich
ch em
Ġd ek
an w
st reifen
ĠS imul
ar es
Ġb Ã¶s
ein ern
at men
au gen
ĠM isser
de hnt
ĠA pril
ĠG or
Ġge schenkt
ĠB rett
ĠW itze
ĠW right
Ġan ger
Ġan erkennen
Ġan fangs
ĠE hren
ĠF ertig
ĠF usion
Ġer nten
Ġer lernen
Ġer wecken
ĠP ille
Ġver lieÃŁen
Ġver laufen
ĠT akt
re y
re geln
Ġbe acht
eh er
ĠH ind
ĠH ans
ĠR aster
Ġsch rit
Ġsch arf
us h
ol ven
ehr ten
ĠZ e
Ġaus zut
ĠJ emen
ik opter
ut ation
ĠSch ale
rei ter
iv al
Ġvor Ã¼ber
Ġvor nehmen
ĠO ff
ĠO ma
rÃ¼ mm
Ġle ere
ĠRe kord
Ġsp enden
ĠUn bek
ĠSp ar
ĠSp ag
Ġkl icken
Ġkl appt
Ġviel versprechen
end ungen
Ġunter brochen
oll o
Ġr ut
iz ierte
Ġhin weisen
Er zÃ¤hler
im pf
ĠGr Ã¶nland
stell ungs
rÃ¤ te
auf e
pp el
Ġdu mme
ĠCh oler
kl icken
ĠVor urteile
Ġheraus fordern
ĠBei j
ĠKinder s
ĠKinder garten
Ġzusammen kommen
imm ern
ĠHer o
ĠIde ologie
Ġ3 8
ĠBl utz
ĠUm setzung
fr esser
ĠAb holz
ĠAl bert
Ġ19 2
ĠnatÃ¼rlich es
fte l
Ġgesch w
ĠSchl amm
ĠSe attle
ĠSte inen
dien ste
ĠDollar s
ĠRo ver
id met
aben d
Ġhoch wert
ĠMan che
ip pt
ĠHaus halts
ack e
ink eln
ĠSchw imm
ĠSu ppe
ĠFar mer
Ã¤cht igt
ĠDu mm
ĠLin se
Ġunbe sch
Ġdre ieinhalb
Ġbl ut
ĠEssen s
Ġerre ichten
Ġexist ierenden
Ġwor twÃ¶rtlich
ĠFort bewegung
ĠFort pflanz
Ġstark er
Ġged auert
ĠHa ft
ĠInd us
ĠfÃ¼hr e
eid bar
si us
ĠtÃ¶ dlich
ĠErd Ã¶l
Ġhinzu gefÃ¼gt
ĠBÃ¤ lle
ĠGesundheits versorgung
Ã¼ss elt
ĠPark platz
ĠPsych op
ĠÃ¼berw Ã¤ltigen
ĠPhil osophen
ĠGeschw ister
stre am
Ġant reiben
liegen den
Ã¤mpf er
Ġbehaup tet
Ar m
Ġintelligen ter
ĠCl ip
ĠPhÃ¤nomen e
ĠBu sch
Ġkompliz ierten
zur ufen
ĠSh ir
ĠVari ante
Ġkrit isch
ĠBegriff e
ĠAuss icht
reu ung
Seit dem
ĠÃľ bungen
Ġel ement
Ġgener iert
ĠNor men
Ġkom ische
Ġschlau er
Ġzahl reiche
Ġinform ieren
ĠBri ten
Ġzut rifft
Ġmult ipl
Ġdra stisch
ĠPingu in
bÃ¼r ger
ird ische
ĠMess ungen
Ġfil men
ĠAllt ags
ĠWeihn achten
Ġunbek annten
Ġelektron ischen
Ġzusammenzu arbeiten
ĠHindern is
ĠÃ¶k ologischen
Ġaltern ative
Ġdynam isch
Ġkop iert
Ġrespekt ieren
Ġmodern er
ĠHÃ¼hn chen
ĠSchalt kreise
Spiel er
ĠMr d
ĠKart off
ĠPosit ionen
ĠfranzÃ¶s ische
ĠalltÃ¤ glichen
ĠFa vor
Ġberuh igen
Ġpotent iell
ĠAct ion
Ġunsicht bare
ĠUng laub
ĠHorm on
ĠEver est
ĠLaut sprecher
Ġweiterentwick elt
ĠVeranst altung
ĠLatein amerika
Ġherz lichen
ĠSchÃ¶pf ung
ĠbeÃ¤ngst igend
Ġspr ich
ĠBeteil igung
iffer enz
Syn drom
Zw ischen
erkrank ungen
Vort rag
ĠCel sius
Ġhor izont
ĠMonter ey
ĠannÃ¤hern d
Ġstunden lang
ĠMoz art
ĠHawai i
Zus Ã¤tzlich
olven ten
A G
A t
B en
B ill
C ar
D ruck
E R
G el
G ute
H under
L inks
M T
P art
S ei
S hir
T K
b ur
b od
h Ã¤ndler
k ilometer
m ten
o sten
p rei
s los
s eits
t ausend
u ÃŁt
z ettel
en g
en ix
in formationen
un gel
un ker
Ġs ang
Ġs kept
an o
st Ã¶rungen
Ġun zu
Ã¼ ft
ĠS icher
Ġn etten
Ġb reiten
Ġb reite
Ġk atastrop
Ġk ehrte
der wÃ¤rmung
ĠA part
Ġg alt
Ġg rat
Ġge malt
Ġge landet
ĠB in
ĠB Ã¼n
ĠW unden
ĠW inde
ĠW Ã¤hler
ĠK unde
ĠK Ã¤lte
ĠF uss
ĠF eier
Ġer d
Ġer stellten
ro lle
um in
Ġver sehen
ĠT Ã¤t
ĠT att
ĠT olle
Ġbe zogen
Ġauf bl
Ġauf gefallen
ann tes
am pf
am ib
ĠH amb
ĠH imal
ĠH Ã¶ren
ĠH arry
ĠR unde
ra h
Ġsch melzen
ĠZ oo
Ġj ugend
ĠN ah
Ġaus Ã¼ben
ik on
ĠSt eigerung
ĠÃ¼ber n
ĠÃ¼ber holt
hl er
ĠGe be
ĠGe sten
sp itze
sp olitik
ne ter
Ġvor ant
ĠIn halts
ĠAn drew
ĠEr spar
Ġhier mit
os yn
Ġle b
ĠRe al
ick e
Ġher kommen
Ġre pl
Ġre deten
Ġre chtzeit
we ckt
Ġgen ie
her stellung
Ġunter nommen
ĠZeit schrift
Ġab hÃ¤ngen
ĠGesch ehen
Ġr annte
art iger
ap fen
im iert
Ġweiter geben
Ġweiter gegeben
sam keiten
Ġko st
kl ass
Ġheraus kommen
Ġzusammen bringen
Ġzusammen gestellt
Ġ3 4
ek o
aut o
ĠArbeit sm
Ġben ennen
ĠUnter t
Ġverw andelte
ĠWei ÃŁ
ĠAut h
ĠMon ats
ĠMon tag
Ġgerade zu
ĠDank barkeit
Ġ4 3
ĠReg ime
Ġschnell sten
ĠÃľber ein
Ġgel b
Ġgesch ossen
ĠInform atik
ĠÃĦ sth
ĠEnde ffekt
ĠRo se
Sch rift
Ġen ge
ĠSchu h
eten z
ĠDe ck
Ġjedes mal
ĠSchul tern
ĠKam el
ĠLehr en
ĠMo ore
chn ologie
ĠFot ografen
mit t
Ã¼tz te
ĠAt omb
ĠSu pern
Danke schÃ¶n
Ġstatt gefunden
ĠHerz schlag
ĠUr sprÃ¼n
ĠLin ken
Ġunbe grenz
ĠPart ikel
Ġverd amm
Ġbel eid
ĠKont rast
Ġhervor rufen
Ġor ig
ĠSter e
ĠBet rag
Ġhunder ttausende
Wo hin
ĠNu mmern
Ġschwierig sten
ĠPer form
Ġbew undern
ĠDa zu
ĠJu p
ĠChem iker
Ġlau tete
ĠDo ug
Ġ16 0
ĠKa sten
Ġprakt ische
ĠHÃ¼ lle
Ġauft ritt
sprach en
ĠHe bel
ĠNot aufnahme
ĠSy mph
bert Ã¤t
ĠNa ja
ĠVerl uste
grÃ¼n de
reg ierung
Ġis rael
ĠIngenie uren
plan ung
ĠBeruf e
ĠFunktion sweise
Ġzeich net
ĠhÃ¤ufig sten
Ġkor ru
yr ann
ĠDis ney
ĠHunder ten
ĠFo ot
Ġverein fach
ĠSchau spiel
krank ungen
ĠPu bertÃ¤t
ĠLog o
ĠSteuer ung
ĠElef ant
Ġvorber eiten
Ġzahl t
Ġpar allel
Ġinform iert
Ġmass iven
Ġfundament al
ĠRechen schaft
ĠSeh vermÃ¶gen
ĠRech nung
ĠTom aten
ĠMagaz ine
ĠBundes staat
ĠeuropÃ¤ ische
Ġgelie bt
Ġangen ehm
sproblem e
ĠTin ten
Ġgewiss em
Ġklet tern
ĠmilitÃ¤r ische
rÃ¤um t
Ġreflekt ieren
ĠRel ativitÃ¤t
ĠgemeinnÃ¼tz ige
Ġflex ibel
Masch ine
ĠKond ome
ĠKosm os
ĠBelast ung
Ġoffensicht liche
ĠnÃ¶r dlichen
Ġleidenschaft lich
ĠKÃ¤mpf e
ĠfÃ¤ llen
ĠKonvers ation
ĠBaumk ronen
Ġbahn brechen
ĠRepar atur
ĠFilmem acher
ĠKos ov
ĠLeon ardo
ĠGrÃ¶s se
Ġgefil mt
Ġsex y
ĠHemisph Ã¤re
Ġbewerk stelligen
ĠArist oteles
Ġschrit tw
Ġkatastrop hal
ĠÃĦsth etik
% .
9 0
A B
A S
D P
D inge
N imm
S eite
b al
b ast
b auer
f lich
f rÃ¼
h och
h ut
l abor
m or
m ungen
m ass
n ik
t iere
u ver
Ġ =
Ġw uÃŁ
an schau
st iegen
as ka
ei ÃŁen
Ġein bauen
te am
Ã¼ m
Ã¼ stet
Ġi ran
ĠS O
ĠS ach
ĠS ier
sch recken
Ġz o
Ġb ildeten
es h
Ġder selbe
em e
Ġin einander
ĠM au
Ã¶ gel
Ã¶ ÃŁt
de utet
al ie
Ġf esseln
ĠG ir
el an
ĠB Ã¶sen
ĠW Ã¤
ĠK etten
Ġan legen
Ġan einander
ĠE ast
ĠE kel
ĠF alten
ĠF Ã¶rderung
Ġer forder
ĠL ampen
ig an
Ġver passt
re volution
Ġbe folgen
Ġauf nimmt
ĠSie g
Ġwie viele
ĠH ot
ĠR am
ĠR ass
Ġwar teten
Ġsch Ã¼t
Ġsch ienen
Ġsch Ã¤tzt
ol en
ĠZ one
ĠN on
ĠN eigung
ĠGe wohnheiten
ĠGe trÃ¤n
sp itzen
sp rÃ¼che
ĠPro grammen
rÃ¼ ch
ĠAn sammlung
Ġnach voll
Ġbei seite
Ġent schloss
Ġst Ã¶rt
ot ischen
ĠâĢĵ ,
ĠRe ferenz
Ġsp rang
ul se
ĠUn ion
ĠSp itz
op ft
ĠU V
ze d
Ġab spielen
Ġbes iegen
Ġbes uchten
Ġr ichtet
art igkeit
ĠEin er
rach e
Ã¤u le
Ġgew idmet
Ġko stete
Was ser
Ġber aten
ĠVor bereitung
amen te
ha ie
ha iland
ĠLand karte
ak a
Ġir re
ĠZu stÃ¤nde
ĠBl Ã¼te
wick elt
Ġbede cken
ĠGrund schule
Ġ19 3
Ġ19 30
ĠReg ulierung
Ġschw immt
ucht ung
Ġschl Ã¤ft
ĠVerb Ã¼n
ĠLie b
Ġvoll stÃ¤ndige
Ġte mpor
Ġbesonder es
zeug ung
St at
kon z
ĠschÃ¶n sten
ko lle
scheid ungen
ĠMo lekul
bo ot
mit tler
Ġern ste
los s
Ġsel ekt
ĠÃ¼ blich
Ġdr Ã¤ngen
ĠKrebs zellen
ont o
Ġrau f
ĠTages licht
Ġverschw anden
ĠHaupt stadt
ĠbenÃ¶t igten
ĠPer spektiven
fÃ¤h igen
fÃ¤h iger
Ġeinzu gehen
ĠtÃ¶ tete
ĠFÃ¤ den
ĠDro hne
ĠBÃ¤ cker
iegel t
ĠGel der
ĠPolitik ern
ĠHinter kopf
Ġfantast isches
ĠPhil anthrop
bet rieben
Dar aus
Ġreg net
Ġreg istr
ĠErwachsen er
ĠZivil gesellschaft
ĠMuse ums
ĠVolk es
Ġnachhalt igen
ourn alismus
Ġfehl te
Ġverantwort ungs
ĠVari anten
ĠverfÃ¼g baren
Ġvern achlÃ¤ss
Ġdauer haft
ĠFo ie
ĠzurÃ¼ckzu kehren
ĠBeste ch
ĠTrain er
ĠProj ektes
ĠPaar e
ĠPfl icht
aff ung
ĠFle ck
ĠCom edy
ĠungewÃ¶hn liche
Ġbewer tet
Ġheil igen
Ġbeweg ten
ifiz ierung
ĠIr land
ĠParad igma
Ġbrill i
ĠKrÃ¤ ften
Ġvorzu bereiten
Ġzust ande
Ġmoch ten
ĠPaten te
Ġerhe blich
ĠAlt ru
ĠLad ung
Wel ches
ĠZwischen zeit
Ġmikro skop
Ġkomm st
Ġdreidimension alen
ĠSÃ¤ ulen
zusp rechen
ĠÃ¤lte ste
Ġkoll ab
ĠÃĦhn liches
ĠBehinder ung
Ġuniver sell
ĠKe vin
Ġjapan ischen
Ġentwar fen
ĠMahl zeiten
rott ung
ĠGlÃ¼hbir nen
Sicher lich
ehnte l
ĠIntens iv
Ġempfind lich
ĠÃĸkonom ie
ĠBruch teil
ĠInstall ation
ĠKrankenschwe stern
Ġmax imal
ĠAkadem iker
Ġimp lant
ĠSmartph one
Ġverteid igen
Go ogle
ĠAgr ar
ĠShakespe are
uv erne
frar ot
Ġzwangs lÃ¤ufig
ĠSpag hett
Ġrechtzeit ig
ĠSupern ova
ĠJup iter
C ola
D NA
H ast
Q aida
R ichard
S and
b anken
c er
f acht
h Ã¤nge
k uchen
k unde
k od
m ach
m ien
o y
o ls
w ider
z un
er gehen
Ġw andeln
un en
Ġs ank
st eiger
as ser
Ġun voll
Ġm ess
ge legt
ĠS ed
Ġh ob
Ġz erst
Ġb elegen
Ġk Ã¼nft
Ġk Ã¼rze
Ġder jenige
it hm
au ff
au ce
ĠM ang
de cke
Ġf lieÃŁend
Ġg inge
Ġge ometr
ĠB ack
ĠW ille
le gten
Ġan bauen
Ġan greifen
Ġan steigen
ĠF DA
Ġer eig
Ġer wiesen
ig ment
ĠT urm
ĠT alente
ĠI rgend
ÃŁ ten
Ġmit zu
ĠH eu
ĠR und
ra tete
Ġwar te
Ġsch Ã¼tzt
Ġsich ern
us k
us ionen
Ġl eitete
Ġman cher
ĠJ ord
ĠJ edes
ĠÃ¼ber aus
ĠSch affung
Ġdem Ã¼t
sp f
sp eicher
ieren der
iv alent
ĠEr sten
ĠEr Ã¶ff
ĠEr derwÃ¤rmung
ĠBe zahlung
ĠRe duktion
ill t
mmer t
et iker
Ġwei te
ĠUn sicht
ĠSp ace
ĠSp recher
Ġkl uge
we sten
ĠU C
Ã¤r men
Ġganz er
fl asche
ĠfÃ¼ hlst
schie bung
Ġbeg angen
Ġlie fer
Ġlie bten
ichtig keit
Ġar beit
ĠAus lÃ¶ser
Ġpro biert
ĠLand wir
wo lle
aut os
ĠKl ische
Ġeinz ur
qu ote
ult iv
ĠAb folge
Ġinteress iere
ĠEnt hÃ¼
ĠNach kommen
ĠMal er
So ftware
ĠRaum fahrt
Ġscha den
Ã¤ng ern
Da von
ĠPl ay
ennt nisse
ĠY eah
ip ulation
ĠMa x
Ã¶l fe
ĠgehÃ¶r te
Ġbef Ã¤h
ĠHaus halte
ĠLehr plan
ko mme
zieh ungen
ĠMusik stÃ¼ck
ĠDi ffer
los es
ĠGl ukose
Ġch irurg
ĠHerz krankheiten
Ġmag ische
Ġfrei er
ĠLin sen
Ġunbe wusst
zt in
Ġper man
ĠKomp on
amp us
Ġlei hen
aw att
ĠNacht s
sÃ¤tz liche
Ġersch reck
Ġfl Ã¼
Ġvorher igen
ĠDr itte
bau ten
ĠWahl mÃ¶glichkeiten
ĠInnov ations
wohn heit
Ge gen
Ġerle icht
ĠSÃ¼d amerika
Ġqu ad
Ġtief sten
Ġhil flos
Ġsamm elte
arm herz
Ġak ust
rech nung
ĠGef Ã¤hr
ĠRu der
ĠMaÃŁ stÃ¤
ĠEinz elt
Ġbed ient
Ġdigit al
Ġerg ab
ĠWebs eiten
Ġwider stehen
Ġ14 0
ĠMolekÃ¼ len
ĠTh ese
ĠNerv enze
ĠFe der
aur us
Ġverste ckten
hy d
ĠAk zent
ĠmÃ¤cht iger
nehm ern
ĠIngenie urs
Ġwesent liche
ĠSer ver
ĠKol on
ĠHigh school
ĠPe er
ĠGenom s
ĠStoff e
Ġaufw achsen
ĠMotor rad
ĠTau cher
Ġausb ilden
ĠAuÃŁen welt
Ġabsol uten
ĠSpekt r
Ġsexu ell
ĠGlob us
ĠMomen ten
adel ph
umm eln
ĠBri lle
Ġdauern d
orient ierten
ĠVerw altung
Ġgeist ige
ĠBedroh ungen
Irgend wann
Ġkollektiv e
ĠSchlei mp
Ġgesellschaft liche
ĠIr rt
gesetz e
Ġerwachsen e
Wor Ã¼ber
ĠSonnensystem s
ĠAkte ure
kÃ¼n fte
ĠPho enix
Ġment ale
Ġkoll abor
Ġmusikal ische
Ġmolekul aren
Vers uchen
ĠgegenwÃ¤rt igen
ĠVerz err
Ġverbr annt
Masch inen
Ġoffiz iell
Ġtheor etisch
spart ner
ĠbeschÃ¤d igt
ĠFoss ilien
ĠHu hn
Mus ik
ĠWende punkt
Ġimit ieren
ĠBehaupt ung
ĠVul kan
ĠVerpfl ichtung
ĠÃĦqu ator
ĠVisu alisierung
ĠJose ph
opÃ¤d ie
ĠunzÃ¤hl ige
ĠSeni oren
ĠFrustr ation
Ġjun ges
umin ium
ĠTÃ¤t igkeiten
C or
I e
N ational
R echt
b u
b ungs
b ienen
d ite
d ringt
f euer
h all
h istor
i ater
m as
m ess
p sych
s geschichte
u an
Ã ³
Ã Ń
Ġ ..."
Ġw uer
Ġe go
Ġein verstanden
Ġn iger
Ġn etter
Ã¤ llig
es ung
Ġzu lassen
Ġk ol
Ġder gleichen
at zen
at ischer
it ativ
it ts
em sen
Ġau gen
al ys
al ia
ber icht
Ġge fÃ¼
ĠB ir
ĠB it
ĠB ach
ĠB ass
ĠB auer
ĠB asen
ĠW a
ĠK as
ĠK iller
ĠK risen
Ġan fÃ¤llig
ĠE w
ĠE ll
ĠF it
ĠF lex
ĠF akult
ĠP R
ĠP ent
ĠD or
ĠL asst
ĠL obby
ĠL uther
Ġver richten
ĠT Ã¤ter
ĠT eig
ĠT ime
ĠI sa
ĠI kon
Ġbe weist
Ġauf steigen
Ġauf zeigen
Ġmit bringen
ĠH armonie
Ġsch ar
ĠV eg
Ġt ippen
be sten
be wahr
ĠZ ielen
ĠZ eilen
ĠZ ylinder
ĠZ ehntel
ĠN ic
ĠN orm
Ġaus wendig
ĠJ h
Ġum gebracht
il er
ik ator
ĠSt reich
ĠSt unt
ĠÃ¼ber zeug
ĠÃ¼ber flÃ¼ss
ĠGe org
ern Ã¤hrung
sp ort
ne k
ĠIn put
ĠAn sÃ¤tze
Ġnach dachte
ĠBe ge
ĠBe cher
ĠBe zirk
Ġ-- ,
Ġst ap
ĠRe t
ĠRe aktor
Ã¤t t
Ġsp ek
ab we
ĠLe v
ĠLe tzt
ru ft
ul a
op pt
op fer
Ġgen auen
ess im
Ġab laufen
ungs vermÃ¶gen
Ġbes aÃŁen
ob b
ĠEin fl
ap e
ap h
ĠArt hur
Ã¤u fen
Ġgew inn
Ġverb ringt
Ġverb ringe
ug h
ĠCh ild
ĠAus b
kl Ã¤ss
schl Ã¼sse
ĠKl ick
fr em
Ġzie he
ĠBer ichte
ĠBer ater
ĠGeb ilde
ite ls
ĠAb satz
ĠAb lauf
ĠAl aska
rank heiten
Ġ4 50
ĠReg al
ĠHand t
Ġgesch nitten
ĠSe gel
ĠMar sch
ĠSte phen
ĠPlan kton
ĠKre ation
ĠPl a
ĠPl atte
gl as
schw em
ĠLicht geschwindigkeit
ip el
Ġverm ischt
ĠKam bod
Ġeinge bet
Ġverk Ã¶rper
Ġbetrach tete
Ġstar r
ĠSu pr
Ġde cken
Ġde pressiv
Ã¤cht ige
Ġna hen
Ġgemeinsam es
ont ain
ĠNacht himmel
Ġrau chen
Ste llt
Ġersch recken
Ġverschw enden
Ġhervor ragend
Wissen schaft
vers ion
ĠInd ian
ĠlÃ¤nger e
ĠGo uverne
Ġbr and
Ġeinzu fÃ¼hren
sm ann
ĠChar lie
Ġelekt romagnet
Ġerfolgreich er
ĠDemokrat ien
ĠErd oberflÃ¤che
app ar
samm elten
Ġverurs achte
ĠHoch schul
Ġernst hafte
ĠverfÃ¼ gt
ĠWohl ergehen
ĠHÃ¼ fte
ĠPhil adelph
ĠHel ikopter
ĠSc ott
Ġvorh ers
ĠDien stag
Ġorganis ierte
ĠBas ket
frikan ischen
Ġherunter laden
ĠSa at
ĠGeschÃ¤fts welt
ĠSchiff e
Ġfehl enden
ĠDel hi
ĠRep orter
Ġreligi Ã¶s
Ġbegeg net
Ġantwor teten
ex per
ĠHom osexu
ĠFle cken
ĠKrit erien
Ġoptim ieren
orient iert
Ġgeist igen
Ġausger ichtet
Ġdom iniert
Ġbelieb ige
Ġmin us
Ġinnov ative
ÃĦ hn
stud ien
Ges undheit
mar sch
ĠÃ¶k ologische
ĠstÃ¤dt ische
Ġverlang samt
Ġverlang samen
ĠVen us
ĠZent ren
Ġintellektu ellen
ĠAkte ur
Ġdreidimension ale
Ġerl Ã¤u
Ġabgesch nitten
ĠhÃ¤ss lich
ĠVerschw endung
Ġleg it
Ġreflekt iert
Ġromant ische
ĠSpezial isten
Lie be
nÃ¤ ck
JÃ¤hr igen
imb abwe
ĠBrut to
Ġmar sch
ĠKenn edy
Br un
ĠOlymp ischen
ĠGlÃ¼hbir ne
Ġakadem ischen
Ġschme ckt
Ġbeeindrucken de
ĠAppl aus
ĠConnect ome
ĠMont ana
ĠfÃ¼t tern
ĠhÃ¤ us
Ġausgel Ã¶scht
Ġunn Ã¶t
ĠArbeitsk rÃ¤fte
Ġeingesp errt
ĠLiban on
ĠVeter anen
lade sch
ĠCholer a
ĠBeij ing
Ġskept isch
ĠSier ra
ĠNervenze lle
1 4
E lekt
H i
K ultur
K arte
N C
T ats
W K
e twas
k Ã¶r
l ampe
s ich
s icher
v a
Â ´
Ġd euten
Ġw ilden
st em
st ationen
Ġa fghan
Ġein sam
ĠS in
ĠS eg
sch es
sch eln
sch reiten
Ġh el
Ġb ombar
Ġk leben
Ġk Ã¤mpft
em a
de ls
de cker
al in
ĠA B
ĠA llen
ach se
Ġf urch
ber kul
ĠG ibt
Ġge steckt
Ġge schlafen
ĠB art
ĠB ad
ĠW in
ĠW Ã¤nden
ĠK ansas
Ġan gerufen
Ġan onym
ĠE ro
Ġer zogen
Ġer raten
Ġden k
ĠP or
ĠP ik
ĠP et
ĠP ant
ĠP uzz
ĠD osis
ĠL ass
ĠL Ã¤hm
ig a
ig ungs
ĠT hailand
eit h
re d
re chten
Ġbe her
Ġauf ger
isch ten
ĠH au
ĠH ad
enn ungs
ĠR oss
Ġsch Ã¼tteln
us ster
Ġo hn
Ġt oler
ft igen
ĠZ ens
ĠZ iegen
ĠZ ehnt
ĠZ Ã¼ge
ĠN amib
ĠJ ane
Ġum stritten
ĠÃ¼ber gehen
ĠÃ¼ber mitteln
Ġp art
ĠGe we
ĠSch e
ĠSch af
ĠSch irm
sp eich
ĠVer wir
Wir tschaft
Ġdes ign
zu legen
ĠC ortex
ĠO fen
ort s
Ġhier zu
hn ten
Ġ-- -
ot os
ĠRe pl
og er
et schen
Ġre ichte
ĠU t
Ã¤r es
Ã¤r kt
Ġunter nehmer
Ġbes orgen
ob s
fl ut
fl ieÃŁen
schie ÃŁen
ĠEin samkeit
ĠEin klang
Ein kommen
lie ssen
im er
Ġweiter gehen
Ġbeg eistern
ver letz
ichte s
kl ah
ĠVor gÃ¤nge
Ġheraus ge
fahr zeuge
ĠHer de
Ġpro test
ĠAuf ruf
Ġinter aktiv
ak ota
Ġwahr zunehmen
ĠUnter grund
Ġverw alten
ĠLebens zeit
ĠDaten satz
Ġschw ache
ogen e
ĠÃľber blick
mus ik
Ġschl imme
Sch w
ĠBo ote
Ġdir ekten
ĠVerb unden
ĠLie ben
Ġen ergie
Ġausge stellt
Ġausge fÃ¼hrt
ĠSchu lsystem
Ġhoch geladen
leben s
ĠWie so
kon takt
ĠAt men
ĠMode l
gesch nitten
Ġbem Ã¼ht
ĠMÃ¤dchen s
ĠSelbst vertrauen
dr ing
system s
ĠLuft fahrt
Auf grund
ĠPol en
az itÃ¤ten
ĠTo te
Ġ18 0
Ġwor aus
ĠProgramm ieren
ĠRes onanz
ĠSter ber
Ġteil haben
af eln
Ge ben
fÃ¤h ige
Ġbi ologischer
Ġstand ard
struktur en
verb indung
verb indungen
ĠÃ¼bert rieben
ĠprÃ¤ front
beh and
ĠUniversitÃ¤t s
ĠRegen wasser
Ġprakt ischen
org nis
Ġbau e
orben en
Ġumzu wandeln
up e
Ġ201 5
ĠHe fe
ĠHe alth
ĠFrÃ¼ chte
ĠKur ven
ĠBerg steiger
Ġant i
ĠHerr schaft
ĠPass ag
Ġselten en
Ar chite
ĠBedÃ¼rf nissen
Ġbill ige
ĠMut ationen
Ġnotwend igen
ĠnÃ¶t igen
ĠPil oten
ĠTodes fÃ¤lle
ĠDel phin
ĠjÃ¼n gste
etr ien
Ġhe ter
ĠRom ant
ĠEm bry
ĠSyn ap
ĠImpf stoffe
ĠMetap hern
Ġhistor isch
bi ologie
res erv
ĠSchnitt stelle
ĠÃ¼berprÃ¼ ft
Wei ÃŁ
Ġform uliert
Ġstet ig
Ġbrill ante
krie ge
ĠSam stag
ĠWÃ¤l dern
Ġunbek annte
ĠRoh stoff
ĠÃ¼berein stimmen
Ġerm or
ĠEigent ums
Ġprofession elle
ĠWh ite
ĠÃ¼bersch reiten
ĠDan iel
Soll te
ĠEt hn
ĠAmerikan ern
ĠNeugier de
ĠSkelett mus
Ġfreund lich
ĠSar ah
Ġinstall ieren
Ġinstall iert
ĠKy ros
atom ie
Ġpfl anz
ĠDÃ¼n ger
ĠAstron omen
ĠIntens itÃ¤t
ĠAppar at
ĠVis ionen
Fil m
ĠKontinen te
ĠbrÃ¤ uchten
Ġilleg ale
ĠHub schrau
Ġstimul iert
Ġlehr te
Ġstr ess
Ġassozi iert
ĠMinder heit
ĠChromos omen
ĠDete ktor
ĠAlb um
Ġuniverse lle
Ġkorrig ieren
Son dern
ĠPanz er
ĠRÃ¼ckmeld ung
ĠAntik Ã¶rper
ĠBeschrÃ¤n kungen
ĠAsthm a
ĠDal ai
ĠSchwanger schaft
ĠÃĦlter werden
ĠCany on
hamm ed
" :
3 00
A T
D an
G ruppe
I A
M in
M ark
M eistens
P rÃ¤
P aul
S ag
T B
U t
Z ie
a fel
b aus
b Ã¤nder
b iot
b ildern
b rid
d ste
d sten
e bene
e arch
h auer
l Ã¤ndern
m assen
n utzen
p rinzip
p apier
t ts
v es
w es
w andern
y en
Ġ Ã¤sth
er isch
Ġd ien
Ġd ifferenz
ie fen
Ġw illen
Ġw andert
un sten
Ġs auer
Ġs Ã¼chtig
Ġe B
st ufe
st euern
Ġun auf
Ġm Ã¼h
Ġein genommen
te f
ge sp
Ã¼ mm
ĠS ag
sch Ã¤den
Ġn on
Ġzu dem
Ġzu gelassen
Ġder art
at ienten
em ark
em ente
der e
Ġin iti
ĠM ay
ĠM auern
ĠM Ã¶rder
Ġf ar
Ġf euern
ĠG uer
ĠB ra
ĠW it
ĠW ork
Ġes sent
ĠK anten
se bene
Ġan b
Ġer reich
Ġsie he
Ġden jenigen
ĠP y
ĠP ier
Ã¼r fe
ĠD ein
ĠL ampe
ĠL HC
ĠT ante
Ġbe denkt
ĠH an
ĠH Ã¤ndler
ĠR asen
ĠR ena
Ġsch oss
Ġsch eiter
Ġl achten
Ġt ust
Ġt rauen
ol es
ĠZ eile
Ġaus richten
ag on
Ġum gibt
Ġum drehen
ĠSt ation
ĠSt ab
Ġp al
ĠGe ste
ĠSch Ã¤tzungen
ne ur
iv ing
ĠPro fessoren
Ġvor ange
ĠIn frarot
ĠAr ter
Ġwo w
Ġwo lle
ĠAn blick
ĠAn rufe
Ġnach ahmen
ĠBe ach
ĠBe dien
eute t
ĠLe x
ĠLe ichen
ĠUn mÃ¶gliche
ĠSp inne
op lan
all t
her e
Ġunter drÃ¼cken
rin s
Ġab schneiden
for scht
fl ation
Ġkon tro
ad ox
Ein stein
im um
ĠOr gas
geb nis
zi mmern
ĠAus schau
ĠAus breitung
war ten
Ġzusammen setzen
ĠBl Ã¼ten
ĠUm satz
qu is
ĠUnter scheidung
Ġgu cken
ĠGeb ir
ĠAb kommen
ĠAb kÃ¼rz
Ġhei mlich
ĠAl uminium
hem en
Ġ4 7
ikan ischen
zeit alter
Ġschw achen
ĠÃľber re
ĠÃľber setz
Ġgel ten
ĠMit tern
ĠMar ih
Sch Ã¶n
Ġung lÃ¼cklicherweise
ĠRei fen
gl Ã¤ub
Ġausge dacht
An ge
iss ance
Ġte uren
ib ir
kon s
ph ys
ren g
ĠWahr heiten
ĠVide ok
Ġ9 00
ĠMater ials
ĠMode llen
sy che
Ġerf uhren
schnit ten
ĠFlug zeugen
urs ache
kehr te
Ġgesam tes
Ġch rist
ĠZusammen spiel
ĠFÃ¼ lle
Ġalt mod
ĠGrÃ¼n dung
gang s
ĠPart nern
ĠWerk statt
ĠSk y
ĠFahr en
Ġlei stet
entr al
Ġbel ohnen
ĠMittel klasse
ĠKlim ak
Ġaufzu hÃ¶ren
Ġhervor heben
ĠRes earch
ĠMikro fon
Sp recher
ĠNu llen
Ġged eihen
vers icherung
ĠHa mmer
Ver gessen
ĠHo sp
ans ion
ĠZwei g
Ġfr isst
Ġwissenschaft licher
gn issen
Ġbew under
Be denken
Be achten
Ġeinzu fangen
wand lung
ĠtÃ¶ teten
Ġaktiv er
rech nen
rech ner
ĠRu ck
ĠRu hm
ĠIm per
Ġwirtschaft licher
ĠTele fone
Ġ199 4
Ġ199 7
ĠKan inchen
ĠTrÃ¤ ger
ĠPoliz ist
Ġverh andeln
Ġauft aucht
ĠZuf l
ĠNa ir
Ġpsych ologischen
ĠOper ations
Ġvisu eller
ĠMy zel
Ġselten er
ĠLernen s
ĠPal Ã¤
hÃ¶ hung
Ġfehl ende
atter ie
ĠnÃ¶t ige
ĠNahrungs kette
ĠBank er
schlÃ¤ gt
ĠDel fin
ĠSchlaf zimmer
schrÃ¤n ken
Ġkrie gt
ĠjÃ¼n gere
ĠAuss agen
ĠDis zipl
ĠSchwier igkeit
aterial ien
Ġindividu ell
ĠSchn urr
ĠDir igen
Ġmathemat isch
Ġaussch alten
ĠPu ppen
ĠSil ber
ĠSamm ler
ĠBeob achter
Ġtrin kt
uck s
Ġbegrenz ten
ĠGeschlecht s
ĠSl um
ĠCent s
Ġfundament alen
Ġneur on
Ġverab schie
ags Ã¼ber
Ġfil tern
Erin ner
ĠAnim ationen
Ġunbek annt
ĠAstr onomie
Ġstaat liche
ĠOst kÃ¼ste
Ġfrem de
ĠZer o
ĠSymm etrien
Ġevolution Ã¤ren
Ġausser gewÃ¶hn
ĠBang ladesch
ĠSchild krÃ¶
ĠfranzÃ¶s ischen
vir us
ĠAmerikan ischen
ĠvernÃ¼nft ig
ĠvernÃ¼nft ige
ĠMamm ographie
ĠWeihnacht s
ĠVorder grund
ĠTu berkul
ĠTum ore
ĠHorm one
ĠkÃ¼nstler ische
Ġintu it
ĠMÃ¼n ze
Ġumwelt freund
Ġverne tzt
ĠNobel prei
ĠIndustr ien
ĠauslÃ¶ st
ĠKontinen ten
Ġtransform ieren
Ġgleicher maÃŁen
agent uren
ĠTEDTalk s
ĠDiplomat ie
ĠKlar heit
ĠSchwefel wasserstoff
ĠGolden e
Ġtraur ige
Ġfahr e
ĠBereit schaft
ĠSnow den
Em issionen
berecht igung
ĠArkt is
Po int
ĠallgegenwÃ¤rt ig
Ġeinger ichtet
ĠFÃ¼n ftel
ĠVorlie ben
Stu denten
ĠklÃ¼ ger
Ġwitz ig
ĠRecher che
ĠVertrau ens
ĠColumb ia
ĠAbholz ung
ĠHamb urger
ĠAuth ent
ĠPerform ance
ĠSchleimp ilz
Tats ache
klah oma
ĠRena issance
. âĢĿ
A bs
B ilder
G lÃ¼ck
I M
J C
K re
K unst
M Ã¤nner
P H
W ichtig
b indung
c et
f u
f inanz
i ard
m iss
n ummer
o den
p u
r igen
r ats
t Ã¶
v ieren
z onen
Ġ u
er ische
Ġw Ã¤hlt
un klar
Ġs ende
st ande
st unde
as ha
Ġein heit
Ġein beziehen
Ã¼ hm
Ã¼ pf
Ã¼ chter
ĠS un
sch war
Ġn ot
Ġz iel
es ien
hr lich
Ġzu kommen
ein genommen
ein richtungen
it tern
ĠM T
ĠM Ã¤
ĠM acher
al ore
ĠA dresse
lich te
ĠG ri
ĠG attung
Ġge setz
ĠB ert
ĠB leist
ĠK ommen
ĠK ul
ĠK asse
le ten
ĠE ch
ĠE inge
ĠF aust
ĠP au
ĠP ick
ĠP ek
Ã¼r fen
ĠD y
ĠD ol
ĠD reck
ĠL ange
ĠL ese
Ġver ank
Ġver viel
ĠT ai
ĠT oleranz
ĠT itels
re al
Ġbe heben
ĠH it
ĠH Ã¤uf
Ġsch Ã¼chtern
Ġl es
Ġl asen
Ġl atein
Ġt her
ol zen
ĠZ oll
ĠN SA
ĠN ike
Ġaus denken
Ġaus drÃ¼ck
Ġaus sterben
Ġum kreisen
Ġp lÃ¶
Ġdes ignen
ĠPro th
ĠC our
ĠO klahoma
ĠAr gentin
Ġeiner seits
ĠAn atomie
Ġnach her
Ġmach bar
Ġbei der
ĠBe er
Ġent schuldigen
Ã¤ch ten
Ġle ichten
Ġle uchtet
ot on
ĠLe b
ru st
Ġher anz
ĠSp ass
Ġkl inge
all gemein
Ġunter brechen
wer ker
fl aschen
fl Ã¼ge
ekt oren
ĠfÃ¼ gt
ĠEin sen
gel eitet
stell ige
rÃ¤ u
du ino
ver stand
ver teilung
ĠAus bruch
Ġber ichtete
Ġger issen
ragen den
ĠVor gehen
ĠVor sitzen
Ġheraus kommt
Ġheraus stellte
fahr ts
imm ung
zie le
rag te
Ġange ben
ĠWei ÃŁe
Ġgef Ã¶rdert
gie b
ĠLebens formen
ĠLebens standard
Ġschw ul
Ġkomp letten
Ġgesch Ã¤ft
Ġgesch lecht
Ġgesch Ã¤tzt
ĠSte ll
ĠSte wart
str onom
ĠÃĸ sterreich
Ġen ger
legen heit
ĠfÃ¼n fte
Ġunglaub licher
ĠSpiel ern
ĠSpiel zeuge
Ġte steten
ĠGemein samkeiten
Ġbef asst
St unden
St imme
ĠSchul bildung
kon fl
ĠMo dern
ĠMo MA
ĠAmer ican
Ġ9 8
chn ungen
gesch n
Ġde zentr
Ġerf Ã¤hrt
let tern
Ġtro ck
Ġmag ischen
Ġfor dert
ĠDem ut
ym n
Ġgr us
Ġaufge teilt
kÃ¼ hlt
Ġerre ch
Ġbeko mm
ĠFrei en
ĠCo mm
ĠCo mmunity
ĠProgramm ier
Ġverbesser te
Pro fessor
zw ingen
ĠZwei te
ĠVir tu
rÃ¤n e
Ġversch rieben
ĠgrÃ¼n dlich
ĠtÃ¶ dliche
lant at
ĠFisch fang
ĠErd n
ĠZeu gen
obil ien
itter t
glie d
Ġ199 5
ĠÃ¤lter er
ĠPsych iater
ĠÃ¼berw acht
lern te
fre d
schir me
ĠBus se
met ter
Ã¤st in
ĠSy l
leist ungs
Ġtau chte
ĠInvest ment
leb igkeit
ĠSand wich
ĠAbend s
Ġsetz e
ĠMuse en
vie wer
Ġkultur ell
ĠHy dro
Ġ198 4
ĠÃ¤uÃŁer en
Ġwunderbar er
ĠMut ation
geg nung
ĠKomm and
ĠTro pen
ĠÃľberleben s
netz werk
ĠCl ub
Ġvertrau ens
Ġspezi alisiert
ĠTel eko
Ġkrie ge
ĠBef rei
ĠBef ehl
ĠsÃ¼ dlichen
ĠspÃ¼r t
Ġmerk ten
Ã¤nn chen
Ġderzeit igen
ĠGraf iken
ĠFo od
Ġverle tzlich
Ġschlie ÃŁe
krank heit
ĠSyn these
ĠFrem d
ĠPatient in
ĠWettbewer bs
bas is
ĠSchei ben
ĠSpr ich
ĠSpr uch
rasch all
lÃ¤uf er
kr atz
Ġdram atische
Ġide al
We bs
ĠVoraus sagen
Ġversp reche
ĠSchlei m
kreis lauf
ĠVern etzung
ĠBauch speich
ĠPlatt formen
WÃ¼r de
stud ium
ĠTeleskop e
far ben
ĠTrau r
ĠStad ium
Gesch ichten
Ġorgan ische
Ġdokument iert
ĠNadel n
ĠVerkauf s
Ġveran schau
Ġfokuss iert
ĠDsch ungel
ĠStÃ¤ mmen
ĠAusgang spunkt
ĠWicht ige
ĠBang alore
ĠEt ik
ĠÃĦhn lichkeit
ĠRitu al
ĠGefangen en
Ġunerwar tete
ĠArab isch
gespr Ã¤che
deuten d
ĠEinschrÃ¤n kung
ĠPrior itÃ¤t
Ġstat istisch
JÃ¤hr ige
Ġbefest igt
ĠBetrieb ssystem
ĠMahl zeit
Ġblock iert
stÃ¤r ke
ĠImm ig
ĠImm obilien
Ġwidersp rÃ¼ch
ĠMoskit os
Ġehemal ige
ris iko
Ġverne tzen
ĠkÃ¤mpf ten
Ġunf air
ĠUrheber recht
ĠÃ¼berwÃ¤lt igt
ĠBudd ha
Ġbele gt
Ġgeheim nis
fiz it
ĠfrÃ¶h lich
strate gie
Ġsc annen
Ġsicht baren
ĠSoc ial
Ġlandwirtschaft lichen
ĠKoord in
ĠVit amin
Ġbetr unken
wechs elt
Ġarchitekton ische
Ġgesen det
ĠProv inz
untern ehmer
ĠJust iz
ĠSkiz zen
ĠUnger echtigkeit
portion al
Entw eder
fell os
ĠErrungen schaften
ĠWinden ergie
ĠAnforder ungen
ĠKopenha gen
ĠFortpflanz ung
ĠKosov o
Ġschrittw eise
ĠSpektr ums
klÃ¤ss ler
ĠKambod scha
Ġeingebet tet
ĠPhiladelph ia
ĠBasket ball
Ġermor det
ĠMittern acht
ĠDiszipl inen
ĠplÃ¶ tz
4 00
7 5
A dam
B omben
C C
E pidem
F rei
G eht
G estern
K or
K ap
L T
P T
P reis
R A
S k
S ich
T un
b io
c us
f tet
f est
f uÃŁ
g ige
g lÃ¼ck
h elfen
k kol
m ischen
p opul
p ackt
u it
y e
Ġ as
Ġ ter
Ġ uh
in ie
in st
in str
in burgh
an or
an twortet
Ġa stronom
Ġun ab
on te
ĠS ack
ĠS Ã¤nger
sch ichten
sch Ã¼tter
sch Ã¼tzer
Ġh ie
ar on
Ġzu folge
or ger
der ung
ĠM Ã¶n
ĠA ra
ĠA bed
Ġf asst
lich ten
Ġg leicht
ĠG ur
Ġge ko
ĠB reite
ĠW ann
ĠW andels
ĠK ette
le hnt
ĠF inn
ĠF aden
ĠF av
Ġer ho
Ġer ziehen
Un iversitÃ¤t
ĠP ist
ĠP unk
ĠP itts
Ã¼r me
ĠD Ã¤n
ĠD utzende
ĠL y
ĠL at
ĠL isten
ĠL aun
ĠL ama
Ġver wei
Ġver legen
ĠT y
ĠT sch
is iko
ÃŁ end
ĠR ind
ĠR ang
ĠR ussen
Ġl aufe
Ġo pfern
be ten
ĠZ ul
ĠN ik
ĠJ ill
ff el
ĠSt rat
Ġp asste
ut nik
ĠSch affen
ne gie
ĠPro pag
ĠC R
ĠC at
ĠC entral
Ġvor m
ĠO d
ĠAn bau
ĠBe troffen
Ġhier von
aus bildung
Ġent mut
Ġst Ã¼tzen
Ġst iegen
Ġst Ã¼rzen
Ġsp art
ĠLe one
ing abe
ru hen
bl Ã¤tter
ul are
Ġkl atschen
op ol
we gt
Ġgen ial
Ġgen ossen
rin th
ri a
ri b
for schungen
Ġeinfach sten
Ġimmer hin
Ġhatte st
lie f
lie be
gel der
Ġsoll st
age s
Ġgew artet
ver schw
ĠKon sens
auf wÃ¤rts
Ġvers icher
ĠVor stand
Ġheraus kam
Ġverst eh
Ġzusa mm
alen der
wo hnen
ĠAu dio
ĠKl ienten
ĠUm kehr
reich er
Ã¤d te
ĠUnter schieden
Ġverw urz
ĠWissen schaften
Ġ5 2
ĠAb schied
ĠAb bild
ĠAl ice
ĠLebens weise
ic t
ic es
ĠMe eren
ĠHand werk
ivers um
Ġkomp eten
Ġscha ffe
Ġbereit stellen
arbei tete
ĠÃĸ ls
ĠQu ell
asch ine
ĠSta ates
Ġausge kl
ĠZukunft s
our cen
Ġverm ehren
ĠVers org
Ġoffen er
St ra
volut ionen
Ġeinge sch
ph ase
ĠMo hammed
Ġrecht liche
Ġrecht fertigen
ĠTED x
ĠÃ¼ bliche
Ġho hes
ĠSelbst wert
ĠAm ster
ĠGesicht ern
one y
ĠÃ¶ffent liches
Ġabge legenen
ĠMittel schicht
Ġfl Ã¼cht
ĠJa c
sph ase
Ġerwar te
ĠPf eil
ĠInst inkt
ĠVert rÃ¤ge
ĠLi bellen
ehm t
ĠNeur on
ĠHo sen
ĠBro ad
ĠÃĦr ztin
ĠDa fÃ¼r
Ġrei st
Ġtechn ologischen
Ġextrem en
arr t
ĠFortsch ritts
hand lungen
ĠGel des
Ġlok aler
ĠDo kt
Ġerg Ã¤nzen
ĠVersuch ung
Ġinspir ierte
wÃ¼r digkeit
Ġmedizin ischer
ĠBaum wolle
ĠOn k
ĠErf assung
met hoden
up s
ograph ische
Ġhol t
ĠzufÃ¤ lligen
ĠHerzen s
ĠAnal ys
Ġvoraus sagen
ĠÃ¤uÃŁer e
ĠBio technologie
ĠTro mmel
ĠKrie ger
ettbewer b
vert reter
ĠVari ation
Ġspezi fisch
ĠkÃ¼rz er
ĠjÃ¼n gsten
bereich e
ĠMich igan
ĠAustr al
ĠTau sch
programm e
Ġgegenseit ige
Ġgesund es
Ġantwor tet
Ġsexu ellen
Den kt
ĠAkt ionen
wach s
part ner
herr schaft
Ġgrau sam
nach richten
Ġausger ottet
Ġlangfrist igen
ĠRechen leistung
Ġverab schieden
ĠParad ox
kor b
ĠSÃ¤uget ieren
ĠOkt op
Ġmechan ische
ĠbeschrÃ¤n ken
groÃŁ e
Ġdynam ische
ĠVen e
Ġfrem d
ĠWiderstand s
Ġgelie fert
Ġorgan ischen
ĠCyber k
Ġdeut schen
Ġdeut sche
ĠJung frau
iat rie
Ġevolution Ã¤re
Ġentfern te
ĠEhr lichkeit
sprogramm e
Ne w
Soll ten
Ġeth ischen
ĠChirur gie
Ġtr ennt
Ġmanip uliert
Ġmon at
ĠRÃ¶ hren
Ġsub jekt
Ġspiritu ellen
ĠLast wagen
ĠgegenwÃ¤rt ige
ĠUng lÃ¼ck
Stud ien
ĠMount ain
ĠÃ¶rt liche
Ġoper ieren
Ġblock ieren
ĠNotiz en
ĠJeff erson
ĠNobel preis
ĠbegrÃ¼ ÃŁen
Ġwein te
Ġsimp el
ĠÃ¼berwÃ¤lt igend
ĠBudd h
Ġdraht lose
ĠLar ven
Ġunaus weich
ĠGaler ie
ĠPoly mer
ĠSchlechte s
ĠLiz enz
ĠNeandert hal
Ġaggress iv
ĠSper mien
Ġverdeut lichen
ĠErt rÃ¤ge
ĠBlind heit
ĠPortra it
Ġbesp rechen
ĠbetrÃ¼ gen
stad ium
ĠKÃ¶ der
ĠSchlussfol gerung
Entwick lungs
Gl ob
Ġjeweil igen
ĠKoff er
Ġinn eh
Ġreproduz ieren
ĠFoot ball
ĠWÃ¤ sche
ĠSpaghett i
Brun o
ĠZens ur
ĠeB ay
ĠMarih uana
ĠPek ing
ĠBauchspeich eld
Ġgeko stet
B i
B ald
G ay
K Ã¼rz
M M
M ikro
R es
R aum
S har
V ert
W ussten
a e
a bt
b ul
e tzt
f uhr
f urcht
g ypt
h at
i ath
k rit
k indern
o os
r eit
r ichtig
t ier
v Ã¶gel
w ale
w uchs
y sen
y ota
z usammen
Ã ¨
en tzÃ¼ndung
er o
in land
Ġw agen
Ġw ack
an ien
Ġun wohl
Ġun ges
Ġun schuldig
ge schlagen
Ã¼ hlen
Ġi ll
Ġi mm
ĠS ich
ĠS hr
ĠS eit
ĠS et
ĠS her
ĠS ehn
ir ur
sch icken
Ġz ir
Ġz Ã¶
Ġb ar
Ġb ast
ĠM ix
den tschaft
ĠA cker
ĠA nek
ach use
Ġf lo
Ġf aul
ĠB ast
ĠB aut
ĠB armherz
ĠW ach
ĠW urm
ĠW ils
ĠK Ã¶r
ĠK ek
ĠK alten
ĠK Ã¤st
Ġan fÃ¼hlen
Ġer stellte
ĠP illen
ĠD arum
ĠD AR
ĠD rachen
ĠL ehm
ĠL eucht
ĠL Ã¤den
ĠL achs
ĠL agos
um pt
Ġver zwei
Ġver sammeln
ĠT asse
ĠT yrann
ĠI D
re kord
Ġbe z
Ġauf passen
ann ung
tz ahl
Ġmit ge
Ġwie gen
am te
ĠH at
ĠH abe
ĠH alte
enn zeichnet
ĠR Ã¼
Ġsch nitt
us p
ĠZ wie
ĠZ orn
Ġaus gehend
ĠJ Ã¼n
ag n
il it
ik atoren
ĠSt oÃŁ
ĠSt Ã¼hle
ĠÃ¼ber geben
Ġp atent
ĠGe ck
eil chen
ĠSch metter
Ġim port
sp iell
sp Ã¼ren
ĠVer f
zu setzen
ĠC row
ĠIn dex
ĠO EC
ĠAr tef
ĠAr duino
ĠBe achtung
ĠBe wertungen
Ġle hnte
ĠRe flekt
ĠLe e
Ġre krut
all as
all appen
Ġgen iale
ank ungen
rin a
rin de
tzen de
Ġab lehnen
wer tet
fl Ã¶
Ġr an
Ġkon zept
art a
ner gie
iz ip
per t
gel ernt
ger lich
stell ern
Ġgew annen
ver folgen
ver hÃ¤ltnisse
Ġar ch
ĠVor haben
vor stellungen
ierte m
fahr zeug
ĠLand ung
att form
ak rebs
ĠDie go
Ġir ren
ĠZu sch
ĠBl ue
Ġeinz ut
Ġwahr es
fr am
ĠUnter brech
Ġange halten
Ġleben dige
akt ive
ĠAb grund
ĠAl ten
Ã¤h men
ĠLebens dauer
ĠEnt hus
ikan ische
Ġbesch weren
ĠMe etings
Ġkomp on
ramm e
ckt ail
ĠSchl Ã¤
ktiv e
pl Ã¤ne
Ġschl ag
Ġschl oss
id i
Ġseit her
Ġgest oppt
schw ung
Ġausge sucht
ĠfÃ¼n ften
ĠFall s
ĠVers icherung
stÃ¤nd igkeit
Ġgl att
ib ati
Ġweg nehmen
Ġstar ren
ĠKopf schmerzen
zept anz
Ġerf anden
Ġerf reut
ĠÃ¤hn licher
Ã¼t tet
setz e
ĠZusammen setzung
ĠUr ban
Ġvert rieben
tel eskop
ĠAm ts
ĠNeu e
ĠNeu tr
ivi le
ingt on
aw a
ĠPar ameter
Ġvorher zusagen
man gel
Ġerwar teten
ĠNeur ogenese
atten t
Ġverbunden en
ĠPrin cet
ĠLabor ator
Ġgro sser
dust ri
stra ÃŁen
Ġfort fahren
sprechen d
ĠtÃ¶ dlichen
Ã¤ss ig
Ġrein igen
Ġkontroll ierte
eig nen
Ġempf ehlen
ĠIm ker
abhÃ¤ng ig
schlag geben
co ver
ĠApp s
Ġ199 6
ote chnologie
ĠnÃ¤her t
ĠArmut s
ĠKan Ã¤le
Ġprakt izieren
Ġposit iver
ĠHel m
ĠZeug s
ĠVol umen
Ġhol ten
Ġdritte s
ĠerhÃ¶ hte
ĠerhÃ¶ hten
gest alten
Ġkommun iziert
ĠCar l
Ġtradition ell
Ġbestehen den
ĠZivil isten
ĠVerfÃ¼ g
ĠErei gnissen
Ġumge ht
Ġselten e
ĠKol umb
Ġeng agiert
ox id
Ġmittler e
En g
wahr schein
gra de
ka mmer
ĠBef ehle
Ġvern ichten
ĠspÃ¼r te
ĠHeil mittel
ĠAuft reten
ĠWar nung
ĠKÃ¤ fig
Ġat om
Ġauseinander setzen
hÃ¤user n
Ġherr schen
ĠGlob al
ĠFehl ern
ĠUN O
ĠPhys iologie
eiger t
ĠDunk eln
Kann st
ĠKontin u
ĠMilch straÃŁe
ĠHyp ot
Ġwechs elt
ĠEd inburgh
Ġentsprechen de
Ġmass iv
Ġbewer ben
ĠSolar zelle
ĠGrÃ¶ÃŁen ordnungen
ĠKapit Ã¤n
Ġheil ige
Ġmult in
ĠHem d
ĠParad ig
ĠParad ies
rimin ierung
mechan ismus
ĠBarr el
ĠBarr ieren
spar ungen
ĠExp ansion
ĠSÃ¤uget ier
Ġbeobachte ten
ĠgÃ¼nst iger
ĠAp ollo
ĠKoll ision
ĠKoll aps
ĠSpan isch
van ia
Gesch ichte
Ġgehei me
ĠSchalt kreis
ĠHypoth esen
mitglie d
Interess ant
Ġunerwar tet
Vers ion
ĠOl iver
Ġexplod ieren
ĠNÃ¤ch sten
Ġbeseit igt
Ġkommerzie lle
Ġkommerzie llen
Stud ie
Ġinternational er
ĠIntegr itÃ¤t
Ġberu hen
ĠSzenar ien
Teil chen
ĠGeschichtener zÃ¤hlen
ĠFlu ktu
Ġregion ale
geord nete
Ġfett leib
ĠÃ¤ gypt
ĠVorles ungen
Ġandauern d
Ġchaot isch
ĠBlutgefÃ¤ ÃŁe
ĠBÃ¶r se
ĠBÃ¶r sen
ĠUnterhalt ungs
Ġallerer sten
ĠCra ig
Ġgreif bar
Ġruss ischen
ĠPalÃ¤st ina
Ġdeprim iert
ĠMiner alien
Ġauftau chte
Ġfix iert
ĠLib yen
Ġentschl Ã¼sseln
Ġexter ne
Hoff entlich
sprodu kt
ĠScher z
ĠZeitra ffer
Ġauton ome
ĠReh abil
ĠBeschleun igung
gewinn ung
ĠKum pel
ĠMarath on
syl vania
ĠKathe dr
ĠPortug al
ĠEthan ol
Ġabsur d
ĠIsol ation
ĠMyster ium
elan gel
Ġerschreck end
ĠFakult Ã¤t
ĠVeg as
ĠBrutto inland
Ã¤stin ens
kkol i
KÃ¼rz lich
ĠAnek d
achuse tts
ĠKÃ¤st chen
ĠOEC D
ĠPrincet on
. ]
1 6
B ed
D imen
F G
G ed
H Ã¤tte
H Ã¤tten
L a
L ehrer
M en
O ben
P rin
R ad
T ut
Z ehn
b eine
b recher
d ler
f ind
f ehler
f ertig
f Ã¤hrt
g ro
h Ã¤lfte
i des
k ar
m achte
m Ã¤dchen
m ikro
m Ã¼tter
m acher
r r
s Ã¤
t hen
u u
u der
w Ã¤nde
z ision
er ten
in as
in tens
ie den
Ġw Ã¶ch
Ġs ug
ich ert
st ap
st Ã¶rung
Ġa pp
Ġein drucks
ge halt
sch ungs
sch lieÃŁend
ll es
Ã¤ ht
Ġk Ã¼ssen
or isch
or pel
it ur
Ġin folge
den z
Ġf ielen
ĠG Ã¤rten
ur es
ter s
ĠB auen
ĠK ognit
le hrer
ĠF ell
ĠF ull
ĠF unken
Ġer tragen
Ġer werben
ĠP in
ĠP syche
ĠD og
ĠD Ã¤cher
Ġver sprochen
Ġver legt
re ger
Ġbe arbeitet
ck igen
ck chen
Ġauf baut
ĠH alt
enn te
enn ten
ĠR NA
Ġwar fen
Ġsch alten
Ġl Ã¤ngst
Ġl uden
eu len
Ġo lymp
Ġt agt
Ġt Ã¤ten
Ġt anzt
Ġt agsÃ¼ber
ĠfÃ¼r chter
ĠZ aun
ste st
ĠN r
ĠN ett
ĠN asen
ĠN ektar
Ġaus wirken
ĠJ ar
ĠSt ringt
ĠÃ¼ber legte
tw ork
ĠSch ande
ĠSch atz
ĠSch ienen
ĠSch oÃŁ
ĠSch iffen
ĠSch Ã¶pfer
ne st
ien st
ĠC an
ĠC ro
Ġvor stellt
Ġvor geht
ĠIn nern
ĠIn vas
ĠO sta
Ġwo hnt
ĠBe cken
Ġst Ã¼r
ing o
ing st
ĠEn te
ĠUn recht
ĠSp inn
ĠSp rech
op arden
acht eil
ĠU rin
ess el
ess ion
Ġab halten
Ġkon zip
chte ten
ger ungen
im ation
im itÃ¤t
In d
rÃ¤ ften
Ġlie bst
ver hÃ¤ltnis
ĠOr ang
ĠOr angen
Ġwieder bele
Ġverb ieten
ĠAus richtung
ĠAus rottung
ĠzurÃ¼ck bringen
Ġger iet
kl opÃ¤die
ĠVor schlÃ¤ge
zeu gend
rit ter
Ġpass iv
Ġpro j
Ġbet rat
Ġbet reibt
Ġbet rug
ĠBild hauer
Ġwahr sten
ĠInter vention
Ġange legt
hÃ¶r igen
ĠFre quenzen
ĠGen uss
ĠAb handlung
ĠAl arm
Ġfunktion ierten
ĠLebens rÃ¤ume
Ġverl Ã¤ss
ĠHand voll
ĠHand gelenk
âĢ Ł
yp e
gew innen
Ġschnell ste
Ġkomp rim
ĠSchl afen
ĠMit arbeitern
ĠSe elen
ĠSte ven
pl atte
ĠPl akat
ĠBo hr
rat zen
Ã¤tz chen
Ġen er
Ġal bern
ĠKÃ¶rper sprache
achten s
ĠEntwick ler
ĠAugen b
Ã¶l z
Ġlange m
St ar
Ġgl Ã¤nzen
ĠPat h
ĠProdu zenten
Ġ8 6
kon zept
Ġherum laufen
ph il
ron e
ĠGegen Ã¼ber
Ġ9 6
Ġern Ã¤hrt
sk rankheiten
was chen
ĠKor re
let tes
Ġricht iger
dr ungen
amm a
Ġna iv
ĠStr ang
Ġfrei gesetzt
ĠBeg rÃ¼n
ĠSon de
ĠSon gs
ĠFahr ten
Zu dem
ĠBab b
ranken haus
ĠPrÃ¤ senz
ĠPrÃ¤ zision
ĠAll er
Des igner
Ġerstaun liches
Ġhervor zubringen
ĠDurch einander
ĠBes prech
ĠberÃ¼ hr
Ġhunder tt
Wo hl
ĠPer iode
die s
ĠBedeut ungen
Ġhinaus gehen
Ġperf ektion
Ġperf ektes
ĠÃ¼berras chte
stra hlt
ĠhÃ¶her er
Ġbewe ge
Ġrei sten
Ġtechn ischer
schul dige
stÃ¼ck en
Ġ11 0
ĠIm age
ĠzerstÃ¶r te
Ġ199 1
ĠSau rier
ĠDorf es
Ġblo ÃŁe
ĠEntscheidung strÃ¤ger
Dar in
ĠSc anner
ĠGra ff
ĠGefÃ¼ hls
ssystem e
ĠAnder s
Ġtau chten
ĠCar negie
ĠFrÃ¼ her
ĠKer le
ĠmÃ¤cht igen
Ġeffekt ive
Ġopt ische
ĠAnal pha
kur ve
ĠMÃ¤r chen
gien e
organis men
ĠWol fram
ĠunabhÃ¤ng igen
ĠÃľberleben den
Ġnotwend igerweise
ĠAusdruck s
ĠPrivat leben
ĠRÃ¤ der
ĠLebensmittel n
ĠSzen en
ĠKlima anlage
ĠÃĸkosystem en
ĠVogel grippe
ĠSÃ¤u gl
ĠDeut schen
ĠWest kÃ¼ste
ĠReich en
ĠSchimpan se
lÃ¶s ungen
Ġregel recht
ĠQuadrat kilometer
ĠZÃ¤ hnen
bas ierten
ĠSchei ÃŁe
ĠDen g
ĠDiagramm e
ĠErleb nisse
ĠSens or
Ġzusammenge setzt
stu denten
Ġide alen
ĠVerw altungs
ĠEntfern ungen
ĠkÃ¼mmer te
ifiz ierte
ĠStock werke
Kon ferenz
Ġerz ielt
Ġarab ische
ĠGesamt heit
ÃĦ r
fÃ¶rm ig
Ġgeschlossen en
bek Ã¤mpfung
ĠBem erk
ĠTri b
ep ler
Ġfrem den
Ġumfassen de
ĠSchlacht feld
Ġlande ten
ĠBevÃ¶lkerungs wachstum
stitut ion
ĠAstero id
ĠMass achusetts
mon at
zÃ¼g igkeit
twick lung
Ġunvor stellbar
Ġeth ische
Ã¼tte lt
ĠwÃ¤ hlte
Ġgift igen
ĠNÃ¤ch te
Ġsonder lich
wÃ¤ sche
nÃ¤ her
ĠAbl enk
ĠFer ien
ĠWasch maschine
ĠIntegr ation
ĠThun fische
zo omen
ĠMoskit on
Ġforder e
Pat ienten
strÃ¶ me
ĠstÃ¤nd igen
Ġsimp le
steck end
Ġwiederher zustellen
Ġmet aph
ĠbrÃ¤ uchte
Ġilleg alen
osn ien
Ġkat hol
rav io
ĠFert igkeiten
ĠgroÃŁzÃ¼g ig
ĠWohltÃ¤tigkeit s
ĠKub a
ĠUlt raschall
Ġmissb raucht
Ġnational er
ĠZun ahme
Ung lÃ¼cklicherweise
ĠPower Point
Ġanschau e
ĠGefÃ¤ ÃŁ
Ġverwirr end
Ġangel angt
verw altung
ĠRisik ok
Ġser i
ĠKro kod
Ġrekonstru ieren
ĠFranz osen
ĠRaubt ier
sha h
Ġsim pl
ĠverÃ¤r gert
ĠNG Os
ĠFrÃ¶ sche
ĠOrient ierung
Ġvorherr schen
ĠHimal aya
ĠFlex ibilitÃ¤t
ĠLÃ¤hm ung
ĠOrgas mus
ĠNair obi
ĠTuberkul ose
ĠBefrei ung
ĠDÃ¤n emark
ĠPropag anda
ĠOsta frika
! ",
! âĢľ
C om
F e
F inden
J F
K A
K Ã¼
L G
L abor
M ama
P ap
R L
T yp
a mmer
c es
d ar
f ein
g ru
h Ã¤nder
h andels
i fte
i xt
j ahren
k Ã¶n
k art
l te
l ag
l isten
n utz
o ver
p ed
s uche
u sten
u dert
w affe
y o
z eln
Ġ Ã¶l
er ie
Ġd ichten
Ġd ichter
Ġs ort
Ġein hundert
Ã¼ ste
on ica
Ġv an
Ġv ibr
ĠS em
ĠS eine
ĠS ad
ĠS ho
ir al
ir gt
sch le
Ġz ens
ar itÃ¤t
ar io
Ġzu versicht
Ġk ehren
ein ert
ein satz
at hen
au fl
Ã¶ cken
icht s
de hnung
Ġg raf
Ġg riff
el os
Ġge zÃ¼
Ġge seg
ĠB ul
ĠB ucht
ĠW unde
ĠK ie
ĠK isten
le hre
Ġan passungs
Ġan steckend
ĠE van
ĠF ib
ĠF az
Ġer mitteln
ĠD adurch
ĠL Ã¼
ĠL yn
ĠL Ã¼ge
ĠL otter
ĠL ith
ĠT icket
Ġauf zeichnen
ind ungs
ra hmen
Ġl Ã¼
Ġl eite
Ġt rieb
be f
be band
ĠN er
ĠN et
Ġaus reichen
Ġaus sahen
Ġum fang
Ġum kehren
ĠSt att
ĠSt imul
ĠSt imulation
Ġp re
och em
om t
ĠGe ben
ĠSch ritten
Ġwas ser
sp annen
sp ersonen
ĠVer h
Ġander n
ĠAn zieh
ĠAn schluss
ĠEr g
Ġnach denke
ĠBe wertung
Ġent fÃ¼hrt
Ġst Ã¶r
ĠRe volutionen
Ġsp rit
ĠLe wis
ick r
et ho
ang st
Ġdurch brechen
Ġdurch dringen
ĠUn end
ĠSp reng
mal e
Ã¤r mt
Ġunter drÃ¼ckt
ĠZeit ungs
ze pten
ech ter
Ġzwei fellos
ungs voll
Ġr en
Ġr ennt
iz ei
ap per
lie gt
Er n
Er zÃ¤hl
Ġgew usst
Ġgew Ã¶hnen
ed ig
ver kauf
Ã¼n kt
Ġdu tzende
ĠzurÃ¼ck geht
Ġger Ã¤t
ĠVor zÃ¼ge
war en
schl ug
ĠNe ok
ĠNe pal
Ġbest Ã¤ndig
ĠTeil nehmern
ĠFl ammen
ĠFor ce
ĠUm fragen
Ġange zeigt
Ġange ordnet
Ġgef Ã¤l
Ġgef eiert
ĠGen esung
ĠAb bau
ĠAb wesenheit
me te
ĠAl bt
ĠGehirn are
ĠLebens jahr
ĠLebens lied
gehen den
Ġsollte st
ĠÃľber t
Ġgesch aut
pro chen
ĠSe en
eist ers
str eit
ĠStra ft
ĠStra hlen
ĠEl fen
ĠBo w
ĠQu allen
unter schied
Ġen gen
An t
An stelle
ĠGew issheit
ĠMan ifest
Ġverm ark
Ġbef ragt
ĠNatur wissenschaften
reis lauf
zeich neten
St amm
ack ten
kon sum
Ġc omputer
Ġverk Ã¼nden
ph ine
ren ce
ĠMo v
ĠKunst werke
ĠSchw Ã¤chen
Mit tler
ras h
ĠFilm s
Ġfor tw
schlossen heit
Ġpolit isches
Ġaufge t
fel dern
ĠGrÃ¶ ÃŁer
Ġauszu geben
Ġauszu bilden
ĠBr em
ĠTier arten
ĠVerein barung
Ġersch lieÃŁen
ĠKont o
ĠGleich berechtigung
Ġverschw endet
ĠBet rÃ¼ger
ĠGesetz es
wend ungen
ĠHo den
ĠHo tels
ĠPer u
ĠBro kkoli
bel ast
ĠgegenÃ¼ber stehen
ĠÃĦr mel
ĠÃ¼br igen
ĠBlut druck
Ġversch icken
ĠKrankheit s
ĠbeschÃ¤ft ige
Ġind igen
Ġreich lich
Ġreich halt
app y
antast isch
ogra phen
ĠZeu ge
isse ur
ĠHoch haus
rate gie
ĠEvolution s
Ġfre ut
Ġbedeuten den
ĠKan ad
ĠKern kraft
ĠBill ion
Ġaufre chter
Ġ201 3
ĠGol iath
ĠNetzwerk s
ĠJohn ny
ĠPartner schaften
ĠzufÃ¤ ll
ĠVerl ierer
ĠAk zeptanz
ĠFluss es
Re gel
ĠMy then
ĠgrÃ¼ ner
Ġunge achtet
Ġhart nÃ¤ck
prÃ¼ fung
Ġerwei terte
ĠerwÃ¤hn ten
Ġbezahl te
ĠZw ang
ĠVari ablen
ged anke
ĠFrank lin
ĠTel eg
ĠSal at
yr us
kn ochen
ĠAbst amm
ĠKop ien
ĠBlog ger
ĠMc C
ĠEi weiÃŁ
ĠRed akte
Ġrad io
ĠSchwei ÃŁ
ĠEm ily
leg ant
Ġsauber es
ĠBrenn stoffen
Ġfotograf ierte
ĠAtom kraft
ĠPersÃ¶n lichkeiten
ĠImp ulse
Ġbeit rÃ¤gt
ĠJul ian
Ġstabil isieren
Ġreal istisch
ĠAuswahl mÃ¶glichkeiten
ĠTor onto
ĠGericht s
ĠhÃ¼ pfen
Ġexpl iz
ĠSchlei fe
bÃ¼r o
Ges etz
ĠBarr iere
Ġextra hieren
ĠSpann ungen
ĠBundes staaten
Ġschwe d
Ġprofession ellen
Fl ug
Ġbeunruh igen
ĠIntern ationale
ĠAth leten
ĠSchm uck
ĠEisen bahn
ĠBrow ser
Ġunvor her
ĠÃĦl teren
ziel gerÃ¤t
ĠMig rÃ¤ne
ĠDon ner
ĠKarik aturen
ĠRel ation
Ġfrie dlich
ĠFal ken
Schl ussendlich
ĠGramm atik
ĠVerhand lung
Ġschie ÃŁt
Ġfestge halten
Ġfestge legt
ĠGeschichtener zÃ¤hler
Ġehemal igen
Or ganis
urr ikan
ĠId iot
ĠPenn sylvania
ĠIndustr iel
Ġethn ische
besitz er
Ġdetaill iert
Ġanerk annt
geord neten
ĠAqu arium
Ġsynth etische
ĠBehaupt ungen
ĠauslÃ¤nd ische
ĠTran sa
med ien
ĠGaler ien
Ġkonst ant
Ġallerer ste
Ġimprov isieren
ĠProto zellen
Ġproblem atisch
gesteuer te
ĠHipp oc
Ġgeschei tert
ĠFeucht igkeit
Ġschwei gen
ĠTi bet
Ġerschwing lich
ĠGlied maÃŁen
ĠDÃ¼r re
ĠProstat akrebs
udd h
oster on
Ġsor gte
ĠSud an
ĠTabe lle
ĠRem ix
ĠStill stand
ĠRoy al
ĠAutoun fall
Ġfluores z
Ã¤dag og
ingenie ur
ĠFranzÃ¶s isch
ĠSant a
Ġverhe er
Ġauszut auschen
ĠHero in
ĠSymph onie
ĠwuÃŁ te
ĠRass ismus
ĠverkÃ¶rper t
ontain er
Ġbrand neu
ÃĦhn lich
Zie mlich
wes end
ĠNobelprei strÃ¤ger
ĠAuthent izitÃ¤t
Ġbekomm st
ĠSyl via
ĠPitts burgh
ĠAmster dam
ĠVene zu
Ġill ustr
ĠBarmherz igkeit
Ġsug ger
ĠStringt heorie
shah idi
ĠAnzieh ungskraft
Mittler weile
A rab
B as
C on
I SA
K ur
L S
L ang
N N
S ex
T ED
b a
d le
e e
e gel
e ffizien
f aden
g anz
g nost
h orn
j agt
l iber
m orgen
m oral
o i
p unkten
s Ã¤tzen
t au
t ur
t tert
u ff
v ey
w ins
z ym
z ehnte
Ã §
er a
ie p
ie gt
un s
Ġs angen
Ġe legant
st itu
Ġun fÃ¤hig
ge hirn
ĠS ogar
ĠS umpf
ĠS endungen
Ġn Ã¼tzen
Ġz ahll
Ġb uddh
Ġzu greifen
Ġk Ã¤men
at han
it tet
ĠM es
ĠM eld
Ġau str
icht ungs
al gorit
ĠA lan
ĠA bteilung
Ġf in
Ġf ormal
Ġg renzen
ber gs
ĠG Ã¤
el as
Ġge ho
Ġge zahlt
Ġge antwortet
ĠB ran
ĠB osnien
ĠW ord
ĠW ide
ĠW urf
ĠK ot
ĠK ick
ĠK ult
ĠK ard
ĠK ristall
le ans
ĠE llen
ĠF inden
ĠF Ã¤l
ĠF Ã¶rder
Ġer halte
Ġer folgt
Ġer leiden
sen de
ĠP fe
ĠP ian
Ã¼r tel
ĠL eu
Ġver schlossen
Ġver sprechen
Ġver altet
ĠT rÃ¼
ĠT ipp
ĠT eils
ĠI P
re p
is ha
Ġauf lÃ¶sen
Ġauf weist
eh in
ĠH i
ĠH Ã¤u
ĠH ingabe
ĠH urrikan
enn bar
ĠR inge
Ġwar me
Ġsch ott
ĠV al
ĠV ok
eu chtet
Ġo berfl
Ġt u
Ġt rank
Ġt ox
ĠZ ir
ĠZ onen
ĠZ ement
ĠN euer
Ġaus weiten
Ġaus schlaggeben
ĠJ ay
ĠJ erry
Ġum werfen
ĠÃ¼ber wiegend
Ġp assten
tw orte
ĠSch rei
ĠSch uss
rei fe
sp erson
ĠPro zed
ĠC ur
ĠC och
ĠC op
ĠO tt
ĠO zon
ĠO steuropa
ĠAr iz
rÃ¼ se
ĠMensch sein
ĠAn n
ĠAn lass
ĠEr achtens
Ġhier hin
os aurus
Ġle cker
et tes
et isches
ul dig
Ġdurch qu
ĠUn beh
ĠSp ring
Ġre alisiert
mal a
her steller
Ã¤r chen
Ġste chen
Ġab ges
Ġab gebildet
ob jekt
ĠfÃ¼ gte
ĠEin sichten
ĠEin wohnern
iz en
ap fer
lie gende
im es
ĠGr em
sa har
rÃ¤ glich
ĠGes p
ĠGes prÃ¤
ĠWir t
ĠOr leans
ĠKon ferenzen
Ã¼n det
Ġar t
ĠCh op
under ung
ĠAus w
ĠzurÃ¼ck gelassen
kl Ã¤ren
kl av
rÃ¶ hren
ĠVor fall
ĠVor bilder
Ġbest rafen
ĠAuf zug
Ġinter agiert
ak istan
ĠZu stimmung
ĠZu versicht
ĠKl einen
Ġpaar en
ĠUm wandlung
fr oren
fr essen
schieden e
Ġverw under
Ġange fertigt
ĠSo und
fe cht
Ġ5 4
br uchs
ark s
rank heit
ĠLebens form
Ġverl asse
Ġverschieden sten
gr at
Ġbesch Ã¼tzt
ĠHand lungs
ide pressiv
ĠSe quenzen
ĠMar gar
ĠSte ck
ĠDes aster
arbei teten
sst a
unter such
Ġausge schlossen
Ġhoch entwick
Ġverm ischen
ĠKar o
ĠKar ib
essen heit
ĠMa in
ĠSpiel platz
Ġte lefon
stÃ¤nd iges
Ġrie sen
Ġgute m
ib ri
Ġverk ab
Ġkennen gelernt
ĠSchw ach
Mit gefÃ¼hl
Ġhinter en
ĠBi olumines
sk y
ĠKor n
ĠKor rid
ĠKor rel
ĠZusammen hÃ¤nge
dr Ã¤ngt
ĠFreund schaft
ĠStr Ã¤nge
ĠfÃ¼hren de
ĠRoboter s
Ġbeginnen d
Bei spielsweise
ĠKomp etenz
ĠSk al
ĠSk ype
ĠFahr rÃ¤der
Ġabge st
Ġabge legen
az in
ĠAnt idepressiv
Ġbl inde
Ġbl ickt
ĠTier welt
Ġ18 5
ĠPrÃ¤ vention
ĠMittel alter
Ġersch ossen
Ġersch Ã¶pft
Ġvorher sehbar
Ġ12 5
ĠPf leger
Sp rache
rakt ionen
Ġged ruckt
ĠKat rina
ĠDar f
Ġgescha hen
ĠEngl ischen
ĠInd ianer
ĠGemeinschaft s
ĠPublikum s
ĠBÃ¼rger st
Ġkonzentr ierten
fÃ¤h igkeiten
ĠTest osteron
Ġwert schÃ¤tzen
sm odell
ĠSonnen schein
Ġrei se
Ã¤ss igen
Ġblau es
Ġlau ten
ĠfrÃ¼her e
Ġdigit alisieren
ĠÃ¼bert rag
ĠHoch schule
ĠPsych ologe
iell er
ĠSohn es
Ġgek ennzeichnet
ĠSchÃ¶n es
fre ude
ĠKu geln
Ġschreck liches
Ġwinz iger
Ġseltsam es
ĠArbeits losigkeit
ĠStamm baum
ĠNa gel
ĠPrÃ¤si dentschaft
schu h
ĠWieder holung
ĠKer zen
Ġgesp endet
leb nis
Re volution
ĠGerÃ¤u schen
ĠmÃ¤cht igste
ĠÃ¤u ÃŁern
zut eilen
ĠFinanz krise
Ã¶rp ern
Ġpr ivat
ĠJapan er
Ġnachhalt iger
Ġchines isches
ĠhÃ¤ufig ste
ĠKrie gen
ĠSchiff s
ĠKnochen mark
Ġtyp ischerweise
ĠKlei d
ĠSchlag anfall
ĠSport ler
ged Ã¤chtnis
ĠkÃ¼nst liches
gere icht
ĠRep ort
Ġschn eidet
ĠKir chen
ĠKir ibati
ĠWar n
ĠWar ren
ĠChe ck
Ġaufw achen
Ġel im
Ġverein fachen
Ġmathemat isches
ĠFÃ¼r sorge
ĠMos lem
ĠAuÃŁen minister
ĠTre ppen
Ġsauber er
sver letz
Ġeint ausend
ĠEhe frau
ĠTer m
ĠFehl en
Ġdemokrat ischer
ĠZell t
ĠrÃ¼ck gÃ¤ngig
Ġzahl reichen
Ġgetr unken
Ġdram atischen
ichter ung
ĠErwart ung
ĠIll usionen
Ġbetro gen
ĠLungen entzÃ¼ndung
ĠOffen barung
zig ern
Ġfurcht bare
Ġfurcht baren
ĠBelohn ungen
ĠSchÃ¤ den
iber a
ĠGre at
fÃ¶rm igen
ĠPhot osyn
ĠLab y
ĠLab oren
ĠÃ¶k ologisch
Ġmechan isch
Ġmechan ischen
ĠAnwend ungs
ias mus
Ġzit ieren
ĠTur ing
Ġdick e
ĠLad y
ĠlÃ¶ ste
Ġangen ehme
Ġgehei men
Ġgehei ratet
ĠmerkwÃ¼r dige
Mich ael
Ġkomm ent
ĠAuÃŁer dem
Ġad opt
ĠMas ke
Ġausser halb
ĠEhr furcht
Ġkonsum iert
Ġfoss ile
Ġerneuer baren
Ġmolekul are
Ġinterpret iert
IS PR
Ġret tete
Darauf hin
ĠdrÃ¼ck te
Ġflex ibl
ĠDrucker presse
Ġbo hren
ĠKy oto
Ġbefest igen
ĠMyth ologie
ĠSÃ¼ÃŁ wasser
ĠhÃ¼b sche
Ġemp or
ĠFlederm aus
Ġhoffnungs los
ĠnÃ¶r dlich
ĠEuropÃ¤ er
ĠAstron auten
Ġkosm ischen
Ġethn ischen
katastrop he
ĠjÃ¼d ischen
paar e
ĠSexu alitÃ¤t
ĠAmp el
ĠFin anzen
ĠVorles ung
ĠHub ble
Ġinterakt ive
ĠCous ins
figur ation
CH A
Ġhom osexu
ĠTes z
ĠZy klus
ĠverkÃ¼n dete
ĠTenn is
ĠKalk stein
ĠSom alia
ĠSav anne
Ġiron isch
ĠEinkaufs zentrum
ĠbegrÃ¼n det
ĠUnterdrÃ¼ck ung
Ġzerbrech lich
ĠGÃ¤n se
ĠStipend ium
Fir men
Ġbeauft ragt
ĠVersicher ungs
Ġurb ane
ĠÃ¤ngst lich
Ġwander te
Ġunkon troll
ĠBonob os
ĠPestiz ide
ĠÃ¤nder ten
Hunder te
ĠBÃ¼n del
ĠÃľberein stimmung
Ġregistr iert
ĠAltru ismus
ĠIrrt um
Recht s
Ġaugen blick
ĠEw igkeit
ĠSupr al
Ġohn ehin
Ġdesign t
ĠVerbunden heit
ĠHubschrau ber
ĠDy lan
ĠArgentin ien
ĠSprich wort
ĠCR ISPR
ĠEnthus iasmus
ĠVerfÃ¼g barkeit
ĠParadig men
ĠRehabil itation
ĠBruttoinland sprodukt
ĠGesprÃ¤ chen
ĠBiolumines zenz
1 3
2 4
6 00
B os
B ot
B ank
C E
E A
E hrlich
F orm
F iction
G ib
H O
H mm
J ul
K ar
K Ã¼nstler
M omentan
N o
N ennen
O n
S B
S a
S am
S eht
T el
T ele
U S
W under
a bteilung
b Ã¤
b is
f ischer
f aser
g on
h et
h eld
h Ã¤ren
h Ã¤uft
k m
l or
m ische
m odelle
m eisters
n ehme
p Ã¤
p pt
t a
t re
w ind
w Ã¼n
z iger
Ġd rÃ¼cke
Ġd ipl
ie se
un det
st Ã¤tte
st Ã¤tten
as a
ei f
Ġdie jenige
Ġun gemein
Ġm uÃŁ
Ġm ex
Ġein zustellen
Ġein gebracht
Ġein gefangen
ge heim
ĠS im
ir o
sch Ã¤
sch ne
sch end
sch ritt
Ġh ellen
Ġn eigt
Ġn avig
ll os
Ã¤ mme
Ġb iegen
Ġb ildete
Ġb ittet
or ia
at iker
it ations
icht ungen
lich ste
ber ry
ĠG ase
ĠG ymn
ur de
Ġge ehrt
ĠB le
ĠB hut
ĠW es
ĠW ilder
ĠW andert
ĠK eim
ĠK reide
ĠK aker
ĠK enntnisse
ĠK eith
Ġan st
Ġan zut
Ġan sehe
Ġan klicken
Ġan zusprechen
ĠE hen
ĠE vent
ĠF alt
ĠF rag
ĠF lieÃŁ
sen dung
ĠP etr
ĠD eine
ro cken
ĠL ob
ĠL ohn
ĠL eitung
ĠL okal
Ġver schafft
ĠT uch
ĠT eich
ĠT ami
ĠI mmer
Ġbe stellen
Ġbe achtet
is l
ser gebnisse
ann tlich
Ġso eben
ĠH op
ĠH ud
ĠR us
Ġsch en
Ġl ade
Ġt rÃ¶
Ã¼ber tragung
be dien
be wegt
ĠZ imbabwe
ĠN ash
Ġaus fÃ¼hr
ĠJ ournalismus
il ot
ĠSt opp
ĠSt roh
ĠÃ¼ber stehen
Ġp ackt
ut ine
om s
om ie
ĠGe wohnheit
ĠSch rau
ĠSch ilder
ĠSch riften
ĠSch recken
sp rÃ¼
ieren des
ne e
ĠVer st
ĠJahr tausende
zu lernen
Ġvor gef
Ġvor gehen
ĠO hne
Sie ben
Sie ht
ĠAn zeigen
ĠEr trag
Ġbei spiell
ĠBe ein
ĠBe ck
ĠBe stimm
ĠBe gegnung
ĠBe etho
os se
ĠMenschen verstand
Ġent sprach
Ġent wirft
ĠRe pt
Ġsp eichert
ab a
ĠLe ster
ĠLe ere
ĠEn den
Ġher auf
Ġher kommt
et it
Ġmehr mals
ĠSp ott
Ġkl ugen
op ath
Ġre geln
ĠU ran
Ġunter halt
Ġunter graben
ech nen
fl ogen
chte te
ĠmÃ¼s se
iz enz
lie der
per to
ger Ã¤u
In nov
Ġbeg ab
Ġbeg leiten
Ġbin det
ĠWir d
Ã¤u ÃŁer
Ã¤u scht
kommen s
Ġgew Ã¤hren
inder te
geb oren
ĠEs s
ĠAus dauer
Ġvers us
Ġber eichern
ĠVor schriften
pf eiler
Ġbest raft
ha hn
Ġpro portional
ĠFl ow
ant eil
.. ..
Ġbet ritt
ĠZu gehÃ¶rigkeit
unde utlich
Ġwahr er
qu ent
Ġzie m
ĠSo cken
Ġ5 3
Ġ5 8
ĠAut onomie
utz te
Ġhei ÃŁer
ĠGrund satz
geben heiten
Ġex p
Ġerst reckt
ĠEnt decker
ĠMal erei
ate mala
licher e
ĠÃľber gewicht
io ten
pl ay
ĠStra hl
arbei te
sst ud
schw immen
Ġausge legt
ĠMan ipulation
Ġverm isst
hol te
Ġfest zuhalten
Ġget reten
Ġsozi o
Ġbef re
Ġoffen es
spro zesse
Ġaller lei
Ġweg gehen
dent um
Ġkennen lernen
Ġse par
ĠgrÃ¶ÃŁer er
Ġbeh indert
Ġbevor zug
bo ter
ĠWer den
ĠWer bes
dig ten
ĠBi ok
Ġbestimm ter
ĠSelbst bewusstsein
okrat ische
ĠAm inos
fÃ¼hr ern
Ġabge stimmt
ende ten
Ġaufge zogen
iff ern
Ġauszu fÃ¼hren
ĠBr ig
Ġbl a
Ste ve
ĠVerein igung
ĠAll i
ĠJe ans
ĠFrei heiten
ĠKont akte
ĠPf eifen
ĠCo des
Ġunters uche
ĠProgramm s
hÃ¤lt nissen
ĠBet rug
ĠBet rachten
vers agen
die se
Ġerle bten
ĠFÃ¼hr ungskraft
Ġversch le
Ġversch reiben
Ġversch ickt
zus uchen
ĠMag neten
Ġrei ÃŁen
roh ung
Ġtechn ologischer
Ġerfolgreich sten
ĠMedizin er
Ġempf and
Ġempf indet
Ġzer fallen
amer ikas
essour cen
Ġwirtschaft liches
Ġerfor dern
Ġdigit aler
Ġdigit ales
Ġ199 3
ĠLeiden schaften
Ġschlechte sten
Ġwider spiegel
ĠTon ne
ĠProte inen
ĠerklÃ¤r ten
ĠBot schafter
inter esse
ĠWohn wagen
ĠMark tes
ĠAk ust
Re den
ĠSa ison
ĠFel dern
Ġkultur eller
ĠHy brid
ĠHy giene
ĠBar bar
Ġemotion ales
ĠTodes strafe
ĠPe p
ĠRep utation
ĠverfÃ¼g bare
orm on
ĠHeil igen
ĠMitglie dern
ĠSÃ¤u le
ĠMobil funk
grÃ¶ ÃŁer
ĠFest ival
ĠSatell it
Kl eine
ĠLern er
ĠEing riffe
Ko mmt
ĠTre ffer
ĠPu ls
Ġabsol uter
zy klen
ĠSamm eln
Ġzuzu geben
ĠjÃ¤hr liche
oc ortex
Ġzusammenge arbeitet
ĠLang lebigkeit
ĠVoraus setzung
ifiz ierten
Ġwes wegen
sprozess es
ĠTour isten
Amer ika
behÃ¶r den
ĠTÃ¶ ten
Sol ange
groÃŁ en
ĠAp ot
ĠSchwer punkt
obel preis
Ġbeunruh igend
ĠAth eisten
ĠÃ¼bersch ritten
Ġfe ste
ĠBan jo
ĠIniti ativen
ĠHaw king
Ġeingeb unden
ĠMig ration
kol onie
Ġerlaub ten
ĠErfolgs geschichte
Ġverlei ht
ĠKond om
ĠSelbstmord attent
ĠWilli ams
ĠhÃ¼b sch
Ġoper iert
Ġweiterentwick eln
ĠbefÃ¼r chten
Ġmater iellen
Ġberuf lich
Ġunverm eidbar
Gemein schaft
ĠFÃ¼hrungsp ersÃ¶n
ĠDigit al
ĠKrankenschwe ster
ĠDreie ck
ĠSterblichkeit srate
Ġbiz arr
ĠTher mo
ĠErle uchtung
ĠErle ichterung
Ġregener ieren
Ġloszu werden
ĠProg nosen
ĠEnzy klopÃ¤die
ĠwillkÃ¼r lich
ĠVergewalt igung
ĠAbweich ung
ĠUnternehm ern
Vir us
ĠComp any
Ġbeeintr Ã¤chtigt
ĠEc onom
ĠgrÃ¶s ste
ordent liche
Ġzuver lÃ¤ssig
ĠRab bi
ĠJosh ua
Ġdopp elte
ĠBade zimmer
Ġvernetz ten
ĠVerpack ung
ĠPir aten
ĠPix el
ĠHÃ¼r den
ĠlÃ¤ng ste
ĠAuseinander setzung
ĠImprov isation
ĠSpazier gang
opard y
Ġungehe ure
ĠNiederlan den
Ġgrat is
ĠGebe te
Ġrepl izieren
bast ian
Ġzo omen
ĠPhilanthrop ie
ĠBestech ung
ĠErÃ¶ff nung
ĠDiffer enz
ĠFit ness
ĠNamib ia
Ġnon verb
Ange sichts
ĠBleist ift
ĠTraur igkeit
Epidem ie
PT CHA
verschw endung
ĠOktop us
ĠBauchspeicheld rÃ¼sen
Ġimm ater
Ġzuversicht lich
ĠBul gar
ĠFaz it
ĠLith ium
ĠHippoc ampus
ĠAriz ona
ĠLaby rinth
A O
A cht
B on
B ar
D eine
E N
G ruppen
H in
H op
H aupt
I MS
K olle
N atur
O rig
P sych
R N
R est
S R
S icherheit
T rain
V ol
Z entrum
a ys
b rÃ¤
b iet
b Ã¤ume
c al
c am
c ons
f unktionen
h Ã¤nd
m Ã¤
m art
m ond
n es
o ir
o is
o us
p osition
r ut
r iert
r iss
s weisen
z we
er eien
Ġd is
Ġd ichte
Ġd eutet
in gend
in vest
ie d
Ġw undern
Ġe p
an ch
an satz
st atten
Ġun gen
Ġun ster
Ġun zur
Ġun wahrschein
Ġein geben
Ġein fangen
Ġein setzt
Ġein greifen
Ġein heim
Ġein dringen
Ġein bezogen
Ã¼ tlich
Ã¼ len
Ġi mmun
ĠS eu
ĠS kept
ĠS imon
sch atz
ar ien
Ġk ar
Ġk ind
or ium
at ro
em issionen
ĠM is
ĠM achen
Ġau st
Ã¶ gen
Ã¶ hren
al anc
ĠA hm
ĠA ven
ĠA mph
ier s
Ġf ernen
Ġf abel
Ġf eier
Ġg ib
ĠG ib
ĠG yrus
Ġge prÃ¼
ĠB a
ĠW ag
ĠK han
ĠK aul
ĠK Ã¤ufer
ĠK Ã¼rze
ĠK iefer
ĠK ibera
le hr
Ġan stecken
ĠE motion
ĠE imer
ĠF ox
ĠP orn
ĠP ipel
ĠD ung
ĠD ynam
ĠL en
ĠL im
um ph
Ġver Ã¤ngst
ĠT ech
ĠT ruppe
ĠI mit
re te
Ġbe ster
Ġauf nahm
Ġauf zur
Ġauf bewahr
ÃŁ chen
ĠH as
ĠH ip
enn er
ĠR oger
Ġsch Ã¤tz
Ġl Ã¤dt
Ġt raten
ol as
be zirk
be ziehungen
ĠZ unÃ¤chst
Ġman geln
ĠN O
ĠJ og
ĠJ ud
ag an
ik ern
ĠSt op
ĠSt urz
ĠÃ¼ber zeugend
Ġp ackte
om on
ĠGe or
ĠSch lauch
Ġim stande
rei fer
ĠVer g
ĠVer schiebung
Ġje glicher
zu sehen
ĠPro zessen
ĠC ass
ĠIn halten
ĠIn tel
ĠO m
ĠO pfern
Ġwo hingegen
ĠAn bieter
ĠAn nÃ¤her
ĠEr reichen
Ġbei zutragen
ĠBe amten
Ġst Ã¶ren
Ġle hnen
lau en
Ã¤t igt
ab ad
et ar
ul u
ul ver
ul Ã¤re
bei spiel
ĠUn er
ĠUn mengen
ĠSp oren
ĠSp ons
ĠSp utnik
op tion
we en
all y
uss ani
ass o
ess elt
oll ten
Ġab z
Ġab genommen
wer fer
Ġbes agte
Ġbes etzt
Ġbes prochen
fl ora
Ġkon s
ĠfÃ¼ llt
ĠEin wander
ist oren
Ein erseits
lie fer
Ġhin Ã¼ber
Ġhin dern
per ten
Er folg
ger ten
im ik
sa ft
In vest
In seln
rÃ¤ dern
ĠGes am
Ã¤u bt
ver lauf
inder ung
geb orenen
ĠCh urch
ĠAus weg
ĠAus rede
ĠzurÃ¼ck blicken
ĠVor schein
ĠVor hang
ĠVor fÃ¼hrung
schl eife
zeu t
ĠNe bene
Ġpro b
zie her
ĠFl ossen
ĠArbeit skraft
ĠZu ge
ĠZu erst
ĠKl icks
ĠBl u
ine a
Ġverw und
Ġange p
Ġange kl
ĠBer ges
Ġ5 7
ĠAb u
Ġhei ratete
ĠGrund sÃ¤tze
Ġlang leb
ĠMon sun
ĠGehirn aktivitÃ¤t
Ġex port
ĠNach forschungen
Je opardy
ĠDaten mengen
ĠMed ic
ĠMed itation
ĠMed ical
Ġbesch issen
sel igkeit
Ġsicher es
âĢ Ķ
Ġmensch lichem
gew andt
Ġgel aden
tro ck
Ġgeb rau
pro jekte
Ġarbeiten den
Ã¤ng lichen
ĠMar ia
io den
Ġdarauf hin
Ġschl ossen
Ġvier mal
Ġvier einhalb
lo cke
Ġsol ar
ĠÃĸ stro
ĠY ale
Ġgest Ã¶rt
Ġausge sch
Ġausge sehen
ĠSchu ppen
Ġ6 8
raf ik
ĠLicht jahre
ĠGroÃŁ stadt
Ġbesonder er
Ġbef ragen
Ġbef Ã¶rdert
zeich ne
St adt
ho u
ĠGesundheit spf
Ġklar er
Ġkennen zulernen
Ġwe cken
Ġhinter lieÃŁ
Ġhinter lÃ¤sst
Ġschwier iges
ĠRicht linie
sk reis
ĠVerhalten smuster
ĠHerz leiden
zug s
ĠUr teil
Ġhoff te
ĠLin ux
Ġunbe quem
Ġlos lassen
iet y
ĠPo ol
ĠSk and
Ġabge spielt
Ġabge lehnt
Ġverd anken
ĠArch Ã¤
ĠKn Ã¶pfe
Ġaufge fordert
Ġbel Ã¤st
Ġfl achen
Ġerstaun licher
ĠCo un
ĠCo cktail
Ġhervor gebracht
ĠSter be
ĠFern bedien
ub a
Sp e
Zum indest
Ġzehn mal
ĠDar auf
ĠDar wins
Ġverbunden e
Pro du
Pro zess
ose v
ĠMil o
ĠEurop as
Ġbr ennt
Ġwissenschaft liches
gn es
ator ium
weis ung
ĠRecht ssystem
Ġfort setzen
ĠhÃ¶her es
ĠgrÃ¼n es
Ġgeh or
ĠNord korea
Ġur alten
Ġur alte
Ġru iniert
ĠIm pl
samm lungen
Ġverurs achten
Ġabzu halten
Ġabzu schlieÃŁen
ĠDo sen
ĠInte lle
Ġanf assen
ĠGu atemala
ĠKa iser
ĠWind ows
ĠNachbar schaften
ĠMorgen s
ĠHel fer
Ġfertig gestellt
Ġpl ur
Dar an
Ġwinz iges
ĠSign atur
Ġaufre gender
ĠMeeres schutz
ĠNÃ¤ mlich
ĠJahres zeiten
inter ess
ĠBrust korb
schn eidet
ĠHirn s
Ġant un
ĠTransp lantation
amb ia
ĠBen utzung
ĠBall ast
ĠJapan isch
Ġbill igen
ĠWÃ¼r mer
ĠÃĸff nung
ĠSchiff fahrt
ettbewer bs
ĠÃ¼berraschen de
Ġlust ige
ĠGroÃŁbritannien s
ĠBu ff
Ġkompliz iertes
ĠnÃ¼tz liche
ĠGewicht s
ĠWal des
otyp en
Ġpassen d
Ġpassen de
ĠiP ad
Ġ197 3
Ġhe ftig
ĠKorallen riff
stimm te
ĠTrans ition
Ġinst abil
ĠMex ico
Ġderzeit ige
Ġschlie f
ĠSyn th
kle ber
ĠSpekt ro
Ġmeist ern
ĠSil ikon
ĠMechan ik
ĠTer rain
Ġhalb iert
ĠCol or
Ġschm ilzt
ĠNan otechnologie
ĠRechte ck
ĠGi ussani
Ġengl isch
ĠmÃ¤nn lich
ĠjÃ¤hr lichen
ĠAtom waffen
oc aust
ĠEd ward
Ġentsprechen den
Ġabl eiten
ĠSei fen
Ġmiss h
Ġide ale
ĠJul ia
ĠFlÃ¼cht ling
ĠKampag nen
ĠLungen krebs
ĠerwÃ¤ hne
ĠFrÃ¼h jahr
ĠBrÃ¼ dern
Ġprofit iert
fig uren
ĠverblÃ¼ fft
ĠAir b
stud io
Ġlog ische
ĠUngleich gewicht
Ġerwachsen en
Ã¤um t
Ġisol ieren
Ġunmittel bare
Ġzit iere
ĠLad ungen
Ġang reift
Ġangen ehmer
Ġ194 5
ĠKredit karten
Ġgarant ieren
iat r
ĠWh it
ĠDokument ation
ĠAusgang s
ĠÃ¤r mer
Ġschock ierend
Ġmusikal ischen
ĠÃľberwach ungs
Ġkeines wegs
ĠmilitÃ¤r ischen
Ġspiritu elle
ĠWeihnacht smann
Ġmobil isieren
Ġ36 0
Neu e
Ġabstra kten
Ġgefr oren
Ġstra hlen
Ġzweit grÃ¶ÃŁte
ĠParlament s
Ġprimit iv
Ġprimit ive
MÃ¶ chten
Ġnirgend s
ĠLiebes lied
Ġetabl ieren
ĠkÃ¤mpf te
Ġmater ielle
ĠAre ale
Ġbrauch st
ĠHol ocaust
ĠVerpfl ichtungen
Ġstren g
ĠÃĦqu ivalent
ĠFrucht fliegen
Ġfortsch ritt
Ġanre gen
Char les
ĠVerk Ã¤ufer
ĠSoc iety
ĠBrun nen
ĠLiber ia
Ġverdeut licht
Ġsequenz ieren
Ġmed it
ĠObdach losen
Ġserv iert
ĠLetz te
Ġpopul Ã¤r
Ġwiederhol te
Ġtanz ten
Ġreag ierte
ĠKell y
ĠVeget ation
Ġkan ad
ĠVermut ung
ĠHungers not
ĠVin ci
wirt schaften
ĠModer ne
schÃ¶pf ung
ĠkÃ¼n digte
ĠBM W
ĠErb gut
ĠMini atur
ifik ant
molekÃ¼ le
Ġjetz igen
Ġbrasil ianischen
ĠMosche e
ĠFlÃ¼chtlings lager
ĠUrsprÃ¼n ge
ĠRelativitÃ¤t stheorie
Cor ps
ĠGouverne ur
ĠerlÃ¤u tern
ĠRomant ik
Ġpal Ã¤stinens
phys iker
ĠTitels eite
ĠProth esen
Ġgeschlecht s
ĠAra ber
ĠFinn land
ĠSelbstwert gefÃ¼hl
elangel o
Dimen sionen
ĠInvas ion
ĠGraff iti
ĠRisikok apital
Ġaufrechter halten
ĠVenezu ela
ĠPfe ffer
ĠSupral eiter
ĠTami flu
Ġunzur eich
ĠAven ue
ĠKaul qu
ĠÃĸstro gen
A ha
C P
D el
D ro
D ing
E G
E is
H och
K n
M O
M eter
O X
S he
T R
T S
T om
W ol
Y eah
_ _
b ot
b eute
c ast
d at
d ing
d ay
d achten
e chen
e glich
g Ã¤ngen
h auen
h aar
j i
j ung
j ob
k as
k enntnis
l on
l aus
l ab
m atik
n ers
n iveau
o ud
p os
p olit
p ool
r em
t okoll
v ens
w urf
x on
y an
ch st
ie ts
Ġw Ã¤hle
Ġs att
Ġe m
an isch
st ill
st Ã¼n
ei ft
Ġa ch
Ġa hnen
Ġa fro
Ġun ivers
Ġm or
Ġm yst
Ġein binden
Ġein kaufen
Ã¼ geln
Ġi mmern
Ġh igh
ll ungen
Ã¤ ften
Ġb Ã¼rger
es c
Ġzu genommen
Ġzu viel
Ġzu hÃ¶rt
Ġk rieg
Ġk alte
or bene
ein igt
Ġin jizieren
ĠM ik
ĠM aul
de p
ĠA IMS
Ġg i
Ġg ei
ur teilung
ĠB at
ĠB ist
ĠB ah
ĠB utter
ĠB unker
ĠW alter
ĠW HO
ĠK au
ĠK ey
ĠK rÃ¼mm
ĠK alender
ĠK epler
le hnung
ĠE D
ĠE du
ĠF eu
ĠF rakt
ĠF iction
Ġer bl
ĠP ur
ĠP ic
ĠP insel
ĠD ay
ĠD iss
ĠD allas
ro tten
ĠL ind
ĠL ord
ĠL akota
um er
um gebung
ig mat
Ġver wickelt
ĠT anzen
ck ige
ser ie
Ġauf fallen
eh mlich
Ġmit halten
Ġmit geben
ĠH am
ĠH oll
enn st
ĠR inder
ĠR IS
ra ke
ra zin
Ġsch er
Ġsch rift
Ġsch altet
Ġl icht
Ġl Ã¶s
Ġl ocker
Ġt a
Ġt w
ft ige
ĠZ ettel
ĠN avig
il m
il ber
ĠÃ¼ber zogen
Ġp umpen
ĠGe o
ĠSch ri
ĠSch ott
ĠVer leger
iv ial
Ġvor fÃ¼hren
Ġvor spielen
ĠO pern
ĠâĢ Ĵ
ĠAn leitung
ĠEr he
ĠEr zÃ¤hlen
ĠBe stimmung
ht al
ĠMenschen leben
ĠMenschen recht
ĠMenschen affen
fen ster
Ġent setzt
Ġent hielt
Ġst Ã¶ÃŁt
ĠRe alitÃ¤ten
ĠRe bellen
Ã¤t igung
Ġsp iegelt
ill in
ab s
ĠEn ten
et ischer
Ġwei ÃŁer
ĠWelt anschau
ul ierte
Ġdurch gemacht
Ġdurch lÃ¤uft
ĠUn gew
ĠUn sterblichkeit
ĠSp eich
Ġkl Ã¤ren
Ġre bell
Ġgen ehm
Ġviel fÃ¤ltig
he w
." ,
her yl
ĠU shahidi
Ã¤r ben
Ã¤r bt
Ã¤r fen
Ġunter schÃ¤tzen
ri pte
ĠwÃ¼r det
Ġste ckten
Ġab legen
wer f
fl ag
Ġr annten
Ġam Ã¼s
Ġkon k
Ġneu sten
iz er
Ġhin sehen
per spektive
gel te
In f
In zwischen
ĠGes ang
Ġweiter geht
Ġgew Ã¤hr
ver k
Ġwieder hole
auf wand
geb ra
Ġselbst Ã¤ndig
ĠMill ise
ĠzurÃ¼ck greifen
pf chen
mer gen
ĠNe ocortex
Ġzusammen bringt
Ġinter nen
Ġinter ne
ĠUnter fangen
ĠInter ventionen
hÃ¶r ern
ah le
schei de
ĠGen ozi
ĠAb bildung
ĠGrund idee
Ġgegen einander
ĠLebens zyklus
ĠEnt scheiden
ĠEnt tÃ¤u
wie der
ĠHand zeichen
ĠPh Ã¤n
Ġkomp lettes
Ġjemand es
Ã¤ng nis
ĠSe gen
eist ungen
Ġbereit gestellt
ele ge
ele br
ĠRo te
ĠBo om
ĠUS D
ĠQu ant
ĠQu alitÃ¤ten
ĠVerb recher
ĠEntw Ã¼rfe
gl ieren
gl ades
tr ennt
Ġgest immt
ard ian
Ġ6 4
Ġschle pp
Ġhoch zu
ĠhÃ¤tte st
Ġvoll em
ip her
Ġverm ehrt
Ã¶l kern
Ġfest legen
ĠgehÃ¶r ten
ĠWo llen
St iftung
ĠPat ri
ĠKam ele
kon ferenz
ĠForm at
Ġ7 3
Ġstar tet
ĠMet alle
ens ion
eut ung
Ġro llt
Ġinner lich
ĠTED ster
ĠAt razin
werk zeug
ĠVort rÃ¤gen
if tet
ĠOb wohl
ĠÃ¼ pp
ĠGl ass
Ã¼t ten
ĠZusammen fassung
amm lung
Ġflie gende
Ġna ht
Ġna ckt
ĠVideo spielen
Ġerk ranken
ĠMeer est
Ġunbe absichtig
fÃ¼hr ungen
Zu gegeben
Ġgr enz
Ġverd rah
ĠKn orpel
kÃ¼ hlen
eigen schaften
ĠUmwelt verschmutzung
Ġdre he
Ġdre hten
ĠTier reich
Ġproduz ierte
ĠPap iere
ĠKap azitÃ¤ten
Ġersch uf
ĠEigen tlich
ransp ort
ĠCo sta
min Ã¼t
ĠBes ondere
ĠBes essenheit
ĠPr ess
get rieben
get reten
Ġfunktionieren de
mot iv
ĠDar stellungen
ĠHo sent
ĠMedien unternehmen
Ge orge
Ġversch lechter
Ġeinzu beziehen
Ġbi ÃŁchen
Ġlaufen den
ĠFuÃŁ abdruck
Ġraus gehen
Ġind irekt
Ġgeh andelt
Ġrei z
ĠÃ¶ff neten
ĠInformation stechnologie
Ġblau er
kre uz
ĠDo aa
Ġehr geiz
ĠKa mmer
wÃ¼r mer
ĠSuper computer
ĠPhil ip
Dar f
ĠElem enten
ograph ischen
ĠGra phen
Ġirgendw el
ĠKampf es
ĠDann y
Ġlag ern
Ġgesp art
Ġphys i
Ġcool er
ĠLondon er
ĠSchwar m
Ġnutz los
bÃ¼ hne
ĠIdent itÃ¤ten
ĠProt onen
ĠTro tz
ĠGeschÃ¤fts leute
ami den
ĠBu ckel
Noch mal
Ġtransp lant
Ġkrit isiert
ĠWal k
ged anken
ĠText il
ĠerhÃ¤lt lich
Ġres istent
yr amiden
stimm ten
Ġdauer hafte
ĠHund es
ĠwunderschÃ¶n es
dimension ale
auran t
ĠBud gets
ĠTrans istoren
Nie mals
ĠstÃ¤rker e
Ġverlie ben
ĠRat ing
ĠHil f
ĠTeilchen physik
Ġbegeg nete
Ġvorhanden en
Letz te
ĠAsp ekten
Ġeinsch alten
Ġabsol utes
Ġherr schte
Ġsexu eller
bas iert
Le tztlich
meister schaft
Ġverf asst
Ġschlau e
Techn ologien
ĠImpf ung
Ab gesehen
ĠPak et
ĠBest Ã¤uber
Ġzut reffen
ĠAch ill
Ġabl enken
Ġgross artige
ĠBon us
Ġgering sten
Ġgering ere
Ġausger echnet
ĠTun esien
flug zeug
ĠWolken kratz
Ġinnov ativen
Ent schuldigung
Ġbrill anten
Ġfil mte
Ġintens ive
kor de
ĠUni form
ĠAss ozi
ĠAss istenten
stechn ik
ĠMult im
stÃ¶ cke
ĠVen edig
sens or
Ġanget an
mittag s
Ġzit iert
ĠTur k
Gesch Ã¤ft
kÃ¼n digt
Ġrech ner
irgend wo
ĠDokument arf
ĠsÃ¤ hen
Ġment alen
ĠAbs olventen
Ġbeherr scht
Te xt
ĠNutz ern
ĠNutz pflanzen
Ġgewiss es
Ġdiagnost izieren
ĠMamm ut
ĠRÃ¶ hre
AR S
ĠArab ischen
ĠFrie de
material ien
ĠVerschw Ã¶rung
Ġexplod iert
ĠSchokol aden
hel den
Ġhuman itÃ¤re
Test s
Ġrob ust
Ġgefr essen
ĠJer sey
ĠSÃ¼ÃŁ igkeiten
ĠkÃ¼nstler ischen
ĠMagnet feld
Ãĸ ff
Ġsign ifikant
Ġgigant ische
ĠHaust ier
ĠKomprom isse
Ġschme cken
wÃ¤l der
ĠAnf Ã¤ngen
Ġnukle are
Ġnukle aren
ĠTra de
Ġverdien te
Ġimit iert
Ġzun immt
Will kommen
fiel d
Ġverfl ochten
Ġspektakul Ã¤r
val u
wol f
Ġline ar
ĠProto zelle
ĠrÃ¤um liche
Netz werk
Ġstrateg ische
ĠBerat ung
Ġobjekt ive
dis ziplin
Ġverfolg ten
ĠherkÃ¶mm lichen
Ġunterr ichte
Ġkonkre te
Grund sÃ¤tzlich
Ġauth entisch
ĠVerschl Ã¼ssel
ĠAnten nen
ĠExempl ar
ĠFra geb
beding te
famil ie
ĠFasz inieren
ĠZie ge
ĠInt imitÃ¤t
Ġasi atischen
ĠPsychop athen
ĠAtomb ombe
kolle gen
ĠIntensiv station
ĠPent agon
ibir ien
ĠRuck sack
ĠSchnurr bart
ĠTai wan
ĠLeb zeiten
Ġausgekl Ã¼gel
ĠAnalys is
ĠNeanderthal er
ĠWils on
Ġtagt Ã¤glich
ÃĦr zte
Ġgeseg net
ĠUnend lichkeit
ĠNeok ortex
ĠAbstamm ung
ĠHÃ¤u pt
ĠUnbeh agen
ĠKarib ik
ĠPhotosyn these
Ġaugenblick lich
ĠHud son
Orig ami
ĠIntelle kt
Ġimmern och
8 00
9 5
A usst
D G
D re
E O
F ern
G u
G rad
H A
H el
H Ã¶r
K rebs
K reislauf
L u
L Ã¶s
L ernen
M a
M r
N utzen
P hil
R D
R oll
R NA
S J
S ter
S eien
T O
V o
W ert
b rÃ¼
c ul
c ore
d rÃ¼sen
e w
e ffizient
f alten
g rÃ¤
h u
i ation
i form
i fer
i ktor
k alien
k Ã¼nstler
k amera
l ust
m ungs
m ode
n d
o ot
p reise
r ik
r inger
s eide
v ada
v ideo
w Ã¶rter
z z
er gebnisse
Ġd iver
in ierten
Ġw eht
Ġs orge
an geb
as on
ei dlich
ei digung
Ġun gesch
Ġm oment
Ġm ont
Ġm obile
Ġein schlagen
ge h
ge bern
Ã¼ l
Ġi rak
ĠS eins
ĠS Ã¼nde
ĠS ektoren
sch we
sch ub
Ġn ettes
ten den
Ġzu wenden
Ġk Ã¶st
Ġk ultiv
at o
at ing
at ome
at lant
au sch
Ġwir kte
ĠM ind
ĠM ant
den s
al gen
Ġf ung
Ġf ischen
ber ater
ĠG ier
ĠG abe
ĠG az
el det
Ġge schl
Ġge holt
ĠB oss
ĠB ret
ĠB its
ĠW Ã¶lfe
ĠK I
ĠK ehr
ĠK inn
ĠK av
ĠK ids
ĠK riminelle
Ġan hÃ¶rt
ĠE ich
ĠF OX
Ġer holt
Ġer langt
Ġer ect
ĠP as
ĠP av
ĠD ate
ĠD own
ĠL G
ĠL arry
Ġver inner
Ġver zeichnet
ĠT rieb
re zept
re gende
is abeth
ck ing
Ġauf er
Ġauf kommen
Ġauf geb
Ġauf gelÃ¶st
Ġha ar
tz e
Ġmit zumachen
Ġmit zuteilen
ĠH Ã¤ft
ĠH obby
ĠR ut
ĠR ache
ĠV as
us ser
ent s
Ġl o
Ġt hemat
Ġt rÃ¤um
be c
be ste
be ob
ĠZ ucht
ĠZ ip
Ġman ifest
ĠN in
ĠN age
ĠN az
ĠN BA
ĠJ enn
Ġum arm
il es
ĠSt y
ĠSt ir
ĠÃ¼ber nahm
Ġp ra
Ġda heim
ĠGe gebenheiten
eil ungen
ĠSch ie
ĠSch ema
rei st
ieren s
Es sen
ĠVer sammlung
ĠJahr est
wei ser
iv a
zu fÃ¼gen
ĠC amer
Ġvor gibt
elt a
ĠO stens
ĠO reg
ĠAn sehen
ĠAn kl
ĠAn schlag
ĠAn onym
ĠEr wer
ort itel
ĠBe fÃ¼r
und ung
ĠMenschen menge
Ġst u
Ġst ab
Ġst reichen
Ġst rom
Ġle tzen
Ġle ug
ot isch
ĠLe ichtigkeit
bl ieben
bl Ã¤ttern
Ġher ge
et h
ul Ã¤ren
ĠUn ruhe
ĠSp iritu
Ġre alisierte
Ġgen annte
fach er
Ġganz heit
Ġunter sten
ĠgroÃŁ teils
Ġab brechen
ĠGesch enke
wer be
Ġbes uche
ist ern
iz a
ap ar
leich en
Ġhin schauen
ger Ã¤ten
In genie
Ġbeg renzen
zen e
ver g
ver anst
ĠKon ne
ĠKon zepten
inder ten
geb lich
geb Ã¼hren
eg a
ast isch
ĠMill enn
ĠMill iard
ĠAus gleich
ĠAus fÃ¼hrung
ĠAus flug
ĠAus dehnung
ĠzurÃ¼ck geben
Ġger aden
kl appen
kl eidung
pf te
ĠNe twork
Ġverst Ã¼mm
lei te
lei hen
ok er
ert igt
Ġpass ierten
Ġzusammen hÃ¤ngen
ha be
Ġson n
Ġson nen
ĠFl ickr
aut omaten
ak zept
ĠKl eine
ĠKl ippe
Ġeinz unehmen
ĠUnter kunft
hÃ¶r ten
ĠGeb Ã¼hren
ĠSo ft
ĠSo fa
Ġ5 9
ĠFre e
utz e
ĠGehirn zellen
Ġerst klass
ĠLebens lauf
ĠLebens mitte
ĠEnt sal
ĠNach dem
ic ut
ĠDaten schutz
ĠEx pl
wie gen
sicht ige
gew esen
gew achsen
Ġschnell es
ĠGeld geber
ktiv en
ĠSe eg
ĠMar x
str ong
ĠUnivers al
Ġschl immen
ĠPl ut
ĠRo sen
ĠRo utine
Sch ule
ĠEl iten
ĠÃĸ ko
no te
ĠWe stens
ĠTe ek
unter gang
Ġausge glichen
Ġausge schaltet
ĠGew innen
ard s
ĠMan usk
ĠTage buch
Ġbef Ã¶rdern
ĠNatur katastrophen
ĠgrÃ¶ÃŁ ter
St ruktur
St Ã¤dte
Ġ8 2
Ġweg geworfen
Ġklar es
Ġklar stellen
Ġ7 8
schaffen heit
Ġ15 00
ĠMet rop
Ġ9 7
ink te
ĠSchw Ã¤che
ĠMusik ern
Ġern sten
ĠMu schel
Ġanzu halten
werk zeuge
zei gten
ras chen
akter ielle
ĠStÃ¼ck chen
urs achen
ock s
ĠFreund lichkeit
Ġflie hen
Ġerw ischen
Ġerw ider
ĠDu sche
ĠLin ke
Ġvert ikal
ĠBeg leiter
Ġdr um
stehen den
Zu letzt
Ġaufge klÃ¤r
ĠTo yota
Ġauszu wÃ¤hlen
ĠBr eit
ĠBr ill
Ġbel euchtet
Ġproduz ierten
Ġexist ent
ĠJe den
Ġaufzu halten
Ġerstaun licherweise
ĠPf eile
Ġhervor ragende
Ġhervor ruft
ĠDurch brÃ¼che
troll er
Ġor ange
Wo zu
osit ionen
vers uch
vers uche
ĠKraft werk
ĠbenÃ¶t ige
Ġlangsam en
wend bar
ĠHo use
ĠLabor s
ĠBru ce
Ġhinein zu
gewÃ¶hn liches
ĠSÃ¼d ost
ĠWissenschaftler in
Ġbew usster
Ġbi olumines
prÃ¤ sident
Ġgeh eilt
ĠKÃ¶n nte
Ġur ban
Ġlieben d
ĠEntwicklungs land
Ġempf inde
Ġzer brochen
kre b
ile y
Ġbed anken
abhÃ¤ng ige
ĠZeich nen
ĠExperiment s
ĠPsych iatrie
Ġblo ÃŁen
ĠMenschheit sgeschichte
herap eut
ĠWebs ites
ĠSuper star
ĠPhil ipp
ĠAd option
ĠKu pfer
ĠVol t
will ig
ĠArbei tern
ĠMeeres grund
ĠGefÃ¤ng nisse
ĠErn Ã¤hr
kul ieren
ĠSy d
Ġpsych isch
ĠMark er
Ġgesp alten
ĠStre cken
ĠKur ator
ĠLÃ¶ chern
ĠRegel werk
ake te
ĠEinzel heiten
ĠQuad rate
ĠBeruf ung
Ar t
ĠSer oton
Ġfaszinieren der
Ġentsp annt
19 7
sinn ig
ĠTro st
Ġkor rel
ĠMassen vern
ĠPil zen
ĠZw angs
Ġanal yt
Ġzug ute
ĠSatz es
Ġsteigen de
Ġ197 5
ĠPort land
ĠAbst immung
Ġ196 8
Inter viewer
ĠHunder ttausende
grÃ¶ ÃŁten
ĠFest land
Ġverlie bte
Ġrad ikalen
urf ing
ĠSyn chron
Ġausb reitet
ĠDeb atten
ĠKomb inationen
test s
ĠAtem zug
ĠGesundheitswesen s
dru cken
ĠDam als
wach ung
ĠBest raf
ĠSen f
res istenz
Ġpoten zie
Ġpoten ziell
Se quenz
Ġversp richt
ĠStudent in
Ã¤sser ung
Ġkollektiv es
ĠKom fort
Ġdurchs uchen
ĠÃľberrasch ungen
ĠPrim zahl
ĠChrist us
ĠChrist ent
Ges ell
ĠWechsel wirkung
anc er
Ġintens iver
Ġverz ichten
Ġbemerkenswer ten
Ġverlang te
Ġdynam ischen
Ġschwe bt
ĠOst asien
ĠZer emonie
ĠVerd au
ĠBeit rÃ¤ge
ĠPrÃ¼ fungen
ĠsÃ¤ mt
ĠEhr geiz
Ġsorg fÃ¤lt
ĠPosit ives
beg riff
ĠLinks hÃ¤nder
ĠalltÃ¤ gliche
ĠArab ien
ĠKle beband
ĠFundament alismus
ĠTherap eut
ĠSalz wasser
Ġpotent ielle
stÃ¤d ten
ĠgemeinnÃ¼tz igen
Ġint rins
Ġverpflich ten
wÃ¤ gen
ĠSur fer
Ġverbrei teten
hil f
ĠAnweis ung
Ġsan ft
Jahr e
ĠKosm ologie
Ġemp ir
ĠEver glades
Ġy eah
ĠTitan ic
ĠAv atar
ĠId ioten
ĠWeiter entwicklung
aby te
Ġkosm ische
ĠMak ro
ĠAcht samkeit
ĠjÃ¼d ische
Ġetabl iert
ĠGewÃ¤sser n
ĠFoss il
Ġunverm eidlich
ĠKÃ¤mpf er
Ġverdien e
Ġchron ischen
ĠCE RN
ĠAnthrop ologen
ĠBrit ish
Ġbesie gt
ĠCous in
wol ke
ĠNar ben
Ġinterview t
Ġinterview en
ĠStory Corps
organ e
Ġverp ackt
ĠKompl ikationen
ĠKoord ination
Ġsequenz iert
Ġbewahr t
ĠPalÃ¤st inen
Ġgriech ischen
Ġgez ielt
Ung laub
ĠverkÃ¼n det
ĠZufÃ¤ lle
ĠRhyth men
ĠTenn esse
ĠProg nose
ĠBeutel wolf
ĠenthÃ¼ llen
ĠUmlauf bahn
ĠAbweich ungen
ĠKra w
Ġkontinuier lich
ĠMur ray
Ġverfolg te
ĠNukle ar
Ġauth ent
Ġverdr Ã¤ngen
Ġbeliebte sten
ĠHistor iker
Ġabsor biert
ĠEma il
ĠTwe ets
flossen th
Ġtrop ischen
ĠBÃ¶ den
Ġero bern
Ġnachge wiesen
Ġveranl asst
Ġschrum pfen
ĠDiam anten
ĠPerf ektion
ĠProphe ten
Ġdek or
anw alt
ĠUnbek annte
ĠErspar nisse
Ġerforder lich
ĠMolekul arb
ĠLandwir te
ĠKlische e
ĠKompon isten
ĠAusb eutung
kÃ¶r ner
ĠPuzz le
ĠSynap sen
ĠSkelettmus keln
miss brauch
Ġverank ert
ĠHÃ¤uf igkeit
Ġveranschau lichen
glÃ¼ck lich
ĠFav elas
ĠRind fleisch
ĠDokt ortitel
Ġunausweich lich
ĠDAR PA
find ig
ĠBabb age
ĠMov ember
Ġaustr al
ĠVok ab
ĠGesp Ã¼r
ĠMargar et
ĠTesz ler
ĠPetr isch
ĠWerbes p
Ġverwund bar
ĠRIS D
Ġkonk reten
Ġstab ile
! Â«
" ;
? '
B in
B em
B el
B ab
F ar
F amil
G eld
H ei
L ange
M y
M il
M ot
N acht
P ol
R G
R NG
S al
S uchen
S ituation
Y R
Z ug
a ft
b rachten
c ing
e f
e ffizienz
f ers
f eln
f asste
f reien
f ood
g u
g io
g Ã¼ter
k tes
k ante
k opp
k etten
k noten
l och
m i
m ahl
n ormal
n Ã¤chst
o wer
o ugh
p it
p est
r am
r annt
s ind
s eiter
s fÃ¤hig
t rieben
u ay
v ideos
w icht
w oll
w urm
y ce
Ġd ringt
in stitut
in vas
ie b
ie u
ie bt
Ġw ick
Ġw andelt
Ġw ettbewerbs
Ġs itz
Ġs enk
st urm
st euerung
Ġa chte
Ġun sch
Ġun ent
Ġun bem
Ġm icro
Ġm illionen
te ppich
Ã¼ tern
Ã¼ cher
on i
Ġv iktor
ĠS ri
ĠS uchen
ĠS innen
ĠS ARS
ir r
Ġh arter
Ġn or
Ġn ass
Ġn ames
ll o
Ã¤ hen
ar ier
Ġb un
Ġzu kunft
Ġder jenigen
ein kommen
at isches
em an
em anden
ĠM ast
ĠM ell
ĠM BA
Ã¶ tzlich
al i
ĠA DH
ier bare
Ġf ront
Ġf emin
lich sten
Ġg rÃ¤
Ġg Ã¶tt
ber eitet
ĠG eiger
ur teil
ur fs
Ġge fol
Ġge druck
Ġge plan
Ġge zÃ¤hlt
ĠB indungen
ĠB BC
Ġes s
ĠK reisen
ung ern
le hen
se hr
Ġan geregt
ĠE st
ĠF id
Ġer baut
Un ten
ĠP a
ĠP Ã¤
ĠD ritten
ĠL enk
ĠL ake
um fassen
Ġver sen
Ġver glich
Ġver rÃ¤t
ĠT hr
ĠI K
ĠI van
re st
Ġbe iein
Ġbe endete
is a
Ġauf setzen
Ġauf wÃ¤rts
Ġso viele
tz ug
Ġmit fÃ¼hl
Ġmit fÃ¼hlen
am ik
ĠR as
ĠR ent
ĠR unden
Ġsch reit
ĠV ict
Ġl achte
eu en
Ġo oh
Ġt akt
Ġt eils
ĠN R
ĠN ich
ĠN ehmen
ĠN av
Ġaus findig
ĠJ unk
ag in
Ġum k
Ġum armen
ik us
ik amente
ĠSt one
ĠSt arb
ĠSt igma
ĠSt acheln
ĠÃ¼ber m
ĠÃ¼ber flu
Ġp ure
Ġp lant
Ġp osition
tw e
om ik
ĠGe den
ĠSch aum
ĠSch enk
ĠSch Ã¼ssel
rei he
Ġ- ,
sp fl
sp rinzip
sp annung
ĠVer stÃ¤r
rau sch
ĠC IA
ĠC rash
ĠC NN
Ġvor genommen
Ġvor zunehmen
ĠIn flation
ĠO ne
ĠO ster
ĠAn mer
Ġnach schlagen
Ġbei behalten
ĠBe vor
ĠBe arbeitung
os kel
Ġent s
Ġst atisch
ĠRe duz
Ġsp ren
ab ung
ĠEn zym
bl ind
ick ten
ĠWelt rekord
Ġvie ls
ĠUn ordnung
ĠSp am
ĠSp err
ĠSp eise
Ġkl u
op sie
mal en
all es
rin e
Ã¤hr e
Ġab w
Ġzwei fel
ĠGesch Ã¶pfe
ad i
Ġhin bekommen
stell bare
ĠArt ikeln
ed iven
ver Ã¤ndern
ĠOr ange
ĠKon zer
geb rauch
Ġnie dlich
Ġar rang
ĠAus wertung
ĠAus drÃ¼cke
ĠzurÃ¼ck kam
Ġber echt
Ġber eitete
kl and
rÃ¶ pfchen
Der zeit
ĠNe vada
vor stellung
rit tlich
fahr ten
Ġbest Ã¤uben
Ġpro gnost
ĠFl Ã¼ge
ĠFl Ã¼ssen
ĠFl Ã¶ten
ek a
Ġbet ont
ĠBl inde
ĠBl Ã¶cke
unde ten
ĠUm stand
Ġange sp
Ġange gangen
ah s
ĠGeb ot
ĠGeb ote
ĠWasser p
ĠFre ud
ĠFre uden
Ġirgend wer
br on
utz ten
ĠAl ab
Ġlang w
Ġinteress ierten
ĠLebens spanne
ĠEnt schlossenheit
ĠnÃ¤ch ster
ĠMal ediven
ĠDaten banken
gr am
ĠReg isseur
ord on
Ġmensch en
ign ale
Ġschw Ã¤cher
Ã¤lt in
Ġgesch le
ĠSte llung
ĠKre dite
ĠBo hrer
rat ch
ĠQu alle
ĠMus lim
ĠSta unen
ĠWe steuropa
tr ick
unter brochen
Ġausge zeichnet
Im pf
ĠStadt plan
ĠSchu bl
ust ers
ĠKÃ¶rper grÃ¶ÃŁe
ip ol
ip per
ĠGroÃŁ zÃ¼gigkeit
ĠDe cken
ĠMutter sprache
ĠInternet seite
Ġaller erst
kon to
Ġweg werfen
ĠHin tern
zess in
ehn ts
ĠMet hod
ĠhÃ¶ flich
ĠProjekt ion
bo hr
ĠDi as
ĠDi ff
gesch oss
ĠExper t
Ġerf reuen
Ã¼t tert
Ã¤cht igung
Ġricht iges
amm e
ĠFreund innen
ĠUr spr
Ġerw orben
ĠFol ter
okrat ischen
Ġerk enne
ĠMeer jung
Ġvert ikale
Ġvert ikalen
Ġunbe deutend
Ġlos legen
ĠHÃ¶ chst
ĠSon y
Zu allererst
ende ln
Ġbel euchten
ĠProzess or
Ġexist ierende
Ġaufzu stehen
Ġaufzu zeichnen
ĠCo oper
ĠInst abilitÃ¤t
statt ung
Ġgrund sÃ¤tzliche
ĠMikro kre
ĠberÃ¼ cht
ĠDr ang
Ġteil genommen
Ġfunktionieren den
ĠHaupt grund
ĠNeur o
Ver halten
Ver gleichen
ĠFamilien planung
Ġherauszu fordern
ĠglÃ¼cklich sten
ĠEis zeit
Ġschwar zer
Ġhinaus geht
ĠSÃ¼d asien
Ġfr ische
Ġfr ucht
Ġperf ekter
Ġeinzu bringen
Ġwert vollen
ĠDanke schÃ¶n
ĠkÃ¼ hlen
ĠBel eg
Ġsonst wo
ĠgefÃ¤hr den
ĠgefÃ¤hr dete
Ġreich sten
zÃ¼ gen
ĠNord osten
Ġfliegen den
Ġbas ierte
Ġtot ale
Ġbed ing
Ġbed acht
Ġbed auer
ĠJahrz ehnts
Ġerfor sche
ĠGel Ã¤nder
Ġlok alisieren
Ġstud iere
Ġehr liche
Ãľber legen
Ġprakt iziert
Ġgek Ã¤mpft
ĠLauf bahn
ĠAd ip
ĠAd min
Ġreg ieren
ĠSol ark
ĠObjekt s
kul pt
ĠTelefon nummer
ĠJahres zeit
ĠDisk riminierung
ĠWieder ver
ĠWieder hol
ĠWieder herstellung
ĠBerg bau
ĠmÃ¤cht iges
ĠmÃ¤cht igsten
ĠVo y
Ġcool en
Ġbehaup tete
Ġkn Ã¼pfen
ĠwÃ¼n scht
Ar beit
techn ologien
Ġ198 9
bol a
netz e
ĠHÃ¤user block
Ġtransp aren
ĠDel phine
Ġabst rakt
swer tes
ĠZit ate
ĠText ur
fil me
Ġschn appen
bereich en
Ġrel ative
ĠTrans istor
ĠÃľ bel
ĠBal i
Ġat met
Bis her
ĠzurÃ¼ckzu kommen
ĠzurÃ¼ckzu fÃ¼hren
Ġreligi Ã¶ser
ungssystem e
Ġinteressanter e
ĠHeimat land
ĠIran er
ĠMos es
ĠStift ungen
Ġeiniger maÃŁen
ĠNor man
ĠGras land
ĠDefin itionen
ungsk ette
Ab schlieÃŁend
Ġpar adox
Ġbegrenz te
ĠSitz ung
ĠungewÃ¶hn lichen
Ġverschl Ã¼sselt
Ġunend lichen
Ġgrau e
ĠVorstell ungs
ĠNull summen
Ġgeist ig
la ken
ĠPassw Ã¶rtern
ĠNieder schlag
ĠKom a
ĠKom eten
ĠHilfs organisationen
ĠTeufel skreis
ĠHei z
ĠTa sten
ĠSchle chten
stud ie
ĠSeh kraft
ĠWechsel wirkungen
ĠNeurowissen schaften
gesetz te
gesetz ten
ĠTrau ma
ĠBesonder heiten
Ġra p
Ġverz Ã¶
ĠTour ismus
wahrscheinlich keit
zweif eln
ĠStad tz
sens oren
Ġew ige
Ġsystem atische
Ġunmittel baren
Ġgelie bten
Ġgelang weil
Ġrespekt iert
Ġproduktiv en
Ġ194 0
ĠIntern ationalen
ĠGebrauch s
Ġevolution Ã¤r
ĠNÃ¤hr stoffen
ĠSub ventionen
ĠGeschmack s
ĠJack son
vir en
Ġeth isch
Fre unde
ĠhÃ¤ss lichen
ĠhÃ¤ss liche
ĠVerschw inden
hel fer
Ġhuman itÃ¤ren
Ġmuslim ische
Ġpotent iellen
ĠSchlagz eile
ĠTu gend
ĠTum oren
ĠVi br
ĠEinblick e
Ġy ou
Ġoffensicht lichen
Ġverschm utzen
Ġoffiz iellen
ĠBron ze
ĠEuropÃ¤ ischen
Ġirr ational
Ġforder te
Ġforder ten
Ġattraktiv er
besch leun
ĠRiff e
Fol glich
ĠHaust iere
Ġpol ar
Ġweich e
Ġunf ass
ĠAnf Ã¤nge
ĠAre al
ĠbeÃ¤ngst igen
Ġwiederher stellen
ĠNat han
spezi fische
ĠBlutgefÃ¤ sse
Ġexperimente llen
ĠDreie cke
ĠSus an
Ġinterakt iven
abb at
ĠAkadem ie
ĠZus atz
Ġlandwirtschaft liche
ĠGrÃ¼ ne
Ġgestr esst
ĠLaw rence
Ã¤rt ner
Exper iment
Do ktor
empf ind
Ġklop fen
Mo lekÃ¼
Ro bert
Ins gesamt
ĠTauch gang
Ġveranst alten
ĠvielfÃ¤lt igen
ĠvielfÃ¤lt ige
Ġauftau chten
ĠSchad stoffe
ĠAmate ur
Ġdominieren de
mil ch
ĠhÃ¤r ter
ĠendgÃ¼lt ige
Ide en
ĠPion ier
ĠgrÃ¶s sten
ordent lichen
Ġgewaltt Ã¤tig
klin ik
ĠGru ben
Ġabsor bieren
ĠDicht kunst
ĠSied lungen
Ġdamal ige
hÃ¤ fen
Ġhyp oth
ĠKrab ben
ĠEmm a
fÃ¤ll iger
ĠKartoff eln
ĠFavor it
Ġsprich w
Druck er
Ġbahnbrechen de
Ġnachvoll ziehen
ĠVerbÃ¼n deten
ĠMang ro
ĠKolon ial
Ġniger ianischen
ĠSaat gut
ĠPant he
ĠZehnt ausende
ĠGewe bes
ĠSterber ate
ĠprÃ¤front alen
Ġheter osexu
Ġdien te
Ġessent iell
Ġkontro vers
ĠÃľberre ste
ĠHosp ital
Ã¼hm t
ĠPau lo
ĠBeer digung
Ġgrus elig
bio se
ĠStrat osphÃ¤re
ĠOd ys
Ġversicher e
Glob al
Ġinneh alten
Shar ing
usp end
ĠFluktu ationen
Ġfettleib ig
ĠLotter ie
ĠMain stream
ĠAntidepressiv a
Ġdipl omat
ĠBhut an
Ġexp and
ĠAminos Ã¤uren
Ġwiderspiegel t
ĠPep si
ĠCass ini
ĠAnnÃ¤her ung
ĠColor ado
Ġerect us
ĠSyd ney
ĠTennesse e
Ġbeiein ander
ĠUrspr ungs
1 7
3 3
8 5
B L
E nergie
F unktion
H o
H alten
I nte
I dent
J im
J ames
K S
K e
K al
K ampagne
M R
N T
O pen
P f
R SW
S M
S auce
T ri
T error
U hr
W Ã¶rter
X L
b Ã¶r
b iegen
b rief
c c
c as
c ent
c annt
d Ã¼
d sel
d auern
d ynamik
f isches
f Ã¤nger
f indung
f asern
f otos
g h
g ig
g ol
h ier
i i
i fr
k Ã¶pfe
l Ã¤ngen
m Ã¼hle
m useum
m Ã¼ll
o ut
r ung
s em
s ache
t hm
t raum
u sch
w unsch
w elen
y mp
Ã £
er od
ch i
ch se
Ġd iversen
Ġd rohen
Ġd ritter
Ġw ol
Ġw ahll
Ġw andte
Ġs inge
st ruppen
Ġun ger
Ġun gew
Ġun unterbrochen
Ġm assen
Ġein flieÃŁen
te ste
Ã¼ sten
on ac
ĠS he
ĠS ingen
ĠS ai
ĠS abbat
ir ektor
ir etro
sch met
Ġh inger
Ġh asste
Ġh Ã¶lz
Ġz ivile
Ã¤ he
Ã¤ ure
ar ke
Ġb itter
Ġb reitet
Ġzu gegeben
Ġzu allererst
Ġk en
Ġk rab
Ġk ocht
Ġk ratzen
or p
at on
at ma
it ative
it alismus
au be
ĠM iete
ĠM Ã¼cke
ĠM aya
Ã¶ gerung
ĠA ur
ĠA llig
ĠA sche
ĠA kten
ĠA fro
ĠA gnes
Ġg ieÃŁen
ber uf
ber to
ĠG Ã¶tt
el ekt
el emente
Ġge jagt
ĠB ion
ĠB ag
ĠB anden
ĠB ald
ĠB rain
ĠB ilanz
ĠB elege
ĠW einen
ĠW ell
ĠW Ã¤rm
ĠK et
ĠK im
ĠK ran
ĠK ante
le ur
Ġan bringen
Ġan nimmt
Ġan wesend
ĠE u
ĠE bola
ĠF ans
ĠF air
Ġer weisen
Ġer hoben
ĠP ac
ĠP reisen
ĠP htal
ĠP yramiden
ĠD inner
ĠD anach
ĠD Ã¤chern
ĠL ank
ĠL ok
ĠL imon
Ġver sprach
Ġver allgemein
ĠT ahr
ĠT hin
ĠT ay
re form
re uer
re ichtum
Ġbe stellt
Ġauf bringen
Ġauf zustellen
Ġauf fÃ¼hren
Ġauf zusp
Ġauf streben
Ġauf spÃ¼ren
eh ls
ĠH ur
ĠH unden
ĠH ast
ĠH appy
ĠR eu
ĠR od
ĠR ica
ĠR umpf
ĠR enten
Ġsch rie
Ġsch mer
Ġsch ade
ĠV ill
Ġl enkt
Ġt Ã¤t
ĠZ ert
ĠZ iegel
Ġj ur
ĠN Ã¼tz
ĠN enner
Ġaus kommen
Ġaus sage
Ġaus nutzen
ag bar
ik te
ik ultur
Ã¤n ze
ĠSt ars
ĠSt unts
Ġp ubl
Ġp uls
Ġp rinzip
ut sch
ut ube
om er
Ġ" ]
ĠGe ografie
ĠSch on
ĠSch lieÃŁlich
ĠSch inken
ĠSch rott
Ġdem nÃ¤chst
sp ezie
sp unkten
Ġdies be
ĠVer kn
iv ate
ĠC all
ĠC ow
Ġvor finden
Ġvor gegeben
Ġvor stellbar
ĠAn schein
ĠAn wesen
ĠAn dro
ĠAn Ã¤sthesie
ĠEr m
ĠEr holung
ort is
ĠBe stre
ĠBe zir
Ġall umfassen
aus gaben
Ġent le
Ġent nommen
Ġst recken
ĠRe aktoren
ĠRe perto
ĠRe agan
Ġsp ort
ill ion
ab ol
bl ut
Ġher Ã¼ber
Ġwei ser
Ġwei tem
Ġwei blich
ĠUn fÃ¤higkeit
ĠSp rÃ¼n
Ġre form
Ġunter gebracht
ĠZeit plan
bst ahl
Ġste cke
Ġab gebaut
ĠfÃ¼ gten
art s
ad us
Ġneu em
iz ens
iz abeth
im ore
Ġweiter leben
Ġbeg Ã¼nst
Ã¤u bern
Ġgew Ã¤hlten
ĠKon front
Ġeigen artig
Ġar kt
Ġar mer
Ġwen det
spiel te
ĠAus sch
ĠAus blick
Ġob dach
ĠzurÃ¼ck halten
Ġber ichteten
rÃ¶ hre
Wie viele
Ġverst reut
Ġbest reiten
Ġbest mÃ¶gliche
ĠBei m
ĠKinder sitz
ha ha
ĠGeh t
Ġpro zent
Ġdrei ÃŁig
Ġ3 9
ĠFl ach
ĠAuf stÃ¤nde
ĠAuf zeichnung
wo gen
Ġbet ragen
ĠAu ges
aut or
zÃ¤ hne
ak et
ĠArbeit st
ĠArbeit geber
ĠKl age
qu art
Ġben ehmen
Ġben achteil
ĠUnter seite
Ġverw altet
gar n
ĠweiÃŁ es
ĠSo j
Ġleben der
ult an
ite d
ĠAb nahme
eite ten
ĠGrund stein
ĠGrund gedanke
ma mm
ĠAl gebra
Ġges essen
So wohl
achte ten
Ġ4 9
ĠDaten menge
ĠwÃ¤hrend dessen
ĠEx xon
erst attung
ĠHand flÃ¤che
ĠHand werker
âĢ ¦
ĠÃľber setzungen
ĠRaum station
Ġgesch icht
ĠWeg werf
Ġziemlich er
Ġscha det
ĠSchl Ã¼sse
ĠSchl Ã¤ge
Ã¤ng ten
ĠGer ing
ĠGer ichte
olit h
Sch ritt
id ge
itz er
ĠEnergie quelle
ĠmÃ¶glich er
ĠY og
An satz
alis ation
ĠSchu hen
Ġ6 6
Ġ6 7
Ġhoch aufl
Ġal arm
ĠGrupp ierungen
th ers
ĠGroÃŁ es
ĠWie se
ĠDe f
ĠfÃ¼nf mal
ĠNatur wissenschaft
St immt
ĠHaus meisters
Ġeinge st
Ġbeh Ã¤lt
ĠWer ken
ĠSchw ung
Ġhinter f
Ġanzu legen
Ġanzu greifen
voll ste
ĠAuto fahren
if ikationen
aun en
ĠKor b
Ġho fft
akter ien
ĠFlug bahn
kehr ten
let tert
ĠHerz erkrankungen
Ã¤uf ig
ĠLuft verschmutzung
ĠSÃ¼ cht
zug reifen
ĠUr ein
ĠBeh aus
Ġerw Ã¤rmt
ĠRÃ¼ck zug
ĠRÃ¼ck kop
ĠBeg riffen
Ġverd reif
athemat ik
Ġaufge standen
Ġaufge griffen
aw i
ĠPar all
Ġbl inden
ĠTier es
Ġ18 00
Ġerre gt
ĠAll ein
ĠJe ep
ransp lantation
sph Ã¤ren
Ġhervor gerufen
ĠVert rieb
ĠNeur ot
Ġged ank
osit as
ĠKat alys
ĠFamilien mitglieder
ĠÃĸl preis
Ġkomplex ere
Pro duktion
ĠFr isch
ĠMedien landschaft
bel te
reck te
ĠEis bergs
mo sphÃ¤re
ĠHoff nungs
Ġbew usste
Ġverloren e
weis ungen
Ġbi ologisches
ĠKrankheit ser
Ġwert los
ĠgrÃ¼n det
ct ion
ĠBel ange
KÃ¶n ig
ĠgefÃ¤hr licher
ĠStraÃŁen rand
Ġextrem er
ĠNord afrika
Ġru fe
ĠRad fahrer
Ġempf ehle
schul d
Ġzer brechen
ĠGef allen
Ġtot alen
Ġbed ingt
ĠGel enk
glie der
ĠStat ue
ĠÃ¼bert rÃ¤gt
Ġabzu geben
deck ung
ĠVersuch spersonen
Ġaut onom
Ġbedeuten der
Ġend los
ĠKa iro
wÃ¼r dige
ĠSuper helden
schir men
Ġverh elfen
Ġverh ungern
mÃ¤ÃŁ igkeit
Ġinteressante sten
ĠSc ratch
ĠArbeits gedÃ¤chtnis
ĠErn iedr
lam pen
Ġniedr igsten
Ġmoral ischer
Ġhinge zogen
stre cke
Ġvisu alisieren
ĠGeheim dienst
Ġuner wÃ¼n
Ġbestehen de
Ġbisher igen
ĠBienen stock
Ġopt ischen
ĠAnal og
kur se
ĠMars hall
ĠSa ft
Ġpr ivileg
Ar me
ĠdÃ¼r fte
Ġelektr isches
Ġ198 2
ĠBar ack
Ġentsp annen
oper ationen
ĠWirtschafts wissenschaftler
ĠOrgan en
ĠCl uster
ĠÃ¼berraschen derweise
hÃ¶ re
Ġnotwend ige
En dlich
ĠEp is
Ġdeutlich er
vert rag
yr ik
otograf ie
arch ite
dimension al
ĠAuft ritt
Inter net
ĠBal kon
Ġabsch lieÃŁend
Ġverlie hen
sh ire
Ġrad ik
Ġschlie sslich
Ġschick e
Ġausgeb ildete
sver kehr
sver teilung
ĠWesent liche
ĠHom in
Ġklass isches
ĠRadio wellen
ĠWellen lÃ¤nge
Ġag iert
ĠSchne cken
Ġbeinhal tete
elev ant
ĠStaats ober
Ġtiefer en
Ġinform ierte
Ġspannen de
ĠBest Ã¤tigung
ĠHack ern
ĠSl og
Ġgross es
Ġschwimmen de
ĠNieder lage
Ġmut ige
ĠKongress ab
Ġbelieb ig
ĠIr r
ĠZauber er
ĠWel ches
ĠBibliot heken
ĠKr ater
ĠDoktor anden
inf ektion
mechan ismen
ĠHor ror
osh op
ĠSympt om
ĠPhot oshop
mar ke
ĠDat um
dam it
ĠBem erken
ĠBur schen
ĠÃ¼berein stimmt
System e
Wor auf
ĠVerwand lung
stÃ¶ ÃŁe
Ġherausf indet
Ġgebrochen en
ĠStad ion
Ġpri or
Sc an
Ġrisk ant
sproblem en
ĠAth eist
Pl atz
mitglie dern
zusp ielen
ĠverblÃ¼ffen de
Ġwundervoll es
ban isha
kap ital
Ġkoll id
beg inn
ĠalltÃ¤ glich
ĠGebur ten
Ġmon ate
ĠTragÃ¶ dien
ĠOl iven
For schung
Ġwirksam e
ĠMent oren
ĠGeschÃ¤ftsm odelle
Ġislam ische
Ġgift ige
Ġjapan ische
Ġqual itativ
Ġverbr ennt
kÃ¤ mie
ĠVorder seite
hil fen
ĠSar g
Programm e
Ġsan fte
bezogen e
flie gt
ĠSpe ed
ĠBelast barkeit
wa ys
Ãĸ l
Ġbraun e
Ġbevorzu gt
ĠVeranst altungen
ĠbegrÃ¼ ÃŁt
Met hode
Ġgigant ischen
ĠCal iforn
ĠDom inanz
[...]
