{
  "version": "1.0",
  "truncation": null,
  "padding": null,
  "added_tokens": [],
  "normalizer": null,
  "pre_tokenizer": {
    "type": "ByteLevel",
    "add_prefix_space": false,
    "trim_offsets": true,
    "use_regex": true
  },
  "post_processor": {
    "type": "BertProcessing",
    "sep": [
      "</s>",
      2
    ],
    "cls": [
      "<s>",
      0
    ]
  },
  "decoder": {
    "type": "ByteLevel",
    "add_prefix_space": true,
    "trim_offsets": true,
    "use_regex": true
  },
  "model": {
    "type": "BPE",
    "dropout": null,
    "unk_token": null,
    "continuing_subword_prefix": "",
    "end_of_word_suffix": "",
    "fuse_unk": false,
    "byte_fallback": false,
    "vocab": {
      "<s>": 0,
      "<pad>": 1,
      "</s>": 2,
      "<unk>": 3,
      "<mask>": 4,
      "!": 5,
      "\"": 6,
      "#": 7,
      "$": 8,
      "%": 9,
      "&": 10,
      "'": 11,
      "(": 12,
      ")": 13,
      "*": 14,
      "+": 15,
      ",": 16,
      "-": 17,
      ".": 18,
      "/": 19,
      "0": 20,
      "1": 21,
      "2": 22,
      "3": 23,
      "4": 24,
      "5": 25,
      "6": 26,
      "7": 27,
      "8": 28,
      "9": 29,
      ":": 30,
      ";": 31,
      "<": 32,
      "=": 33,
      ">": 34,
      "?": 35,
      "@": 36,
      "A": 37,
      "B": 38,
      "C": 39,
      "D": 40,
      "E": 41,
      "F": 42,
      "G": 43,
      "H": 44,
      "I": 45,
      "J": 46,
      "K": 47,
      "L": 48,
      "M": 49,
      "N": 50,
      "O": 51,
      "P": 52,
      "Q": 53,
      "R": 54,
      "S": 55,
      "T": 56,
      "U": 57,
      "V": 58,
      "W": 59,
      "X": 60,
      "Y": 61,
      "Z": 62,
      "[": 63,
      "\\": 64,
      "]": 65,
      "^": 66,
      "_": 67,
      "`": 68,
      "a": 69,
      "b": 70,
      "c": 71,
      "d": 72,
      "e": 73,
      "f": 74,
      "g": 75,
      "h": 76,
      "i": 77,
      "j": 78,
      "k": 79,
      "l": 80,
      "m": 81,
      "n": 82,
      "o": 83,
      "p": 84,
      "q": 85,
      "r": 86,
      "s": 87,
      "t": 88,
      "u": 89,
      "v": 90,
      "w": 91,
      "x": 92,
      "y": 93,
      "z": 94,
      "{": 95,
      "|": 96,
      "}": 97,
      "~": 98,
      "¡": 99,
      "¢": 100,
      "£": 101,
      "¤": 102,
      "¥": 103,
      "¦": 104,
      "§": 105,
      "¨": 106,
      "©": 107,
      "ª": 108,
      "«": 109,
      "¬": 110,
      "®": 111,
      "¯": 112,
      "°": 113,
      "±": 114,
      "²": 115,
      "³": 116,
      "´": 117,
      "µ": 118,
      "¶": 119,
      "·": 120,
      "¸": 121,
      "¹": 122,
      "º": 123,
      "»": 124,
      "¼": 125,
      "½": 126,
      "¾": 127,
      "¿": 128,
      "À": 129,
      "Á": 130,
      "Â": 131,
      "Ã": 132,
      "Ä": 133,
      "Å": 134,
      "Æ": 135,
      "Ç": 136,
      "È": 137,
      "É": 138,
      "Ê": 139,
      "Ë": 140,
      "Ì": 141,
      "Í": 142,
      "Î": 143,
      "Ï": 144,
      "Ð": 145,
      "Ñ": 146,
      "Ò": 147,
      "Ó": 148,
      "Ô": 149,
      "Õ": 150,
      "Ö": 151,
      "×": 152,
      "Ø": 153,
      "Ù": 154,
      "Ú": 155,
      "Û": 156,
      "Ü": 157,
      "Ý": 158,
      "Þ": 159,
      "ß": 160,
      "à": 161,
      "á": 162,
      "â": 163,
      "ã": 164,
      "ä": 165,
      "å": 166,
      "æ": 167,
      "ç": 168,
      "è": 169,
      "é": 170,
      "ê": 171,
      "ë": 172,
      "ì": 173,
      "í": 174,
      "î": 175,
      "ï": 176,
      "ð": 177,
      "ñ": 178,
      "ò": 179,
      "ó": 180,
      "ô": 181,
      "õ": 182,
      "ö": 183,
      "÷": 184,
      "ø": 185,
      "ù": 186,
      "ú": 187,
      "û": 188,
      "ü": 189,
      "ý": 190,
      "þ": 191,
      "ÿ": 192,
      "Ā": 193,
      "ā": 194,
      "Ă": 195,
      "ă": 196,
      "Ą": 197,
      "ą": 198,
      "Ć": 199,
      "ć": 200,
      "Ĉ": 201,
      "ĉ": 202,
      "Ċ": 203,
      "ċ": 204,
      "Č": 205,
      "č": 206,
      "Ď": 207,
      "ď": 208,
      "Đ": 209,
      "đ": 210,
      "Ē": 211,
      "ē": 212,
      "Ĕ": 213,
      "ĕ": 214,
      "Ė": 215,
      "ė": 216,
      "Ę": 217,
      "ę": 218,
      "Ě": 219,
      "ě": 220,
      "Ĝ": 221,
      "ĝ": 222,
      "Ğ": 223,
      "ğ": 224,
      "Ġ": 225,
      "ġ": 226,
      "Ģ": 227,
      "ģ": 228,
      "Ĥ": 229,
      "ĥ": 230,
      "Ħ": 231,
      "ħ": 232,
      "Ĩ": 233,
      "ĩ": 234,
      "Ī": 235,
      "ī": 236,
      "Ĭ": 237,
      "ĭ": 238,
      "Į": 239,
      "į": 240,
      "İ": 241,
      "ı": 242,
      "Ĳ": 243,
      "ĳ": 244,
      "Ĵ": 245,
      "ĵ": 246,
      "Ķ": 247,
      "ķ": 248,
      "ĸ": 249,
      "Ĺ": 250,
      "ĺ": 251,
      "Ļ": 252,
      "ļ": 253,
      "Ľ": 254,
      "ľ": 255,
      "Ŀ": 256,
      "ŀ": 257,
      "Ł": 258,
      "ł": 259,
      "Ń": 260,
      "Ġt": 261,
      "Ġth": 262,
      "Ġa": 263,
      "in": 264,
      "Ġw": 265,
      "Ġthe": 266,
      "re": 267,
      "Ġo": 268,
      "Ġs": 269,
      "at": 270,
      "er": 271,
      "nd": 272,
      "ou": 273,
      "Ġc": 274,
      "is": 275,
      "it": 276,
      "Ġb": 277,
      "ing": 278,
      "Ġm": 279,
      "en": 280,
      "Ġh": 281,
      "on": 282,
      "Ġto": 283,
      "Ġp": 284,
      "Ġf": 285,
      "an": 286,
      "es": 287,
      "Ġd": 288,
      "Ġof": 289,
      "or": 290,
      "ll": 291,
      "Ġin": 292,
      "Ġand": 293,
      "ed": 294,
      "Ġl": 295,
      "ar": 296,
      "Ġy": 297,
      "Ġthat": 298,
      "om": 299,
      "Ġg": 300,
      "as": 301,
      "ic": 302,
      "le": 303,
      "Ġyou": 304,
      "ve": 305,
      "ĠI": 306,
      "al": 307,
      "Ġwe": 308,
      "Ġn": 309,
      "Ġwh": 310,
      "ow": 311,
      "Ġis": 312,
      "Ġe": 313,
      "us": 314,
      "Ġbe": 315,
      "ut": 316,
      "Ġit": 317,
      "ion": 318,
      "ot": 319,
      "'s": 320,
      "et": 321,
      "Ġre": 322,
      "Ġha": 323,
      "ent": 324,
      "ct": 325,
      "Ġon": 326,
      "ld": 327,
      "ver": 328,
      "Th": 329,
      "ay": 330,
      "id": 331,
      "And": 332,
      "se": 333,
      "all": 334,
      "Ġthis": 335,
      "im": 336,
      "st": 337,
      "ro": 338,
      "ig": 339,
      "ur": 340,
      "ere": 341,
      "ly": 342,
      "Ġst": 343,
      "ch": 344,
      "ke": 345,
      "ce": 346,
      "Ġfor": 347,
      "if": 348,
      "Ġwas": 349,
      "ra": 350,
      "Ġan": 351,
      "ir": 352,
      "Ġdo": 353,
      "Ġare": 354,
      "oo": 355,
      "ith": 356,
      "ally": 357,
      "op": 358,
      "th": 359,
      "am": 360,
      "Ġhave": 361,
      "Ġwith": 362,
      "Ġab": 363,
      "Ġthey": 364,
      "Ġu": 365,
      "Ġse": 366,
      "Ġk": 367,
      "Ġcan": 368,
      "Ġ-": 369,
      "Ġ--": 370,
      "Ġas": 371,
      "Ġmo": 372,
      "ation": 373,
      "out": 374,
      "ht": 375,
      "Ġli": 376,
      "Ġso": 377,
      "Ġgo": 378,
      "So": 379,
      "Ġwhat": 380,
      "ad": 381,
      "Ġcom": 382,
      "Ġwor": 383,
      "'t": 384,
      "Ġhe": 385,
      "very": 386,
      "ould": 387,
      "ill": 388,
      "Ġat": 389,
      "Ġme": 390,
      "Ġabout": 391,
      "Ġsh": 392,
      "Ġne": 393,
      "ant": 394,
      "Ġnot": 395,
      "ter": 396,
      "ge": 397,
      "il": 398,
      "The": 399,
      "ul": 400,
      "ol": 401,
      "Ġall": 402,
      "ust": 403,
      "Ġj": 404,
      "Ġfr": 405,
      "Ġex": 406,
      "ers": 407,
      "use": 408,
      "ight": 409,
      "Ġpro": 410,
      "Ġsom": 411,
      "Ġch": 412,
      "Ġr": 413,
      "Ġor": 414,
      "Ġde": 415,
      "Ġthere": 416,
      "Ġmy": 417,
      "We": 418,
      "Ġpe": 419,
      "'re": 420,
      "ear": 421,
      "um": 422,
      "art": 423,
      "ople": 424,
      "pp": 425,
      "ck": 426,
      "Ġcon": 427,
      "ess": 428,
      "Ġlike": 429,
      "ate": 430,
      "ure": 431,
      "Ġone": 432,
      "ies": 433,
      "Ġpeople": 434,
      "Ġ\"": 435,
      "ca": 436,
      "ive": 437,
      "ity": 438,
      "Ġma": 439,
      "est": 440,
      "Ġfrom": 441,
      "nt": 442,
      "Ġkn": 443,
      "ect": 444,
      "ist": 445,
      "ble": 446,
      "ind": 447,
      "qu": 448,
      "Ġbut": 449,
      "Ġour": 450,
      "ink": 451,
      "Ġout": 452,
      "Ġal": 453,
      "Ġus": 454,
      "It": 455,
      "Ġint": 456,
      "Ġknow": 457,
      "Ġte": 458,
      "Ġjust": 459,
      "ook": 460,
      "rou": 461,
      "un": 462,
      "Ġv": 463,
      "Ġthing": 464,
      "and": 465,
      "cause": 466,
      "Ġsp": 467,
      "ide": 468,
      "Ġthem": 469,
      "But": 470,
      "Ġsee": 471,
      "ĠA": 472,
      "ie": 473,
      "Ġthese": 474,
      "Ġvery": 475,
      "os": 476,
      "ort": 477,
      "Ġtr": 478,
      "Ġif": 479,
      "Ġthink": 480,
      "Ġup": 481,
      "her": 482,
      "Ġwho": 483,
      "Ġget": 484,
      "Ġpl": 485,
      "ich": 486,
      "Ġgoing": 487,
      "Ġby": 488,
      "ci": 489,
      "ĠS": 490,
      "el": 491,
      "ain": 492,
      "Ġact": 493,
      "Ġsome": 494,
      "one": 495,
      "Ġwhen": 496,
      "iv": 497,
      "Ġ1": 498,
      "Ġbecause": 499,
      "Ġyour": 500,
      "Ġhad": 501,
      "Ġmore": 502,
      "Wh": 503,
      "Ġyear": 504,
      "em": 505,
      "og": 506,
      "Ġsa": 507,
      "our": 508,
      "Ġim": 509,
      "ĠC": 510,
      "Ġtim": 511,
      "Ġwould": 512,
      "Ġwere": 513,
      "ine": 514,
      "00": 515,
      "Ġwhich": 516,
      "Ġlook": 517,
      "od": 518,
      "Ġtheir": 519,
      "ame": 520,
      "Ġwant": 521,
      "ast": 522,
      "Ġreally": 523,
      "ment": 524,
      "Ġhow": 525,
      "Ġcomp": 526,
      "ually": 527,
      "ap": 528,
      ".\"": 529,
      "Ġsu": 530,
      "Ġwork": 531,
      "ard": 532,
      "ood": 533,
      "iz": 534,
      "ous": 535,
      "act": 536,
      "'ve": 537,
      "ack": 538,
      "gh": 539,
      "Ġen": 540,
      "reat": 541,
      "ĠM": 542,
      "Ġway": 543,
      "You": 544,
      "hing": 545,
      "Ġta": 546,
      "ose": 547,
      "Ġle": 548,
      "Ġhere": 549,
      "'m": 550,
      "ore": 551,
      "Ġworld": 552,
      "This": 553,
      "are": 554,
      "Ġtime": 555,
      "Ġhas": 556,
      "ans": 557,
      "ther": 558,
      "Ġthen": 559,
      "ab": 560,
      "ag": 561,
      "Ġper": 562,
      "ong": 563,
      "Ġqu": 564,
      "Ġevery": 565,
      "Ġdon": 566,
      "Ġinto": 567,
      "Ġexp": 568,
      "Ġactually": 569,
      "ace": 570,
      "Ġsay": 571,
      "Ġwill": 572,
      "Ġcould": 573,
      "Ġman": 574,
      "Ġfe": 575,
      "res": 576,
      "Ġev": 577,
      "ions": 578,
      "ild": 579,
      "ud": 580,
      "Ġco": 581,
      "ence": 582,
      "itt": 583,
      "Ġthings": 584,
      "Ġwhere": 585,
      "age": 586,
      "Ġyears": 587,
      "Ġnow": 588,
      "ĠB": 589,
      "Ġag": 590,
      "Ġother": 591,
      "Ġdid": 592,
      "alk": 593,
      "Now": 594,
      "Ġsomet": 595,
      "ff": 596,
      "iff": 597,
      "They": 598,
      "ach": 599,
      "nder": 600,
      "ical": 601,
      "Ġany": 602,
      "Ġbeen": 603,
      "Ġno": 604,
      "Ġmake": 605,
      "Ġhapp": 606,
      "Ġdiff": 607,
      "Ġcl": 608,
      "ice": 609,
      "Ġtw": 610,
      "ip": 611,
      "Ġthan": 612,
      "so": 613,
      "Ġun": 614,
      "Ġneed": 615,
      "red": 616,
      "Ġsaid": 617,
      "ĠE": 618,
      "ĠG": 619,
      "Ġstart": 620,
      "Ġpr": 621,
      "Ġpart": 622,
      "Ġright": 623,
      "irst": 624,
      "Ġover": 625,
      "own": 626,
      "ree": 627,
      "Ġbu": 628,
      "Ġimp": 629,
      "ry": 630,
      "Ġ2": 631,
      "Ġsomething": 632,
      "ign": 633,
      "ia": 634,
      "Ġpo": 635,
      "ome": 636,
      "Ġdis": 637,
      "ory": 638,
      "ite": 639,
      "Ġâ": 640,
      "Ġback": 641,
      "uch": 642,
      "pt": 643,
      "Ġtwo": 644,
      "orm": 645,
      "ĠH": 646,
      "round": 647,
      "ount": 648,
      "Ġmuch": 649,
      "olog": 650,
      "Ġgot": 651,
      "ĠP": 652,
      "Ġar": 653,
      "Ġkind": 654,
      "ib": 655,
      "Ġcall": 656,
      "ens": 657,
      "Ġthose": 658,
      "ĠT": 659,
      "ass": 660,
      "ife": 661,
      "Ġfirst": 662,
      "Ġdiffere": 663,
      "ĠN": 664,
      "ang": 665,
      "ittle": 666,
      "ater": 667,
      "ound": 668,
      "ĠD": 669,
      "Ġlittle": 670,
      "sel": 671,
      "Ġalso": 672,
      "cent": 673,
      "ue": 674,
      "Ġro": 675,
      "Ġnew": 676,
      "Ġlot": 677,
      "ep": 678,
      "Ġlo": 679,
      "That": 680,
      "Ġspe": 681,
      "ces": 682,
      "ght": 683,
      "ple": 684,
      "Ġcont": 685,
      "ult": 686,
      "way": 687,
      "ĠâĻ": 688,
      "Ġac": 689,
      "ves": 690,
      "Ġtalk": 691,
      "ber": 692,
      "Ġmost": 693,
      "Ġbet": 694,
      "king": 695,
      "Ġph": 696,
      "Ġdes": 697,
      "Ġshe": 698,
      "ving": 699,
      "vel": 700,
      "rain": 701,
      "ody": 702,
      "Ġonly": 703,
      "Ġres": 704,
      "In": 705,
      "Ġunder": 706,
      "ru": 707,
      "ated": 708,
      "able": 709,
      "What": 710,
      "Ġlife": 711,
      "ations": 712,
      "co": 713,
      "ell": 714,
      "Ġhis": 715,
      "Ġsy": 716,
      "Ġad": 717,
      "Ġday": 718,
      "Ġeven": 719,
      "ĠL": 720,
      "Ġhum": 721,
      "Ġam": 722,
      "Ġdifferent": 723,
      "ish": 724,
      "Ġtake": 725,
      "ms": 726,
      "Ġmany": 727,
      "ick": 728,
      "ict": 729,
      "ial": 730,
      "Ġgood": 731,
      "ĠR": 732,
      "rough": 733,
      "other": 734,
      "There": 735,
      "ĠâĻ«": 736,
      "du": 737,
      "Ġdoes": 738,
      "Ġbl": 739,
      "int": 740,
      "Ġreal": 741,
      "Ġdown": 742,
      "Ġaround": 743,
      "ance": 744,
      "Ġide": 745,
      "Ġher": 746,
      "ank": 747,
      "ire": 748,
      "Ġthrough": 749,
      "ob": 750,
      "ph": 751,
      "ase": 752,
      "Ġput": 753,
      "ents": 754,
      "pl": 755,
      "'ll": 756,
      "Ġcomm": 757,
      "pe": 758,
      "urn": 759,
      "ark": 760,
      "Ġpre": 761,
      "Ġshow": 762,
      "Ġuse": 763,
      "ange": 764,
      "cess": 765,
      "Ġbeing": 766,
      "Ġtell": 767,
      "form": 768,
      "Ġoff": 769,
      "ible": 770,
      "ĠF": 771,
      "ress": 772,
      "ade": 773,
      "ors": 774,
      "ak": 775,
      "Ġsame": 776,
      "Ġhappen": 777,
      "Well": 778,
      "Ġthou": 779,
      "Ġproble": 780,
      "Ġtoo": 781,
      "ether": 782,
      "Ġtry": 783,
      "ĠW": 784,
      "Ġfl": 785,
      "chn": 786,
      "ary": 787,
      "per": 788,
      "ath": 789,
      "Ġfact": 790,
      "Ġinc": 791,
      "ject": 792,
      "ys": 793,
      "Ġem": 794,
      "wn": 795,
      "Ġcome": 796,
      "xt": 797,
      "Ġsm": 798,
      "iver": 799,
      "Ġbr": 800,
      "stem": 801,
      "Ġcount": 802,
      "ful": 803,
      "day": 804,
      "tern": 805,
      "Ġdoing": 806,
      "ars": 807,
      "ord": 808,
      "ual": 809,
      "ning": 810,
      "ĠJ": 811,
      "Ġra": 812,
      "ĠO": 813,
      "Ġmay": 814,
      "Ġgreat": 815,
      "Ġfind": 816,
      "ool": 817,
      "ric": 818,
      "Ġtechn": 819,
      "Ġthree": 820,
      "ĠU": 821,
      "Ġbig": 822,
      "ons": 823,
      "ically": 824,
      "ne": 825,
      "row": 826,
      "ting": 827,
      "Ġgen": 828,
      "Ġwr": 829,
      "Ġhuman": 830,
      "ile": 831,
      "ac": 832,
      "ved": 833,
      "Ġpers": 834,
      "Ġbec": 835,
      "Ġsur": 836,
      "Ġpercent": 837,
      "ology": 838,
      "Ġwell": 839,
      "ied": 840,
      "ower": 841,
      "Ġsystem": 842,
      "He": 843,
      "Ġtra": 844,
      "fore": 845,
      "Ġdec": 846,
      "Ġbuild": 847,
      "thing": 848,
      "fter": 849,
      "nds": 850,
      "Ġstud": 851,
      "illion": 852,
      "Ġcalled": 853,
      "If": 854,
      "ub": 855,
      "self": 856,
      "te": 857,
      "Ġgu": 858,
      "'d": 859,
      "Ġlet": 860,
      "Ġapp": 861,
      "igh": 862,
      "Ġsim": 863,
      "Ġagain": 864,
      "body": 865,
      "Ġchild": 866,
      "ics": 867,
      "we": 868,
      "Ġquest": 869,
      "ition": 870,
      "cial": 871,
      "ious": 872,
      "Ġmade": 873,
      "Ġinv": 874,
      "ating": 875,
      "Ġind": 876,
      "Ġlong": 877,
      "Ġexper": 878,
      "Ġown": 879,
      "Ġimport": 880,
      "oss": 881,
      "Ġbel": 882,
      "mer": 883,
      "ities": 884,
      "Ġrem": 885,
      "oc": 886,
      "Ġshould": 887,
      "Ġlear": 888,
      "ize": 889,
      "ian": 890,
      "ĠCh": 891,
      "ren": 892,
      "Ġwhy": 893,
      "Ġwom": 894,
      "les": 895,
      "Ġsc": 896,
      "erest": 897,
      "ty": 898,
      "Ġunderst": 899,
      "Ġturn": 900,
      "ew": 901,
      "ates": 902,
      "av": 903,
      "ft": 904,
      "Ġob": 905,
      "Ġdesign": 906,
      "Ġchange": 907,
      "Ġhel": 908,
      "000": 909,
      "Ġmean": 910,
      "Ġcour": 911,
      "Ġtoday": 912,
      "Ġbrain": 913,
      "Ġend": 914,
      "ction": 915,
      "Ġimportant": 916,
      "Ġafter": 917,
      "Ġdidn": 918,
      "Ġthought": 919,
      "be": 920,
      "Ġfeel": 921,
      "Ġidea": 922,
      "Ġask": 923,
      "Thank": 924,
      "con": 925,
      "Ġbas": 926,
      "Ġperson": 927,
      "Ġlast": 928,
      "Ġplay": 929,
      "Ġcreat": 930,
      "Ġrel": 931,
      "Ġcar": 932,
      "als": 933,
      "ĠAnd": 934,
      "?\"": 935,
      "Ġinterest": 936,
      "Ġstarted": 937,
      "Ġinst": 938,
      "Ġits": 939,
      "ail": 940,
      "Ġgl": 941,
      "ĠIt": 942,
      "he": 943,
      "Ġexam": 944,
      "ull": 945,
      "Ġhim": 946,
      "Ġsch": 947,
      "old": 948,
      "Ġsci": 949,
      "ough": 950,
      "Ġtrans": 951,
      "Ġwent": 952,
      "ise": 953,
      "Ġbefore": 954,
      "Ġunderstand": 955,
      "Ġcourse": 956,
      "Ġins": 957,
      "gan": 958,
      "Ġmight": 959,
      "ution": 960,
      "Ġhelp": 961,
      "Ġgive": 962,
      "Ġbit": 963,
      "ese": 964,
      "Ġbetter": 965,
      "ility": 966,
      "Ġcons": 967,
      "ists": 968,
      "ĠK": 969,
      "Ġgra": 970,
      "ost": 971,
      "Ġanother": 972,
      "Ġpoint": 973,
      "Ġproblem": 974,
      "Ġ3": 975,
      "ular": 976,
      "Ġnever": 977,
      "Ġprodu": 978,
      "ave": 979,
      "ily": 980,
      "lic": 981,
      "Ġke": 982,
      "Ġstory": 983,
      "Ġbelie": 984,
      "ven": 985,
      "Ġele": 986,
      "Ġcoll": 987,
      "Ġable": 988,
      "ros": 989,
      "Ġinter": 990,
      "Ġfew": 991,
      "ert": 992,
      "und": 993,
      "kes": 994,
      "Ġbo": 995,
      "Ġfound": 996,
      "Ġstill": 997,
      "Ġsl": 998,
      "ix": 999,
      "Ġsort": 1000,
      "Ġago": 1001,
      "Ġkid": 1002,
      "Ġent": 1003,
      "Ġpower": 1004,
      "Ġpol": 1005,
      "Ġtog": 1006,
      "Ġtogether": 1007,
      "Ġnext": 1008,
      "Ġplan": 1009,
      "Ġnum": 1010,
      "oth": 1011,
      "erg": 1012,
      "Ġfam": 1013,
      "Ġdr": 1014,
      "Ġplace": 1015,
      "Ġcame": 1016,
      "Ġwater": 1017,
      "velop": 1018,
      "Ġsol": 1019,
      "Ġschool": 1020,
      "Ġmon": 1021,
      "Ġmod": 1022,
      "uc": 1023,
      "alth": 1024,
      "ense": 1025,
      "Ġcommun": 1026,
      "ited": 1027,
      "Ġ19": 1028,
      "atch": 1029,
      "Ġhigh": 1030,
      "Ġcomple": 1031,
      "ween": 1032,
      "Ġcr": 1033,
      "Ġimag": 1034,
      "When": 1035,
      "Ġter": 1036,
      "ward": 1037,
      "ience": 1038,
      "Ġstr": 1039,
      "ng": 1040,
      "ather": 1041,
      "read": 1042,
      "Ġlearn": 1043,
      "Be": 1044,
      "Ġused": 1045,
      "Ġeach": 1046,
      "Ġbetween": 1047,
      "Ġart": 1048,
      "Ġpat": 1049,
      "Ġdat": 1050,
      "Ġla": 1051,
      "Ġtechnology": 1052,
      "ized": 1053,
      "ness": 1054,
      "Ġquestion": 1055,
      "Ġrec": 1056,
      "meric": 1057,
      "Ġ10": 1058,
      "Ġdevelop": 1059,
      "Ġ20": 1060,
      ",\"": 1061,
      "ĠSt": 1062,
      "iss": 1063,
      "Ġext": 1064,
      "ures": 1065,
      "Ġsmall": 1066,
      "Ġatt": 1067,
      "Ġlove": 1068,
      "ĠAf": 1069,
      "Ġfour": 1070,
      "Ġcre": 1071,
      "ork": 1072,
      "Ġlooking": 1073,
      "Ġexample": 1074,
      "Ġmet": 1075,
      "ific": 1076,
      "Ġmed": 1077,
      "Ġser": 1078,
      "arch": 1079,
      "ways": 1080,
      "ram": 1081,
      "Ġop": 1082,
      "Ġdone": 1083,
      "cond": 1084,
      "az": 1085,
      "iness": 1086,
      "Ġold": 1087,
      "ets": 1088,
      "Ġpartic": 1089,
      "Ġdata": 1090,
      "ute": 1091,
      "ably": 1092,
      "Ġdoesn": 1093,
      "Ġlight": 1094,
      "Ġmin": 1095,
      "Ġwomen": 1096,
      "Ġfin": 1097,
      "ĠAmeric": 1098,
      "ered": 1099,
      "ced": 1100,
      "Ġcell": 1101,
      "Ġgrow": 1102,
      "Ġcare": 1103,
      "Ġmom": 1104,
      "Ġeff": 1105,
      "Ġword": 1106,
      "cept": 1107,
      "Ġcent": 1108,
      "ings": 1109,
      "ative": 1110,
      "Ġwanted": 1111,
      "Ġcomput": 1112,
      "cy": 1113,
      "Ġbeh": 1114,
      "Ġstu": 1115,
      "conom": 1116,
      "Ġhard": 1117,
      "Ġread": 1118,
      "Ġmove": 1119,
      "ah": 1120,
      "Ġfar": 1121,
      "Ġwhole": 1122,
      "Ġposs": 1123,
      "Ġlar": 1124,
      "Ġreas": 1125,
      "Ġlive": 1126,
      "ands": 1127,
      "ĠY": 1128,
      "formation": 1129,
      "ger": 1130,
      "Ġtrying": 1131,
      "Ġnat": 1132,
      "Ġever": 1133,
      "Ġmillion": 1134,
      "Ġear": 1135,
      "ross": 1136,
      "Ġed": 1137,
      "Ġbi": 1138,
      "ĠIn": 1139,
      "Ġworking": 1140,
      "Ġchang": 1141,
      "ote": 1142,
      "selves": 1143,
      "Ġaway": 1144,
      "Ġgiv": 1145,
      "Ġalways": 1146,
      "ope": 1147,
      "Ġel": 1148,
      "ational": 1149,
      "Because": 1150,
      "ird": 1151,
      "Ġeconom": 1152,
      "oney": 1153,
      "Ġchildren": 1154,
      "Ġexpl": 1155,
      "Ġless": 1156,
      "Ġbelieve": 1157,
      "cer": 1158,
      "Ġbus": 1159,
      "ĠSo": 1160,
      "wh": 1161,
      "ural": 1162,
      "ĠWe": 1163,
      "Ġgener": 1164,
      "..": 1165,
      "gin": 1166,
      "ism": 1167,
      "Ġrep": 1168,
      "ments": 1169,
      "Ġcap": 1170,
      "Ġsk": 1171,
      "50": 1172,
      "Ġbook": 1173,
      "Ġhealth": 1174,
      "Ġcountry": 1175,
      "Ġanim": 1176,
      "How": 1177,
      "Ġresp": 1178,
      "Ġsupp": 1179,
      "ĠAfric": 1180,
      "Ġpict": 1181,
      "Ġfo": 1182,
      "Ġcor": 1183,
      "Ġmus": 1184,
      "ont": 1185,
      "Ġfrie": 1186,
      "ries": 1187,
      "Ġsub": 1188,
      "Ġrun": 1189,
      "ruct": 1190,
      "nect": 1191,
      "Ġusing": 1192,
      "ract": 1193,
      "Ġspace": 1194,
      "Ġopen": 1195,
      "Ġproject": 1196,
      "hip": 1197,
      "Ġhand": 1198,
      "Ġmeans": 1199,
      "ock": 1200,
      "Ġfive": 1201,
      "Ġprob": 1202,
      "atter": 1203,
      "Ġthinking": 1204,
      "led": 1205,
      "Ġtook": 1206,
      "ps": 1207,
      "Ġkids": 1208,
      "vers": 1209,
      "Ġcreate": 1210,
      "nce": 1211,
      "Ġinformation": 1212,
      "Ġmaybe": 1213,
      "Ġvis": 1214,
      "aces": 1215,
      "Ġinf": 1216,
      "Ġ4": 1217,
      "Ġmoney": 1218,
      "alf": 1219,
      "Ġeverything": 1220,
      "Ġcou": 1221,
      "Ġdoll": 1222,
      "Ġnumber": 1223,
      "Ġpub": 1224,
      "air": 1225,
      "Ġlead": 1226,
      "Ġhome": 1227,
      "vern": 1228,
      "Ġspec": 1229,
      "gg": 1230,
      "Ġbecome": 1231,
      "Ġmind": 1232,
      "Ġsecond": 1233,
      "oy": 1234,
      "iron": 1235,
      "Ġreg": 1236,
      "Ġprocess": 1237,
      "Ġcompan": 1238,
      "Ġorgan": 1239,
      "its": 1240,
      "ks": 1241,
      "ĠYou": 1242,
      "Ġsing": 1243,
      "rib": 1244,
      "Ġleft": 1245,
      "ident": 1246,
      "ond": 1247,
      "Ġteach": 1248,
      "iew": 1249,
      "ten": 1250,
      "ues": 1251,
      "ergy": 1252,
      "Ġfood": 1253,
      "ention": 1254,
      "Ġenough": 1255,
      "ĠUn": 1256,
      "Ġwalk": 1257,
      "Ġquite": 1258,
      "ever": 1259,
      "Ġacc": 1260,
      "Ġbest": 1261,
      "Ġgetting": 1262,
      "aut": 1263,
      "ivers": 1264,
      "Ġfut": 1265,
      "sw": 1266,
      "Ġform": 1267,
      "Ġhead": 1268,
      "Ġinteresting": 1269,
      "Ġprog": 1270,
      "Ġeng": 1271,
      "These": 1272,
      "Ġcomes": 1273,
      "Ġfun": 1274,
      "Ġwar": 1275,
      "ories": 1276,
      "ĠV": 1277,
      "pr": 1278,
      "Ġsense": 1279,
      "ouse": 1280,
      "ital": 1281,
      "Ġpres": 1282,
      "iting": 1283,
      "Ġprobably": 1284,
      "Ġsocial": 1285,
      "Ġdem": 1286,
      "Ġmark": 1287,
      "Ġfuture": 1288,
      "Ġenergy": 1289,
      "Ġgovern": 1290,
      "Ġca": 1291,
      "Ġhappened": 1292,
      "Ġansw": 1293,
      "Ġconf": 1294,
      "Ġtimes": 1295,
      "Ġset": 1296,
      "ines": 1297,
      "Ġcle": 1298,
      "ĠInd": 1299,
      "Ġelect": 1300,
      "ertain": 1301,
      "ts": 1302,
      "Ġgrou": 1303,
      "Ġmonth": 1304,
      "ety": 1305,
      "ier": 1306,
      "Ġtalking": 1307,
      "Ġmaking": 1308,
      "Ġadd": 1309,
      "Ġbegin": 1310,
      "Ġstuff": 1311,
      "tty": 1312,
      "Ġcontro": 1313,
      "Ġroom": 1314,
      "Ġbuilding": 1315,
      "Ġconnect": 1316,
      "Ġcur": 1317,
      "Ġmoment": 1318,
      "Ġpass": 1319,
      "ient": 1320,
      "Ġbody": 1321,
      "Ġpop": 1322,
      "Ġglob": 1323,
      "Ġenv": 1324,
      "Ġphys": 1325,
      "Ġsign": 1326,
      "Ġwithout": 1327,
      "Ġtold": 1328,
      "Ġdist": 1329,
      "ately": 1330,
      "reen": 1331,
      "Ġgr": 1332,
      "Ġhalf": 1333,
      "Ġside": 1334,
      "Ġpretty": 1335,
      "Ġelse": 1336,
      "Ġcountries": 1337,
      "ake": 1338,
      "ner": 1339,
      "Ġwee": 1340,
      "Ġbeaut": 1341,
      "Ġdollars": 1342,
      "Ġpie": 1343,
      "Ġlives": 1344,
      "Ġcoming": 1345,
      "Ġreason": 1346,
      "Ġbusiness": 1347,
      "ogra": 1348,
      "Ġkeep": 1349,
      "imes": 1350,
      "Ġanything": 1351,
      "Ġmodel": 1352,
      "Ġhist": 1353,
      "Ġsoci": 1354,
      "Ġsuch": 1355,
      "One": 1356,
      "Ġjob": 1357,
      "ior": 1358,
      "Ġbad": 1359,
      "Ġwo": 1360,
      "lf": 1361,
      "Ġtop": 1362,
      "ices": 1363,
      "Ġopp": 1364,
      "Why": 1365,
      "gs": 1366,
      "me": 1367,
      "Ġallow": 1368,
      "Ġdef": 1369,
      "Ġacross": 1370,
      "My": 1371,
      "ember": 1372,
      "ortun": 1373,
      "Ġenviron": 1374,
      "der": 1375,
      "Ġstop": 1376,
      "Ġmen": 1377,
      "Ġsound": 1378,
      "uring": 1379,
      "Ġeas": 1380,
      "Ġsays": 1381,
      "ĠThe": 1382,
      "Ġmakes": 1383,
      "Here": 1384,
      "Ġyoung": 1385,
      "Ġbring": 1386,
      "Ġstand": 1387,
      "ead": 1388,
      "Ġhope": 1389,
      "Ġair": 1390,
      "Ġscience": 1391,
      "Ġseen": 1392,
      "olution": 1393,
      "Ġsaw": 1394,
      "Ġmatter": 1395,
      "Ġliving": 1396,
      "idd": 1397,
      "ince": 1398,
      "Ġty": 1399,
      "Ġlater": 1400,
      "Ġprot": 1401,
      "most": 1402,
      "Ġfig": 1403,
      "Ġasked": 1404,
      "Ġval": 1405,
      "Ġexperience": 1406,
      "Ġeduc": 1407,
      "ĠAfrica": 1408,
      "Ġgoes": 1409,
      "Ġsimple": 1410,
      "Ġ200": 1411,
      "Ġparticular": 1412,
      "ided": 1413,
      "Ġhour": 1414,
      "io": 1415,
      "Ġrese": 1416,
      "where": 1417,
      "kay": 1418,
      "ying": 1419,
      "Ġey": 1420,
      "Ġhappens": 1421,
      "Ġcult": 1422,
      "ality": 1423,
      "Ġsit": 1424,
      "man": 1425,
      "Ġhaving": 1426,
      "Ġwonder": 1427,
      "llow": 1428,
      "ĠChin": 1429,
      "Ġscient": 1430,
      "Ġcam": 1431,
      "Ġphot": 1432,
      "Ġpicture": 1433,
      "ash": 1434,
      "ime": 1435,
      "ilt": 1436,
      "aps": 1437,
      "Ġways": 1438,
      "angu": 1439,
      "ken": 1440,
      "ught": 1441,
      "She": 1442,
      "Ġaut": 1443,
      "ization": 1444,
      "ott": 1445,
      "Ġcomplete": 1446,
      "Ġcol": 1447,
      "Ġmem": 1448,
      "Ġfamily": 1449,
      "Ġthous": 1450,
      "Ġdet": 1451,
      "ots": 1452,
      "Ġeffect": 1453,
      "For": 1454,
      "Ġlist": 1455,
      "Ġsix": 1456,
      "arth": 1457,
      "Ġchar": 1458,
      "Ġproblems": 1459,
      "Ġref": 1460,
      "Ġprof": 1461,
      "Ġbre": 1462,
      "Ġshare": 1463,
      "Ġlevel": 1464,
      "ĠNew": 1465,
      "Ġdays": 1466,
      "Ġcomputer": 1467,
      "ream": 1468,
      "Ġresearch": 1469,
      "Ġsingle": 1470,
      "iter": 1471,
      "Ġrest": 1472,
      "Ġequ": 1473,
      "Ġglobal": 1474,
      "Ġenvironment": 1475,
      "Ġplanet": 1476,
      "Ġcase": 1477,
      "arr": 1478,
      "irl": 1479,
      "Let": 1480,
      "Ġcity": 1481,
      "ograph": 1482,
      "Ġlangu": 1483,
      "As": 1484,
      "arent": 1485,
      "Ġfore": 1486,
      "Ġmach": 1487,
      "Ġbasically": 1488,
      "Ġtest": 1489,
      "Ġloc": 1490,
      "ED": 1491,
      "ike": 1492,
      "ins": 1493,
      "orn": 1494,
      "Ġinside": 1495,
      "Ġmusic": 1496,
      "ready": 1497,
      "Ġpolit": 1498,
      "Ġcertain": 1499,
      "Ġmor": 1500,
      "ulation": 1501,
      "Ġalmost": 1502,
      "Ġpossible": 1503,
      "Ġpublic": 1504,
      "Ġsure": 1505,
      "less": 1506,
      "Ġyet": 1507,
      "Ġsaying": 1508,
      "ov": 1509,
      "Ġboth": 1510,
      "Ġamaz": 1511,
      "Ġanswer": 1512,
      "Ġwatch": 1513,
      "Ġvide": 1514,
      "Ġonce": 1515,
      "Ġguy": 1516,
      "med": 1517,
      "Ġhear": 1518,
      "Ġwhile": 1519,
      "itive": 1520,
      "allen": 1521,
      "ĠEarth": 1522,
      "uge": 1523,
      "Ġwhether": 1524,
      "unch": 1525,
      "Ġrob": 1526,
      "Ġpain": 1527,
      "ants": 1528,
      "osed": 1529,
      "Ġdisco": 1530,
      "Ġage": 1531,
      "Ġalready": 1532,
      "Ġnothing": 1533,
      "Ġcontin": 1534,
      "ee": 1535,
      "Ġsuc": 1536,
      "ury": 1537,
      "Ġbillion": 1538,
      "Ġincred": 1539,
      "Ġwrong": 1540,
      "lish": 1541,
      "ivid": 1542,
      "Ġlooked": 1543,
      "Ġself": 1544,
      "Ġideas": 1545,
      "Ġdise": 1546,
      "iverse": 1547,
      "Ġsomeone": 1548,
      "Ġexact": 1549,
      "Ġwithin": 1550,
      "oice": 1551,
      "Ġexc": 1552,
      "âĢ": 1553,
      "Ġtreat": 1554,
      "Ġremember": 1555,
      "Ġcommunity": 1556,
      "Ġlooks": 1557,
      "Ġproduct": 1558,
      "Ġass": 1559,
      "Ġcontrol": 1560,
      "Ġunt": 1561,
      "Ġhistory": 1562,
      "ield": 1563,
      "Ġsw": 1564,
      "Ġheart": 1565,
      "Ġmyself": 1566,
      "iful": 1567,
      "Ġpar": 1568,
      "ases": 1569,
      "ware": 1570,
      "Ġlarge": 1571,
      "Ġcells": 1572,
      "Ġoften": 1573,
      "side": 1574,
      "Ġtrue": 1575,
      "Ġcost": 1576,
      "Ġamazing": 1577,
      "undred": 1578,
      "Ġdev": 1579,
      "Ġheard": 1580,
      "Ġmil": 1581,
      "Ġlab": 1582,
      "Ġiss": 1583,
      "utes": 1584,
      "Ġdire": 1585,
      "imate": 1586,
      "pect": 1587,
      "ĠIntern": 1588,
      "Ġkill": 1589,
      "Ġchallen": 1590,
      "Ġcond": 1591,
      "Ġwords": 1592,
      "uro": 1593,
      "ages": 1594,
      "Ġfigure": 1595,
      "work": 1596,
      "Ġimagine": 1597,
      "Ġwa": 1598,
      "de": 1599,
      "ians": 1600,
      "aterial": 1601,
      "aster": 1602,
      "Ġmag": 1603,
      "âĢĻ": 1604,
      "vious": 1605,
      "ene": 1606,
      "Ġworks": 1607,
      "ivity": 1608,
      "Ġche": 1609,
      "cle": 1610,
      "Ġadv": 1611,
      "Ġbuilt": 1612,
      "ĠUnited": 1613,
      "Ġnight": 1614,
      "Ġhundred": 1615,
      "Ġmonths": 1616,
      "ling": 1617,
      "Ġnews": 1618,
      "land": 1619,
      "Ġcouple": 1620,
      "ering": 1621,
      "Ġclass": 1622,
      "Ġorder": 1623,
      "Ġentire": 1624,
      "Ġbeautiful": 1625,
      "uck": 1626,
      "ex": 1627,
      "Ġaff": 1628,
      "Ġindivid": 1629,
      "Ġfriends": 1630,
      "Ġcancer": 1631,
      "iddle": 1632,
      "bers": 1633,
      "Ġfull": 1634,
      "Ġface": 1635,
      "ĠTED": 1636,
      "Ġgovernment": 1637,
      "Ġ100": 1638,
      "bs": 1639,
      "Ġresult": 1640,
      "Ġpay": 1641,
      "Ġ30": 1642,
      "aper": 1643,
      "Ġmarket": 1644,
      "Ġgroup": 1645,
      "Ġlanguage": 1646,
      "Ġmust": 1647,
      "Ġincre": 1648,
      "Ġgirl": 1649,
      "ives": 1650,
      "Ġtre": 1651,
      "Ġfil": 1652,
      "Ġpiece": 1653,
      "line": 1654,
      "Ġnet": 1655,
      "get": 1656,
      "to": 1657,
      "Ġ6": 1658,
      "Ġfollow": 1659,
      "Ġstate": 1660,
      "Ġspecies": 1661,
      "Ġplaces": 1662,
      "Ġ50": 1663,
      "Ġisn": 1664,
      "Ġdeep": 1665,
      "All": 1666,
      "up": 1667,
      "Ġmaterial": 1668,
      "Ġsec": 1669,
      "Ġfront": 1670,
      "Ġindividual": 1671,
      "Ġvir": 1672,
      "Ġview": 1673,
      "Ġeverybody": 1674,
      "Ġwasn": 1675,
      "Ġvideo": 1676,
      "Ġuntil": 1677,
      "ustr": 1678,
      "atic": 1679,
      "Ġappro": 1680,
      "Ġconst": 1681,
      "ired": 1682,
      "ator": 1683,
      "ush": 1684,
      "Ġdecided": 1685,
      "Ġpast": 1686,
      "ny": 1687,
      "Ġdra": 1688,
      "Ġeducation": 1689,
      "Ġcompletely": 1690,
      "ĠInternet": 1691,
      "Ġline": 1692,
      "eah": 1693,
      "Ġquick": 1694,
      "Ġbehav": 1695,
      "ron": 1696,
      "Ġuniverse": 1697,
      "Ġinn": 1698,
      "Ġdi": 1699,
      "Ġtrain": 1700,
      "No": 1701,
      "Ġcra": 1702,
      "outh": 1703,
      "omes": 1704,
      "ĠIs": 1705,
      "Ġret": 1706,
      "Ġstudy": 1707,
      "ane": 1708,
      "Ġobject": 1709,
      "Ġstories": 1710,
      "Ġterr": 1711,
      "Ġnature": 1712,
      "Ġexactly": 1713,
      "cing": 1714,
      "ined": 1715,
      "Ġbecame": 1716,
      "ĠStates": 1717,
      "Ġdeal": 1718,
      "Ġthough": 1719,
      "ental": 1720,
      "Ġfree": 1721,
      "br": 1722,
      "Ġ'": 1723,
      "Ġname": 1724,
      "Ġabs": 1725,
      "Ġsca": 1726,
      "Ġtaking": 1727,
      "Ġhappening": 1728,
      "Ġstudents": 1729,
      "Ġanimals": 1730,
      "Ġtool": 1731,
      "Ġ9": 1732,
      "Ġmess": 1733,
      "Ġhuge": 1734,
      "Ġfund": 1735,
      "end": 1736,
      "Ġpos": 1737,
      "Ġland": 1738,
      "Ġknew": 1739,
      "Ġkinds": 1740,
      "ĠThey": 1741,
      "Ġitself": 1742,
      "Ġexperim": 1743,
      "acter": 1744,
      "Ġoce": 1745,
      "Ġcollect": 1746,
      "Ġlaw": 1747,
      "ters": 1748,
      "Ġsomebody": 1749,
      "Ġstruct": 1750,
      "ien": 1751,
      "Ġourselves": 1752,
      "Ġwoman": 1753,
      "Ġlearned": 1754,
      "Ġengine": 1755,
      "ats": 1756,
      "ision": 1757,
      "gest": 1758,
      "Ġsince": 1759,
      "ients": 1760,
      "ogn": 1761,
      "Ġsociety": 1762,
      "Ġhouse": 1763,
      "Ġris": 1764,
      "Ġsuccess": 1765,
      "Ġ[": 1766,
      "ional": 1767,
      "dd": 1768,
      "Ġclose": 1769,
      "Ġminutes": 1770,
      "etic": 1771,
      "Ġgets": 1772,
      "ret": 1773,
      "Ġdru": 1774,
      "haps": 1775,
      "omet": 1776,
      "rop": 1777,
      "Ġspend": 1778,
      "Ġcomplex": 1779,
      "Ġcompany": 1780,
      "sy": 1781,
      "Ġquestions": 1782,
      "cc": 1783,
      "Ġthemselves": 1784,
      "Ġz": 1785,
      "icult": 1786,
      "Ġalong": 1787,
      "Ġturns": 1788,
      "Ġmass": 1789,
      "itting": 1790,
      "Ġav": 1791,
      "ability": 1792,
      "Ġagainst": 1793,
      "ocus": 1794,
      "cl": 1795,
      "Ġmeet": 1796,
      "Ġrelations": 1797,
      "thers": 1798,
      "Ġmic": 1799,
      "ĠIndia": 1800,
      "Ġhours": 1801,
      "Ġgame": 1802,
      "ĠAmerica": 1803,
      "Ġopportun": 1804,
      "ctor": 1805,
      "Ġones": 1806,
      "Ġprov": 1807,
      "Ġrather": 1808,
      "Then": 1809,
      "Ġcreated": 1810,
      "Ġbott": 1811,
      "Ġfly": 1812,
      "ibly": 1813,
      "ĠThis": 1814,
      "urs": 1815,
      "ium": 1816,
      "ĠThank": 1817,
      "...": 1818,
      "Ġclear": 1819,
      "face": 1820,
      "ature": 1821,
      "Ġparent": 1822,
      "aw": 1823,
      "Ġleast": 1824,
      "ĠHe": 1825,
      "Ġ7": 1826,
      "ĠThat": 1827,
      "Ġthird": 1828,
      "Ġfocus": 1829,
      "Ġexpect": 1830,
      "Ġcouldn": 1831,
      "Ġinvest": 1832,
      "Ġ8": 1833,
      "Ġwon": 1834,
      "Ġwind": 1835,
      "ames": 1836,
      "Ġmeas": 1837,
      "Ġguys": 1838,
      "ones": 1839,
      "Ġworked": 1840,
      "att": 1841,
      "Ġsometimes": 1842,
      "Ġpred": 1843,
      "Ġdifficult": 1844,
      "eg": 1845,
      "iversity": 1846,
      "ĠGod": 1847,
      "ming": 1848,
      "Ġmother": 1849,
      "Ġothers": 1850,
      "Ġ15": 1851,
      "Ġarch": 1852,
      "Ġthousands": 1853,
      "Ġvar": 1854,
      "Ġdisease": 1855,
      "Ġliter": 1856,
      "Ġearly": 1857,
      "Ġgave": 1858,
      "Ġprogram": 1859,
      "Ġill": 1860,
      "Ġhold": 1861,
      "Ġhappy": 1862,
      "Ġspeak": 1863,
      "cul": 1864,
      "istic": 1865,
      "ples": 1866,
      "Ġamount": 1867,
      "Ġsystems": 1868,
      "Ġnorm": 1869,
      "olved": 1870,
      "wards": 1871,
      "Ġlots": 1872,
      "Ġaud": 1873,
      "not": 1874,
      "illions": 1875,
      "Ġve": 1876,
      "Ġeveryone": 1877,
      "Ġinnov": 1878,
      "Ġinstead": 1879,
      "app": 1880,
      "Ġmath": 1881,
      "Ġfield": 1882,
      "Ġteam": 1883,
      "Ġbab": 1884,
      "Ġsens": 1885,
      "erv": 1886,
      "ale": 1887,
      "ented": 1888,
      "Ġbehavior": 1889,
      "ither": 1890,
      "Ġexist": 1891,
      "ider": 1892,
      "Ġrad": 1893,
      "Ġ5": 1894,
      "Ġnatural": 1895,
      "Ġprotect": 1896,
      "Ġlisten": 1897,
      "iqu": 1898,
      "ove": 1899,
      "ination": 1900,
      "Ġmot": 1901,
      "Ġtaken": 1902,
      "ĠEuro": 1903,
      "ological": 1904,
      "ĠAmerican": 1905,
      "aking": 1906,
      "Ġoil": 1907,
      "Ġoutside": 1908,
      "fect": 1909,
      "ially": 1910,
      "Ġinteract": 1911,
      "Ġrelationship": 1912,
      "Ġmiss": 1913,
      "Ġcir": 1914,
      "ared": 1915,
      "Ġdifference": 1916,
      "Ġcut": 1917,
      "Ġshap": 1918,
      "ĠWhat": 1919,
      "Ġant": 1920,
      "ted": 1921,
      "Ġblack": 1922,
      "Ġrecord": 1923,
      "Every": 1924,
      "ĠBr": 1925,
      "Ġlearning": 1926,
      "Ġhy": 1927,
      "Ġrev": 1928,
      "Ġrecent": 1929,
      "Do": 1930,
      "Ġleg": 1931,
      "Ġchanged": 1932,
      "Ġmachine": 1933,
      "Ġoper": 1934,
      "Ġfail": 1935,
      "vered": 1936,
      "Ġextra": 1937,
      "ĠYork": 1938,
      "gen": 1939,
      "Ġseven": 1940,
      "Ġdeath": 1941,
      "uss": 1942,
      "ential": 1943,
      "Ġarea": 1944,
      "ĠChina": 1945,
      "Ġbro": 1946,
      "Ġcentury": 1947,
      "Ġstep": 1948,
      "Some": 1949,
      "Ġmiddle": 1950,
      "Ġsex": 1951,
      "Ġgreen": 1952,
      "ully": 1953,
      "Ġbeginning": 1954,
      "Ġpattern": 1955,
      "Ġpot": 1956,
      "Ġred": 1957,
      "sych": 1958,
      "ides": 1959,
      "iol": 1960,
      "Ġnetwork": 1961,
      "ĠEng": 1962,
      "Ġcommon": 1963,
      "ĠEurope": 1964,
      "Ġ...": 1965,
      "ased": 1966,
      "Ġstre": 1967,
      "Ġperhaps": 1968,
      "Ġmoving": 1969,
      "Ġgiven": 1970,
      "Ġeasy": 1971,
      "Ġeyes": 1972,
      "Or": 1973,
      "Ġyourself": 1974,
      "utions": 1975,
      "Ġhands": 1976,
      "Ġshort": 1977,
      "Ġda": 1978,
      "Ġleave": 1979,
      "NA": 1980,
      "orth": 1981,
      "Ġdel": 1982,
      "verage": 1983,
      "ĠâĢ": 1984,
      "Ġturned": 1985,
      "Ġnon": 1986,
      "Ġdep": 1987,
      "Ġterms": 1988,
      "Ġsym": 1989,
      "Ġlow": 1990,
      "Ġfish": 1991,
      "Ġincl": 1992,
      "Ġexplain": 1993,
      "Ġpopulation": 1994,
      "Ġes": 1995,
      "era": 1996,
      "ery": 1997,
      "Ġtakes": 1998,
      "Ġculture": 1999,
      "Ġcities": 2000,
      "itions": 2001,
      "olute": 2002,
      "Ġsent": 2003,
      "Ġneeds": 2004,
      "ump": 2005,
      "Ġtyp": 2006,
      "Ġocc": 2007,
      "Ġobvious": 2008,
      "Ġsupport": 2009,
      "Ġ12": 2010,
      "Ġlim": 2011,
      "Ġjour": 2012,
      "els": 2013,
      "elt": 2014,
      "ption": 2015,
      "Ġcolle": 2016,
      "Ġwonderful": 2017,
      "Ġchem": 2018,
      "Ġseeing": 2019,
      "ude": 2020,
      "Ġfinally": 2021,
      "Ġdig": 2022,
      "ĠAr": 2023,
      "ĠâĻª": 2024,
      "Ġbehind": 2025,
      "inary": 2026,
      "Ġpaper": 2027,
      "Ġintell": 2028,
      "astic": 2029,
      "jor": 2030,
      "ply": 2031,
      "Ġident": 2032,
      "ern": 2033,
      "aring": 2034,
      "iving": 2035,
      "ipp": 2036,
      "Ġbegan": 2037,
      "Ġpsych": 2038,
      "Ġimpro": 2039,
      "Ġcommunic": 2040,
      "Ġbreak": 2041,
      "Ġcannot": 2042,
      "Ġjo": 2043,
      "Ġpract": 2044,
      "Ġperform": 2045,
      "Ġparts": 2046,
      "Ġfriend": 2047,
      "idence": 2048,
      "Ġlocal": 2049,
      "rew": 2050,
      "Ġsaf": 2051,
      "Ġtrad": 2052,
      "Ġocean": 2053,
      "itch": 2054,
      "Ġeight": 2055,
      "Ġsqu": 2056,
      "Ġreach": 2057,
      "year": 2058,
      "Ġtot": 2059,
      "Ġduring": 2060,
      "Ġimage": 2061,
      "ges": 2062,
      "Ġblue": 2063,
      "Ġlonger": 2064,
      "ĠâĢĶ": 2065,
      "Ġpick": 2066,
      "Ġsuper": 2067,
      "Ġperfect": 2068,
      "Ġsimply": 2069,
      "ran": 2070,
      "Ġsun": 2071,
      "Ġtem": 2072,
      "Ġcompanies": 2073,
      "eople": 2074,
      "Ġrealized": 2075,
      "Ġextre": 2076,
      "Ġarg": 2077,
      "Ġpowerful": 2078,
      "Ġfall": 2079,
      "itect": 2080,
      "Ġfre": 2081,
      "Ġmajor": 2082,
      "Ġevent": 2083,
      "fully": 2084,
      "Ġneeded": 2085,
      "Ġaccess": 2086,
      "Ġstay": 2087,
      "cious": 2088,
      "ource": 2089,
      "Ġwall": 2090,
      "Ġdream": 2091,
      "ĠAl": 2092,
      "Ġdark": 2093,
      "port": 2094,
      "ĠBut": 2095,
      "Ġwhatever": 2096,
      "Ġess": 2097,
      "Ġweek": 2098,
      "Ġsize": 2099,
      "Ġconsum": 2100,
      "Ġ18": 2101,
      "Ġeconomic": 2102,
      "Ġspecial": 2103,
      "Ġfamil": 2104,
      "Ġserv": 2105,
      "Ġrepres": 2106,
      "ax": 2107,
      "Ġtried": 2108,
      "Ġabsolute": 2109,
      "Ġparents": 2110,
      "ero": 2111,
      "ources": 2112,
      "Ġemot": 2113,
      "ton": 2114,
      "rodu": 2115,
      "Ġpoor": 2116,
      "Ġsurv": 2117,
      "Ġsurpr": 2118,
      "Ġinterested": 2119,
      "Ġpersonal": 2120,
      "Ġ40": 2121,
      "ony": 2122,
      "Ġmedia": 2123,
      "Ġpresent": 2124,
      "Ġgrand": 2125,
      "Ġfelt": 2126,
      "Ġreality": 2127,
      "Ġfeed": 2128,
      "gle": 2129,
      "ising": 2130,
      "Ġeat": 2131,
      "oh": 2132,
      "Ġpriv": 2133,
      "Ġbuy": 2134,
      "Ġple": 2135,
      "ledge": 2136,
      "Ġsitu": 2137,
      "Ġviol": 2138,
      "Ġemb": 2139,
      "On": 2140,
      "ison": 2141,
      "Ġground": 2142,
      "rought": 2143,
      "Ġquickly": 2144,
      "Ġpress": 2145,
      "ised": 2146,
      "Ġgone": 2147,
      "ilar": 2148,
      "Ġrecogn": 2149,
      "Ġscale": 2150,
      "ibility": 2151,
      "crib": 2152,
      "ards": 2153,
      "Ġstrong": 2154,
      "Ġarchitect": 2155,
      "bo": 2156,
      "hood": 2157,
      "inal": 2158,
      "rent": 2159,
      "Ġfather": 2160,
      "Ġyes": 2161,
      "Ġrobot": 2162,
      "Ġgrowth": 2163,
      "sh": 2164,
      "Ġge": 2165,
      "avor": 2166,
      "Ġability": 2167,
      "Ġconv": 2168,
      "Ġspent": 2169,
      "Ġkey": 2170,
      "Ġrequ": 2171,
      "Ġvalue": 2172,
      "Ġapproach": 2173,
      "Ġcal": 2174,
      "oph": 2175,
      "Ġhumans": 2176,
      "Ġweeks": 2177,
      "ged": 2178,
      "ived": 2179,
      "Ġfeet": 2180,
      "Ġshows": 2181,
      "ney": 2182,
      "osp": 2183,
      "Ġcool": 2184,
      "Ġdemoc": 2185,
      "Ġsitting": 2186,
      "Ġenc": 2187,
      "Ġanimal": 2188,
      "ills": 2189,
      "Ġopportunity": 2190,
      "ators": 2191,
      "room": 2192,
      "Ġknown": 2193,
      "ĠDNA": 2194,
      "At": 2195,
      "Ġpolitical": 2196,
      "orld": 2197,
      "Ġvers": 2198,
      "Ġnear": 2199,
      "Ġdisc": 2200,
      "Ġtravel": 2201,
      "Ġmult": 2202,
      "Ġeither": 2203,
      "ument": 2204,
      "Ġphone": 2205,
      "Ġdirect": 2206,
      "ev": 2207,
      "Ġciv": 2208,
      "izing": 2209,
      "Ġsum": 2210,
      "Ġfight": 2211,
      "Ġeconomy": 2212,
      "Ġpredict": 2213,
      "Not": 2214,
      "ler": 2215,
      "urb": 2216,
      "Ġlost": 2217,
      "Ġsurface": 2218,
      "unt": 2219,
      "Ġdest": 2220,
      "Ġorig": 2221,
      "Ġmeasure": 2222,
      "Oh": 2223,
      "Ġfear": 2224,
      "ift": 2225,
      "Ġareas": 2226,
      "Ġobs": 2227,
      "amp": 2228,
      "ologies": 2229,
      "Ġwrite": 2230,
      "Ġdraw": 2231,
      "ains": 2232,
      "Ġmorning": 2233,
      "ule": 2234,
      "Ġslow": 2235,
      "Ġrespons": 2236,
      "Ġincredible": 2237,
      "Ġstructure": 2238,
      "ĠBe": 2239,
      "Ġpost": 2240,
      "Ġleaders": 2241,
      "Ġmicro": 2242,
      "Ġbottom": 2243,
      "oll": 2244,
      "ĠSh": 2245,
      "ouch": 2246,
      "uth": 2247,
      "rom": 2248,
      "lect": 2249,
      "Ġextreme": 2250,
      "ĠOK": 2251,
      "Ġpatients": 2252,
      "Ġattention": 2253,
      "ral": 2254,
      "Ġhar": 2255,
      "uses": 2256,
      "Ġblood": 2257,
      "Ġphotograph": 2258,
      "Ġbased": 2259,
      "eed": 2260,
      "Ġap": 2261,
      "Ġpull": 2262,
      "Ġsoft": 2263,
      "Ġwouldn": 2264,
      "ression": 2265,
      "iny": 2266,
      "Ġnice": 2267,
      "Ġchanges": 2268,
      "Ġfoot": 2269,
      "Ġintern": 2270,
      "cially": 2271,
      "People": 2272,
      "ively": 2273,
      "bor": 2274,
      "zy": 2275,
      "Ġaverage": 2276,
      "Ġfast": 2277,
      "Ġnumbers": 2278,
      "Ġchallenge": 2279,
      "Is": 2280,
      "Ġevolution": 2281,
      "Ġrealize": 2282,
      "hor": 2283,
      "ales": 2284,
      "Ġmole": 2285,
      "Ġcy": 2286,
      "ode": 2287,
      "Ġimpact": 2288,
      "Ġprofess": 2289,
      "Ġpur": 2290,
      "Ġsend": 2291,
      "ustain": 2292,
      "dden": 2293,
      "Ġmar": 2294,
      "entially": 2295,
      "Ġbox": 2296,
      "Ġwin": 2297,
      "Ġsudden": 2298,
      "of": 2299,
      "Ġbrought": 2300,
      "Ġste": 2301,
      "Ġindust": 2302,
      "ateg": 2303,
      "ĠSe": 2304,
      "lt": 2305,
      "Okay": 2306,
      "anger": 2307,
      "Ġphysical": 2308,
      "Ġcrit": 2309,
      "Ġfeeling": 2310,
      "erm": 2311,
      "Ġsea": 2312,
      "Ġmeaning": 2313,
      "Ġborn": 2314,
      "Ġdeveloped": 2315,
      "com": 2316,
      "Ġrelig": 2317,
      "Ġrisk": 2318,
      "Ġredu": 2319,
      "Ġcomb": 2320,
      "Ġbene": 2321,
      "Ġanal": 2322,
      "ows": 2323,
      "Ġrock": 2324,
      "Ġdie": 2325,
      "Ġinsp": 2326,
      "Ġgrowing": 2327,
      "ole": 2328,
      "acy": 2329,
      "Ġexperiment": 2330,
      "eng": 2331,
      "Ġknowledge": 2332,
      "To": 2333,
      "bon": 2334,
      "Ġseems": 2335,
      "Ġforward": 2336,
      "Ġmov": 2337,
      "Ġwrote": 2338,
      "Ġbooks": 2339,
      "ey": 2340,
      "lu": 2341,
      "Ġrunning": 2342,
      "Ġgiving": 2343,
      "Ġliterally": 2344,
      "Ġtheory": 2345,
      "Ġopt": 2346,
      "Ġforce": 2347,
      "Ġtechnologies": 2348,
      "Ġinstit": 2349,
      "An": 2350,
      "ging": 2351,
      "Ġdeg": 2352,
      "Ġfac": 2353,
      "Ġmain": 2354,
      "Ġcirc": 2355,
      "Ch": 2356,
      "ext": 2357,
      "Ġrele": 2358,
      "ified": 2359,
      "Ġfundam": 2360,
      "ĠChr": 2361,
      "Ġfilm": 2362,
      "ances": 2363,
      "Ġwhite": 2364,
      "Ġstra": 2365,
      "Ġvol": 2366,
      "Ġspread": 2367,
      "vent": 2368,
      "ored": 2369,
      "Ġclimate": 2370,
      "leep": 2371,
      "ned": 2372,
      "Ġast": 2373,
      "Ġhor": 2374,
      "Ġrepl": 2375,
      "chie": 2376,
      "Ġmap": 2377,
      "Ġunderstanding": 2378,
      "Ġmedic": 2379,
      "Ġscientists": 2380,
      "ĠEnglish": 2381,
      "Ġsimilar": 2382,
      "Ġelectric": 2383,
      "Ġhundreds": 2384,
      "cr": 2385,
      "Ġfavor": 2386,
      "Ġneigh": 2387,
      "Ġstarting": 2388,
      "Ġmiles": 2389,
      "oon": 2390,
      "Ġdepe": 2391,
      "Ġanyone": 2392,
      "CA": 2393,
      "par": 2394,
      "Ġworth": 2395,
      "aged": 2396,
      "Ġprin": 2397,
      "ug": 2398,
      "Ġvill": 2399,
      "ĠThere": 2400,
      "Ġserious": 2401,
      "Ġgives": 2402,
      "ggest": 2403,
      "Ġcolor": 2404,
      "Ġcivil": 2405,
      "chan": 2406,
      "Ġimages": 2407,
      "Ġaudience": 2408,
      "Ġball": 2409,
      "Ġmillions": 2410,
      "ĠWorld": 2411,
      "Ġcurrent": 2412,
      "Our": 2413,
      "omen": 2414,
      "Ġalone": 2415,
      "Ġtele": 2416,
      "Ġsuggest": 2417,
      "Ġtelling": 2418,
      "Ġtools": 2419,
      "Ġhot": 2420,
      "Ġsoon": 2421,
      "Ġthank": 2422,
      "Ġcompet": 2423,
      "Ġguess": 2424,
      "por": 2425,
      "assion": 2426,
      "Ġdescrib": 2427,
      "ades": 2428,
      "Ġtradition": 2429,
      "Ġice": 2430,
      "icy": 2431,
      "Ġsil": 2432,
      "Ġprom": 2433,
      "ploy": 2434,
      "Ġnormal": 2435,
      "Ġproper": 2436,
      "Ġtext": 2437,
      "Ġflo": 2438,
      "ĠTh": 2439,
      "Ġcars": 2440,
      "Ġhosp": 2441,
      "Ġpath": 2442,
      "racy": 2443,
      "ilities": 2444,
      "Ġdead": 2445,
      "Ġissue": 2446,
      "Ġavail": 2447,
      "iet": 2448,
      "Ġsho": 2449,
      "ensive": 2450,
      "Ġrul": 2451,
      "Ġcenter": 2452,
      "Where": 2453,
      "Ġinclud": 2454,
      "ites": 2455,
      "ĠAs": 2456,
      "iant": 2457,
      "Ġplaying": 2458,
      "Ġcreating": 2459,
      "Ġdevelopment": 2460,
      "Ġdiscovered": 2461,
      "bit": 2462,
      "Ġsustain": 2463,
      "Ġlif": 2464,
      "Ġseem": 2465,
      "Ġamong": 2466,
      "Ġtype": 2467,
      "Ġaffect": 2468,
      "Ġshowed": 2469,
      "Ġstat": 2470,
      "Ġstage": 2471,
      "Ġsuff": 2472,
      "head": 2473,
      "Ġmovement": 2474,
      "Ġconcept": 2475,
      "ai": 2476,
      "Ġaren": 2477,
      "Ġroad": 2478,
      "Ġmodern": 2479,
      "ped": 2480,
      "amed": 2481,
      "Ġvisual": 2482,
      "Ġabsolutely": 2483,
      "Ġest": 2484,
      "Ġtouch": 2485,
      "Just": 2486,
      "Ġsell": 2487,
      "pecially": 2488,
      "Ġrecently": 2489,
      "Ġer": 2490,
      "Ġsn": 2491,
      "Ġcop": 2492,
      "asing": 2493,
      "imens": 2494,
      "by": 2495,
      "oud": 2496,
      "Ġpoll": 2497,
      "iod": 2498,
      "Ġdeveloping": 2499,
      "Ġcamp": 2500,
      "Ġindustry": 2501,
      "Ġintellig": 2502,
      "Ġonline": 2503,
      "Ġtrack": 2504,
      "Ġhon": 2505,
      "Ġarm": 2506,
      "Ġtalked": 2507,
      "ĠWell": 2508,
      "Ġachie": 2509,
      "Ġfu": 2510,
      "urity": 2511,
      "oose": 2512,
      "Ġchance": 2513,
      "ique": 2514,
      "Ġprop": 2515,
      "Ġtruth": 2516,
      "ĠSouth": 2517,
      "Ġresources": 2518,
      "Ġincredibly": 2519,
      "Ġsong": 2520,
      "Ġconvers": 2521,
      "Ġissues": 2522,
      "like": 2523,
      "Ġreact": 2524,
      "Ġasking": 2525,
      "Ġarr": 2526,
      "Ġtransform": 2527,
      "Ġpatient": 2528,
      "Ġreasons": 2529,
      "Ġsubject": 2530,
      "erence": 2531,
      "Ġvoice": 2532,
      "ished": 2533,
      "Ġexperien": 2534,
      "Ġmathem": 2535,
      "Ġshape": 2536,
      "Ġfur": 2537,
      "lear": 2538,
      "Ġbenef": 2539,
      "Ġlay": 2540,
      "Ġproduce": 2541,
      "Ġinnovation": 2542,
      "ĠZ": 2543,
      "Ġknows": 2544,
      "ival": 2545,
      "Ġavailable": 2546,
      "phere": 2547,
      "Ġbra": 2548,
      "asc": 2549,
      "Ġrate": 2550,
      "Ġperiod": 2551,
      "Ġsolution": 2552,
      "Ġsold": 2553,
      "Ġmechan": 2554,
      "apt": 2555,
      "Ġinvolved": 2556,
      "Ġfire": 2557,
      "Ġhaven": 2558,
      "ung": 2559,
      "Ġevidence": 2560,
      "ĠNo": 2561,
      "Ġattack": 2562,
      "Ġsave": 2563,
      "ĠHow": 2564,
      "Ġsituation": 2565,
      "St": 2566,
      "Ġ25": 2567,
      "Ġtiny": 2568,
      "ency": 2569,
      "Ġchoice": 2570,
      "abor": 2571,
      "iction": 2572,
      "Ġdesigned": 2573,
      "Ġeye": 2574,
      "Ġflu": 2575,
      "Ġflow": 2576,
      "Ġsolve": 2577,
      "Ġpictures": 2578,
      "Ġneur": 2579,
      "ister": 2580,
      "Ġdin": 2581,
      "yond": 2582,
      "Ġbecomes": 2583,
      "Ġespecially": 2584,
      "ences": 2585,
      "Ġdou": 2586,
      "Ġcompassion": 2587,
      "Ġchanging": 2588,
      "ify": 2589,
      "Ġsearch": 2590,
      "Ġmessage": 2591,
      "Ġbigger": 2592,
      "Ġbaby": 2593,
      "Ġ199": 2594,
      "Ġcomputers": 2595,
      "ĠChinese": 2596,
      "ik": 2597,
      "pan": 2598,
      "arily": 2599,
      "Ġexcept": 2600,
      "Ġclos": 2601,
      "Ġcarbon": 2602,
      "Ġstreet": 2603,
      "Ġputting": 2604,
      "light": 2605,
      "Ġult": 2606,
      "Ġunf": 2607,
      "Ġsmart": 2608,
      "Ġsleep": 2609,
      "Ġimm": 2610,
      "Ġfunction": 2611,
      "Ġfair": 2612,
      "Ġlived": 2613,
      "Ġemp": 2614,
      "Ġemerg": 2615,
      "Ġwriting": 2616,
      "Ġnuc": 2617,
      "istan": 2618,
      "Ġgroups": 2619,
      "Can": 2620,
      "lict": 2621,
      "oices": 2622,
      "Ġbird": 2623,
      "Ġsever": 2624,
      "Ġtrust": 2625,
      "Ġmedical": 2626,
      "Ġlikely": 2627,
      "Ġgirls": 2628,
      "Ġbed": 2629,
      "Ġdrive": 2630,
      "pid": 2631,
      "Ġtable": 2632,
      "Ġforest": 2633,
      "Ġsat": 2634,
      "Ġce": 2635,
      "Ġdied": 2636,
      "str": 2637,
      "ĠCan": 2638,
      "ishing": 2639,
      "Ġbeyond": 2640,
      "Ġgeneral": 2641,
      "Ġsoftware": 2642,
      "Ġ60": 2643,
      "Ġbacter": 2644,
      "Ġtowards": 2645,
      "Ġdom": 2646,
      "Ġnine": 2647,
      "aybe": 2648,
      "Ġnecess": 2649,
      "Ġlea": 2650,
      "Ġsounds": 2651,
      "oogle": 2652,
      "Ġsolar": 2653,
      "Ġrules": 2654,
      "Ġbar": 2655,
      "oring": 2656,
      "ctors": 2657,
      "umb": 2658,
      "Ġtend": 2659,
      "Ġreport": 2660,
      "ips": 2661,
      "Ġprim": 2662,
      "Ġgeneration": 2663,
      "Ġaw": 2664,
      "Ġmount": 2665,
      "Ġdefin": 2666,
      "Ġdevice": 2667,
      "Ġseveral": 2668,
      "pre": 2669,
      "Ġrain": 2670,
      "Ġpeace": 2671,
      "ressed": 2672,
      "fort": 2673,
      "nam": 2674,
      "usion": 2675,
      "Ġplant": 2676,
      "ously": 2677,
      "Ġdrugs": 2678,
      "lo": 2679,
      "Ġwish": 2680,
      "Ġdanger": 2681,
      "Ġrich": 2682,
      "Ġbreat": 2683,
      "Ġspeed": 2684,
      "Ġparticularly": 2685,
      "Ġrevolution": 2686,
      "With": 2687,
      "how": 2688,
      "ina": 2689,
      "Ġfa": 2690,
      "Ġanybody": 2691,
      "Ġconscious": 2692,
      "oms": 2693,
      "Ġcapital": 2694,
      "Ġdrug": 2695,
      "Ġsafe": 2696,
      "used": 2697,
      "une": 2698,
      "Ġquality": 2699,
      "Ġsyn": 2700,
      "Ġblock": 2701,
      "By": 2702,
      "oun": 2703,
      "Ġec": 2704,
      "Ġmoved": 2705,
      "Who": 2706,
      "Ġonto": 2707,
      "vert": 2708,
      "Ġcharacter": 2709,
      "medi": 2710,
      "Ġextraord": 2711,
      "ief": 2712,
      "Ġaction": 2713,
      "Ġoffice": 2714,
      "book": 2715,
      "ground": 2716,
      "rast": 2717,
      "xy": 2718,
      "Ġfem": 2719,
      "Ġgames": 2720,
      "Ġrece": 2721,
      "Ġbasic": 2722,
      "Ġschools": 2723,
      "Ġpotential": 2724,
      "ires": 2725,
      "view": 2726,
      "Ġaf": 2727,
      "Ġstru": 2728,
      "Ġneg": 2729,
      "Ġlink": 2730,
      "Ġprinci": 2731,
      "Ġshowing": 2732,
      "ĠFr": 2733,
      "Ġexamples": 2734,
      "come": 2735,
      "Ġhit": 2736,
      "idge": 2737,
      "pped": 2738,
      "Ġwalking": 2739,
      "Ġobviously": 2740,
      "Ġcertainly": 2741,
      "iar": 2742,
      "uly": 2743,
      "Ġlog": 2744,
      "irth": 2745,
      "Ġvision": 2746,
      "Ġmaterials": 2747,
      "Ġjourney": 2748,
      "Ġpa": 2749,
      "ĠAn": 2750,
      "Ġfurther": 2751,
      "oke": 2752,
      "Ġscientific": 2753,
      "ask": 2754,
      "the": 2755,
      "Ġtotally": 2756,
      "Man": 2757,
      "ners": 2758,
      "Ġdiv": 2759,
      "Ġcontext": 2760,
      "Al": 2761,
      "here": 2762,
      "Ġaware": 2763,
      "Ġep": 2764,
      "Ġwants": 2765,
      "ores": 2766,
      "Ġstarts": 2767,
      "Ġprojects": 2768,
      "Ġchemical": 2769,
      "ma": 2770,
      "Ġnational": 2771,
      "Ġnobody": 2772,
      "Ġbiggest": 2773,
      "Ġscreen": 2774,
      "Ġeffic": 2775,
      "Ġlargest": 2776,
      "Ġexciting": 2777,
      "onse": 2778,
      "Ġgas": 2779,
      "Ġgal": 2780,
      "igher": 2781,
      "Ġextremely": 2782,
      "ought": 2783,
      "Ġfix": 2784,
      "ĠPh": 2785,
      "Ġstudent": 2786,
      "tend": 2787,
      "Ġteachers": 2788,
      "put": 2789,
      "verty": 2790,
      "Ġdoor": 2791,
      "Ġeverywhere": 2792,
      "ĠGoogle": 2793,
      "Ġaccount": 2794,
      "Ġfundamental": 2795,
      "Ġparticip": 2796,
      "Ġresults": 2797,
      "uit": 2798,
      "Look": 2799,
      "eter": 2800,
      "Ġactiv": 2801,
      "Ġadm": 2802,
      "Ġfarm": 2803,
      "Ġmemory": 2804,
      "Ġvirt": 2805,
      "Ġdigital": 2806,
      "Ġokay": 2807,
      "Ġhigher": 2808,
      "Ġmeant": 2809,
      "antly": 2810,
      "Ġdetail": 2811,
      "Ġrepresent": 2812,
      "Ġneighbor": 2813,
      "itiz": 2814,
      "cient": 2815,
      "Ġcamera": 2816,
      "Ġson": 2817,
      "Ġnotice": 2818,
      "Ġcarry": 2819,
      "itary": 2820,
      "eth": 2821,
      "Ġcomplic": 2822,
      "Maybe": 2823,
      "Ġpositive": 2824,
      "Ġapart": 2825,
      "Of": 2826,
      "ĠNow": 2827,
      "Ġcross": 2828,
      "icle": 2829,
      "apan": 2830,
      "Ġrole": 2831,
      "Ġskin": 2832,
      "oming": 2833,
      "Ġhappiness": 2834,
      "Ġthousand": 2835,
      "Ġcontinue": 2836,
      "more": 2837,
      "Ġtrial": 2838,
      "Ġsupposed": 2839,
      "Ġviolence": 2840,
      "Yes": 2841,
      "for": 2842,
      "Ġled": 2843,
      "itten": 2844,
      "Ġresponse": 2845,
      "Ġsecurity": 2846,
      "Ġ80": 2847,
      "ohn": 2848,
      "Ġpu": 2849,
      "Ġintrodu": 2850,
      "Ġclean": 2851,
      "Ġjobs": 2852,
      "Ġthreat": 2853,
      "Ġmob": 2854,
      "Ġboy": 2855,
      "Ġconflict": 2856,
      "Ġbirth": 2857,
      "Ġnamed": 2858,
      "Ġspir": 2859,
      "ĠNorth": 2860,
      "Ġfavorite": 2861,
      "isions": 2862,
      "osphere": 2863,
      "Ġpoverty": 2864,
      "Ġcheck": 2865,
      "Ġtrees": 2866,
      "Ġeventually": 2867,
      "Ġdemocracy": 2868,
      "Ġdepend": 2869,
      "rest": 2870,
      "ids": 2871,
      "Ġstick": 2872,
      "ĠDe": 2873,
      "Ġadult": 2874,
      "Ġready": 2875,
      "Ġcapt": 2876,
      "Ġconnected": 2877,
      "Ġindividuals": 2878,
      "Ġimprove": 2879,
      "aur": 2880,
      "iation": 2881,
      "Ġfill": 2882,
      "ann": 2883,
      "Ġsepar": 2884,
      "Ġvac": 2885,
      "ruction": 2886,
      "Ġconsider": 2887,
      "Ġcris": 2888,
      "Ġearl": 2889,
      "ughter": 2890,
      "Ġbunch": 2891,
      "Ġdro": 2892,
      "Ġsequ": 2893,
      "Ġgraph": 2894,
      "Ġterror": 2895,
      "mb": 2896,
      "Ġtar": 2897,
      "Ġcitiz": 2898,
      "agn": 2899,
      "ossible": 2900,
      "Ġtransl": 2901,
      "ĠBrit": 2902,
      "Ġfant": 2903,
      "ulate": 2904,
      "Ġprogress": 2905,
      "Ġmodels": 2906,
      "Ġwatching": 2907,
      "urban": 2908,
      "Ġactivity": 2909,
      "Ġminds": 2910,
      "mend": 2911,
      "Ġdiscover": 2912,
      "Ġessentially": 2913,
      "IV": 2914,
      "Ġfaster": 2915,
      "ims": 2916,
      "iger": 2917,
      "Ġtells": 2918,
      "akes": 2919,
      "ĠWest": 2920,
      "ĠJapan": 2921,
      "Ġcause": 2922,
      "Ġcrazy": 2923,
      "After": 2924,
      "Ġpen": 2925,
      "iding": 2926,
      "rad": 2927,
      "Ġann": 2928,
      "Ġmagn": 2929,
      ".,": 2930,
      "ze": 2931,
      "Ġplants": 2932,
      "odies": 2933,
      "Ġperspect": 2934,
      "Ġlose": 2935,
      "Ġgrew": 2936,
      "Ġimmedi": 2937,
      "ĠCal": 2938,
      "conds": 2939,
      "Ġreturn": 2940,
      "joy": 2941,
      "erve": 2942,
      "Ġwebs": 2943,
      "Ġworse": 2944,
      "Ġconcer": 2945,
      "Ġclin": 2946,
      "Ġcommunities": 2947,
      "Ġassum": 2948,
      "Ġconditions": 2949,
      "Ġsuddenly": 2950,
      "Ġmovie": 2951,
      "Ġvillage": 2952,
      "Ġmathemat": 2953,
      "Ġmine": 2954,
      "Ġpush": 2955,
      "Ġshown": 2956,
      "Ġdisapp": 2957,
      "ounds": 2958,
      "Ġaccept": 2959,
      "ortunately": 2960,
      "iers": 2961,
      "Ġgoal": 2962,
      "Ġ16": 2963,
      "Ġbrains": 2964,
      "Ġcreative": 2965,
      "Ġnuclear": 2966,
      "First": 2967,
      "Ġsource": 2968,
      "lex": 2969,
      "Ġbuildings": 2970,
      "Ġstrateg": 2971,
      "Ġmeth": 2972,
      "Ġobjects": 2973,
      "Ġgalax": 2974,
      "OK": 2975,
      "Ġbom": 2976,
      "ĠHIV": 2977,
      "Ġappear": 2978,
      "Ġindeed": 2979,
      "Ġcollabor": 2980,
      "Ġhospital": 2981,
      "Ġwaste": 2982,
      "Ġchoose": 2983,
      "Ġsorts": 2984,
      "Ġlaunch": 2985,
      "Ġcart": 2986,
      "Ġ11": 2987,
      "Ġpublish": 2988,
      "Ġpassion": 2989,
      "Ġcolleag": 2990,
      "Ġlate": 2991,
      "Ġsomewhere": 2992,
      "ipt": 2993,
      "Ġfinding": 2994,
      "Ġremark": 2995,
      "ring": 2996,
      "Ġsite": 2997,
      "cape": 2998,
      "Ġimpossible": 2999,
      "Ġphen": 3000,
      "Ġextraordinary": 3001,
      "nces": 3002,
      "atory": 3003,
      "Ġmarr": 3004,
      "Ġlands": 3005,
      "let": 3006,
      "Ġlarger": 3007,
      "Ġteacher": 3008,
      "Ġlabor": 3009,
      "inct": 3010,
      "Ġsand": 3011,
      "Ġ201": 3012,
      "ĠAfrican": 3013,
      "Ġmedicine": 3014,
      "cise": 3015,
      "ana": 3016,
      "Ġabove": 3017,
      "Ġminute": 3018,
      "Any": 3019,
      "ror": 3020,
      "estern": 3021,
      "Ġ14": 3022,
      "Ġtaught": 3023,
      "Ġkilled": 3024,
      "Most": 3025,
      "ued": 3026,
      "Ġforms": 3027,
      "Ġdoctor": 3028,
      "Ġdeb": 3029,
      "Ġenjoy": 3030,
      "Ġsignific": 3031,
      "Ġallowed": 3032,
      "ech": 3033,
      "wo": 3034,
      "Ġblind": 3035,
      "others": 3036,
      "Ġdetect": 3037,
      "Ġproducts": 3038,
      "Ġsky": 3039,
      "Ġinflu": 3040,
      "Ġincluding": 3041,
      "Ġcomplicated": 3042,
      "nal": 3043,
      "Ġwife": 3044,
      "Ġmis": 3045,
      "sect": 3046,
      "rage": 3047,
      "Ġphil": 3048,
      "Ġcat": 3049,
      "izations": 3050,
      "Ġended": 3051,
      "Ġtemper": 3052,
      "Ġfine": 3053,
      "Ġdam": 3054,
      "ster": 3055,
      "though": 3056,
      "Ġheav": 3057,
      "ured": 3058,
      "Ġusually": 3059,
      "Ġcases": 3060,
      "urt": 3061,
      "amm": 3062,
      "Ġallows": 3063,
      "Ġincrease": 3064,
      "Ġbal": 3065,
      "Ġtruly": 3066,
      "Ġ17": 3067,
      "Ġmanage": 3068,
      "Ġunivers": 3069,
      "Ġstudies": 3070,
      "ission": 3071,
      "Ġposition": 3072,
      "Ġdiscuss": 3073,
      "Ġtraditional": 3074,
      "Ġphenomen": 3075,
      "Ġbank": 3076,
      "Ġburn": 3077,
      "Ġalive": 3078,
      "oday": 3079,
      "ologists": 3080,
      "Ġearth": 3081,
      "Ġafford": 3082,
      "Ġtraining": 3083,
      "ining": 3084,
      "Ġmist": 3085,
      "Ġfing": 3086,
      "rap": 3087,
      "Ġexcited": 3088,
      "Ġfamilies": 3089,
      "!\"": 3090,
      "Even": 3091,
      "Ġwild": 3092,
      "Ġoxy": 3093,
      "Ġpack": 3094,
      "ffic": 3095,
      "Ġbeings": 3096,
      "Ġpoints": 3097,
      "Ġmoral": 3098,
      "Ġdecision": 3099,
      "Ġolder": 3100,
      "Ġdistrib": 3101,
      "Ġstanding": 3102,
      "Ġauthor": 3103,
      "Ġsuccessful": 3104,
      "Ġinternational": 3105,
      "Im": 3106,
      "Ġfram": 3107,
      "edom": 3108,
      "Ġluck": 3109,
      "Ġstars": 3110,
      "useum": 3111,
      "Ġprice": 3112,
      "Ġprote": 3113,
      "Ġcritical": 3114,
      "Ġcard": 3115,
      "Ġmention": 3116,
      "Ġdy": 3117,
      "ĠAm": 3118,
      "Ġregion": 3119,
      "Ġwait": 3120,
      "Ġsquare": 3121,
      "ugh": 3122,
      "Ġthrow": 3123,
      "Ġdoc": 3124,
      "Ġkil": 3125,
      "Ġfinan": 3126,
      "Ġpurp": 3127,
      "po": 3128,
      "Ġbur": 3129,
      "Ġlower": 3130,
      "iven": 3131,
      "Ġcollege": 3132,
      "Ġelectricity": 3133,
      "Ġbacteria": 3134,
      "go": 3135,
      "Ġtree": 3136,
      "Ġlines": 3137,
      "Which": 3138,
      "Ġprison": 3139,
      "Ġreading": 3140,
      "Ġinfect": 3141,
      "Ġconversation": 3142,
      "Ġcrisis": 3143,
      "Don": 3144,
      "isms": 3145,
      "Ġupon": 3146,
      "Ġsomehow": 3147,
      "Ġcold": 3148,
      "Ġseries": 3149,
      "Ġengage": 3150,
      "Ġpieces": 3151,
      "Ġachieve": 3152,
      "Ġperspective": 3153,
      "inated": 3154,
      "rel": 3155,
      "Ġcook": 3156,
      "Ġfasc": 3157,
      "ĠIf": 3158,
      "ĠAll": 3159,
      "Ġprovide": 3160,
      "Ġpatterns": 3161,
      "Ġstraight": 3162,
      "ration": 3163,
      "ĠJohn": 3164,
      "Ġpolicy": 3165,
      "Ġhealthy": 3166,
      "Ġrespect": 3167,
      "Ġspecific": 3168,
      "fact": 3169,
      "la": 3170,
      "men": 3171,
      "Ġtrou": 3172,
      "Ġcode": 3173,
      "Ġstar": 3174,
      "ĠWar": 3175,
      "Ġsmaller": 3176,
      "ĠChrist": 3177,
      "Ġign": 3178,
      "Ġurban": 3179,
      "rect": 3180,
      "Ġpan": 3181,
      "Ġseconds": 3182,
      "soci": 3183,
      "Ġkept": 3184,
      "Ġphysics": 3185,
      "Ġenorm": 3186,
      "Ġquant": 3187,
      "Ġrights": 3188,
      "Ġwritten": 3189,
      "Ġoccur": 3190,
      "Ġhop": 3191,
      "Ġfra": 3192,
      "Ġprint": 3193,
      "ĠPr": 3194,
      "ĠTV": 3195,
      "Ġbiology": 3196,
      "Ġrecognize": 3197,
      "Ġneurons": 3198,
      "âĻ": 3199,
      "Ġtown": 3200,
      "agine": 3201,
      "Ġanywhere": 3202,
      "Ġcontent": 3203,
      "Ġslight": 3204,
      "Ġorganization": 3205,
      "Ġtreatment": 3206,
      "Ġpage": 3207,
      "ently": 3208,
      "rab": 3209,
      "Ġhimself": 3210,
      "Ġterm": 3211,
      "Ġrobots": 3212,
      "Ġversion": 3213,
      "Ġsou": 3214,
      "Ġswe": 3215,
      "imb": 3216,
      "ama": 3217,
      "Ġactual": 3218,
      "Ġroll": 3219,
      "Ġmilitary": 3220,
      "Ġcalcul": 3221,
      "ping": 3222,
      "Ġsal": 3223,
      "Ġweight": 3224,
      "ays": 3225,
      "Ġdoctors": 3226,
      "Ġanymore": 3227,
      "ube": 3228,
      "Ġincreasing": 3229,
      "cies": 3230,
      "iced": 3231,
      "ops": 3232,
      "ĠEast": 3233,
      "Ġboard": 3234,
      "Ġ198": 3235,
      "Ġplease": 3236,
      "Ġmolec": 3237,
      "dom": 3238,
      "Ġdog": 3239,
      "ustrial": 3240,
      "Ġservice": 3241,
      "Ġarchitecture": 3242,
      "ĠGe": 3243,
      "epend": 3244,
      "Ġeffort": 3245,
      "met": 3246,
      "Ġbodies": 3247,
      "Ġgenes": 3248,
      "Ġrespond": 3249,
      "Ġaddress": 3250,
      "erman": 3251,
      "Ġwhe": 3252,
      "uments": 3253,
      "Ġtrick": 3254,
      "ĠMan": 3255,
      "Ġcontrib": 3256,
      "Ġemploy": 3257,
      "ĠIsl": 3258,
      "Ġveh": 3259,
      "Today": 3260,
      "iling": 3261,
      "aging": 3262,
      "Ġtransport": 3263,
      "bol": 3264,
      "back": 3265,
      "zz": 3266,
      "Ġport": 3267,
      "Ġweb": 3268,
      "ulf": 3269,
      "Ġstrange": 3270,
      "Ġmagic": 3271,
      "Ġearlier": 3272,
      "Ġlegs": 3273,
      "Ġgreater": 3274,
      "Ġbecoming": 3275,
      "Ġmachines": 3276,
      "Ġpainting": 3277,
      "Ġprivate": 3278,
      "ried": 3279,
      "Those": 3280,
      "Ġloved": 3281,
      "Ġemail": 3282,
      "Ġdecisions": 3283,
      "Ġpolice": 3284,
      "ĠAfgh": 3285,
      "Ġskills": 3286,
      "time": 3287,
      "Ġcatch": 3288,
      "Ġyeah": 3289,
      "Ġeth": 3290,
      "thern": 3291,
      "Ġwilling": 3292,
      "Ġdesp": 3293,
      "Ġremind": 3294,
      "Ġclearly": 3295,
      "Ġlistening": 3296,
      "itation": 3297,
      "rams": 3298,
      "oles": 3299,
      "Ġ13": 3300,
      "Ġweren": 3301,
      "Ġthroughout": 3302,
      "Ġglass": 3303,
      "lebr": 3304,
      "erson": 3305,
      "ĠSw": 3306,
      "Ġexpensive": 3307,
      "ĠPro": 3308,
      "Ġlaugh": 3309,
      "Ġfamiliar": 3310,
      "oes": 3311,
      "Ġsam": 3312,
      "aries": 3313,
      "Ġcomfort": 3314,
      "Ġshot": 3315,
      "Ġjump": 3316,
      "Ġfamous": 3317,
      "itude": 3318,
      "Ġmental": 3319,
      "Ġworry": 3320,
      "Ġtherefore": 3321,
      "Ġspect": 3322,
      "Ġunique": 3323,
      "Ġ21": 3324,
      "ĠLe": 3325,
      "acity": 3326,
      "Ġdrink": 3327,
      "Ġsolutions": 3328,
      "ĠYeah": 3329,
      "bb": 3330,
      "ĠCar": 3331,
      "ĠBra": 3332,
      "Ġcloud": 3333,
      "ĠAmericans": 3334,
      "Ġcosts": 3335,
      "inating": 3336,
      "Ġstore": 3337,
      "Ġexh": 3338,
      "Ġalg": 3339,
      "Ġproduction": 3340,
      "Ġexplore": 3341,
      "Ġsociet": 3342,
      "Ġ90": 3343,
      "Ġstrugg": 3344,
      "aly": 3345,
      "sequ": 3346,
      "Ġforth": 3347,
      "Ġdeterm": 3348,
      "Ġlevels": 3349,
      "Ġwebsite": 3350,
      "Ġthr": 3351,
      "enn": 3352,
      "Ġpark": 3353,
      "ceed": 3354,
      "Ġrid": 3355,
      "Ġgenetic": 3356,
      "Ġwaiting": 3357,
      "Ġpractice": 3358,
      "Ġfantastic": 3359,
      "eral": 3360,
      "ained": 3361,
      "Ġcover": 3362,
      "Ġdangerous": 3363,
      "ĠAfghan": 3364,
      "ky": 3365,
      "mic": 3366,
      "Ġtap": 3367,
      "iti": 3368,
      "Ġrange": 3369,
      "Ġsurger": 3370,
      "Ġautom": 3371,
      "Ġfreedom": 3372,
      "Ġintelligence": 3373,
      "ec": 3374,
      "fer": 3375,
      "iest": 3376,
      "eless": 3377,
      "ables": 3378,
      "Ġgreatest": 3379,
      "Ġfinal": 3380,
      "Ġdirection": 3381,
      "Ġperformance": 3382,
      "ystem": 3383,
      "atives": 3384,
      "Ġsaving": 3385,
      "ĠRight": 3386,
      "Ġbeauty": 3387,
      "Ġcelebr": 3388,
      "Somet": 3389,
      "Ġweap": 3390,
      "imately": 3391,
      "Ġrise": 3392,
      "Ġprep": 3393,
      "Ġrand": 3394,
      "Ġwalked": 3395,
      "Ġenvironmental": 3396,
      "Ġzero": 3397,
      "Right": 3398,
      "orry": 3399,
      "uted": 3400,
      "Ġsecret": 3401,
      "Ġinstitutions": 3402,
      "Ġcitizens": 3403,
      "ises": 3404,
      "orrow": 3405,
      "Ġatm": 3406,
      "osing": 3407,
      "ĠCity": 3408,
      "resh": 3409,
      "Ġdecade": 3410,
      "Ġspirit": 3411,
      "atically": 3412,
      "ashing": 3413,
      "ils": 3414,
      "ĠUniversity": 3415,
      "Ġvalues": 3416,
      "Ġeffective": 3417,
      "Ġvari": 3418,
      "Another": 3419,
      "Ġfuel": 3420,
      "Ġimmediately": 3421,
      "Yeah": 3422,
      "oid": 3423,
      "rees": 3424,
      "Ġcry": 3425,
      "Ġcrow": 3426,
      "istics": 3427,
      "Ġdriving": 3428,
      "Ġmeeting": 3429,
      "yr": 3430,
      "oty": 3431,
      "ologist": 3432,
      "Ġrandom": 3433,
      "Ġlad": 3434,
      "Ġwealth": 3435,
      "Ġshark": 3436,
      "ĠSp": 3437,
      "Ġinvented": 3438,
      "Ġoptim": 3439,
      "Ġfloor": 3440,
      "Ġmatch": 3441,
      "Ġran": 3442,
      "Ġplastic": 3443,
      "Ġcoun": 3444,
      "ondon": 3445,
      "Ġteaching": 3446,
      "Ġmassive": 3447,
      "Ġvarious": 3448,
      "Ġtypes": 3449,
      "Ġahead": 3450,
      "itor": 3451,
      "Ġdecades": 3452,
      "airs": 3453,
      "Ġdemon": 3454,
      "Ġlaws": 3455,
      "attle": 3456,
      "Ġencou": 3457,
      "Imagine": 3458,
      "Ġincome": 3459,
      "ĠOr": 3460,
      "Ġservices": 3461,
      "Ġmultip": 3462,
      "vision": 3463,
      "ches": 3464,
      "Ġjud": 3465,
      "ĠLondon": 3466,
      "Ġhumanity": 3467,
      "Ġinterview": 3468,
      "Ġcareer": 3469,
      "Ġgovernments": 3470,
      "Ġconnection": 3471,
      "Ġneighborhood": 3472,
      "ball": 3473,
      "pro": 3474,
      "iles": 3475,
      "Ġgradu": 3476,
      "rastruct": 3477,
      "âĻ«": 3478,
      "antic": 3479,
      "ĠMus": 3480,
      "ĠGerman": 3481,
      "Ġdecide": 3482,
      "Ġapply": 3483,
      "Ġcondition": 3484,
      "iot": 3485,
      "Ġconcl": 3486,
      "Ġinstance": 3487,
      "Ġfollowing": 3488,
      "Ġbabies": 3489,
      "60": 3490,
      "SA": 3491,
      "eny": 3492,
      "Ġinsect": 3493,
      "Ġord": 3494,
      "Ġalthough": 3495,
      "Ġuses": 3496,
      "ĠHar": 3497,
      "Ġuseful": 3498,
      "Ġsimpl": 3499,
      "Ġinstr": 3500,
      "Ġi": 3501,
      "Ġfit": 3502,
      "ĠCent": 3503,
      "ricult": 3504,
      "Ġpopular": 3505,
      "Ġphysic": 3506,
      "Ġterrible": 3507,
      "Ġmethod": 3508,
      "Ġremarkable": 3509,
      "Se": 3510,
      "Ġnation": 3511,
      "stit": 3512,
      "key": 3513,
      "Ġchoices": 3514,
      "ĠAt": 3515,
      "ĠWestern": 3516,
      "Ġrelative": 3517,
      "Ġpossibly": 3518,
      "Ġinfrastruct": 3519,
      "Ġelectron": 3520,
      "Ġenormous": 3521,
      "ef": 3522,
      "Ġsurve": 3523,
      "Ġstandard": 3524,
      "Ġhonest": 3525,
      "aign": 3526,
      "ĠX": 3527,
      "Ġdram": 3528,
      "Ġforget": 3529,
      "ĠOkay": 3530,
      "Ġscr": 3531,
      "Ġeffects": 3532,
      "Ġdemonstr": 3533,
      "wise": 3534,
      "Ġraise": 3535,
      "Ġpolitics": 3536,
      "Ġflying": 3537,
      "Ġatmosphere": 3538,
      "gain": 3539,
      "iate": 3540,
      "yl": 3541,
      "Ġanyway": 3542,
      "Ġchallenges": 3543,
      "Ġbroad": 3544,
      "board": 3545,
      "Ġsus": 3546,
      "Ġsad": 3547,
      "Ġcust": 3548,
      "Ġhous": 3549,
      "Ġhair": 3550,
      "Ġstress": 3551,
      "Ġassoci": 3552,
      "Ġ24": 3553,
      "Ġtrade": 3554,
      "Ġoppos": 3555,
      "Ġvirus": 3556,
      "Ġfinancial": 3557,
      "Ġsocieties": 3558,
      "Ġyell": 3559,
      "Ġnut": 3560,
      "ervation": 3561,
      "anced": 3562,
      "iforn": 3563,
      "Ġinteg": 3564,
      "Ġvict": 3565,
      "Ġexpress": 3566,
      "Ġhelped": 3567,
      "Ġslide": 3568,
      "Ġdiseases": 3569,
      "Ġengineering": 3570,
      "Ġmotiv": 3571,
      "Ġdynam": 3572,
      "Ġslightly": 3573,
      "Like": 3574,
      "uct": 3575,
      "Ġtiss": 3576,
      "repre": 3577,
      "Ġmamm": 3578,
      "arm": 3579,
      "Ġaltern": 3580,
      "Ġrace": 3581,
      "Ġunderstood": 3582,
      "Ġ197": 3583,
      "Ġsupply": 3584,
      "Ġ70": 3585,
      "Ġsymbol": 3586,
      "Ġpressure": 3587,
      "Ġsummer": 3588,
      "reprene": 3589,
      "now": 3590,
      "ray": 3591,
      "Ġmut": 3592,
      "Ġworst": 3593,
      "ĠAustr": 3594,
      "itted": 3595,
      "Ġspeech": 3596,
      "Ġsurround": 3597,
      "Ġban": 3598,
      "iring": 3599,
      "ĠSch": 3600,
      "ĠMars": 3601,
      "Ġcommer": 3602,
      "Ġscan": 3603,
      "Ġcapacity": 3604,
      "Ġhyd": 3605,
      "Ġmicrob": 3606,
      "Ġpurpose": 3607,
      "win": 3608,
      "Ġbase": 3609,
      "Ġmal": 3610,
      "Ġpig": 3611,
      "Ġdrop": 3612,
      "udd": 3613,
      "iber": 3614,
      "Ġbelow": 3615,
      "Ġtelevision": 3616,
      "Ġphilos": 3617,
      "cles": 3618,
      "Ġwood": 3619,
      "Ġartist": 3620,
      "Ġshared": 3621,
      "Ġswitch": 3622,
      "Ġsurvive": 3623,
      "Ġdirectly": 3624,
      "Ġdestro": 3625,
      "Ġfemale": 3626,
      "ĠCaliforn": 3627,
      "Ġcolleagues": 3628,
      "ĠQ": 3629,
      "Ġir": 3630,
      "Ġtens": 3631,
      "Ġwhose": 3632,
      "cience": 3633,
      "ĠCong": 3634,
      "Ġmostly": 3635,
      "Ġcultural": 3636,
      "Ġswim": 3637,
      "Ġ500": 3638,
      "Ġpaid": 3639,
      "Ġtemperature": 3640,
      "ufact": 3641,
      "Ġrule": 3642,
      "Ġoffic": 3643,
      "Ġcentral": 3644,
      "Ġprograms": 3645,
      "Ġtremend": 3646,
      "ancy": 3647,
      "arian": 3648,
      "Ġstates": 3649,
      "Ġagricult": 3650,
      "ĠIndian": 3651,
      "Ġrelationships": 3652,
      "Ġreligion": 3653,
      "yle": 3654,
      "Ġforces": 3655,
      "Ġconsequ": 3656,
      "unk": 3657,
      "Ġprevent": 3658,
      "Ġinvent": 3659,
      "Ġboys": 3660,
      "ios": 3661,
      "Ġdad": 3662,
      "Ġdimens": 3663,
      "Ġet": 3664,
      "cell": 3665,
      "ĠArab": 3666,
      "Ġcauses": 3667,
      "Ġdoub": 3668,
      "Ġpublished": 3669,
      "Ġinfrastructure": 3670,
      "ĠCalifornia": 3671,
      "cope": 3672,
      "olve": 3673,
      "Ġdifferences": 3674,
      "Ġblog": 3675,
      "Ġcreativity": 3676,
      "Ġbelief": 3677,
      "Ġmeters": 3678,
      "Ġorganizations": 3679,
      "ID": 3680,
      "wood": 3681,
      "Ġaid": 3682,
      "Ġloss": 3683,
      "raq": 3684,
      "Ġnoticed": 3685,
      "Ġconc": 3686,
      "ĠBl": 3687,
      "Ġfunny": 3688,
      "Ġanswers": 3689,
      "Ġcontroll": 3690,
      "Ġreflect": 3691,
      "Ġprofound": 3692,
      "Ġtotal": 3693,
      "load": 3694,
      "Ġmobile": 3695,
      "Ġtun": 3696,
      "Ġtask": 3697,
      "ooper": 3698,
      "Ġmale": 3699,
      "Ġoxygen": 3700,
      "gy": 3701,
      "ked": 3702,
      "ened": 3703,
      "stead": 3704,
      "Ġheat": 3705,
      "cks": 3706,
      "cules": 3707,
      "Ġradio": 3708,
      "Ġcloser": 3709,
      "ris": 3710,
      "raid": 3711,
      "Ġliber": 3712,
      "izes": 3713,
      "Ġexpand": 3714,
      "Ġspeaking": 3715,
      "Ġdiagn": 3716,
      "Ġlegal": 3717,
      "Ġcampaign": 3718,
      "ĠAfghanistan": 3719,
      "Are": 3720,
      "inate": 3721,
      "Ġmid": 3722,
      "ement": 3723,
      "Ġtwice": 3724,
      "rupt": 3725,
      "rench": 3726,
      "Ġ300": 3727,
      "Ġentreprene": 3728,
      "Ġbiological": 3729,
      "Ġstopped": 3730,
      "Ġoriginal": 3731,
      "Ġmountain": 3732,
      "Ġtrouble": 3733,
      "Ġsurgery": 3734,
      "af": 3735,
      "off": 3736,
      "anda": 3737,
      "ander": 3738,
      "ĠMar": 3739,
      "Ġplayed": 3740,
      "Ġafraid": 3741,
      "ĠMusl": 3742,
      "esis": 3743,
      "aling": 3744,
      "Ġspaces": 3745,
      "ĠSte": 3746,
      "Ġworkers": 3747,
      "Ġmanufact": 3748,
      "Ġevolved": 3749,
      "ĠNational": 3750,
      "ĠOne": 3751,
      "Ġproduced": 3752,
      "Ġmarkets": 3753,
      "Ġnetworks": 3754,
      "Ġstreets": 3755,
      "Ġcommunicate": 3756,
      "ira": 3757,
      "pes": 3758,
      "uing": 3759,
      "Ġhole": 3760,
      "ĠIraq": 3761,
      "Ġang": 3762,
      "Ġcompon": 3763,
      "ĠMy": 3764,
      "Ġgotten": 3765,
      "Ġsustainable": 3766,
      "vest": 3767,
      "water": 3768,
      "Ġbought": 3769,
      "icles": 3770,
      "Ġshock": 3771,
      "Ġactive": 3772,
      "Ġpoet": 3773,
      "Ġdispl": 3774,
      "phone": 3775,
      "Ġapplic": 3776,
      "Ġhighly": 3777,
      "Ġjournal": 3778,
      "Ġoh": 3779,
      "Ġhus": 3780,
      "arter": 3781,
      "rael": 3782,
      "Ġfeels": 3783,
      "Ġmissing": 3784,
      "Ġmix": 3785,
      "Ġseemed": 3786,
      "Ġtax": 3787,
      "Ġsmell": 3788,
      "Ġeasily": 3789,
      "Ġexperiments": 3790,
      "Ġresponsibility": 3791,
      "Ġcustom": 3792,
      "hy": 3793,
      "Ġut": 3794,
      "Ġdance": 3795,
      "Ġdying": 3796,
      "Ġfort": 3797,
      "amb": 3798,
      "adem": 3799,
      "atell": 3800,
      "Ġvast": 3801,
      "ception": 3802,
      "ashion": 3803,
      "Ġemotional": 3804,
      "Ġmolecules": 3805,
      "ĠIslam": 3806,
      "orith": 3807,
      "Ġlack": 3808,
      "empt": 3809,
      "order": 3810,
      "Ġcorner": 3811,
      "Ġhistor": 3812,
      "Ġclassroom": 3813,
      "exic": 3814,
      "Ġsurprising": 3815,
      "Ġshoot": 3816,
      "Sh": 3817,
      "band": 3818,
      "zil": 3819,
      "Ġfat": 3820,
      "ste": 3821,
      "Ġrough": 3822,
      "ibr": 3823,
      "Ġdifferently": 3824,
      "ĠRuss": 3825,
      "aced": 3826,
      "Ġindepend": 3827,
      "Ġbasis": 3828,
      "ica": 3829,
      "Ġeating": 3830,
      "ulner": 3831,
      "Ġknowing": 3832,
      "ĠAd": 3833,
      "Ġcoff": 3834,
      "ĠFace": 3835,
      "Ġcreates": 3836,
      "Ġhelping": 3837,
      "Ġplanets": 3838,
      "Ġdegrees": 3839,
      "Ġexperiences": 3840,
      "Ġbirds": 3841,
      "Ġalgorith": 3842,
      "ĠWhy": 3843,
      "edia": 3844,
      "Ġhall": 3845,
      "istry": 3846,
      "Ġdesigners": 3847,
      "Ġdeliver": 3848,
      "Ġreduce": 3849,
      "Ġefficient": 3850,
      "Ġsignificant": 3851,
      "Ġwire": 3852,
      "Ġdiversity": 3853,
      "ĠIran": 3854,
      "Ġgold": 3855,
      "Ġrapid": 3856,
      "avid": 3857,
      "Ġattract": 3858,
      "Ġmembers": 3859,
      "Ġwindow": 3860,
      "mon": 3861,
      "rical": 3862,
      "Ġsick": 3863,
      "Ġcru": 3864,
      "itter": 3865,
      "Ġnone": 3866,
      "ctually": 3867,
      "ĠShe": 3868,
      "ĠOh": 3869,
      "Ġdaughter": 3870,
      "reg": 3871,
      "Ġsatell": 3872,
      "Ġweird": 3873,
      "Ġhabit": 3874,
      "Ġindustrial": 3875,
      "Ġcommunication": 3876,
      "cript": 3877,
      "ening": 3878,
      "ears": 3879,
      "Ġbackground": 3880,
      "Instead": 3881,
      "Ġrare": 3882,
      "Ġbringing": 3883,
      "Ġcomplexity": 3884,
      "Ġbroken": 3885,
      "Ġnearly": 3886,
      "Ġdinos": 3887,
      "ĠiP": 3888,
      "Ġ$": 3889,
      "Ġver": 3890,
      "Ġur": 3891,
      "Ġseas": 3892,
      "term": 3893,
      "ĠCom": 3894,
      "Ġflight": 3895,
      "Ġgenome": 3896,
      "Ġscientist": 3897,
      "Ġspending": 3898,
      "ĠBrazil": 3899,
      "From": 3900,
      "mp": 3901,
      "Ġhom": 3902,
      "Ġgent": 3903,
      "ĠSan": 3904,
      "ĠCl": 3905,
      "ĠMexic": 3906,
      "Ġagree": 3907,
      "Ġclimb": 3908,
      "Ġvisit": 3909,
      "Ġairpl": 3910,
      "Ġetc": 3911,
      "Two": 3912,
      "ratic": 3913,
      "icking": 3914,
      "osystem": 3915,
      "Ġcontact": 3916,
      "Ġstudying": 3917,
      "Ġlights": 3918,
      "Ġdemand": 3919,
      "Ġconference": 3920,
      "Ġphoto": 3921,
      "ĠBecause": 3922,
      "Ġconsciousness": 3923,
      "Ġtarget": 3924,
      "Ġcommercial": 3925,
      "Your": 3926,
      "gth": 3927,
      "isco": 3928,
      "icon": 3929,
      "Ġreb": 3930,
      "Ġreco": 3931,
      "Ġstren": 3932,
      "Ġtrip": 3933,
      "anging": 3934,
      "Ġresist": 3935,
      "Ġaddition": 3936,
      "Ġhearing": 3937,
      "Ġdevices": 3938,
      "Ġanaly": 3939,
      "ĠAustral": 3940,
      "30": 3941,
      "Ġske": 3942,
      "Ġfold": 3943,
      "Ġshift": 3944,
      "Ġenter": 3945,
      "Ġbreast": 3946,
      "Ġopportunities": 3947,
      "Ġvolunt": 3948,
      "Ġcrowd": 3949,
      "Ġtremendous": 3950,
      "Ġwide": 3951,
      "reci": 3952,
      "Ġbees": 3953,
      "rogen": 3954,
      "Ġvulner": 3955,
      "ording": 3956,
      "Ġboat": 3957,
      "Ġmetap": 3958,
      "Ġfocused": 3959,
      "Ġjoin": 3960,
      "Many": 3961,
      "Ġlandscape": 3962,
      "IDS": 3963,
      "ĠFacebook": 3964,
      "Ġinj": 3965,
      "Ġhack": 3966,
      "Ġchim": 3967,
      "Ġtrib": 3968,
      "ĠLet": 3969,
      "Ġecosystem": 3970,
      "Ġstrength": 3971,
      "Ġtum": 3972,
      "Ġfro": 3973,
      "Ġrout": 3974,
      "ĠDr": 3975,
      "Ġflag": 3976,
      "Ġfairly": 3977,
      "aul": 3978,
      "ees": 3979,
      "edd": 3980,
      "Ġstem": 3981,
      "Ġbrill": 3982,
      "Ġimagination": 3983,
      "Ġforever": 3984,
      "Ġfully": 3985,
      "Ġmaster": 3986,
      "Ġpassed": 3987,
      "Ġsexual": 3988,
      "Ġidentity": 3989,
      "rie": 3990,
      "Ġtherap": 3991,
      "Ġcooper": 3992,
      "Ġbread": 3993,
      "Think": 3994,
      "aining": 3995,
      "bert": 3996,
      "Ġdesert": 3997,
      "ĠIsrael": 3998,
      "Ġmission": 3999,
      "iam": 4000,
      "Ġmuseum": 4001,
      "Ġbeat": 4002,
      "Ġancient": 4003,
      "Ġshop": 4004,
      "Ġcorrect": 4005,
      "Ġparad": 4006,
      "Ġcoffee": 4007,
      "hand": 4008,
      "house": 4009,
      "na": 4010,
      "Ġcred": 4011,
      "Ġaspect": 4012,
      "Ġcreatures": 4013,
      "Ġconsid": 4014,
      "Ġpleas": 4015,
      "Ġinspired": 4016,
      "Ġbomb": 4017,
      "Ġphenomenon": 4018,
      "Ġlucky": 4019,
      "Ġopposite": 4020,
      "Ġyellow": 4021,
      "Un": 4022,
      "based": 4023,
      "do": 4024,
      "gra": 4025,
      "pping": 4026,
      "Ġalt": 4027,
      "ĠMiddle": 4028,
      "Ġparty": 4029,
      "orders": 4030,
      "Ġartists": 4031,
      "Ġpossibility": 4032,
      "Ġcheap": 4033,
      "Ġargument": 4034,
      "Ġreligious": 4035,
      "Ġfarmers": 4036,
      "Ġdespite": 4037,
      "ties": 4038,
      "atr": 4039,
      "Ġcore": 4040,
      "Ġmort": 4041,
      "Ġamb": 4042,
      "Ġturning": 4043,
      "Ġmagaz": 4044,
      "Ġfailure": 4045,
      "Ġcogn": 4046,
      "Ġhost": 4047,
      "ifying": 4048,
      "Ġaccom": 4049,
      "Ġaccident": 4050,
      "Ġeasier": 4051,
      "idden": 4052,
      "ography": 4053,
      "Ġadvant": 4054,
      "ipped": 4055,
      "Ġdescribe": 4056,
      "Ġbrand": 4057,
      "Ġgentle": 4058,
      "cest": 4059,
      "mark": 4060,
      "val": 4061,
      "atures": 4062,
      "Ġmouth": 4063,
      "orge": 4064,
      "Ġgiant": 4065,
      "Ġrepe": 4066,
      "Ġhell": 4067,
      "Ġsharing": 4068,
      "Ġnotion": 4069,
      "Ġteen": 4070,
      "Ġevents": 4071,
      "itely": 4072,
      "ĠRe": 4073,
      "Ġparticles": 4074,
      "Ġfigured": 4075,
      "Ġdreams": 4076,
      "ront": 4077,
      "Ġgun": 4078,
      "using": 4079,
      "irt": 4080,
      "Ġship": 4081,
      "Ġnote": 4082,
      "Ġpartners": 4083,
      "Ġraised": 4084,
      "Ġimportantly": 4085,
      "ification": 4086,
      "Ġmoments": 4087,
      "Ġstructures": 4088,
      "lies": 4089,
      "zen": 4090,
      "edic": 4091,
      "Ġnor": 4092,
      "ulpt": 4093,
      "ĠDo": 4094,
      "ĠRo": 4095,
      "Ġsculpt": 4096,
      "ĠWeb": 4097,
      "Ġforeign": 4098,
      "Ġentirely": 4099,
      "Ġbenefits": 4100,
      "cop": 4101,
      "rim": 4102,
      "Ġing": 4103,
      "Ġancest": 4104,
      "Ġjoy": 4105,
      "Ġexer": 4106,
      "roud": 4107,
      "ager": 4108,
      "Ġcoast": 4109,
      "ĠTw": 4110,
      "Ġgene": 4111,
      "Ġharm": 4112,
      "cra": 4113,
      "ford": 4114,
      "Ġfol": 4115,
      "vere": 4116,
      "Ġforg": 4117,
      "Ġheld": 4118,
      "ulations": 4119,
      "Ġplat": 4120,
      "Ġbright": 4121,
      "ĠYes": 4122,
      "Ġregular": 4123,
      "print": 4124,
      "ĠAsia": 4125,
      "20": 4126,
      "rated": 4127,
      "ĠWh": 4128,
      "reet": 4129,
      "Ġsorry": 4130,
      "Ġbatter": 4131,
      "icians": 4132,
      "ett": 4133,
      "ada": 4134,
      "ĠMich": 4135,
      "Ġcla": 4136,
      "Ġpoem": 4137,
      "Ġcalls": 4138,
      "Ġbrings": 4139,
      "Ġelements": 4140,
      "Ġsuffering": 4141,
      "Ġnecessarily": 4142,
      "Ġnegative": 4143,
      "Ġpuzz": 4144,
      "Ġvacc": 4145,
      "Ġble": 4146,
      "Ġbillions": 4147,
      "Ġtom": 4148,
      "Ġsport": 4149,
      "ĠPar": 4150,
      "Ġtraffic": 4151,
      "connect": 4152,
      "Ġcharge": 4153,
      "Ġrequire": 4154,
      "vity": 4155,
      "Ġwis": 4156,
      "Ġfashion": 4157,
      "ley": 4158,
      "Ġnorth": 4159,
      "enty": 4160,
      "roll": 4161,
      "Ġstream": 4162,
      "Ġconcent": 4163,
      "Ġquote": 4164,
      "ĠNor": 4165,
      "Ġattempt": 4166,
      "Ġaccur": 4167,
      "Ġrestaur": 4168,
      "Ġresponsible": 4169,
      "Ġkilomet": 4170,
      "dimens": 4171,
      "equ": 4172,
      "my": 4173,
      "rate": 4174,
      "Ġtough": 4175,
      "inc": 4176,
      "Ġmill": 4177,
      "Ġproud": 4178,
      "ĠMc": 4179,
      "Ġbrother": 4180,
      "Ġbridge": 4181,
      "Ġappreci": 4182,
      "Ġremote": 4183,
      "Ġdistance": 4184,
      "Ġphotos": 4185,
      "Ġleadership": 4186,
      "Ġcompetition": 4187,
      "Again": 4188,
      "Ġbud": 4189,
      "Ġbound": 4190,
      "Ġpounds": 4191,
      "Ġseed": 4192,
      "Ġdisp": 4193,
      "Ġprevious": 4194,
      "Ġsmo": 4195,
      "Ġinvis": 4196,
      "Ġhelps": 4197,
      "Ġcorpor": 4198,
      "Ġopened": 4199,
      "ĠEuropean": 4200,
      "Ġcounter": 4201,
      "Ġtissue": 4202,
      "ugg": 4203,
      "ĠĠ": 4204,
      "Ġiron": 4205,
      "aria": 4206,
      "verse": 4207,
      "celer": 4208,
      "ifically": 4209,
      "ulated": 4210,
      "Ġchick": 4211,
      "ruption": 4212,
      "ĠFor": 4213,
      "ĠFrench": 4214,
      "Ġstudied": 4215,
      "Ġindic": 4216,
      "Ġedge": 4217,
      "Ġ400": 4218,
      "Ġleading": 4219,
      "Ġnecessary": 4220,
      "Ġdefinition": 4221,
      "Ġepide": 4222,
      "Ġvirtual": 4223,
      "Ġweapons": 4224,
      "gypt": 4225,
      "stein": 4226,
      "eared": 4227,
      "uild": 4228,
      "inally": 4229,
      "itable": 4230,
      "Ġinform": 4231,
      "Ġegg": 4232,
      "idents": 4233,
      "Ġsector": 4234,
      "ibilities": 4235,
      "ĠNiger": 4236,
      "ĠFran": 4237,
      "ysis": 4238,
      "Ġgrass": 4239,
      "Ġoceans": 4240,
      "Ġintellect": 4241,
      "Ġemotion": 4242,
      "Ġdocument": 4243,
      "Ġphilosoph": 4244,
      "Ġcand": 4245,
      "Ġreve": 4246,
      "Ġadapt": 4247,
      "Ġshouldn": 4248,
      "Ġbelieved": 4249,
      "Ġmatters": 4250,
      "Ġholding": 4251,
      "Ġultimately": 4252,
      "Ġbalance": 4253,
      "Ġhusband": 4254,
      "Ġbrilliant": 4255,
      "Actually": 4256,
      "Com": 4257,
      "kn": 4258,
      "lin": 4259,
      "Ġmaint": 4260,
      "Ġhero": 4261,
      "Ġrelated": 4262,
      "Ġstuck": 4263,
      "However": 4264,
      "Ġdollar": 4265,
      "Ġmotor": 4266,
      "Ġfailed": 4267,
      "Ġunfortunately": 4268,
      "Ġfaith": 4269,
      "Ġadults": 4270,
      "Ġdestroy": 4271,
      "ses": 4272,
      "Ġtast": 4273,
      "artment": 4274,
      "Ġtruck": 4275,
      "Ġcompl": 4276,
      "Ġoffer": 4277,
      "Ġchildhood": 4278,
      "Ġleads": 4279,
      "Ġsignal": 4280,
      "Ġcolors": 4281,
      "Ġsucceed": 4282,
      "Ġconvin": 4283,
      "ĠChris": 4284,
      "Ġdouble": 4285,
      "His": 4286,
      "aff": 4287,
      "iors": 4288,
      "uros": 4289,
      "vant": 4290,
      "ctions": 4291,
      "urch": 4292,
      "Ġund": 4293,
      "Ġshel": 4294,
      "Ġriver": 4295,
      "ĠDar": 4296,
      "ĠKeny": 4297,
      "Ġinvestment": 4298,
      "Ġgrandm": 4299,
      "Ġinstitution": 4300,
      "dimensional": 4301,
      "iage": 4302,
      "tle": 4303,
      "word": 4304,
      "Ġmouse": 4305,
      "Ġnarr": 4306,
      "Ġclick": 4307,
      "iable": 4308,
      "ĠDavid": 4309,
      "Ġheads": 4310,
      "Ġconcerned": 4311,
      "Ġinsects": 4312,
      "Ġplatform": 4313,
      "mar": 4314,
      "inist": 4315,
      "Ġhate": 4316,
      "Ġpet": 4317,
      "Ġfab": 4318,
      "Ġfoss": 4319,
      "care": 4320,
      "Ġnoise": 4321,
      "Ġuniversity": 4322,
      "ographic": 4323,
      "Ġdiscovery": 4324,
      "Ġleaving": 4325,
      "Ġwheel": 4326,
      "hold": 4327,
      "ij": 4328,
      "mit": 4329,
      "Ġfle": 4330,
      "Ġlunch": 4331,
      "oop": 4332,
      "ĠAb": 4333,
      "oses": 4334,
      "ĠSun": 4335,
      "agers": 4336,
      "Ġunlike": 4337,
      "ĠEgypt": 4338,
      "Hey": 4339,
      "Ġelement": 4340,
      "Ġnewsp": 4341,
      "Ġdeeply": 4342,
      "Ġconstruct": 4343,
      "Ġslowly": 4344,
      "Ġsequence": 4345,
      "Ġinfluence": 4346,
      "Ġexhib": 4347,
      "right": 4348,
      "ĠWhen": 4349,
      "Ġmoves": 4350,
      "terday": 4351,
      "Ġexch": 4352,
      "Ġnovel": 4353,
      "Ġunc": 4354,
      "Ġprior": 4355,
      "Ġcrash": 4356,
      "Ġlesson": 4357,
      "Ġcaught": 4358,
      "Ġfrequ": 4359,
      "Ġdegree": 4360,
      "Re": 4361,
      "Ġweak": 4362,
      "illed": 4363,
      "Ġcompared": 4364,
      "Ġtransp": 4365,
      "Ġprototy": 4366,
      "Ġconstantly": 4367,
      "Ġtypical": 4368,
      "ipping": 4369,
      "Ġprofessional": 4370,
      "lands": 4371,
      "ox": 4372,
      "Ġbag": 4373,
      "Ġmig": 4374,
      "alled": 4375,
      "ĠMr": 4376,
      "ĠBang": 4377,
      "ĠGreat": 4378,
      "Ġletter": 4379,
      "ĠChar": 4380,
      "Ġcreation": 4381,
      "Ġpresident": 4382,
      "Ġtrained": 4383,
      "Ġargue": 4384,
      "Ġembra": 4385,
      "Ġfighting": 4386,
      "Ġsynth": 4387,
      "Ġprotein": 4388,
      "Ġsister": 4389,
      "lection": 4390,
      "Ġnames": 4391,
      "oted": 4392,
      "Ġants": 4393,
      "Ġrot": 4394,
      "pper": 4395,
      "Ġclosed": 4396,
      "Ġfactory": 4397,
      "Ġinsight": 4398,
      "Ġgrad": 4399,
      "Ġfinished": 4400,
      "Ġbegins": 4401,
      "Ġhyp": 4402,
      "Ġmajority": 4403,
      "Ġwalls": 4404,
      "Ġfascinating": 4405,
      "Ġfrag": 4406,
      "More": 4407,
      "ius": 4408,
      "son": 4409,
      "Ġbone": 4410,
      "Ġfresh": 4411,
      "Ġden": 4412,
      "Ġgard": 4413,
      "throp": 4414,
      "Ġspot": 4415,
      "ortex": 4416,
      "udience": 4417,
      "Ġacceler": 4418,
      "Ġphones": 4419,
      "athy": 4420,
      "Ġopin": 4421,
      "Ġcapable": 4422,
      "Ġpaint": 4423,
      "Ġcollective": 4424,
      "Ġinteraction": 4425,
      "Ġemotions": 4426,
      "Ġsurprise": 4427,
      "Ġdescribed": 4428,
      "Ġstrategy": 4429,
      "DP": 4430,
      "Over": 4431,
      "mission": 4432,
      "oom": 4433,
      "Ġtit": 4434,
      "Ġtour": 4435,
      "Ġtor": 4436,
      "Ġfaces": 4437,
      "esth": 4438,
      "Ġreward": 4439,
      "ami": 4440,
      "essed": 4441,
      "Ġ150": 4442,
      "Ġmanaged": 4443,
      "Ġotherwise": 4444,
      "Ġtalks": 4445,
      "ĠFl": 4446,
      "Ġattach": 4447,
      "Ġequal": 4448,
      "Ġequival": 4449,
      "Ġdepression": 4450,
      "ength": 4451,
      "Ġhorr": 4452,
      "Ġmathematics": 4453,
      "Ġquantum": 4454,
      "Ġmetaphor": 4455,
      "IT": 4456,
      "oe": 4457,
      "Ġseat": 4458,
      "Ġmos": 4459,
      "Ġroof": 4460,
      "Ġadop": 4461,
      "Ġcoral": 4462,
      "Ġpaying": 4463,
      "Ġoperating": 4464,
      "Ġseparate": 4465,
      "Ġadvantage": 4466,
      "Ġton": 4467,
      "Ġcos": 4468,
      "ancing": 4469,
      "esign": 4470,
      "urally": 4471,
      "Ġorganisms": 4472,
      "Ġengineers": 4473,
      "Ġperfectly": 4474,
      "ĠBritish": 4475,
      "Sometimes": 4476,
      "Ġcognitive": 4477,
      "Once": 4478,
      "Take": 4479,
      "Ġera": 4480,
      "Ġpun": 4481,
      "entally": 4482,
      "uries": 4483,
      "Ġmoon": 4484,
      "Ġsoil": 4485,
      "Ġjustice": 4486,
      "apers": 4487,
      "Ġdisaster": 4488,
      "Ġfollowed": 4489,
      "Ġavoid": 4490,
      "Ġcurrently": 4491,
      "Ġbenefit": 4492,
      "Ġprinciples": 4493,
      "Second": 4494,
      "oint": 4495,
      "Ġodd": 4496,
      "Ġband": 4497,
      "Ġpurs": 4498,
      "anes": 4499,
      "Ġwhom": 4500,
      "Ġking": 4501,
      "Ġhasn": 4502,
      "Ġartific": 4503,
      "Ġconsumption": 4504,
      "Ġcivilization": 4505,
      "Ġbreath": 4506,
      "Ġgalaxies": 4507,
      "Ġmentioned": 4508,
      "Ġvolunte": 4509,
      "Ġinvisible": 4510,
      "Would": 4511,
      "vention": 4512,
      "Ġcateg": 4513,
      "Ġhomes": 4514,
      "asion": 4515,
      "ulous": 4516,
      "Ġchann": 4517,
      "Ġorg": 4518,
      "ĠCO": 4519,
      "Ġempt": 4520,
      "Ġeleph": 4521,
      "Ġsurprised": 4522,
      "Ġfeedback": 4523,
      "ae": 4524,
      "oration": 4525,
      "icity": 4526,
      "Ġstim": 4527,
      "Ġworried": 4528,
      "Ġmeat": 4529,
      "cked": 4530,
      "Ġbrief": 4531,
      "Ġharder": 4532,
      "Ġgrown": 4533,
      "Ġequip": 4534,
      "Ġtreated": 4535,
      "Ġlimited": 4536,
      "Ġreplace": 4537,
      "Ġfinger": 4538,
      "known": 4539,
      "Ġmir": 4540,
      "Ġincent": 4541,
      "Ġwearing": 4542,
      "alley": 4543,
      "irm": 4544,
      "ĠCon": 4545,
      "ĠPl": 4546,
      "Ġleader": 4547,
      "Ġbusinesses": 4548,
      "Ġvehicle": 4549,
      "ashington": 4550,
      "Ġequivalent": 4551,
      "Did": 4552,
      "gar": 4553,
      "Ġdue": 4554,
      "Ġlapt": 4555,
      "Ġgar": 4556,
      "ads": 4557,
      "Ġeveryday": 4558,
      "Ġfell": 4559,
      "Ġcontract": 4560,
      "Ġdesire": 4561,
      "Ġprecise": 4562,
      "Ġbelong": 4563,
      "Ġlanguages": 4564,
      "Ġinvestig": 4565,
      "Ġreceived": 4566,
      "Ġgalaxy": 4567,
      "ĠFranc": 4568,
      "ok": 4569,
      "Ġsouth": 4570,
      "isher": 4571,
      "onom": 4572,
      "ara": 4573,
      "Ġwear": 4574,
      "Ġnerv": 4575,
      "uman": 4576,
      "cket": 4577,
      "Ġcompare": 4578,
      "apse": 4579,
      "ildren": 4580,
      "Ġarms": 4581,
      "Ġinvited": 4582,
      "ĠEngland": 4583,
      "Ġcycle": 4584,
      "Ġwisdom": 4585,
      "rict": 4586,
      "wide": 4587,
      "Ġtox": 4588,
      "Ġextend": 4589,
      "Ġchair": 4590,
      "ume": 4591,
      "ichard": 4592,
      "Ġfellow": 4593,
      "ĠEd": 4594,
      "ĠGu": 4595,
      "Ġbull": 4596,
      "ĠWashington": 4597,
      "Ġ35": 4598,
      "Ġplanning": 4599,
      "Ġfourth": 4600,
      "Ġwatched": 4601,
      "Ġcircle": 4602,
      "Ġmarried": 4603,
      "Ġmolecule": 4604,
      "Ġalternative": 4605,
      "ĠMexico": 4606,
      "ĠAustralia": 4607,
      "Ġmagazine": 4608,
      "car": 4609,
      "cil": 4610,
      "pet": 4611,
      "Ġax": 4612,
      "Ġwave": 4613,
      "Ġpow": 4614,
      "Ġweather": 4615,
      "Ġselect": 4616,
      "umber": 4617,
      "Ġagre": 4618,
      "Ġunless": 4619,
      "Ġimplic": 4620,
      "ĠPark": 4621,
      "elling": 4622,
      "aked": 4623,
      "ublic": 4624,
      "issions": 4625,
      "Ġlaunched": 4626,
      "Go": 4627,
      "Ġtal": 4628,
      "Ġmothers": 4629,
      "roph": 4630,
      "Ġexists": 4631,
      "Ġintu": 4632,
      "ensity": 4633,
      "Ġsurge": 4634,
      "Ġdesigner": 4635,
      "Ġhighest": 4636,
      "Ġsymmet": 4637,
      "Ġsurvival": 4638,
      "Ġagriculture": 4639,
      "craft": 4640,
      "Ġequipment": 4641,
      "au": 4642,
      "Ġbattle": 4643,
      "Ġpages": 4644,
      "Ġfed": 4645,
      "iration": 4646,
      "Ġusers": 4647,
      "Ġquiet": 4648,
      "ĠGo": 4649,
      "Ġacadem": 4650,
      "Ġcommit": 4651,
      "Ġexpert": 4652,
      "Ġstupid": 4653,
      "Ġanti": 4654,
      "Ġseriously": 4655,
      "Ġsoldiers": 4656,
      "Ġdebate": 4657,
      "stitute": 4658,
      "gn": 4659,
      "Ġhun": 4660,
      "Ġtoward": 4661,
      "Ġdry": 4662,
      "oman": 4663,
      "Ġdol": 4664,
      "Ġthinks": 4665,
      "Ġcoal": 4666,
      "ĠDan": 4667,
      "Ġputs": 4668,
      "Ġorganic": 4669,
      "Ġcurious": 4670,
      "Ġhopefully": 4671,
      "Ġnormally": 4672,
      "Ġversus": 4673,
      "Ġdrawing": 4674,
      "Ġdinner": 4675,
      "Each": 4676,
      "lied": 4677,
      "add": 4678,
      "Ġpros": 4679,
      "ĠEx": 4680,
      "Ġeconomics": 4681,
      "Ġshapes": 4682,
      "Ġidentify": 4683,
      "Ġmultiple": 4684,
      "ĠTwitter": 4685,
      "Ġnervous": 4686,
      "set": 4687,
      "Ġpoo": 4688,
      "Ġreef": 4689,
      "ago": 4690,
      "Ġpolic": 4691,
      "Ġtesting": 4692,
      "Ġveget": 4693,
      "Ġsteps": 4694,
      "Ġdistribution": 4695,
      "Ġincreasingly": 4696,
      "Ġassociated": 4697,
      "Ġnutr": 4698,
      "Ġkilometers": 4699,
      "bel": 4700,
      "hab": 4701,
      "Ġhidden": 4702,
      "Ġinit": 4703,
      "ushing": 4704,
      "anted": 4705,
      "Ġround": 4706,
      "Ġves": 4707,
      "ĠCol": 4708,
      "ĠMin": 4709,
      "ĠGl": 4710,
      "ĠHere": 4711,
      "place": 4712,
      "Ġplayers": 4713,
      "Ġplane": 4714,
      "Ġarticle": 4715,
      "Ġprocesses": 4716,
      "Ġwarm": 4717,
      "Ġsignals": 4718,
      "Ġexistence": 4719,
      "Ġsentence": 4720,
      "Ġyesterday": 4721,
      "Ġproperty": 4722,
      "Ġstatistics": 4723,
      "Ġfolks": 4724,
      "ha": 4725,
      "Ġcro": 4726,
      "encies": 4727,
      "Ġreform": 4728,
      "Ġstation": 4729,
      "Ġneuro": 4730,
      "Ġneuros": 4731,
      "Ġrural": 4732,
      "Ġmyth": 4733,
      "estic": 4734,
      "Ġsaved": 4735,
      "Ġagg": 4736,
      "Ġresource": 4737,
      "Ġtechnical": 4738,
      "forest": 4739,
      "Ġtransformation": 4740,
      "Ġinterp": 4741,
      "Ġaccording": 4742,
      "Ġmotion": 4743,
      "Ġastron": 4744,
      "Ġleaves": 4745,
      "Ġordinary": 4746,
      "Ġdolph": 4747,
      "Ex": 4748,
      "RI": 4749,
      "rum": 4750,
      "Ġtick": 4751,
      "Ġgather": 4752,
      "otic": 4753,
      "Ġchain": 4754,
      "ĠJust": 4755,
      "ocol": 4756,
      "Ġdriver": 4757,
      "Ġgenerations": 4758,
      "Ġinfin": 4759,
      "Ġwarming": 4760,
      "Ġsites": 4761,
      "Ġillness": 4762,
      "Ġantib": 4763,
      "Ġcircum": 4764,
      "Ġfilled": 4765,
      "Ġcomfortable": 4766,
      "Ġstruggle": 4767,
      "ĠGermany": 4768,
      "Ġairplane": 4769,
      "oot": 4770,
      "ri": 4771,
      "Ġtall": 4772,
      "instein": 4773,
      "Ġdate": 4774,
      "Ġinner": 4775,
      "aled": 4776,
      "Ġisland": 4777,
      "Ġstood": 4778,
      "cale": 4779,
      "Ġtail": 4780,
      "ĠEn": 4781,
      "ĠEvery": 4782,
      "ĠGra": 4783,
      "Ġflat": 4784,
      "Ġcaused": 4785,
      "Ġdiet": 4786,
      "Ġdaily": 4787,
      "Ġsafety": 4788,
      "Ġlifet": 4789,
      "Ġawful": 4790,
      "Ġdimensions": 4791,
      "bl": 4792,
      "vard": 4793,
      "Ġtons": 4794,
      "ino": 4795,
      "Ġlosing": 4796,
      "Ġrein": 4797,
      "Ġshut": 4798,
      "olves": 4799,
      "Ġfrustr": 4800,
      "Ġspl": 4801,
      "ĠSc": 4802,
      "ĠPal": 4803,
      "ĠNA": 4804,
      "Ġimportance": 4805,
      "Ġdesigning": 4806,
      "Ġsubst": 4807,
      "Ġsetting": 4808,
      "Ġresearchers": 4809,
      "Ġconduct": 4810,
      "Ġdealing": 4811,
      "Ġgender": 4812,
      "Ġexperienced": 4813,
      "Ġprinciple": 4814,
      "Ġintellectual": 4815,
      "Ġvessel": 4816,
      "aurs": 4817,
      "cast": 4818,
      "Ġtheater": 4819,
      "erves": 4820,
      "Ġhide": 4821,
      "Ġtoile": 4822,
      "Ġdial": 4823,
      "lease": 4824,
      "Ġnan": 4825,
      "Ġabst": 4826,
      "ession": 4827,
      "Ġspoke": 4828,
      "Ġhadn": 4829,
      "Ġcovered": 4830,
      "ressive": 4831,
      "Ġscen": 4832,
      "Ġcrime": 4833,
      "Ġexplan": 4834,
      "Ġelectrical": 4835,
      "Ġcolon": 4836,
      "Ġshoes": 4837,
      "Ġheavy": 4838,
      "Ġsoul": 4839,
      "Ġconsequences": 4840,
      "ait": 4841,
      "lom": 4842,
      "Ġcow": 4843,
      "Ġgap": 4844,
      "semb": 4845,
      "Ġlibr": 4846,
      "ĠBig": 4847,
      "Ġscene": 4848,
      "Ġfinish": 4849,
      "Ġvalu": 4850,
      "Ġwondering": 4851,
      "Ġfields": 4852,
      "engu": 4853,
      "Ġmovies": 4854,
      "Ġcopy": 4855,
      "Ġarrived": 4856,
      "ĠJapanese": 4857,
      "Ġclinical": 4858,
      "Ġconvinced": 4859,
      "Ġartificial": 4860,
      "Ġsoph": 4861,
      "Ġtow": 4862,
      "ald": 4863,
      "urd": 4864,
      "Ġforced": 4865,
      "Ġliked": 4866,
      "Ġgod": 4867,
      "Ġrow": 4868,
      "ĠAIDS": 4869,
      "Ġenem": 4870,
      "ĠMay": 4871,
      "Ġpartner": 4872,
      "aker": 4873,
      "akistan": 4874,
      "Ġfacts": 4875,
      "Ġbits": 4876,
      "Ġsigns": 4877,
      "Ġkilling": 4878,
      "Ġlimit": 4879,
      "Ġlayer": 4880,
      "force": 4881,
      "Ġdamage": 4882,
      "Ġuniversal": 4883,
      "Ġpoetry": 4884,
      "ĠKenya": 4885,
      "Per": 4886,
      "ns": 4887,
      "ux": 4888,
      "rete": 4889,
      "Ġdots": 4890,
      "cipl": 4891,
      "ĠMIT": 4892,
      "Ġcloth": 4893,
      "Ġcalling": 4894,
      "ĠTimes": 4895,
      "Ġconnections": 4896,
      "Ġcontinu": 4897,
      "Ġpicked": 4898,
      "Ġessential": 4899,
      "Ġprofessor": 4900,
      "Ġintelligent": 4901,
      "Ġnegot": 4902,
      "Ġmicrobes": 4903,
      "Ġconsidered": 4904,
      "Ind": 4905,
      "bble": 4906,
      "uff": 4907,
      "zing": 4908,
      "eras": 4909,
      "Ġholes": 4910,
      "lement": 4911,
      "Ġbear": 4912,
      "Ġrecon": 4913,
      "Ġheight": 4914,
      "Ġpeak": 4915,
      "odes": 4916,
      "ĠPaul": 4917,
      "Ġadvert": 4918,
      "neath": 4919,
      "ĠKore": 4920,
      "Ġmuscle": 4921,
      "Ġopening": 4922,
      "Ġrefuge": 4923,
      "Ġcontinent": 4924,
      "Ġdeeper": 4925,
      "Ġappropr": 4926,
      "Ġengineer": 4927,
      "Ġanalysis": 4928,
      "Ġreplic": 4929,
      "ĠBritain": 4930,
      "Ġsatellite": 4931,
      "Ġgrandmother": 4932,
      "Ġwond": 4933,
      "Ġpil": 4934,
      "Ġnar": 4935,
      "cend": 4936,
      "Ġlie": 4937,
      "Ġmanip": 4938,
      "Ġresc": 4939,
      "Ġletters": 4940,
      "Ġfeelings": 4941,
      "Ġplayer": 4942,
      "Ġconsist": 4943,
      "Ġpossibilities": 4944,
      "iency": 4945,
      "Ġcutting": 4946,
      "Ġreaction": 4947,
      "Ġchemicals": 4948,
      "Ġmanagement": 4949,
      "Ġfossil": 4950,
      "fish": 4951,
      "hi": 4952,
      "zed": 4953,
      "Ġsources": 4954,
      "organ": 4955,
      "Ġgall": 4956,
      "Ġkick": 4957,
      "Ġrat": 4958,
      "Ġwhenever": 4959,
      "abet": 4960,
      "Ġqual": 4961,
      "Ġexpression": 4962,
      "ĠGree": 4963,
      "ĠPakistan": 4964,
      "Ġblow": 4965,
      "Ġsurf": 4966,
      "Ġgrade": 4967,
      "Ġrecy": 4968,
      "Ġhealthcare": 4969,
      "Ġexpected": 4970,
      "Ġchemistry": 4971,
      "Ġestab": 4972,
      "Ġtrials": 4973,
      "Ġvariety": 4974,
      "Ġmosqu": 4975,
      "cers": 4976,
      "mas": 4977,
      "mber": 4978,
      "ener": 4979,
      "Ġgrain": 4980,
      "icip": 4981,
      "Ġperce": 4982,
      "Ġpray": 4983,
      "ĠWill": 4984,
      "ĠKing": 4985,
      "Ġwaves": 4986,
      "Ġmessages": 4987,
      "Ġcredit": 4988,
      "Ġbattery": 4989,
      "Ġempty": 4990,
      "life": 4991,
      "min": 4992,
      "Ġends": 4993,
      "Ġstock": 4994,
      "Ġlies": 4995,
      "Ġvote": 4996,
      "osition": 4997,
      "resident": 4998,
      "ĠBill": 4999,
      "ĠNe": 5000,
      "Ġunderneath": 5001,
      "Ġexperts": 5002,
      "Ġcrim": 5003,
      "Ġvideos": 5004,
      "Ġconstruction": 5005,
      "Ġcollection": 5006,
      "Ġillustr": 5007,
      "Ġreview": 5008,
      "olly": 5009,
      "hyth": 5010,
      "Ġdinosaurs": 5011,
      "Ġtomorrow": 5012,
      "Ġten": 5013,
      "Ġwake": 5014,
      "itness": 5015,
      "Ġhurt": 5016,
      "Ġpengu": 5017,
      "Ġfal": 5018,
      "ulating": 5019,
      "Ġrates": 5020,
      "acters": 5021,
      "Ġsolid": 5022,
      "what": 5023,
      "Ġcorruption": 5024,
      "Ġadvanced": 5025,
      "Ġbroke": 5026,
      "Ġrequires": 5027,
      "Ġmarriage": 5028,
      "Ġdynamic": 5029,
      "Ġexercise": 5030,
      "gl": 5031,
      "Ġlat": 5032,
      "Ġgang": 5033,
      "ests": 5034,
      "Ġuns": 5035,
      "ension": 5036,
      "ĠRep": 5037,
      "new": 5038,
      "Ġtransition": 5039,
      "Ġcharacters": 5040,
      "Ġlocation": 5041,
      "Ġmicros": 5042,
      "Ġilleg": 5043,
      "Ġconsumer": 5044,
      "ĠHarvard": 5045,
      "Ġrelatively": 5046,
      "Ġindependent": 5047,
      "ĠDarwin": 5048,
      "ael": 5049,
      "Ġshif": 5050,
      "Ġprove": 5051,
      "Ġchap": 5052,
      "Ġuser": 5053,
      "Ġteeth": 5054,
      "ogen": 5055,
      "Ġideal": 5056,
      "Ġthoughts": 5057,
      "Ġinterface": 5058,
      "Ġcarefully": 5059,
      "Ġ45": 5060,
      "Ġorganized": 5061,
      "Ġkeeping": 5062,
      "Chris": 5063,
      "Ġcartoon": 5064,
      "Ġsharks": 5065,
      "Ġfortun": 5066,
      "Ġroughly": 5067,
      "Ġrapidly": 5068,
      "Ġvaluable": 5069,
      "Ġsophistic": 5070,
      "See": 5071,
      "rs": 5072,
      "Ġgift": 5073,
      "Ġisol": 5074,
      "Ġbee": 5075,
      "Their": 5076,
      "Ġmyst": 5077,
      "Ġteles": 5078,
      "Ġvoices": 5079,
      "Ġevil": 5080,
      "ĠBar": 5081,
      "Ġdesk": 5082,
      "Ġfewer": 5083,
      "Ġcultures": 5084,
      "Ġlawy": 5085,
      "iques": 5086,
      "Ġrepresents": 5087,
      "Ġprivile": 5088,
      "Ġfacing": 5089,
      "Ġemerging": 5090,
      "Ġcapture": 5091,
      "ĠSwed": 5092,
      "Ġbudget": 5093,
      "Ġepidemic": 5094,
      "Ġexchange": 5095,
      "Ã©": 5096,
      "aters": 5097,
      "Ġhang": 5098,
      "Ġlength": 5099,
      "Ġgain": 5100,
      "Ġchart": 5101,
      "ĠApp": 5102,
      "Ġ2000": 5103,
      "Ġprefer": 5104,
      "Ġproducing": 5105,
      "Ġsla": 5106,
      "Ġgenerate": 5107,
      "Ġspecifically": 5108,
      "Ġmember": 5109,
      "Ġbehaviors": 5110,
      "Ġsympt": 5111,
      "Ġconvince": 5112,
      "Ġvictims": 5113,
      "Ġdisplay": 5114,
      "Ġvulnerable": 5115,
      "Ġinterpret": 5116,
      "gets": 5117,
      "Ġcards": 5118,
      "Ġbul": 5119,
      "Ġpal": 5120,
      "Ġpure": 5121,
      "Ġlic": 5122,
      "Ġnations": 5123,
      "state": 5124,
      "lying": 5125,
      "ĠCo": 5126,
      "Ġflies": 5127,
      "ĠStreet": 5128,
      "Ġpassword": 5129,
      "Ġcameras": 5130,
      "Ġauth": 5131,
      "Ġeffectively": 5132,
      "pected": 5133,
      "onym": 5134,
      "Ġsituations": 5135,
      "Ġproperties": 5136,
      "Ġstatus": 5137,
      "Ġprimary": 5138,
      "Ġdisappear": 5139,
      "Ġencourage": 5140,
      "ĠCenter": 5141,
      "Ġhouses": 5142,
      "Ġentrepreneurs": 5143,
      "Ġchimpan": 5144,
      "ĠFrancisco": 5145,
      "Very": 5146,
      "can": 5147,
      "down": 5148,
      "over": 5149,
      "uh": 5150,
      "Ġpip": 5151,
      "Ġreven": 5152,
      "stream": 5153,
      "Ġmel": 5154,
      "Ġride": 5155,
      "Ġintr": 5156,
      "ĠSat": 5157,
      "ĠDon": 5158,
      "Ġemissions": 5159,
      "Ġbran": 5160,
      "ĠJew": 5161,
      "Ġextract": 5162,
      "Ġreprodu": 5163,
      "Ġbottle": 5164,
      "Ġdepends": 5165,
      "ĠCanada": 5166,
      "Ġdetails": 5167,
      "Ġlady": 5168,
      "ĠAtl": 5169,
      "ĠSchool": 5170,
      "Ġclaim": 5171,
      ".'": 5172,
      "Have": 5173,
      "eff": 5174,
      "mers": 5175,
      "uary": 5176,
      "Ġpian": 5177,
      "Ġflex": 5178,
      "icago": 5179,
      "irty": 5180,
      "Ġshall": 5181,
      "Ġshad": 5182,
      "uls": 5183,
      "osis": 5184,
      "Ġcontain": 5185,
      "Ġentertain": 5186,
      "Ġmovements": 5187,
      "ĠInstitute": 5188,
      "Ġadded": 5189,
      "Ġviruses": 5190,
      "Ġrelease": 5191,
      "Ġinstrument": 5192,
      "Ġhydrogen": 5193,
      "Ġkitch": 5194,
      "Ġspin": 5195,
      "ĠBen": 5196,
      "ĠGreen": 5197,
      "ĠRed": 5198,
      "Ġarts": 5199,
      "Everybody": 5200,
      "Ġcarrying": 5201,
      "Ġhypoth": 5202,
      "Ġlifetime": 5203,
      "Americ": 5204,
      "eal": 5205,
      "ym": 5206,
      "Ġsight": 5207,
      "Ġcure": 5208,
      "itan": 5209,
      "Ġinev": 5210,
      "Ġlect": 5211,
      "ĠII": 5212,
      "Ġexec": 5213,
      "Ġmaps": 5214,
      "Ġsugar": 5215,
      "ĠGDP": 5216,
      "ĠPresident": 5217,
      "chnology": 5218,
      "ĠChicago": 5219,
      "Ġinterests": 5220,
      "Ġgenerally": 5221,
      "Ġdefine": 5222,
      "Ġpoliticians": 5223,
      "Ġassign": 5224,
      "Ġ99": 5225,
      "Ġradical": 5226,
      "Ġsending": 5227,
      "Ġpromise": 5228,
      "Ġmathematical": 5229,
      "Ġmolecular": 5230,
      "Ġmortality": 5231,
      "Ġcircumst": 5232,
      "itals": 5233,
      "itarian": 5234,
      "Ġped": 5235,
      "Ġgay": 5236,
      "igm": 5237,
      "Ġliqu": 5238,
      "ĠCE": 5239,
      "Ġhowever": 5240,
      "abilities": 5241,
      "Ġunit": 5242,
      "ĠHa": 5243,
      "Ġacqu": 5244,
      "Ġremain": 5245,
      "ĠAnderson": 5246,
      "Ġengaged": 5247,
      "Ġgrid": 5248,
      "Ġrisks": 5249,
      "Everything": 5250,
      "Ġreleased": 5251,
      "Ġhonor": 5252,
      "Ġdiscussion": 5253,
      "Ġprepared": 5254,
      "Ġofficial": 5255,
      "ĠMuslim": 5256,
      "Ġcomponents": 5257,
      "ĠNigeria": 5258,
      "Audience": 5259,
      "fit": 5260,
      "log": 5261,
      "pher": 5262,
      "Ġbeach": 5263,
      "Ġstaff": 5264,
      "Ġring": 5265,
      "Ġtrillion": 5266,
      "Ġunex": 5267,
      "Ġdish": 5268,
      "ĠLos": 5269,
      "ĠRichard": 5270,
      "Ġsmile": 5271,
      "Ġtechniques": 5272,
      "olds": 5273,
      "Ġminim": 5274,
      "Ġregions": 5275,
      "Ġoccup": 5276,
      "Ġselling": 5277,
      "Ġsnow": 5278,
      "Ġintroduce": 5279,
      "Ġintroduced": 5280,
      "Ġsample": 5281,
      "Ġgraduate": 5282,
      "Ġrestaurant": 5283,
      "11": 5284,
      "Tube": 5285,
      "aving": 5286,
      "Ġbow": 5287,
      "Ġbath": 5288,
      "Ġfisher": 5289,
      "alt": 5290,
      "oting": 5291,
      "rog": 5292,
      "Ġgoals": 5293,
      "Ġatoms": 5294,
      "Ġrom": 5295,
      "Ġrub": 5296,
      "Ġspo": 5297,
      "Ġspring": 5298,
      "Ġcompar": 5299,
      "ĠEl": 5300,
      "Ġbuying": 5301,
      "Ġbubble": 5302,
      "Ġmetal": 5303,
      "Ġserve": 5304,
      "Ġconvention": 5305,
      "Ġprofession": 5306,
      "Ġwinter": 5307,
      "Ġanalog": 5308,
      "Ġterrorism": 5309,
      "ĠCongress": 5310,
      "Ġorgans": 5311,
      "Ġestablish": 5312,
      "bors": 5313,
      "fl": 5314,
      "Ġthin": 5315,
      "atin": 5316,
      "ĠEinstein": 5317,
      "Ġfactor": 5318,
      "Ġfactors": 5319,
      "cont": 5320,
      "Ġdrag": 5321,
      "Ġsteel": 5322,
      "Ġemployees": 5323,
      "Ġencoura": 5324,
      "Ġmalaria": 5325,
      "Ġpleasure": 5326,
      "Ġforgot": 5327,
      "Ġabstract": 5328,
      "80": 5329,
      "Ġsan": 5330,
      "Ġsides": 5331,
      "erved": 5332,
      "Ġformer": 5333,
      "Ġsphere": 5334,
      "ĠCam": 5335,
      "Ġworlds": 5336,
      "Ġthanks": 5337,
      "Ġunus": 5338,
      "ĠGP": 5339,
      "ĠGh": 5340,
      "ĠPac": 5341,
      "ĠNot": 5342,
      "Ġinvention": 5343,
      "Ġgravity": 5344,
      "Ġmedium": 5345,
      "Ġenvironments": 5346,
      "Ġradiation": 5347,
      "Ġprotection": 5348,
      "Ġhyper": 5349,
      "Does": 5350,
      "Ġhorse": 5351,
      "porary": 5352,
      "Ġdefinitely": 5353,
      "Ġblocks": 5354,
      "ĠAnge": 5355,
      "Ġmistake": 5356,
      "Ġnewspaper": 5357,
      "Ġmirror": 5358,
      "Good": 5359,
      "uel": 5360,
      "Ġbill": 5361,
      "Ġmer": 5362,
      "etics": 5363,
      "Ġque": 5364,
      "Ġphr": 5365,
      "Ġinstall": 5366,
      "Ġ196": 5367,
      "Ġlessons": 5368,
      "Ġruns": 5369,
      "Ġregard": 5370,
      "Ġscared": 5371,
      "Ġpractical": 5372,
      "Ġcombination": 5373,
      "Ġaffected": 5374,
      "Ġpollution": 5375,
      "Ġmountains": 5376,
      "Ġspectrum": 5377,
      "Ġtumor": 5378,
      "bur": 5379,
      "hone": 5380,
      "iat": 5381,
      "Ġoption": 5382,
      "orous": 5383,
      "icing": 5384,
      "Ġconver": 5385,
      "Ġens": 5386,
      "ĠMil": 5387,
      "Ġclip": 5388,
      "ĠTe": 5389,
      "ĠTur": 5390,
      "ĠNob": 5391,
      "Ġgoods": 5392,
      "ĠWik": 5393,
      "Ġdriven": 5394,
      "ĠYouTube": 5395,
      "Ġautonom": 5396,
      "Ġrefer": 5397,
      "Ġassist": 5398,
      "Ġrecorded": 5399,
      "Ġtypically": 5400,
      "Ġreached": 5401,
      "Ġdemocratic": 5402,
      "Ġevolutionary": 5403,
      "ĠAmaz": 5404,
      "Ġseason": 5405,
      "riend": 5406,
      "Ġopinion": 5407,
      "Ġkitchen": 5408,
      "Could": 5409,
      "lines": 5410,
      "Ġtank": 5411,
      "Ġcortex": 5412,
      "Ġbare": 5413,
      "ingu": 5414,
      "Ġfishing": 5415,
      "esh": 5416,
      "olving": 5417,
      "eline": 5418,
      "Ġworldwide": 5419,
      "Ġperception": 5420,
      "Ġclock": 5421,
      "ternal": 5422,
      "Ġcenters": 5423,
      "Ġinclude": 5424,
      "Ġpulled": 5425,
      "Ġneighbors": 5426,
      "Ġestim": 5427,
      "Ġaftern": 5428,
      "Ġingred": 5429,
      "Ġfalse": 5430,
      "500": 5431,
      "Since": 5432,
      "ss": 5433,
      "uits": 5434,
      "Ġought": 5435,
      "Ġcere": 5436,
      "ita": 5437,
      "Ġeld": 5438,
      "sec": 5439,
      "urance": 5440,
      "Ġdogs": 5441,
      "Ġrational": 5442,
      "ĠSm": 5443,
      "Ġactions": 5444,
      "ĠMo": 5445,
      "ĠGen": 5446,
      "ĠTr": 5447,
      "Ġsinging": 5448,
      "Ġkeeps": 5449,
      "Ġliterature": 5450,
      "Ġpsychology": 5451,
      "Ġprivacy": 5452,
      "Ġrequired": 5453,
      "Ġtraveling": 5454,
      "Ġrelevant": 5455,
      "Ġforests": 5456,
      "Ġsatis": 5457,
      "Ġdropped": 5458,
      "Ġcollaboration": 5459,
      "point": 5460,
      "Ġchicken": 5461,
      "Ġsophisticated": 5462,
      "Last": 5463,
      "ean": 5464,
      "ham": 5465,
      "Ġcast": 5466,
      "Ġmira": 5467,
      "Ġdip": 5468,
      "Ġinput": 5469,
      "oos": 5470,
      "Ġsevere": 5471,
      "Ġnotes": 5472,
      "Ġplus": 5473,
      "Ġfeature": 5474,
      "Ġfeatures": 5475,
      "Ġdiss": 5476,
      "Ġadj": 5477,
      "Ġapplied": 5478,
      "Ġpersonally": 5479,
      "Ġnaturally": 5480,
      "Ġharvest": 5481,
      "ĠPhil": 5482,
      "Ġparticipate": 5483,
      "Ġvehicles": 5484,
      "gment": 5485,
      "spe": 5486,
      "Ġcord": 5487,
      "Ġhits": 5488,
      "usive": 5489,
      "Ġreci": 5490,
      "Ġju": 5491,
      "umps": 5492,
      "Ġvent": 5493,
      "abled": 5494,
      "Ġperman": 5495,
      "Ġaging": 5496,
      "Ġtechnological": 5497,
      "Ġskill": 5498,
      "Ġcourage": 5499,
      "Ġ2008": 5500,
      "arrass": 5501,
      "Ġ75": 5502,
      "Ġsenses": 5503,
      "Ġdestruction": 5504,
      "Ġmeaningful": 5505,
      "Ġcombined": 5506,
      "Ġrocket": 5507,
      "Ġfundamentally": 5508,
      "Ġultimate": 5509,
      "Anyway": 5510,
      "Ġhoping": 5511,
      "Ġancestors": 5512,
      "Ġsports": 5513,
      "Ġillegal": 5514,
      "Ġliquid": 5515,
      "Ġunusual": 5516,
      "Ġwine": 5517,
      "Ġbicy": 5518,
      "Ġmile": 5519,
      "Ġdedic": 5520,
      "ifth": 5521,
      "Ġasp": 5522,
      "Ġrig": 5523,
      "ums": 5524,
      "ĠBer": 5525,
      "ĠBro": 5526,
      "ĠGal": 5527,
      "Ġremo": 5528,
      "Ġscore": 5529,
      "Ġglam": 5530,
      "oston": 5531,
      "Ġformed": 5532,
      "Ġtopic": 5533,
      "Ġincreased": 5534,
      "Ġoperate": 5535,
      "Ġstronger": 5536,
      "Ġmechanism": 5537,
      "ĠFrank": 5538,
      "Ġawareness": 5539,
      "Ġefficiency": 5540,
      "Ġactivities": 5541,
      "Ġalgorithms": 5542,
      "Ġeggs": 5543,
      "Ġafternoon": 5544,
      "oly": 5545,
      "vable": 5546,
      "xim": 5547,
      "itual": 5548,
      "Ġsees": 5549,
      "osh": 5550,
      "Ġacting": 5551,
      "Ġunderwater": 5552,
      "Ġpregn": 5553,
      "ework": 5554,
      "Ġsolved": 5555,
      "Ġprocessing": 5556,
      "Ġfunctions": 5557,
      "Ġclever": 5558,
      "Ġphysically": 5559,
      "Ġmemories": 5560,
      "Ġtrend": 5561,
      "Ġrecords": 5562,
      "Ġsunlight": 5563,
      "Ġembarrass": 5564,
      "Ġinternal": 5565,
      "Ġhospitals": 5566,
      "Ġ1990": 5567,
      "Ġ2010": 5568,
      "Ġmistakes": 5569,
      "Ġframework": 5570,
      "Ġoccurred": 5571,
      "Ġsweet": 5572,
      "ĠGeorge": 5573,
      "Ġtransportation": 5574,
      "Ġmanufacturing": 5575,
      "ĠRussia": 5576,
      "Ġaccompl": 5577,
      "ĠNASA": 5578,
      "cred": 5579,
      "scale": 5580,
      "uper": 5581,
      "enced": 5582,
      "Ġpair": 5583,
      "Ġpitch": 5584,
      "Ġinequ": 5585,
      "Ġgut": 5586,
      "Ġwash": 5587,
      "ĠOb": 5588,
      "Ġstudio": 5589,
      "Thanks": 5590,
      "Ġfoundation": 5591,
      "Ġ194": 5592,
      "Ġbiom": 5593,
      "gged": 5594,
      "Ġtests": 5595,
      "Ġjoke": 5596,
      "Ġempathy": 5597,
      "Ġcooking": 5598,
      "Ġsurvey": 5599,
      "Ġgarden": 5600,
      "Ġastronom": 5601,
      "Perhaps": 5602,
      "Bas": 5603,
      "bre": 5604,
      "bed": 5605,
      "making": 5606,
      "nel": 5607,
      "za": 5608,
      "Ġwitness": 5609,
      "asks": 5610,
      "ula": 5611,
      "Ġmak": 5612,
      "Ġtheme": 5613,
      "Ġtrig": 5614,
      "Ġsomewhat": 5615,
      "aren": 5616,
      "ĠBank": 5617,
      "ĠBoston": 5618,
      "being": 5619,
      "Ġconservation": 5620,
      "Ġsuppose": 5621,
      "Ġmusical": 5622,
      "Ġequally": 5623,
      "Ġlargely": 5624,
      "Ġfalling": 5625,
      "Ġdomin": 5626,
      "ĠFrance": 5627,
      "cription": 5628,
      "ĠPacific": 5629,
      "Os": 5630,
      "Please": 5631,
      "Yet": 5632,
      "Ġwars": 5633,
      "Ġfert": 5634,
      "Ġiniti": 5635,
      "Ġnav": 5636,
      "Three": 5637,
      "Ġstorm": 5638,
      "Ġshame": 5639,
      "While": 5640,
      "abol": 5641,
      "Ġcoord": 5642,
      "Ġprime": 5643,
      "Ġdiscipl": 5644,
      "ĠLife": 5645,
      "Ġdrives": 5646,
      "Ġcomputing": 5647,
      "Ġadvice": 5648,
      "Ġcollected": 5649,
      "retch": 5650,
      "Ġamounts": 5651,
      "Ġhoriz": 5652,
      "Ġbirthday": 5653,
      "Ġburning": 5654,
      "Ġproteins": 5655,
      "Ġtape": 5656,
      "Ġdramatic": 5657,
      "Ġswimming": 5658,
      "Ġdoubt": 5659,
      "Ġlaptop": 5660,
      "fortunately": 5661,
      "mm": 5662,
      "ta": 5663,
      "vis": 5664,
      "ĠThese": 5665,
      "Ġcave": 5666,
      "itz": 5667,
      "Ġhung": 5668,
      "Ġdiction": 5669,
      "sem": 5670,
      "Ġanx": 5671,
      "Ġcha": 5672,
      "Ġbutton": 5673,
      "Ġclub": 5674,
      "ĠTo": 5675,
      "berg": 5676,
      "Ġdesper": 5677,
      "ĠJames": 5678,
      "Ġdecl": 5679,
      "Ġapparent": 5680,
      "whel": 5681,
      "Ġvisible": 5682,
      "Ġfigures": 5683,
      "Ġadvent": 5684,
      "ended": 5685,
      "Ġprotected": 5686,
      "Ġpotentially": 5687,
      "Ġphotographs": 5688,
      "Ġsilence": 5689,
      "Ġconclusion": 5690,
      "Ġconcrete": 5691,
      "Ġantibiot": 5692,
      "70": 5693,
      "night": 5694,
      "rat": 5695,
      "source": 5696,
      "xide": 5697,
      "Ġsets": 5698,
      "Ġtoy": 5699,
      "Ġfake": 5700,
      "Ġupper": 5701,
      "Ġsuit": 5702,
      "ĠMont": 5703,
      "ĠPort": 5704,
      "angers": 5705,
      "Ġload": 5706,
      "Ġcontrast": 5707,
      "elly": 5708,
      "akers": 5709,
      "Ġpercentage": 5710,
      "Ġelection": 5711,
      "Ġ1960": 5712,
      "hips": 5713,
      "Ġpresence": 5714,
      "Ġdefined": 5715,
      "Ġconstant": 5716,
      "Ġpsychological": 5717,
      "Also": 5718,
      "Ġridic": 5719,
      "Ġtoxic": 5720,
      "Ġpiano": 5721,
      "ĠAmazon": 5722,
      "yn": 5723,
      "Ġvert": 5724,
      "Ġthick": 5725,
      "Ġcents": 5726,
      "isters": 5727,
      "Ġbes": 5728,
      "Ġrenew": 5729,
      "Ġchose": 5730,
      "ĠAre": 5731,
      "Ġquarter": 5732,
      "ĠGood": 5733,
      "Ġoverall": 5734,
      "Ġoverwhel": 5735,
      "Ġcontem": 5736,
      "Ġobst": 5737,
      "Ġcreature": 5738,
      "Ġstring": 5739,
      "Ġextinct": 5740,
      "ĠValley": 5741,
      "Ġconfidence": 5742,
      "Ġconfront": 5743,
      "Ġrooms": 5744,
      "Ġmarketing": 5745,
      "Ġsensitive": 5746,
      "Ġoperation": 5747,
      "Ġcritic": 5748,
      "Ġroads": 5749,
      "Ġtracking": 5750,
      "Ġconversations": 5751,
      "Ġsubjects": 5752,
      "Ġattacks": 5753,
      "Ġempower": 5754,
      "Ġadminist": 5755,
      "Ġframe": 5756,
      "ĠProject": 5757,
      "ĠiPhone": 5758,
      "Ġaccurate": 5759,
      "Ġtonight": 5760,
      "Ġexplanation": 5761,
      "Ar": 5762,
      "Rem": 5763,
      "foot": 5764,
      "inction": 5765,
      "Ġmere": 5766,
      "Ġhook": 5767,
      "Ġhunt": 5768,
      "Ġwel": 5769,
      "rob": 5770,
      "Ġritual": 5771,
      "Ġoutcome": 5772,
      "Ġintense": 5773,
      "ĠColl": 5774,
      "Ġremains": 5775,
      "Ġproductive": 5776,
      "Ġfilms": 5777,
      "Ġdiag": 5778,
      "aneously": 5779,
      "Ġproviding": 5780,
      "Ġinnovative": 5781,
      "Ġexisting": 5782,
      "Ġexplained": 5783,
      "Ġstayed": 5784,
      "Ġinspiration": 5785,
      "Ġsilk": 5786,
      "Ġsustainability": 5787,
      "Ġinfected": 5788,
      "Ġsurrounded": 5789,
      "Ġclothes": 5790,
      "Ġappropriate": 5791,
      "ollywood": 5792,
      "Ġcircumstances": 5793,
      "ls": 5794,
      "iture": 5795,
      "lly": 5796,
      "Ġlens": 5797,
      "aser": 5798,
      "Ġnurs": 5799,
      "owered": 5800,
      "Ġreject": 5801,
      "Ġreverse": 5802,
      "Ġorch": 5803,
      "estyle": 5804,
      "ĠAlex": 5805,
      "Ġcock": 5806,
      "Ġnowhere": 5807,
      "ankly": 5808,
      "obal": 5809,
      "Ġmonkey": 5810,
      "Ġrecom": 5811,
      "ĠStan": 5812,
      "Ġsubs": 5813,
      "Ġelectro": 5814,
      "Ġtested": 5815,
      "Ġclosely": 5816,
      "Ġpresentation": 5817,
      "Ġmeasured": 5818,
      "Ġcircuit": 5819,
      "Ġsongs": 5820,
      "Ġbreathe": 5821,
      "Ġassume": 5822,
      "Ġauthority": 5823,
      "Ġspiritual": 5824,
      "Ġelectronic": 5825,
      "iosity": 5826,
      "Ġflew": 5827,
      "Other": 5828,
      "tail": 5829,
      "itors": 5830,
      "Ġment": 5831,
      "Ġpill": 5832,
      "Ġfurn": 5833,
      "esome": 5834,
      "Ġdot": 5835,
      "Ġnest": 5836,
      "stand": 5837,
      "keys": 5838,
      "adic": 5839,
      "Ġcomment": 5840,
      "Ġchurch": 5841,
      "Ġuncom": 5842,
      "Ġunknown": 5843,
      "Ġresil": 5844,
      "Ġcommand": 5845,
      "Ġdecline": 5846,
      "Ġdiam": 5847,
      "Ġabsor": 5848,
      "Ġsensors": 5849,
      "Ġjoined": 5850,
      "Ġoptions": 5851,
      "Ġerror": 5852,
      "Ġ1980": 5853,
      "Ġapplications": 5854,
      "Ġwireless": 5855,
      "ĠParis": 5856,
      "Ġappreciate": 5857,
      "Ġhorrible": 5858,
      "Ġsplit": 5859,
      "den": 5860,
      "ih": 5861,
      "och": 5862,
      "oons": 5863,
      "Ġtack": 5864,
      "Ġbones": 5865,
      "Ġpin": 5866,
      "Ġpump": 5867,
      "Ġpapers": 5868,
      "Ġloud": 5869,
      "alu": 5870,
      "Ġwhales": 5871,
      "Ġears": 5872,
      "allel": 5873,
      "illing": 5874,
      "Ġjail": 5875,
      "Ġdeploy": 5876,
      "Ġvan": 5877,
      "Ġplate": 5878,
      "Ġevening": 5879,
      "ĠRes": 5880,
      "ĠRev": 5881,
      "Ġflower": 5882,
      "ĠJan": 5883,
      "Ġelev": 5884,
      "Ġdatab": 5885,
      "ĠState": 5886,
      "Ġeconomists": 5887,
      "Ġcurve": 5888,
      "Ġchallenging": 5889,
      "Ġzoom": 5890,
      "Ġdeaths": 5891,
      "Ġdepth": 5892,
      "herent": 5893,
      "Ġhousing": 5894,
      "Ġcontrolled": 5895,
      "Ġtherapy": 5896,
      "Ġtaste": 5897,
      "Ġsymptoms": 5898,
      "ĠAngeles": 5899,
      "Her": 5900,
      "cal": 5901,
      "look": 5902,
      "iters": 5903,
      "Ġboring": 5904,
      "Ġmad": 5905,
      "Ġhorm": 5906,
      "Ġpool": 5907,
      "Ġlying": 5908,
      "omas": 5909,
      "Ġwhist": 5910,
      "ipedia": 5911,
      "Ġdisg": 5912,
      "ptember": 5913,
      "ologically": 5914,
      "ĠDep": 5915,
      "Ġremove": 5916,
      "Ġrelate": 5917,
      "Ġtranspl": 5918,
      "Ġcenturies": 5919,
      "Ġhandle": 5920,
      "ĠUnion": 5921,
      "Ġ2007": 5922,
      "Ġadvance": 5923,
      "Ġstatement": 5924,
      "Ġprovided": 5925,
      "Only": 5926,
      "Ġmulti": 5927,
      "Ġcombine": 5928,
      "Ġvolume": 5929,
      "Ġsuffer": 5930,
      "Ġpassionate": 5931,
      "Ġlaboratory": 5932,
      "Ġfingers": 5933,
      "Ġsamples": 5934,
      "Ġgentlemen": 5935,
      "Ġnarrative": 5936,
      "ĠWho": 5937,
      "inations": 5938,
      "Ġnose": 5939,
      "Ġitem": 5940,
      "ĠMic": 5941,
      "ĠMart": 5942,
      "Ġwherever": 5943,
      "Ġimplement": 5944,
      "Ġ22": 5945,
      "athers": 5946,
      "Ġinstruct": 5947,
      "Ġcollapse": 5948,
      "Ġexploration": 5949,
      "Ġbusy": 5950,
      "Ġglobe": 5951,
      "Ġdistinct": 5952,
      "Ġallowing": 5953,
      "Ġautism": 5954,
      "Ġfalls": 5955,
      "Ġvillages": 5956,
      "Ġhotel": 5957,
      "Ġtransformed": 5958,
      "Ġflowers": 5959,
      "ounced": 5960,
      "Ġclouds": 5961,
      "Ġparadigm": 5962,
      "Unfortunately": 5963,
      "Ġchannel": 5964,
      "ĠGPS": 5965,
      "Am": 5966,
      "ault": 5967,
      "ounce": 5968,
      "eness": 5969,
      "Ġfan": 5970,
      "Ġweigh": 5971,
      "Ġstone": 5972,
      "anta": 5973,
      "que": 5974,
      "Ġoutc": 5975,
      "ĠMuseum": 5976,
      "ĠGulf": 5977,
      "Ġ23": 5978,
      "ĠLaw": 5979,
      "Ġtechnique": 5980,
      "tech": 5981,
      "Ġextent": 5982,
      "Ġbike": 5983,
      "Ġexplos": 5984,
      "Ġgras": 5985,
      "ographer": 5986,
      "Ġmemor": 5987,
      "Ġ600": 5988,
      "box": 5989,
      "Ġcyber": 5990,
      "Ġmarine": 5991,
      "Ġdivide": 5992,
      "ĠChristmas": 5993,
      "Ġdetermine": 5994,
      "Ġangry": 5995,
      "Basically": 5996,
      "Ġnavig": 5997,
      "Ab": 5998,
      "BG": 5999,
      "Talk": 6000,
      "fin": 6001,
      "father": 6002,
      "hour": 6003,
      "ĠWhere": 6004,
      "Ġicon": 6005,
      "Ġath": 6006,
      "Ġbarr": 6007,
      "Ġfiction": 6008,
      "Ġdress": 6009,
      "lymp": 6010,
      "Ġattend": 6011,
      "ateful": 6012,
      "emb": 6013,
      "Ġexpon": 6014,
      "Ġprize": 6015,
      "Ġpoly": 6016,
      "ĠPer": 6017,
      "Ġroot": 6018,
      "Ġhumor": 6019,
      "Ġcorres": 6020,
      "Ġstandards": 6021,
      "Ġprofit": 6022,
      "Ġmilk": 6023,
      "clear": 6024,
      "Ġbehavioral": 6025,
      "Ġencoun": 6026,
      "Ġfootprint": 6027,
      "Ġrocks": 6028,
      "Ġfaced": 6029,
      "Ġsuggests": 6030,
      "Ġpollen": 6031,
      "Ġcapitalism": 6032,
      "Ġlinked": 6033,
      "Ġlogic": 6034,
      "Ġfixed": 6035,
      "Ġinstruments": 6036,
      "Ġapplication": 6037,
      "Ġembrace": 6038,
      "Ġpolicies": 6039,
      "Ġmosquit": 6040,
      "dr": 6041,
      "hol": 6042,
      "uce": 6043,
      "Ġtent": 6044,
      "Ġsen": 6045,
      "nda": 6046,
      "nding": 6047,
      "Ġdancing": 6048,
      "otion": 6049,
      "iggs": 6050,
      "ola": 6051,
      "Ġru": 6052,
      "Ġvibr": 6053,
      "Ġsuic": 6054,
      "Ġenable": 6055,
      "ĠMon": 6056,
      "Ġimpl": 6057,
      "Ġdownload": 6058,
      "onscious": 6059,
      "Ġpolar": 6060,
      "Ġmush": 6061,
      "Ġorganism": 6062,
      "Ġbreed": 6063,
      "Ġlabel": 6064,
      "Ġlimits": 6065,
      "Ġidentical": 6066,
      "ĠSeptember": 6067,
      "Ġarmy": 6068,
      "Ġadmit": 6069,
      "Ġpuzzle": 6070,
      "ĠCharles": 6071,
      "Ġinfinite": 6072,
      "ĠRepublic": 6073,
      "gent": 6074,
      "mal": 6075,
      "well": 6076,
      "ato": 6077,
      "nded": 6078,
      "Ġborder": 6079,
      "Ġhur": 6080,
      "Ġpushing": 6081,
      "Ġgest": 6082,
      "vey": 6083,
      "etically": 6084,
      "sters": 6085,
      "Ġanger": 6086,
      "Ġhem": 6087,
      "iled": 6088,
      "Ġspinal": 6089,
      "Ġplans": 6090,
      "ĠOlymp": 6091,
      "acing": 6092,
      "Ġdecre": 6093,
      "Ġscar": 6094,
      "Ġcausing": 6095,
      "Ġyounger": 6096,
      "Ġeducational": 6097,
      "Ġreference": 6098,
      "Ġcontinued": 6099,
      "Ġdirector": 6100,
      "Ġfunding": 6101,
      "ĠThanks": 6102,
      "Ġmeasuring": 6103,
      "Ġoccasion": 6104,
      "Ġfeeding": 6105,
      "Ġarchitects": 6106,
      "Ġboxes": 6107,
      "Ġfloating": 6108,
      "Ġmechanical": 6109,
      "ĠMichael": 6110,
      "Ġimplications": 6111,
      "Ġpoorest": 6112,
      "Ġnarrow": 6113,
      "lock": 6114,
      "van": 6115,
      "Ġack": 6116,
      "esity": 6117,
      "Ġinject": 6118,
      "arant": 6119,
      "Ġwhale": 6120,
      "Ġselection": 6121,
      "Ġfright": 6122,
      "Ġfrankly": 6123,
      "Ġchocol": 6124,
      "Ġvag": 6125,
      "ĠAnt": 6126,
      "Ġacts": 6127,
      "Ġ250": 6128,
      "Ġdisorders": 6129,
      "Ġshell": 6130,
      "Ġguide": 6131,
      "Ġowners": 6132,
      "Ġcorals": 6133,
      "Ġequation": 6134,
      "Ġclasses": 6135,
      "Ġincreases": 6136,
      "Ġconstrain": 6137,
      "Ġanticip": 6138,
      "Ġgreenhouse": 6139,
      "Ġrobotic": 6140,
      "Ġtelephone": 6141,
      "Ġearthqu": 6142,
      "profit": 6143,
      "Ġmammals": 6144,
      "ĠSteve": 6145,
      "Ġvaccine": 6146,
      "connected": 6147,
      "Ġagreed": 6148,
      "belie": 6149,
      "Ġwondered": 6150,
      "onymous": 6151,
      "Ġunexpected": 6152,
      "ĠWikipedia": 6153,
      "90": 6154,
      "gly": 6155,
      "iety": 6156,
      "rors": 6157,
      "ups": 6158,
      "ingly": 6159,
      "Ġpy": 6160,
      "Ġfirm": 6161,
      "ota": 6162,
      "imeter": 6163,
      "ille": 6164,
      "illy": 6165,
      "ĠMed": 6166,
      "Ġclus": 6167,
      "ĠHiggs": 6168,
      "Ġpharm": 6169,
      "Ġoffered": 6170,
      "ĠFound": 6171,
      "Ġcarried": 6172,
      "Ġtransfer": 6173,
      "Ġinterf": 6174,
      "Ġ1950": 6175,
      "Ġelim": 6176,
      "Ġparking": 6177,
      "Ġsecure": 6178,
      "Ġexisted": 6179,
      "Ġarguments": 6180,
      "Ġviolent": 6181,
      "Ġdirections": 6182,
      "Ġobsessed": 6183,
      "Ġmathematic": 6184,
      "Ġbreathing": 6185,
      "Ġstruck": 6186,
      "Ġclinic": 6187,
      "Ġignor": 6188,
      "Ġdrinking": 6189,
      "Ġautomatically": 6190,
      "Ġirr": 6191,
      "ĠMuslims": 6192,
      "Ġlibrary": 6193,
      "Ġdiplom": 6194,
      "east": 6195,
      "iop": 6196,
      "erge": 6197,
      "itory": 6198,
      "Ġmice": 6199,
      "Ġdign": 6200,
      "ctic": 6201,
      "roso": 6202,
      "Ġstro": 6203,
      "Ġdozen": 6204,
      "Ġatom": 6205,
      "Ġproport": 6206,
      "Ġmyster": 6207,
      "Ġknock": 6208,
      "Ġspider": 6209,
      "Ġplaced": 6210,
      "emoc": 6211,
      "ĠTom": 6212,
      "ĠLatin": 6213,
      "Ġflood": 6214,
      "Ġinstinct": 6215,
      "heim": 6216,
      "Ġmonkeys": 6217,
      "Ġcareful": 6218,
      "Ġeconomies": 6219,
      "Ġ2009": 6220,
      "Ġzone": 6221,
      "Ġwindows": 6222,
      "Ġinteractions": 6223,
      "Ġperforming": 6224,
      "Ġrepresented": 6225,
      "Ġastero": 6226,
      "Ġdistributed": 6227,
      "Ġdramatically": 6228,
      "Ġscript": 6229,
      "Ġresistance": 6230,
      "Ġfabric": 6231,
      "Ġcosm": 6232,
      "Ġsurgeon": 6233,
      "Ġrecyc": 6234,
      "Ġmystery": 6235,
      "ban": 6236,
      "ias": 6237,
      "upp": 6238,
      "rets": 6239,
      "ata": 6240,
      "Ġcash": 6241,
      "Ġben": 6242,
      "Ġdense": 6243,
      "uting": 6244,
      "etch": 6245,
      "imp": 6246,
      "Ġstands": 6247,
      "amin": 6248,
      "Ġchip": 6249,
      "Ġrhyth": 6250,
      "Ġours": 6251,
      "aret": 6252,
      "Ġarrest": 6253,
      "Ġphase": 6254,
      "icted": 6255,
      "ĠJer": 6256,
      "Ġtraged": 6257,
      "while": 6258,
      "Ġgrateful": 6259,
      "Ġteams": 6260,
      "Ġconsumers": 6261,
      "Ġrecognition": 6262,
      "Ġmainly": 6263,
      "Ġspreading": 6264,
      "Ġproperly": 6265,
      "Ġdomestic": 6266,
      "Ġbombs": 6267,
      "Ġcelebrate": 6268,
      "Something": 6269,
      "Ġcomponent": 6270,
      "Ġcorporate": 6271,
      "Ġelephant": 6272,
      "Ġtoilet": 6273,
      "Ġoutcomes": 6274,
      "Finally": 6275,
      "bage": 6276,
      "wich": 6277,
      "Ġsed": 6278,
      "otes": 6279,
      "eters": 6280,
      "struct": 6281,
      "Ġstyle": 6282,
      "illance": 6283,
      "Ġneither": 6284,
      "ĠAir": 6285,
      "ĠSa": 6286,
      "aint": 6287,
      "Ġtab": 6288,
      "Ġovercome": 6289,
      "ĠJul": 6290,
      "ĠUS": 6291,
      "Ġcollaps": 6292,
      "Ġsolving": 6293,
      "Ġmetabol": 6294,
      "Ġengaging": 6295,
      "Ġpopulations": 6296,
      "Ġ2005": 6297,
      "Ġexcl": 6298,
      "Ġhousehold": 6299,
      "Ġillusion": 6300,
      "Ġaston": 6301,
      "Ġlifestyle": 6302,
      "Ġsavings": 6303,
      "Ġprototype": 6304,
      "Ġenemy": 6305,
      "abetes": 6306,
      "Ġpenguins": 6307,
      "called": 6308,
      "iance": 6309,
      "oca": 6310,
      "Ġtight": 6311,
      "Ġtube": 6312,
      "isl": 6313,
      "Ġborders": 6314,
      "Ġmales": 6315,
      "Ġhoney": 6316,
      "iform": 6317,
      "Ġtea": 6318,
      "ĠMe": 6319,
      "Ġprices": 6320,
      "ĠRob": 6321,
      "Ġscary": 6322,
      "Ġobesity": 6323,
      "Ġstoryt": 6324,
      "Ġgrows": 6325,
      "Ġhardware": 6326,
      "Ġbiod": 6327,
      "Ġcolum": 6328,
      "Ġpainful": 6329,
      "Ġfilter": 6330,
      "Ġcrack": 6331,
      "appy": 6332,
      "Ġpractices": 6333,
      "Ġreceive": 6334,
      "iveness": 6335,
      "Ġ1970": 6336,
      "Ġcontrolling": 6337,
      "Ġmaintain": 6338,
      "ĠKorea": 6339,
      "Ġphrase": 6340,
      "Ġobstac": 6341,
      "Ġacknow": 6342,
      "bal": 6343,
      "rary": 6344,
      "tes": 6345,
      "Ġlung": 6346,
      "Ġloop": 6347,
      "Ġstack": 6348,
      "Ġstretch": 6349,
      "through": 6350,
      "ams": 6351,
      "Ġsem": 6352,
      "Ġproced": 6353,
      "rous": 6354,
      "Ġseek": 6355,
      "Ġtries": 6356,
      "Ġplenty": 6357,
      "Ġworker": 6358,
      "ĠMount": 6359,
      "ĠHaw": 6360,
      "ĠPe": 6361,
      "ĠLa": 6362,
      "ĠFe": 6363,
      "aks": 6364,
      "Ġsmoke": 6365,
      "Ġbrothers": 6366,
      "Ġraising": 6367,
      "Ġlets": 6368,
      "Ġconserv": 6369,
      "Ġgrab": 6370,
      "Ġentered": 6371,
      "Ġpolio": 6372,
      "Ġstri": 6373,
      "Ġpresented": 6374,
      "Ġgray": 6375,
      "Ġrecording": 6376,
      "Ġentrepreneur": 6377,
      "Ġcooperation": 6378,
      "Ġphilosophy": 6379,
      "Ġdestroyed": 6380,
      "Ġexhibition": 6381,
      "Ġprecisely": 6382,
      "Ġacademic": 6383,
      "ĠSweden": 6384,
      "Ġlicense": 6385,
      "Ġromantic": 6386,
      "Ġconventional": 6387,
      "ĠGhana": 6388,
      "Ġinequality": 6389,
      "ĠObama": 6390,
      "Ġantibiotics": 6391,
      "ĠRevolution": 6392,
      "ĠFoundation": 6393,
      "10": 6394,
      "sum": 6395,
      "Ġsales": 6396,
      "Ġpour": 6397,
      "edy": 6398,
      "Ġlun": 6399,
      "rade": 6400,
      "Ġabuse": 6401,
      "Ġgolf": 6402,
      "Ġneut": 6403,
      "ogue": 6404,
      "ĠMa": 6405,
      "ĠMal": 6406,
      "ĠEm": 6407,
      "ĠEth": 6408,
      "ĠHouse": 6409,
      "ello": 6410,
      "Ġpretend": 6411,
      "Ġraw": 6412,
      "Ġappeared": 6413,
      "Ġdesigns": 6414,
      "Ġslides": 6415,
      "Ġparticle": 6416,
      "Ġconnecting": 6417,
      "Ġparallel": 6418,
      "Ġrising": 6419,
      "Ġexpectations": 6420,
      "Ġtraveled": 6421,
      "Ġconcepts": 6422,
      "Ġimmune": 6423,
      "Ġprinting": 6424,
      "Ġsculpture": 6425,
      "Ġuncertain": 6426,
      "Ġtitle": 6427,
      "Ġvessels": 6428,
      "Ġscenar": 6429,
      "ĠApple": 6430,
      "ĠJanuary": 6431,
      "Come": 6432,
      "PA": 6433,
      "top": 6434,
      "wr": 6435,
      "walk": 6436,
      "Ġtip": 6437,
      "Ġtasks": 6438,
      "oned": 6439,
      "Ġdict": 6440,
      "Ġdio": 6441,
      "Ġdensity": 6442,
      "astern": 6443,
      "Ġstere": 6444,
      "cean": 6445,
      "raction": 6446,
      "Ġexcell": 6447,
      "ĠAc": 6448,
      "Ġ27": 6449,
      "Ġpocket": 6450,
      "Ġguarant": 6451,
      "Ġpersonality": 6452,
      "Ġimagined": 6453,
      "Before": 6454,
      "Ġexplo": 6455,
      "Ġwalks": 6456,
      "Ġaccum": 6457,
      "Ġcolony": 6458,
      "Ġsurely": 6459,
      "Ġclassic": 6460,
      "ĠHealth": 6461,
      "apping": 6462,
      "Ġinteractive": 6463,
      "Ġdepartment": 6464,
      "Ġembedd": 6465,
      "Ġemergency": 6466,
      "Ġdepending": 6467,
      "Ġtranslate": 6468,
      "Ġappears": 6469,
      "Ġfascinated": 6470,
      "Ġspectac": 6471,
      "Ġthrown": 6472,
      "Ġsurveillance": 6473,
      "Ġrepeat": 6474,
      "Ġattached": 6475,
      "Ġlatest": 6476,
      "Ġentertainment": 6477,
      "Ġlecture": 6478,
      "Ġpermanent": 6479,
      "Ġrecommend": 6480,
      "Ġmushroom": 6481,
      "Te": 6482,
      "gers": 6483,
      "power": 6484,
      "Ġtill": 6485,
      "Ġmim": 6486,
      "Ġyield": 6487,
      "iders": 6488,
      "erences": 6489,
      "keep": 6490,
      "Ġliver": 6491,
      "Ġate": 6492,
      "Ġorbit": 6493,
      "ape": 6494,
      "udes": 6495,
      "Ġwhereas": 6496,
      "ĠBudd": 6497,
      "Ġunits": 6498,
      "Ġdisorder": 6499,
      "ĠLeg": 6500,
      "Ġcommitted": 6501,
      "Ġprem": 6502,
      "Ġwriter": 6503,
      "ubes": 6504,
      "ocal": 6505,
      "Ġshoulder": 6506,
      "Ġlovely": 6507,
      "Ġbehave": 6508,
      "Ġexploring": 6509,
      "pring": 6510,
      "Ġhearts": 6511,
      "ĠIsland": 6512,
      "Ġinteracting": 6513,
      "Ġreaching": 6514,
      "Ġgeomet": 6515,
      "Ġawesome": 6516,
      "Ġdivided": 6517,
      "Ġlaughing": 6518,
      "ĠCongo": 6519,
      "Ġconcert": 6520,
      "ĠIslamic": 6521,
      "Ġhabitat": 6522,
      "Ġcandid": 6523,
      "Ġcommitment": 6524,
      "Ġhunger": 6525,
      "Ġrescue": 6526,
      "ĠNobel": 6527,
      "arency": 6528,
      "Ġfurniture": 6529,
      "Ġchocolate": 6530,
      "rosoft": 6531,
      "SS": 6532,
      "gic": 6533,
      "uous": 6534,
      "under": 6535,
      "Ġther": 6536,
      "aming": 6537,
      "Ġugly": 6538,
      "Ġdelic": 6539,
      "earch": 6540,
      "quar": 6541,
      "Ġusual": 6542,
      "Ġplot": 6543,
      "ĠGold": 6544,
      "ĠJune": 6545,
      "Ġpersu": 6546,
      "Ġinvolves": 6547,
      "Ġscream": 6548,
      "Ġrepair": 6549,
      "Ġmuscles": 6550,
      "Ġcuriosity": 6551,
      "Ġbreaking": 6552,
      "Ġtreating": 6553,
      "Ġdiabetes": 6554,
      "Ġrecognized": 6555,
      "Ġmagnetic": 6556,
      "related": 6557,
      "Ġpaintings": 6558,
      "Ġmanufacture": 6559,
      "Ġcustomers": 6560,
      "Ġrecovery": 6561,
      "Ġaxis": 6562,
      "Ġspoken": 6563,
      "Remember": 6564,
      "Ġdioxide": 6565,
      "DH": 6566,
      "Nob": 6567,
      "hatt": 6568,
      "iated": 6569,
      "uk": 6570,
      "inals": 6571,
      "Ġtoler": 6572,
      "Ġpace": 6573,
      "orking": 6574,
      "that": 6575,
      "think": 6576,
      "Ġsection": 6577,
      "Ġshr": 6578,
      "Ġchest": 6579,
      "Ġrush": 6580,
      "ĠAct": 6581,
      "osen": 6582,
      "Ġsacr": 6583,
      "ĠHom": 6584,
      "ĠDay": 6585,
      "ĠRw": 6586,
      "Ġflash": 6587,
      "Ġbrown": 6588,
      "Ġplays": 6589,
      "Ġgla": 6590,
      "azz": 6591,
      "Ġfinance": 6592,
      "Ġcontrovers": 6593,
      "Ġsigned": 6594,
      "Ġopposed": 6595,
      "arrator": 6596,
      "Ġproductivity": 6597,
      "Ġ65": 6598,
      "ĠArt": 6599,
      "ĠSecond": 6600,
      "Ġballoon": 6601,
      "Ġestimate": 6602,
      "Ġachieved": 6603,
      "Ġceiling": 6604,
      "Ġvirtually": 6605,
      "Ġconcern": 6606,
      "going": 6607,
      "Ġshooting": 6608,
      "Ġaspects": 6609,
      "About": 6610,
      "Ġpyram": 6611,
      "hattan": 6612,
      "MS": 6613,
      "Wow": 6614,
      "cence": 6615,
      "doll": 6616,
      "pass": 6617,
      "vas": 6618,
      "Ġtired": 6619,
      "Ġwings": 6620,
      "rey": 6621,
      "eration": 6622,
      "Ġpink": 6623,
      "org": 6624,
      "ida": 6625,
      "Ġassemb": 6626,
      "Ġmold": 6627,
      "Ġlikes": 6628,
      "Ġmaxim": 6629,
      "Ġwanting": 6630,
      "Ġtag": 6631,
      "agger": 6632,
      "ĠBab": 6633,
      "ĠBush": 6634,
      "ĠNG": 6635,
      "Ġsheep": 6636,
      "Ġmonitor": 6637,
      "Ġanimation": 6638,
      "Ġcorn": 6639,
      "Ġagenda": 6640,
      "Ġcheaper": 6641,
      "exas": 6642,
      "Ġescape": 6643,
      "Ġpurch": 6644,
      "Ġeradic": 6645,
      "Ġreported": 6646,
      "Ġconflicts": 6647,
      "Ġdisappeared": 6648,
      "Ġcolleague": 6649,
      "Ġsandwich": 6650,
      "Ġportra": 6651,
      "ĠCentral": 6652,
      "Ġscratch": 6653,
      "Ġrebuild": 6654,
      "ĠRobert": 6655,
      "Ġincentives": 6656,
      "Ġprivilege": 6657,
      "Ġadjust": 6658,
      "Ġbicycle": 6659,
      "Ġdignity": 6660,
      "Ġembedded": 6661,
      "AR": 6662,
      "nic": 6663,
      "oir": 6664,
      "Ġtro": 6665,
      "Ġcute": 6666,
      "Ġdiverse": 6667,
      "Ġgig": 6668,
      "level": 6669,
      "lete": 6670,
      "Ġbeg": 6671,
      "iday": 6672,
      "Ġaband": 6673,
      "Ġconven": 6674,
      "Ġvital": 6675,
      "Ġbackwards": 6676,
      "ĠPeople": 6677,
      "ĠTor": 6678,
      "ĠLook": 6679,
      "Ġheroes": 6680,
      "phones": 6681,
      "Ġpref": 6682,
      "Ġinsurance": 6683,
      "Ġproduces": 6684,
      "Ġmeter": 6685,
      "Ġhardly": 6686,
      "Ġgenerated": 6687,
      "Ġdevast": 6688,
      "Ġconstit": 6689,
      "class": 6690,
      "Ġlegisl": 6691,
      "Ġgrandfather": 6692,
      "ĠSec": 6693,
      "Ġapartment": 6694,
      "zees": 6695,
      "Ġaccepted": 6696,
      "Ġengagement": 6697,
      "Ġignore": 6698,
      "ĠManhattan": 6699,
      "Ġladies": 6700,
      "Ġneighborhoods": 6701,
      "Ġfrozen": 6702,
      "Ġvolunteers": 6703,
      "Ġauthent": 6704,
      "Ġremoved": 6705,
      "Ġvertical": 6706,
      "Ġorchest": 6707,
      "ĠStanford": 6708,
      "Ġdisgust": 6709,
      "Nobody": 6710,
      "Ah": 6711,
      "SP": 6712,
      "hen": 6713,
      "ras": 6714,
      "Ġcens": 6715,
      "Ġbon": 6716,
      "Ġlin": 6717,
      "leton": 6718,
      "Ġnit": 6719,
      "iment": 6720,
      "uration": 6721,
      "Ġstations": 6722,
      "Ġaside": 6723,
      "Ġshake": 6724,
      "tery": 6725,
      "Ġchamp": 6726,
      "Ġalien": 6727,
      "ĠCop": 6728,
      "Ġenh": 6729,
      "Ġunbelie": 6730,
      "ĠTexas": 6731,
      "ĠNations": 6732,
      "angle": 6733,
      "century": 6734,
      "phas": 6735,
      "ĠOx": 6736,
      "Ġtraum": 6737,
      "Ġscales": 6738,
      "oster": 6739,
      "Ġ32": 6740,
      "Ġboom": 6741,
      "Ġreput": 6742,
      "Ġinfl": 6743,
      "Ġorganize": 6744,
      "Ġdefend": 6745,
      "Ġcontinues": 6746,
      "Ġmeetings": 6747,
      "aws": 6748,
      "Ġlegit": 6749,
      "Ġlegacy": 6750,
      "Ġdarkness": 6751,
      "Ġfootball": 6752,
      "Ġreduction": 6753,
      "ĠThomas": 6754,
      "Ġfunctional": 6755,
      "Ġrainforest": 6756,
      "Ġcaptured": 6757,
      "Ġstrategies": 6758,
      "Ġjudge": 6759,
      "Ġnorthern": 6760,
      "Ġadopt": 6761,
      "Ġdolphins": 6762,
      "Ġtelescope": 6763,
      "Ġelder": 6764,
      "Ġdedicated": 6765,
      "ĠMicrosoft": 6766,
      "ĠEthiop": 6767,
      "fall": 6768,
      "part": 6769,
      "ua": 6770,
      "Ġtheories": 6771,
      "Ġcup": 6772,
      "arp": 6773,
      "Ġchosen": 6774,
      "andem": 6775,
      "ĠScience": 6776,
      "Ġactors": 6777,
      "Ġexpans": 6778,
      "Ġexposed": 6779,
      "Ġbubb": 6780,
      "Ġimper": 6781,
      "Ġflip": 6782,
      "Ġinstant": 6783,
      "Ġlaughter": 6784,
      "archy": 6785,
      "ĠSov": 6786,
      "Ġgovernance": 6787,
      "Ġglobally": 6788,
      "Ġcharity": 6789,
      "Ġequality": 6790,
      "lessly": 6791,
      "Ġcollecting": 6792,
      "Ġmissed": 6793,
      "Ġaccessible": 6794,
      "Ġsilent": 6795,
      "forward": 6796,
      "Ġdrove": 6797,
      "Ġuniversities": 6798,
      "Ġcontribute": 6799,
      "Ġcrying": 6800,
      "Ġoptimistic": 6801,
      "Ġsuspect": 6802,
      "Ġmotivation": 6803,
      "Ġalgorithm": 6804,
      "Ġpunish": 6805,
      "Ġpowers": 6806,
      "Ġadvertising": 6807,
      "Ġshadow": 6808,
      "ĠHaiti": 6809,
      "Ġhungry": 6810,
      "100": 6811,
      "hib": 6812,
      "iology": 6813,
      "Ġaim": 6814,
      "Ġbat": 6815,
      "Ġmarch": 6816,
      "Ġfulf": 6817,
      "anthrop": 6818,
      "Ġeast": 6819,
      "usions": 6820,
      "children": 6821,
      "Ġangle": 6822,
      "thal": 6823,
      "Ġmeg": 6824,
      "unclear": 6825,
      "Ġtri": 6826,
      "Ġevolve": 6827,
      "ptions": 6828,
      "ĠTalk": 6829,
      "Ġresolution": 6830,
      "ĠJack": 6831,
      "Ġfinds": 6832,
      "ĠUg": 6833,
      "Ġpatent": 6834,
      "Ġattrib": 6835,
      "Ġoldest": 6836,
      "Ġskull": 6837,
      "Ġprobability": 6838,
      "Ġdistant": 6839,
      "Ġparas": 6840,
      "Ġprovides": 6841,
      "Ġamongst": 6842,
      "Ġtouched": 6843,
      "Ġmechanics": 6844,
      "Ġsearching": 6845,
      "pox": 6846,
      "Ġefforts": 6847,
      "Ġweapon": 6848,
      "Ġhistorical": 6849,
      "Ġroute": 6850,
      "Ġtalent": 6851,
      "Ġinitial": 6852,
      "Ġneuroscience": 6853,
      "Ġmicroscope": 6854,
      "Ġsatisf": 6855,
      "Ġencounter": 6856,
      "Ġearthquake": 6857,
      "mun": 6858,
      "Ġtears": 6859,
      "Ġwip": 6860,
      "Ġborrow": 6861,
      "Ġhol": 6862,
      "Ġdust": 6863,
      "asy": 6864,
      "icop": 6865,
      "Ġyouth": 6866,
      "Ġbeer": 6867,
      "ulse": 6868,
      "Ġfruit": 6869,
      "ckets": 6870,
      "ĠMad": 6871,
      "Ġleap": 6872,
      "Ġquad": 6873,
      "Ġunp": 6874,
      "Ġ26": 6875,
      "Ġlocked": 6876,
      "Ġherself": 6877,
      "Ġletting": 6878,
      "Ġinvite": 6879,
      "Ġcarr": 6880,
      "Ġschol": 6881,
      "Ġminister": 6882,
      "ĠAfricans": 6883,
      "Ġelsewhere": 6884,
      "Ġcontrols": 6885,
      "ĠInternational": 6886,
      "Ġlimb": 6887,
      "Ġessence": 6888,
      "ietnam": 6889,
      "Ġfluid": 6890,
      "Ġneuron": 6891,
      "Ġfacial": 6892,
      "ĠChristian": 6893,
      "yright": 6894,
      "Ġsimplicity": 6895,
      "Ġelectronics": 6896,
      "Ġboundaries": 6897,
      "Ġseeds": 6898,
      "Ġsmooth": 6899,
      "Ġtransparent": 6900,
      "ĠAtlantic": 6901,
      "Ġbarely": 6902,
      "Ġingredients": 6903,
      "Ġapparently": 6904,
      "Ġtransplant": 6905,
      "Ġsuicide": 6906,
      "dollar": 6907,
      "Cl": 6908,
      "MA": 6909,
      "Ob": 6910,
      "Pl": 6911,
      "Sim": 6912,
      "Women": 6913,
      "cut": 6914,
      "case": 6915,
      "han": 6916,
      "nov": 6917,
      "Ġ0": 6918,
      "Ġid": 6919,
      "Ġwound": 6920,
      "Ġboss": 6921,
      "Ġpra": 6922,
      "Ġfifth": 6923,
      "Ġder": 6924,
      "Ġdump": 6925,
      "orter": 6926,
      "ari": 6927,
      "Ġgon": 6928,
      "Ġwet": 6929,
      "Ġrely": 6930,
      "Ġabund": 6931,
      "Ġjun": 6932,
      "Ġrating": 6933,
      "Ġintention": 6934,
      "ĠSam": 6935,
      "ĠSome": 6936,
      "astroph": 6937,
      "ardo": 6938,
      "Ġages": 6939,
      "Ġlob": 6940,
      "Ġspell": 6941,
      "Ġcontains": 6942,
      "Ġunderground": 6943,
      "Ġprev": 6944,
      "ĠJes": 6945,
      "ocin": 6946,
      "Ġobl": 6947,
      "Ġdrill": 6948,
      "Ġminor": 6949,
      "Ġaircraft": 6950,
      "Ġtrends": 6951,
      "Ġviews": 6952,
      "Ġinnovations": 6953,
      "Ġcommunications": 6954,
      "Ġmargin": 6955,
      "Ġheaven": 6956,
      "Ġutter": 6957,
      "Ġsymmetry": 6958,
      "Ġreefs": 6959,
      "Ġcriminal": 6960,
      "Ġpregnant": 6961,
      "Ġtragedy": 6962,
      "19": 6963,
      "ding": 6964,
      "ixt": 6965,
      "ka": 6966,
      "Ġhire": 6967,
      "Ġfib": 6968,
      "Ġdirty": 6969,
      "oral": 6970,
      "Ġlaser": 6971,
      "Ġna": 6972,
      "utch": 6973,
      "ura": 6974,
      "Ġstages": 6975,
      "cel": 6976,
      "Ġshrim": 6977,
      "Ġorange": 6978,
      "Ġconce": 6979,
      "ivered": 6980,
      "quare": 6981,
      "Ġintent": 6982,
      "Ġpoison": 6983,
      "ĠTal": 6984,
      "Ġlock": 6985,
      "Ġblank": 6986,
      "Ġrealm": 6987,
      "Ġafterwards": 6988,
      "Ġglad": 6989,
      "Ġpointed": 6990,
      "Ġvisited": 6991,
      "ĠVietnam": 6992,
      "Ġairport": 6993,
      "Ġ2004": 6994,
      "Ġparaly": 6995,
      "Ġretire": 6996,
      "Ġdelight": 6997,
      "Ġballs": 6998,
      "Ġlayers": 6999,
      "Ġmechanisms": 7000,
      "Ġlinks": 7001,
      "Ġmethods": 7002,
      "Ġsymbols": 7003,
      "Ġbeliefs": 7004,
      "Ġtransparency": 7005,
      "ĠPalest": 7006,
      "Ġsurfaces": 7007,
      "ĠJewish": 7008,
      "Ġdominant": 7009,
      "Ġfertil": 7010,
      "Ġuncomfort": 7011,
      "li": 7012,
      "rant": 7013,
      "rons": 7014,
      "war": 7015,
      "zens": 7016,
      "Ġthumb": 7017,
      "oust": 7018,
      "itate": 7019,
      "Ġhat": 7020,
      "Ġtoys": 7021,
      "Ġdive": 7022,
      "Ġdiver": 7023,
      "Ġlift": 7024,
      "oma": 7025,
      "rol": 7026,
      "igation": 7027,
      "Ġstable": 7028,
      "Ġseats": 7029,
      "Ġexternal": 7030,
      "Ġric": 7031,
      "Ġmail": 7032,
      "Ġyours": 7033,
      "Ġevalu": 7034,
      "ĠBible": 7035,
      "ĠEve": 7036,
      "ĠPol": 7037,
      "ĠDel": 7038,
      "Ġcommod": 7039,
      "ĠItaly": 7040,
      "Ġeleg": 7041,
      "Ġlighting": 7042,
      "Ġbias": 7043,
      "irds": 7044,
      "Ġcapita": 7045,
      "Ġadding": 7046,
      "Ġgranted": 7047,
      "Ġstops": 7048,
      "viously": 7049,
      "Ġspeaker": 7050,
      "Ġ120": 7051,
      "Ġconsume": 7052,
      "Ġinspire": 7053,
      "Ġterrorists": 7054,
      "Ġcatastroph": 7055,
      "Ġcrucial": 7056,
      "ĠWhite": 7057,
      "Ġcrops": 7058,
      "ĠGrand": 7059,
      "Ġpilot": 7060,
      "Ġpasswords": 7061,
      "Ġdiagram": 7062,
      "Ġdatabase": 7063,
      "Ġathlet": 7064,
      "Four": 7065,
      "Int": 7066,
      "tocin": 7067,
      "Ġtrop": 7068,
      "Ġwaters": 7069,
      "Ġhier": 7070,
      "anz": 7071,
      "ester": 7072,
      "Ġgro": 7073,
      "ione": 7074,
      "section": 7075,
      "sth": 7076,
      "inder": 7077,
      "Ġoutput": 7078,
      "ĠCount": 7079,
      "oded": 7080,
      "Ġtwe": 7081,
      "Ġdisrupt": 7082,
      "ĠHy": 7083,
      "phor": 7084,
      "Ġemphas": 7085,
      "Ġgenoc": 7086,
      "Ġgenius": 7087,
      "Ġstrangers": 7088,
      "Ġrecru": 7089,
      "Ġfarmer": 7090,
      "Ġearn": 7091,
      "Ġcapability": 7092,
      "Ġpassing": 7093,
      "arents": 7094,
      "Ġmusicians": 7095,
      "def": 7096,
      "Everyone": 7097,
      "Ġdelivered": 7098,
      "Ġdepressed": 7099,
      "Ġposter": 7100,
      "Ġsuggesting": 7101,
      "Ġtextbook": 7102,
      "Ġvacu": 7103,
      "Ġannounced": 7104,
      "Ġaffordable": 7105,
      "Ġcalculate": 7106,
      "Ġethical": 7107,
      "Ġdemonstrate": 7108,
      "Ġjournalist": 7109,
      "Ġsmoking": 7110,
      "ĠFlor": 7111,
      "Ġintuitive": 7112,
      "Ġisolated": 7113,
      "Ġchimpanzees": 7114,
      "American": 7115,
      "Ġspectacular": 7116,
      "ĠOxford": 7117,
      "ĠUganda": 7118,
      "Narrator": 7119,
      "aj": 7120,
      "bits": 7121,
      "dam": 7122,
      "rit": 7123,
      "west": 7124,
      "Ġx": 7125,
      "Ġaer": 7126,
      "Ġwing": 7127,
      "Ġcab": 7128,
      "Ġpile": 7129,
      "Ġpandem": 7130,
      "alian": 7131,
      "Ġnets": 7132,
      "Ġneat": 7133,
      "Ġneural": 7134,
      "Ġchief": 7135,
      "Ġpeer": 7136,
      "ideo": 7137,
      "Ġupset": 7138,
      "emen": 7139,
      "izoph": 7140,
      "ĠMac": 7141,
      "Ġhappier": 7142,
      "Ġclim": 7143,
      "ĠEastern": 7144,
      "iac": 7145,
      "ĠLad": 7146,
      "Ġrelax": 7147,
      "Ġmonit": 7148,
      "Ġedges": 7149,
      "Ġaccidents": 7150,
      "Ġelections": 7151,
      "Ġdistrict": 7152,
      "Ġtreatments": 7153,
      "Ġdrawn": 7154,
      "Ġspeakers": 7155,
      "Ġbreakthrough": 7156,
      "Ġextrem": 7157,
      "Ġorigami": 7158,
      "Ġpulling": 7159,
      "Ġinspiring": 7160,
      "Ġdegrad": 7161,
      "Ġcircles": 7162,
      "Ġparticipants": 7163,
      "Ġintegrated": 7164,
      "Ġtuna": 7165,
      "Ġcategory": 7166,
      "ĠWilliam": 7167,
      "ĠSmith": 7168,
      "Ġshrimp": 7169,
      "Ġuncomfortable": 7170,
      "Ġricher": 7171,
      "200": 7172,
      "Number": 7173,
      "Us": 7174,
      "fess": 7175,
      "pen": 7176,
      "rid": 7177,
      "Ġwid": 7178,
      "isphere": 7179,
      "Ġbars": 7180,
      "Ġink": 7181,
      "omb": 7182,
      "Ġanthrop": 7183,
      "Ġdozens": 7184,
      "Ġsoap": 7185,
      "Ġchrom": 7186,
      "Ġspr": 7187,
      "osal": 7188,
      "osure": 7189,
      "ĠSil": 7190,
      "ogether": 7191,
      "Ġperpet": 7192,
      "Ġquit": 7193,
      "Ġmanif": 7194,
      "aches": 7195,
      "Ġunh": 7196,
      "Ġparties": 7197,
      "Ġsheet": 7198,
      "cohol": 7199,
      "Ġemerge": 7200,
      "Ġtraject": 7201,
      "uba": 7202,
      "Ġhelicop": 7203,
      "Ġbask": 7204,
      "Ġconsult": 7205,
      "Ġbiologists": 7206,
      "Ġregret": 7207,
      "Ġdisturb": 7208,
      "Ġdefense": 7209,
      "mingly": 7210,
      "Ġvariation": 7211,
      "Ġveter": 7212,
      "Ġprotecting": 7213,
      "Ġpredictions": 7214,
      "Nothing": 7215,
      "Ġorigin": 7216,
      "Ġphotography": 7217,
      "Ġreduced": 7218,
      "Ġincludes": 7219,
      "Ġcharacteristics": 7220,
      "Ġdependent": 7221,
      "Ġseparated": 7222,
      "Ġdebt": 7223,
      "Ġbanks": 7224,
      "Ġtricks": 7225,
      "Ġconclude": 7226,
      "Ġdynamics": 7227,
      "Ġagricultural": 7228,
      "ĠBlack": 7229,
      "Ġchapter": 7230,
      "ĠCambr": 7231,
      "Ġridiculous": 7232,
      "heimer": 7233,
      "Ġlungs": 7234,
      "Ġreputation": 7235,
      "Five": 7236,
      "bra": 7237,
      "fold": 7238,
      "oor": 7239,
      "onds": 7240,
      "Ġaesth": 7241,
      "Ġsession": 7242,
      "enger": 7243,
      "Ġpicking": 7244,
      "ĠIce": 7245,
      "utical": 7246,
      "lyn": 7247,
      "che": 7248,
      "opher": 7249,
      "amine": 7250,
      "Ġjelly": 7251,
      "ested": 7252,
      "Ġspark": 7253,
      "Ġspots": 7254,
      "ĠMark": 7255,
      "Ġagencies": 7256,
      "ĠDemoc": 7257,
      "Ġblame": 7258,
      "Ġrail": 7259,
      "Ġintervention": 7260,
      "Ġlaid": 7261,
      "ĠVir": 7262,
      "Ġsettle": 7263,
      "Ġphotographer": 7264,
      "Ġpainted": 7265,
      "Ġidentified": 7266,
      "Ġobserv": 7267,
      "Ġimpacts": 7268,
      "ĠSea": 7269,
      "Ġfuels": 7270,
      "Ġreports": 7271,
      "Ġimprovement": 7272,
      "Ġreturned": 7273,
      "Ġdetermined": 7274,
      "Ġphysicist": 7275,
      "Ġintegr": 7276,
      "Ġconsequence": 7277,
      "Ġtribes": 7278,
      "Ġecosystems": 7279,
      "Ġteenagers": 7280,
      "Ġunlikely": 7281,
      "Ġsynthetic": 7282,
      "Ġbriefly": 7283,
      "Ġfederal": 7284,
      "Ġprosper": 7285,
      "Indeed": 7286,
      "Ġrevenue": 7287,
      "Ġdictionary": 7288,
      "Ġanxiety": 7289,
      "Ġignorance": 7290,
      "ĠSoviet": 7291,
      "ĠFlorida": 7292,
      "Tr": 7293,
      "bul": 7294,
      "ober": 7295,
      "Ġtied": 7296,
      "atom": 7297,
      "Ġmate": 7298,
      "onic": 7299,
      "Ġgh": 7300,
      "Ġstores": 7301,
      "Ġkiss": 7302,
      "Ġknee": 7303,
      "Whether": 7304,
      "ĠCA": 7305,
      "oding": 7306,
      "aceutical": 7307,
      "Ġcliff": 7308,
      "Ġunpre": 7309,
      "Ġdisag": 7310,
      "ĠPole": 7311,
      "Ġadap": 7312,
      "obs": 7313,
      "Ġincident": 7314,
      "ĠOcean": 7315,
      "Ġapple": 7316,
      "Ġschizoph": 7317,
      "Ġenth": 7318,
      "Ġ195": 7319,
      "Ġstrip": 7320,
      "Ġsmallpox": 7321,
      "Ġopens": 7322,
      "ribly": 7323,
      "Ġ2006": 7324,
      "Ġglobalization": 7325,
      "Ġrobust": 7326,
      "Ġlanded": 7327,
      "Ġexperimental": 7328,
      "Ġdigit": 7329,
      "Ġoriginally": 7330,
      "Ġsouthern": 7331,
      "Ġreminded": 7332,
      "Ġcryst": 7333,
      "Ġdimension": 7334,
      "ĠAdam": 7335,
      "Ġrecover": 7336,
      "Ġrepeated": 7337,
      "Ġtrucks": 7338,
      "Ġwheelch": 7339,
      "Ġconstructed": 7340,
      "Ġbranch": 7341,
      "Ġbathroom": 7342,
      "iatric": 7343,
      "Ġwelcome": 7344,
      "BC": 7345,
      "God": 7346,
      "Tw": 7347,
      "but": 7348,
      "ek": 7349,
      "mod": 7350,
      "rich": 7351,
      "zheimer": 7352,
      "Ġthrew": 7353,
      "Ġwise": 7354,
      "atts": 7355,
      "erving": 7356,
      "Ġmall": 7357,
      "Ġhanging": 7358,
      "Ġfiber": 7359,
      "Ġinches": 7360,
      "Ġlon": 7361,
      "Ġlux": 7362,
      "Ġnaked": 7363,
      "Ġbeet": 7364,
      "Ġrent": 7365,
      "ctober": 7366,
      "raw": 7367,
      "Ġdoors": 7368,
      "Ġproof": 7369,
      "capes": 7370,
      "isted": 7371,
      "Ġalcohol": 7372,
      "Ġactor": 7373,
      "ĠMand": 7374,
      "ĠMary": 7375,
      "ĠBay": 7376,
      "ĠBur": 7377,
      "Ġagency": 7378,
      "Ġclients": 7379,
      "ĠNet": 7380,
      "Ġunderlying": 7381,
      "Ġadoles": 7382,
      "icks": 7383,
      "obile": 7384,
      "Ġbrib": 7385,
      "ĠOn": 7386,
      "Ġsimult": 7387,
      "Ġbio": 7388,
      "Ġcaps": 7389,
      "ĠVen": 7390,
      "ughters": 7391,
      "ĠTEDTalk": 7392,
      "Ġpositions": 7393,
      "Ġsensory": 7394,
      "Ġsentences": 7395,
      "Ġpredicted": 7396,
      "Ġfacility": 7397,
      "Ġcopyright": 7398,
      "Ġbrave": 7399,
      "Ġultra": 7400,
      "Ġnucle": 7401,
      "Ġprimarily": 7402,
      "Ġcrossing": 7403,
      "Ġcitizen": 7404,
      "Ġdiscoveries": 7405,
      "Ġassumptions": 7406,
      "Ġoxytocin": 7407,
      "fficient": 7408,
      "ĠPrize": 7409,
      "Ġrarely": 7410,
      "Ġinjury": 7411,
      "ĠGlobal": 7412,
      "ĠGeneral": 7413,
      "Ġchaos": 7414,
      "Ġnurses": 7415,
      "ĠDepartment": 7416,
      "ĠRwanda": 7417,
      "Ġglaci": 7418,
      "Ġpyramid": 7419,
      "Ġlinear": 7420,
      "Ġvacuum": 7421,
      "Af": 7422,
      "Get": 7423,
      "hal": 7424,
      "kin": 7425,
      "pond": 7426,
      "rome": 7427,
      "tical": 7428,
      "ya": 7429,
      "zero": 7430,
      "Ġthresh": 7431,
      "Ġwra": 7432,
      "Ġsle": 7433,
      "Ġsulf": 7434,
      "Ġpunch": 7435,
      "Ġfool": 7436,
      "Ġfract": 7437,
      "Ġfought": 7438,
      "Ġinherent": 7439,
      "icious": 7440,
      "Ġstom": 7441,
      "opard": 7442,
      "Ġspa": 7443,
      "ĠSing": 7444,
      "ĠSuper": 7445,
      "Ġcomprom": 7446,
      "ache": 7447,
      "ĠGand": 7448,
      "Ġarrow": 7449,
      "ĠRiver": 7450,
      "Ġcourt": 7451,
      "Ġcaring": 7452,
      "Ġdrivers": 7453,
      "Ġmode": 7454,
      "Ġartistic": 7455,
      "Ġfarming": 7456,
      "Ġregener": 7457,
      "Ġfiguring": 7458,
      "Ġ700": 7459,
      "attered": 7460,
      "Ġholds": 7461,
      "Ġgrandchildren": 7462,
      "Ġsticks": 7463,
      "Ġtargets": 7464,
      "Ġtranslated": 7465,
      "Ġpushed": 7466,
      "Ġsalt": 7467,
      "ĠSpace": 7468,
      "Ġexpanding": 7469,
      "Ġdinosaur": 7470,
      "Ġhackers": 7471,
      "Ġshopping": 7472,
      "Ġreveal": 7473,
      "Ġshelter": 7474,
      "Ġextended": 7475,
      "Ġinevitable": 7476,
      "Ġbegun": 7477,
      "Ġbubbles": 7478,
      "Ġschizophren": 7479,
      "BI": 7480,
      "Life": 7481,
      "bru": 7482,
      "born": 7483,
      "iens": 7484,
      "lar": 7485,
      "makers": 7486,
      "Ġsits": 7487,
      "Ġhip": 7488,
      "onia": 7489,
      "aran": 7490,
      "Ġgases": 7491,
      "urse": 7492,
      "opy": 7493,
      "Ġmeal": 7494,
      "Ġchairs": 7495,
      "cap": 7496,
      "iel": 7497,
      "ĠSim": 7498,
      "ĠSyr": 7499,
      "elf": 7500,
      "Ġsacred": 7501,
      "mented": 7502,
      "izar": 7503,
      "Ġpermission": 7504,
      "Ġexped": 7505,
      "Ġclar": 7506,
      "Ġ28": 7507,
      "ĠHollywood": 7508,
      "Ġreson": 7509,
      "eller": 7510,
      "ĠRio": 7511,
      "ĠWall": 7512,
      "Ġinvolve": 7513,
      "Ġowner": 7514,
      "Ġscores": 7515,
      "Ġattitude": 7516,
      "gging": 7517,
      "Ġanswered": 7518,
      "Ġobjective": 7519,
      "Ġfocusing": 7520,
      "ĠAlzheimer": 7521,
      "Ġobservation": 7522,
      "ĠBeij": 7523,
      "Ġvolcan": 7524,
      "Ġemerged": 7525,
      "Ġprimitive": 7526,
      "Ġpupp": 7527,
      "Ġthrowing": 7528,
      "Ġburst": 7529,
      "Ġpanels": 7530,
      "ĠCarol": 7531,
      "ĠQue": 7532,
      "ĠArabic": 7533,
      "market": 7534,
      "Ġfrequency": 7535,
      "Really": 7536,
      "Ġconsistent": 7537,
      "ĠSaturn": 7538,
      "ĠMartin": 7539,
      "ĠAntar": 7540,
      "Ġelderly": 7541,
      "Ġgonna": 7542,
      "Ġchromos": 7543,
      "PM": 7544,
      "auc": 7545,
      "free": 7546,
      "half": 7547,
      "liam": 7548,
      "ocent": 7549,
      "riger": 7550,
      "Ġsink": 7551,
      "Ġsisters": 7552,
      "erd": 7553,
      "err": 7554,
      "itudes": 7555,
      "ena": 7556,
      "Ġhill": 7557,
      "arl": 7558,
      "ali": 7559,
      "owing": 7560,
      "Ġabilities": 7561,
      "illa": 7562,
      "Ġsharp": 7563,
      "ulum": 7564,
      "Ġrice": 7565,
      "Ġdear": 7566,
      "Ġsav": 7567,
      "apor": 7568,
      "ĠBob": 7569,
      "Ġpartly": 7570,
      "Ġacid": 7571,
      "Ġflour": 7572,
      "athered": 7573,
      "Ġsmarter": 7574,
      "ĠJeff": 7575,
      "ĠOctober": 7576,
      "Ġwriters": 7577,
      "Ġhelpful": 7578,
      "Ġhighlight": 7579,
      "Ġimagery": 7580,
      "Ġserved": 7581,
      "Ġstunt": 7582,
      "Ġsubtle": 7583,
      "Ġregime": 7584,
      "Ġconfident": 7585,
      "Ġmagical": 7586,
      "Ġmeasures": 7587,
      "Ġdifficulty": 7588,
      "Ġsensor": 7589,
      "ovember": 7590,
      "Ġoperations": 7591,
      "gency": 7592,
      "Ġsuggested": 7593,
      "Ġpromote": 7594,
      "Ġproposed": 7595,
      "Ġarray": 7596,
      "Ġsleeping": 7597,
      "Ġbarrel": 7598,
      "Ġparticipation": 7599,
      "Ġgraphic": 7600,
      "Ġdisappoint": 7601,
      "Ġcollaborative": 7602,
      "Ġphilanthrop": 7603,
      "Ġdocuments": 7604,
      "Ġdiagnosed": 7605,
      "Ġsatellites": 7606,
      "Ġpursue": 7607,
      "Ġflexible": 7608,
      "ĠCEO": 7609,
      "Ġforgotten": 7610,
      "Ġensure": 7611,
      "Ġautonomous": 7612,
      "Ġresilience": 7613,
      "Ġmysterious": 7614,
      "ĠEthiopia": 7615,
      "Ġexpansion": 7616,
      "ĠVirgin": 7617,
      "\"]": 7618,
      "DA": 7619,
      "EC": 7620,
      "ET": 7621,
      "En": 7622,
      "Qu": 7623,
      "eep": 7624,
      "Ġtear": 7625,
      "atural": 7626,
      "erable": 7627,
      "Ġcas": 7628,
      "Ġcott": 7629,
      "Ġmur": 7630,
      "Ġhitting": 7631,
      "Ġpione": 7632,
      "arry": 7633,
      "Ġwhis": 7634,
      "othing": 7635,
      "Ġwhatso": 7636,
      "Ġhey": 7637,
      "Ġprosth": 7638,
      "eart": 7639,
      "Ġplain": 7640,
      "Ġplug": 7641,
      "izer": 7642,
      "ĠMRI": 7643,
      "udi": 7644,
      "ĠBon": 7645,
      "Ġneedle": 7646,
      "Ġbucks": 7647,
      "ĠDere": 7648,
      "Ġroots": 7649,
      "ĠLab": 7650,
      "ĠWal": 7651,
      "ĠJim": 7652,
      "Ġtransm": 7653,
      "ĠStar": 7654,
      "Ġelite": 7655,
      "Ġopenness": 7656,
      "Ġcurren": 7657,
      "Ġdefe": 7658,
      "Ġ2003": 7659,
      "Ġrefriger": 7660,
      "inson": 7661,
      "Ġassess": 7662,
      "Ġprogramming": 7663,
      "Ġaudio": 7664,
      "Ġradically": 7665,
      "Ġfailing": 7666,
      "Ġsupported": 7667,
      "Ġjoint": 7668,
      "Ġkeyboard": 7669,
      "Ġphotographed": 7670,
      "Ġimmense": 7671,
      "Ġimmediate": 7672,
      "Ġburied": 7673,
      "Ġstruggling": 7674,
      "Ġvictim": 7675,
      "Ġbaseball": 7676,
      "Ġliberal": 7677,
      "Ġadditional": 7678,
      "Ġanalyze": 7679,
      "Ġskept": 7680,
      "Ġenterpr": 7681,
      "Ġtribe": 7682,
      "atrix": 7683,
      "Ġmillenn": 7684,
      "Ġelephants": 7685,
      "Ġgathering": 7686,
      "Ġdialogue": 7687,
      "Ġcolonies": 7688,
      "Ġmerely": 7689,
      "Ġastonishing": 7690,
      "Ġbiodiversity": 7691,
      "izarre": 7692,
      "Ġwhatsoever": 7693,
      "18": 7694,
      "Great": 7695,
      "low": 7696,
      "mates": 7697,
      "worth": 7698,
      "Ġtone": 7699,
      "Ġtheore": 7700,
      "Ġsilly": 7701,
      "itous": 7702,
      "Ġmood": 7703,
      "oning": 7704,
      "Ġduck": 7705,
      "ora": 7706,
      "oran": 7707,
      "orpor": 7708,
      "Ġlamp": 7709,
      "Ġgee": 7710,
      "ala": 7711,
      "Ġham": 7712,
      "oli": 7713,
      "Ġchron": 7714,
      "Ġconvert": 7715,
      "unction": 7716,
      "ĠSund": 7717,
      "Ġleverage": 7718,
      "Ġagent": 7719,
      "ĠGates": 7720,
      "ĠPan": 7721,
      "iban": 7722,
      "ĠTitan": 7723,
      "Ġphos": 7724,
      "ĠFin": 7725,
      "ĠFirst": 7726,
      "Ġflows": 7727,
      "arsh": 7728,
      "Ġending": 7729,
      "Ġfounded": 7730,
      "Ġcompleted": 7731,
      "Ġinterestingly": 7732,
      "Ġgrat": 7733,
      "Ġselfish": 7734,
      "Ġcraft": 7735,
      "Ġ95": 7736,
      "Ġsuccessfully": 7737,
      "Ġexpectancy": 7738,
      "Ġshaped": 7739,
      "ĠBrown": 7740,
      "Ġdaughters": 7741,
      "Ġdeliber": 7742,
      "Ġexplaining": 7743,
      "Ġindustries": 7744,
      "Ġarrive": 7745,
      "Ġsoldier": 7746,
      "Ġexception": 7747,
      "Ġdomain": 7748,
      "Ġfraction": 7749,
      "Ġdemonstration": 7750,
      "Ġshocked": 7751,
      "ĠRussian": 7752,
      "Ġclimbing": 7753,
      "Ġroutine": 7754,
      "Ġfabulous": 7755,
      "esthes": 7756,
      "Ġdolphin": 7757,
      "Ġrefugees": 7758,
      "Ġlawyer": 7759,
      "Ġslavery": 7760,
      "semble": 7761,
      "Ġinstructions": 7762,
      "Ġgenocide": 7763,
      "ĠCambridge": 7764,
      "Ġwheelchair": 7765,
      "bruary": 7766,
      "liament": 7767,
      "fe": 7768,
      "sc": 7769,
      "yard": 7770,
      "Ġaqu": 7771,
      "Ġwider": 7772,
      "erb": 7773,
      "Ġcig": 7774,
      "Ġcable": 7775,
      "Ġcert": 7776,
      "Ġcats": 7777,
      "Ġbizarre": 7778,
      "enly": 7779,
      "eday": 7780,
      "Ġlit": 7781,
      "ĠInt": 7782,
      "Ġstab": 7783,
      "ifice": 7784,
      "Ġwashing": 7785,
      "Ġbutt": 7786,
      "Ġtech": 7787,
      "ela": 7788,
      "Ġcompos": 7789,
      "ĠMor": 7790,
      "agos": 7791,
      "Ġdescription": 7792,
      "interest": 7793,
      "Ġowned": 7794,
      "conf": 7795,
      "Ġcapabilities": 7796,
      "Ġpubl": 7797,
      "Ġwarning": 7798,
      "Ġconfused": 7799,
      "Ġcurric": 7800,
      "Ġ2001": 7801,
      "Ġcraw": 7802,
      "Ġfunded": 7803,
      "Ġinvested": 7804,
      "Ġsurviv": 7805,
      "Ġstrongly": 7806,
      "Ġarchitectural": 7807,
      "engine": 7808,
      "Ġsuffered": 7809,
      "Ġrepresentation": 7810,
      "Ġtranslation": 7811,
      "Ġmethane": 7812,
      "Ġprepare": 7813,
      "Ġsurprisingly": 7814,
      "Ġskelet": 7815,
      "Ġskeleton": 7816,
      "copes": 7817,
      "Ġinformed": 7818,
      "Ġtort": 7819,
      "Ġrefugee": 7820,
      "ĠGreek": 7821,
      "Ġperceive": 7822,
      "Ġintrig": 7823,
      "Ġhypothesis": 7824,
      "oosing": 7825,
      "Ġaccomplish": 7826,
      "embered": 7827,
      "Ġcorrespond": 7828,
      "Ġproportion": 7829,
      "Ġunbelievable": 7830,
      "Obviously": 7831,
      "Ġmanifest": 7832,
      "Ġbasket": 7833,
      "LA": 7834,
      "Ph": 7835,
      "parents": 7836,
      "sp": 7837,
      "uity": 7838,
      "ville": 7839,
      "Ġtong": 7840,
      "Ġain": 7841,
      "encing": 7842,
      "Ġdim": 7843,
      "eda": 7844,
      "ason": 7845,
      "ician": 7846,
      "Ġnerve": 7847,
      "Ġnurse": 7848,
      "Ġbears": 7849,
      "sey": 7850,
      "stage": 7851,
      "road": 7852,
      "Ġstake": 7853,
      "cember": 7854,
      "Ġub": 7855,
      "Ġsew": 7856,
      "Ġcham": 7857,
      "Ġchoosing": 7858,
      "Ġrivers": 7859,
      "Ġdecent": 7860,
      "umes": 7861,
      "istically": 7862,
      "Ġtrash": 7863,
      "mental": 7864,
      "aby": 7865,
      "ĠBron": 7866,
      "ĠLED": 7867,
      "play": 7868,
      "Ġsimulation": 7869,
      "Ġentering": 7870,
      "Ġstranger": 7871,
      "aze": 7872,
      "Ġcorrel": 7873,
      "Ġhomework": 7874,
      "Ġelected": 7875,
      "Ġweeke": 7876,
      "Ġeducated": 7877,
      "Ġcheese": 7878,
      "Ġadvoc": 7879,
      "Ġ85": 7880,
      "Ġ800": 7881,
      "ĠArch": 7882,
      "ĠArctic": 7883,
      "Ġbreaks": 7884,
      "Ġtempt": 7885,
      "Ġleaf": 7886,
      "Ġthreats": 7887,
      "ĠDecember": 7888,
      "Ġcartoons": 7889,
      "Ġinfection": 7890,
      "ĠIslands": 7891,
      "Ġtunnel": 7892,
      "Ġmixed": 7893,
      "Ġgolden": 7894,
      "Ġattractive": 7895,
      "Ġtumors": 7896,
      "ĠNorway": 7897,
      "Ġsynthes": 7898,
      "Ġfragile": 7899,
      "Ġadopted": 7900,
      "Ġgarage": 7901,
      "Ġnutrition": 7902,
      "Ġneurolog": 7903,
      "Ġfortunate": 7904,
      "Ġlawyers": 7905,
      "Ġmiracle": 7906,
      "Ġhemisphere": 7907,
      "Ġpharmaceutical": 7908,
      "Ġstroke": 7909,
      "Ġuncertainty": 7910,
      "fessor": 7911,
      "BM": 7912,
      "Back": 7913,
      "Turn": 7914,
      "Will": 7915,
      "friend": 7916,
      "hop": 7917,
      "sun": 7918,
      "viol": 7919,
      "working": 7920,
      "yal": 7921,
      "Ġwired": 7922,
      "ati": 7923,
      "Ġboo": 7924,
      "Ġbored": 7925,
      "enh": 7926,
      "Ġdumb": 7927,
      "stone": 7928,
      "Ġshout": 7929,
      "Ġships": 7930,
      "Ġneck": 7931,
      "ilize": 7932,
      "Ġrats": 7933,
      "Ġorph": 7934,
      "umble": 7935,
      "atever": 7936,
      "ĠAh": 7937,
      "ĠCoun": 7938,
      "Ġcompelling": 7939,
      "Ġsuck": 7940,
      "ĠDet": 7941,
      "rained": 7942,
      "otherap": 7943,
      "Ġrealizing": 7944,
      "pled": 7945,
      "Ġbrut": 7946,
      "Ġgenetically": 7947,
      "Ġpersist": 7948,
      "Ġremembered": 7949,
      "Ġdistingu": 7950,
      "Ġmembr": 7951,
      "Ġrestore": 7952,
      "Ġrestrict": 7953,
      "Ġkiller": 7954,
      "clock": 7955,
      "Ġexpecting": 7956,
      "Ġsquee": 7957,
      "Ġfastest": 7958,
      "Ġcompetitive": 7959,
      "Ġaffects": 7960,
      "Ġexperiencing": 7961,
      "Ġclosing": 7962,
      "Ġterrorist": 7963,
      "Ġmagnitude": 7964,
      "Ġauthorities": 7965,
      "Ġjudgment": 7966,
      "Ġphysician": 7967,
      "Ġmicrobial": 7968,
      "Ġgradually": 7969,
      "Ġintuition": 7970,
      "Ġreplicate": 7971,
      "Ġadventure": 7972,
      "Ġtackle": 7973,
      "ĠTaliban": 7974,
      "Ġparalyzed": 7975,
      "ĠBeijing": 7976,
      "Me": 7977,
      "Never": 7978,
      "Video": 7979,
      "].": 7980,
      "flies": 7981,
      "gence": 7982,
      "kins": 7983,
      "maker": 7984,
      "run": 7985,
      "sch": 7986,
      "Ġsin": 7987,
      "Ġcous": 7988,
      "Ġtooth": 7989,
      "Ġpale": 7990,
      "owers": 7991,
      "Through": 7992,
      "urable": 7993,
      "Ġshots": 7994,
      "Ġchances": 7995,
      "Ġcong": 7996,
      "Ġspray": 7997,
      "Ġupd": 7998,
      "ĠSpan": 7999,
      "Ġenables": 8000,
      "ĠMiss": 8001,
      "Ġleather": 8002,
      "aching": 8003,
      "Ġunable": 8004,
      "ĠGore": 8005,
      "Ġpride": 8006,
      "Ġdism": 8007,
      "ĠPeter": 8008,
      "angible": 8009,
      "Ġdeserve": 8010,
      "ĠLib": 8011,
      "ĠWith": 8012,
      "Ġremaining": 8013,
      "ĠChurch": 8014,
      "Ġschem": 8015,
      "Ġtranscend": 8016,
      "ostic": 8017,
      "Ġimaging": 8018,
      "Ġarticles": 8019,
      "Ġmining": 8020,
      "Ġfoods": 8021,
      "Ġheaded": 8022,
      "Ġdemands": 8023,
      "Ġcake": 8024,
      "Ġaddict": 8025,
      "Ġcharges": 8026,
      "Ġinnocent": 8027,
      "Ġoccurs": 8028,
      "Ġimproved": 8029,
      "Ġtraditions": 8030,
      "Ġstaying": 8031,
      "Ġwinning": 8032,
      "Ġbeneath": 8033,
      "ugust": 8034,
      "Ġincluded": 8035,
      "Ġjumped": 8036,
      "Ġcovering": 8037,
      "yrus": 8038,
      "ĠQu": 8039,
      "Ġprofoundly": 8040,
      "Ġfortune": 8041,
      "Ġhomeless": 8042,
      "Ġwidely": 8043,
      "Ġinstitutional": 8044,
      "Ġinitially": 8045,
      "Ġnegoti": 8046,
      "Ġprofessionals": 8047,
      "Ġbesides": 8048,
      "Ġexponential": 8049,
      "Ġsenior": 8050,
      "Ġtrajectory": 8051,
      "Ġenthus": 8052,
      "Ġthreshold": 8053,
      "ĠDerek": 8054,
      "BF": 8055,
      "Hi": 8056,
      "Next": 8057,
      "Sah": 8058,
      "bar": 8059,
      "des": 8060,
      "four": 8061,
      "field": 8062,
      "gu": 8063,
      "iogen": 8064,
      "kind": 8065,
      "lim": 8066,
      "nes": 8067,
      "ship": 8068,
      "xual": 8069,
      "ĠThen": 8070,
      "Ġah": 8071,
      "Ġpairs": 8072,
      "Ġdan": 8073,
      "Ġdile": 8074,
      "Ġlap": 8075,
      "Ġgaps": 8076,
      "icient": 8077,
      "Ġnurt": 8078,
      "ctu": 8079,
      "allow": 8080,
      "opath": 8081,
      "oples": 8082,
      "ading": 8083,
      "adays": 8084,
      "Ġcomments": 8085,
      "Ġshore": 8086,
      "Ġchips": 8087,
      "Ġrh": 8088,
      "Ġpeoples": 8089,
      "Ġalph": 8090,
      "Ġspont": 8091,
      "ĠSou": 8092,
      "active": 8093,
      "ĠMah": 8094,
      "Ġlean": 8095,
      "ague": 8096,
      "Ġbug": 8097,
      "anged": 8098,
      "ounding": 8099,
      "ĠLou": 8100,
      "ĠLike": 8101,
      "ĠFre": 8102,
      "ĠJo": 8103,
      "Ġdrone": 8104,
      "Ġmetric": 8105,
      "cedented": 8106,
      "Ġpreserve": 8107,
      "Ġdistort": 8108,
      "Ġvalid": 8109,
      "otted": 8110,
      "Ġmusician": 8111,
      "Ġsecrets": 8112,
      "iences": 8113,
      "Ġdeli": 8114,
      "Ġsurvived": 8115,
      "Ġapproaches": 8116,
      "Ġcivic": 8117,
      "Ġobserve": 8118,
      "Ġfootage": 8119,
      "Ġmarry": 8120,
      "Ġsteal": 8121,
      "Ġfacilities": 8122,
      "Ġprinter": 8123,
      "Ġerrors": 8124,
      "Ġtracks": 8125,
      "Ġreactions": 8126,
      "Ġtendency": 8127,
      "Ġdetailed": 8128,
      "Ġassumption": 8129,
      "Ġinfluenced": 8130,
      "Ġburned": 8131,
      "Ġphysicists": 8132,
      "Ġvulnerability": 8133,
      "edding": 8134,
      "ĠMinister": 8135,
      "Ġsubstance": 8136,
      "Ġgods": 8137,
      "Ġqualities": 8138,
      "ĠFebruary": 8139,
      "Ġscenario": 8140,
      "Ġshrink": 8141,
      "Ġpandemic": 8142,
      "Ġcurriculum": 8143,
      "ĠBronx": 8144,
      "Give": 8145,
      "Girl": 8146,
      "Spe": 8147,
      "aa": 8148,
      "Ġtsun": 8149,
      "inarily": 8150,
      "eries": 8151,
      "Ġcub": 8152,
      "Ġdow": 8153,
      "Ġlone": 8154,
      "Ġgathered": 8155,
      "Ġnom": 8156,
      "Ġrehab": 8157,
      "erer": 8158,
      "ifer": 8159,
      "Ġdop": 8160,
      "aded": 8161,
      "olic": 8162,
      "Ġconvey": 8163,
      "Ġouter": 8164,
      "Ġspons": 8165,
      "ĠAugust": 8166,
      "ĠSquare": 8167,
      "employ": 8168,
      "Ġengin": 8169,
      "ares": 8170,
      "agen": 8171,
      "Ġclothing": 8172,
      "Ġuniform": 8173,
      "ĠDis": 8174,
      "ĠLong": 8175,
      "irect": 8176,
      "Ġfactories": 8177,
      "Ġbrows": 8178,
      "ĠOs": 8179,
      "Ġasks": 8180,
      "Ġinstantly": 8181,
      "Ġforming": 8182,
      "Ġformal": 8183,
      "Ġdistract": 8184,
      "Ġsocially": 8185,
      "Ġwoke": 8186,
      "Ġprofile": 8187,
      "ropy": 8188,
      "Ġinvesting": 8189,
      "China": 8190,
      "Ġmindset": 8191,
      "Ġsignificantly": 8192,
      "Ġsoup": 8193,
      "Ġportion": 8194,
      "Ġoptimism": 8195,
      "Ġsusp": 8196,
      "Ġpigs": 8197,
      "Ġurge": 8198,
      "Ġfrog": 8199,
      "Ġinsights": 8200,
      "Ġodds": 8201,
      "Ġchannels": 8202,
      "Ġnutrients": 8203,
      "Ġaggreg": 8204,
      "Ġaggressive": 8205,
      "Ġfrustrated": 8206,
      "Ġsubstant": 8207,
      "Ġconducted": 8208,
      "Ġinterpretation": 8209,
      "Ġcomparison": 8210,
      "Ġqueen": 8211,
      "ĠTurkey": 8212,
      "ĠBrook": 8213,
      "Ġglamorous": 8214,
      "ĠJesus": 8215,
      "Ġunprecedented": 8216,
      "Ġsimultaneously": 8217,
      "Ġdilem": 8218,
      "Ġengines": 8219,
      "MT": 8220,
      "Tell": 8221,
      "bing": 8222,
      "fast": 8223,
      "press": 8224,
      "ini": 8225,
      "Ġwest": 8226,
      "isc": 8227,
      "isy": 8228,
      "Ġdies": 8229,
      "Ġdung": 8230,
      "Ġlions": 8231,
      "Ġbell": 8232,
      "see": 8233,
      "Ġanonymous": 8234,
      "estr": 8235,
      "quis": 8236,
      "Ġtends": 8237,
      "andering": 8238,
      "Ġtriv": 8239,
      "ĠMoo": 8240,
      "Ġexport": 8241,
      "Ġcoca": 8242,
      "ĠHigh": 8243,
      "Ġacoust": 8244,
      "ĠOk": 8245,
      "Ġindig": 8246,
      "Ġremained": 8247,
      "Ġcourses": 8248,
      "ails": 8249,
      "ĠKen": 8250,
      "Ġ33": 8251,
      "Ġlake": 8252,
      "Ġextension": 8253,
      "Ġserving": 8254,
      "Ġhealthier": 8255,
      "Ġsubway": 8256,
      "Ġdemographic": 8257,
      "Ġmorality": 8258,
      "Ġkills": 8259,
      "ending": 8260,
      "Ġstructural": 8261,
      "Ġbottles": 8262,
      "Ġexplains": 8263,
      "Ġimproving": 8264,
      "Ġcombat": 8265,
      "Ġmedication": 8266,
      "Ġlifes": 8267,
      "Ġarrange": 8268,
      "Ġflowing": 8269,
      "Ġaccounts": 8270,
      "Ġstrategic": 8271,
      "Ġwildlife": 8272,
      "Ġpurposes": 8273,
      "Ġrolling": 8274,
      "Ġwealthy": 8275,
      "Ġirre": 8276,
      "Ġhalluc": 8277,
      "Ġcruel": 8278,
      "Ġgentleman": 8279,
      "ĠNorthern": 8280,
      "Ġrestaurants": 8281,
      "Ġgarbage": 8282,
      "Ġexpertise": 8283,
      "Ġrubber": 8284,
      "Ġanalogy": 8285,
      "Ġtrigger": 8286,
      "Ġcontemporary": 8287,
      "looking": 8288,
      "Ġownership": 8289,
      "Ġobstacles": 8290,
      "Ġconservative": 8291,
      "quarters": 8292,
      "ĠHomo": 8293,
      "otherapy": 8294,
      "Ġdelivery": 8295,
      "40": 8296,
      "Dr": 8297,
      "EM": 8298,
      "],": 8299,
      "fram": 8300,
      "human": 8301,
      "lings": 8302,
      "produ": 8303,
      "uke": 8304,
      "atar": 8305,
      "itating": 8306,
      "ani": 8307,
      "angh": 8308,
      "Ġinhab": 8309,
      "Ġgear": 8310,
      "Ġgate": 8311,
      "asm": 8312,
      "ĠIm": 8313,
      "usiness": 8314,
      "Ġbend": 8315,
      "Ġrecept": 8316,
      "imal": 8317,
      "chron": 8318,
      "Ġshipping": 8319,
      "antom": 8320,
      "Ġsomeday": 8321,
      "Ġouts": 8322,
      "ĠSar": 8323,
      "ogram": 8324,
      "asty": 8325,
      "agon": 8326,
      "uded": 8327,
      "Ġimpression": 8328,
      "ĠHill": 8329,
      "Ġgotta": 8330,
      "ĠDutch": 8331,
      "Ġcontrad": 8332,
      "cost": 8333,
      "Ġprec": 8334,
      "athan": 8335,
      "ĠJoe": 8336,
      "rence": 8337,
      "Ġpointing": 8338,
      "Ġ36": 8339,
      "licit": 8340,
      "Ġinterrupt": 8341,
      "Ġdrones": 8342,
      "Ġcrick": 8343,
      "Ġproto": 8344,
      "Ġcamps": 8345,
      "Ġlocated": 8346,
      "Ġexcit": 8347,
      "Ġtrains": 8348,
      "Ġnonprofit": 8349,
      "Ġsupporting": 8350,
      "Ġfriendly": 8351,
      "Ġversions": 8352,
      "Ġfears": 8353,
      "Ġdrawings": 8354,
      "Ġfluores": 8355,
      "Ġcompassionate": 8356,
      "Within": 8357,
      "Ġfemales": 8358,
      "Ġthreatened": 8359,
      "Ġtroub": 8360,
      "Ġpanel": 8361,
      "Ġprinted": 8362,
      "Ġreminds": 8363,
      "ĠSpain": 8364,
      "Ġblogs": 8365,
      "Ġclassrooms": 8366,
      "ĠiPod": 8367,
      "Ġairplanes": 8368,
      "Ġcosmic": 8369,
      "Ġcategories": 8370,
      "Ġticket": 8371,
      "Ġestablished": 8372,
      "Ġhunting": 8373,
      "Afric": 8374,
      "Ġubiqu": 8375,
      "ĠCouncil": 8376,
      "Saharan": 8377,
      "ĠSouthern": 8378,
      "Le": 8379,
      "Woman": 8380,
      "aves": 8381,
      "kward": 8382,
      "you": 8383,
      "zee": 8384,
      "reens": 8385,
      "Ġmatrix": 8386,
      "Ġhors": 8387,
      "Ġfile": 8388,
      "arge": 8389,
      "omin": 8390,
      "Ġislands": 8391,
      "Ġongoing": 8392,
      "usted": 8393,
      "umin": 8394,
      "ective": 8395,
      "Ġintim": 8396,
      "Ġupside": 8397,
      "ĠCD": 8398,
      "Ġenerg": 8399,
      "ĠMarch": 8400,
      "ĠBu": 8401,
      "ipts": 8402,
      "Ġuncle": 8403,
      "ormal": 8404,
      "ĠHave": 8405,
      "Ġarmed": 8406,
      "asses": 8407,
      "Ġloves": 8408,
      "perform": 8409,
      "Ġcounting": 8410,
      "ords": 8411,
      "Ġgenu": 8412,
      "Ġgenetics": 8413,
      "Ġreliable": 8414,
      "Ġbelieves": 8415,
      "Ġentropy": 8416,
      "Ġplanes": 8417,
      "Ġextinction": 8418,
      "Ġcrew": 8419,
      "Ġcomputation": 8420,
      "otechnology": 8421,
      "Ġfung": 8422,
      "ĠIndians": 8423,
      "Ġconnects": 8424,
      "Ġbadly": 8425,
      "Ġsixth": 8426,
      "Ġnights": 8427,
      "Ġclassical": 8428,
      "Ġ[\"": 8429,
      "Ġredesign": 8430,
      "Ġperformed": 8431,
      "Ġreducing": 8432,
      "bye": 8433,
      "Ġclosest": 8434,
      "Ġawkward": 8435,
      "Ġpeaceful": 8436,
      "Ġpause": 8437,
      "Ġgraphics": 8438,
      "Ġdetection": 8439,
      "Ġdespair": 8440,
      "Ġsuspe": 8441,
      "Ġscanner": 8442,
      "Ġofficer": 8443,
      "Ġaltru": 8444,
      "Ġpoems": 8445,
      "Secondly": 8446,
      "Ġincentive": 8447,
      "ĠScott": 8448,
      "minute": 8449,
      ".'\"": 8450,
      "Ġinevit": 8451,
      "Ġdiscipline": 8452,
      "Ġrituals": 8453,
      "Ġexplosion": 8454,
      "Ġoccasionally": 8455,
      "ĠSaudi": 8456,
      "Ġcolumn": 8457,
      "Ġstereoty": 8458,
      "Ġexcellent": 8459,
      "Ġcigaret": 8460,
      "Ġtongue": 8461,
      "Ġdopamine": 8462,
      "Ġexcitement": 8463,
      "Put": 8464,
      "Pro": 8465,
      "RB": 8466,
      "RS": 8467,
      "made": 8468,
      "wind": 8469,
      "Ġtut": 8470,
      "Ġtie": 8471,
      "inter": 8472,
      "itative": 8473,
      "Ġbats": 8474,
      "Ġho": 8475,
      "Ġgam": 8476,
      "Ġnerd": 8477,
      "Ġbeating": 8478,
      "ctica": 8479,
      "Ġcanopy": 8480,
      "Ġash": 8481,
      "Ġcomedy": 8482,
      "Ġorient": 8483,
      "Ġdeck": 8484,
      "Ġupload": 8485,
      "ĠSom": 8486,
      "ĠMother": 8487,
      "Ġpercept": 8488,
      "Ġclay": 8489,
      "Ġclient": 8490,
      "Ġoverl": 8491,
      "Ġimpressive": 8492,
      "ĠHall": 8493,
      "ĠTes": 8494,
      "anges": 8495,
      "ĠDes": 8496,
      "Ġprecious": 8497,
      "Ġpreval": 8498,
      "Ġincom": 8499,
      "ĠOf": 8500,
      "neys": 8501,
      "rowing": 8502,
      "Ġtragic": 8503,
      "Ġgram": 8504,
      "Ġterribly": 8505,
      "Ġstrike": 8506,
      "Ġbush": 8507,
      "Ġsubt": 8508,
      "ĠVer": 8509,
      "Ġprofits": 8510,
      "Ġcontinents": 8511,
      "Ġcontinuing": 8512,
      "Ġdevil": 8513,
      "Ġinvestors": 8514,
      "apped": 8515,
      "Ġopera": 8516,
      "Ġlowest": 8517,
      "Ġgrandparents": 8518,
      "Ġrobotics": 8519,
      "Ġapproaching": 8520,
      "Ġnearby": 8521,
      "Ġharness": 8522,
      "Ġspreads": 8523,
      "ĠAsian": 8524,
      "Although": 8525,
      "puter": 8526,
      "Ġearliest": 8527,
      "Ġannual": 8528,
      "Ġmagnific": 8529,
      "Ġappearance": 8530,
      "Ġ2011": 8531,
      "Ġphenomena": 8532,
      "Ġpackage": 8533,
      "Ġstraightforward": 8534,
      "Ġcatching": 8535,
      "Ġglasses": 8536,
      "ĠLeon": 8537,
      "ĠOrgan": 8538,
      "Ġgraduated": 8539,
      "Ġapplying": 8540,
      "Ġtissues": 8541,
      "ĠBlue": 8542,
      "Ġjournalists": 8543,
      "Ġguns": 8544,
      "copic": 8545,
      "Ġcorporations": 8546,
      "Ġstimul": 8547,
      "Ġvegetables": 8548,
      "Ġreinvent": 8549,
      "Ġtower": 8550,
      "Ġreconstruct": 8551,
      "Ġshifting": 8552,
      "Ġfortunately": 8553,
      "Ġencouraged": 8554,
      "burgh": 8555,
      "Ġitems": 8556,
      "Ġsacrifice": 8557,
      "ĠDelhi": 8558,
      "phorus": 8559,
      "Ġluxury": 8560,
      "ĠSpanish": 8561,
      "Ġgenuine": 8562,
      "Gl": 8563,
      "KB": 8564,
      "None": 8565,
      "aid": 8566,
      "cro": 8567,
      "efficient": 8568,
      "hist": 8569,
      "Ġtune": 8570,
      "Ġtubes": 8571,
      "Ġwires": 8572,
      "Ġcath": 8573,
      "itage": 8574,
      "itated": 8575,
      "Ġbind": 8576,
      "Ġfits": 8577,
      "Ġfancy": 8578,
      "ania": 8579,
      "Ġdressed": 8580,
      "eds": 8581,
      "edge": 8582,
      "icial": 8583,
      "Ġrethink": 8584,
      "Ġstability": 8585,
      "ifully": 8586,
      "Ġange": 8587,
      "Ġneoc": 8588,
      "ilty": 8589,
      "Ġjew": 8590,
      "Ġexcess": 8591,
      "Ġprol": 8592,
      "umines": 8593,
      "Ġalb": 8594,
      "Ġalign": 8595,
      "Ġseemingly": 8596,
      "ĠAny": 8597,
      "Ġsauce": 8598,
      "astics": 8599,
      "ĠMag": 8600,
      "Ġmanagers": 8601,
      "udge": 8602,
      "ĠBas": 8603,
      "Ġunemploy": 8604,
      "Ġdisability": 8605,
      "ĠTel": 8606,
      "ĠTanz": 8607,
      "angered": 8608,
      "ĠDen": 8609,
      "Ġrose": 8610,
      "Ġloan": 8611,
      "Ġphantom": 8612,
      "Ġamate": 8613,
      "Ġtraits": 8614,
      "ava": 8615,
      "ĠItalian": 8616,
      "Ġgrav": 8617,
      "Ġdrown": 8618,
      "Ġ2050": 8619,
      "Ġfarms": 8620,
      "ĠYour": 8621,
      "ĠInter": 8622,
      "Ġsketch": 8623,
      "ĠVery": 8624,
      "Ġpassenger": 8625,
      "Ġsignature": 8626,
      "Ġresearcher": 8627,
      "ushed": 8628,
      "aneous": 8629,
      "Ġfreely": 8630,
      "Ġspeaks": 8631,
      "Ġrevol": 8632,
      "Ġtemporary": 8633,
      "Ġeaten": 8634,
      "Ġprediction": 8635,
      "Ġreligions": 8636,
      "eyn": 8637,
      "Ġcircuits": 8638,
      "Ġcompete": 8639,
      "Ġaffecting": 8640,
      "Ġpropose": 8641,
      "Ġpropag": 8642,
      "Without": 8643,
      "Ġecological": 8644,
      "Ġannoy": 8645,
      "Ġlandscapes": 8646,
      "Ġdamn": 8647,
      "Ġburden": 8648,
      "Ġachievement": 8649,
      "Ġethnic": 8650,
      "Ġinterviewed": 8651,
      "Ġbroadcast": 8652,
      "Ġnuts": 8653,
      "Ġalternatives": 8654,
      "Ġphilosopher": 8655,
      "Should": 8656,
      "ĠComm": 8657,
      "Ġparadox": 8658,
      "grade": 8659,
      "Ġteenager": 8660,
      "Ġpreviously": 8661,
      "uilding": 8662,
      "Ġperceived": 8663,
      "Ġchimpanzee": 8664,
      "Ġbranches": 8665,
      "Ġpedestr": 8666,
      "itzer": 8667,
      "ihad": 8668,
      "Ġnavigate": 8669,
      "Ġarrested": 8670,
      "Ġcollapsed": 8671,
      "ĠNGOs": 8672,
      "Ġscholars": 8673,
      "Ġmonitoring": 8674,
      "Ġcotton": 8675,
      "Ġcurrency": 8676,
      "esthesia": 8677,
      "Ġdownt": 8678,
      "anghai": 8679,
      "12": 8680,
      "New": 8681,
      "Ten": 8682,
      "away": 8683,
      "list": 8684,
      "mony": 8685,
      "ndrome": 8686,
      "Ġbin": 8687,
      "Ġhiding": 8688,
      "Ġdys": 8689,
      "Ġdating": 8690,
      "orage": 8691,
      "Ġinex": 8692,
      "lend": 8693,
      "Ġrecess": 8694,
      "Ġhabits": 8695,
      "Ġstatic": 8696,
      "amps": 8697,
      "Ġshirt": 8698,
      "ntil": 8699,
      "Ġyourselves": 8700,
      "ourt": 8701,
      "ĠCome": 8702,
      "ĠCamp": 8703,
      "Ġworkforce": 8704,
      "reating": 8705,
      "arest": 8706,
      "Ġmanager": 8707,
      "Ġ29": 8708,
      "Ġpockets": 8709,
      "ĠTas": 8710,
      "Ġrope": 8711,
      "Ġloving": 8712,
      "Ġresolve": 8713,
      "pless": 8714,
      "Ġcommission": 8715,
      "Ġoffices": 8716,
      "Ġoffering": 8717,
      "Ġrape": 8718,
      "Ġendangered": 8719,
      "ĠKoran": 8720,
      "Ġnumer": 8721,
      "Ġrecall": 8722,
      "Ġsmallest": 8723,
      "Ġhardest": 8724,
      "Ġeditor": 8725,
      "Ġgenerous": 8726,
      "Ġski": 8727,
      "ĠVan": 8728,
      "Ġcaves": 8729,
      "ĠIndones": 8730,
      "Ġdistances": 8731,
      "ashed": 8732,
      "Ġviral": 8733,
      "Ġcollectively": 8734,
      "elson": 8735,
      "Ġimprov": 8736,
      "Ġsafer": 8737,
      "evin": 8738,
      "Ġresponses": 8739,
      "Ġreplaced": 8740,
      "Whereas": 8741,
      "Ġcampus": 8742,
      "Ġtransforming": 8743,
      "Ġsynchron": 8744,
      "Ġdivor": 8745,
      "Ġ2012": 8746,
      "Ġprisoners": 8747,
      "ĠJohnson": 8748,
      "Ġhydro": 8749,
      "iberia": 8750,
      "Ġdiagnosis": 8751,
      "Ġcustomer": 8752,
      "Ġflags": 8753,
      "Ġratio": 8754,
      "Ġassignment": 8755,
      "controll": 8756,
      "Ġdragon": 8757,
      "Ġassistance": 8758,
      "Ġmakers": 8759,
      "Ġadministration": 8760,
      "Ġsubsid": 8761,
      "Ġdecrease": 8762,
      "Ġvagina": 8763,
      "Ġasteroid": 8764,
      "Ġprocedure": 8765,
      "Ġguarantee": 8766,
      "Ġfibers": 8767,
      "Ġjellyfish": 8768,
      "Ġstomach": 8769,
      "ĠAntarctica": 8770,
      "ĠSunday": 8771,
      "Ġtsunami": 8772,
      "OL": 8773,
      "Pre": 8774,
      "Same": 8775,
      "Six": 8776,
      "Voice": 8777,
      "dig": 8778,
      "lers": 8779,
      "Ġtatt": 8780,
      "ativity": 8781,
      "Ġcrop": 8782,
      "isons": 8783,
      "enry": 8784,
      "Ġhired": 8785,
      "Ġpatch": 8786,
      "Ġfusion": 8787,
      "Ġdiving": 8788,
      "Ġgained": 8789,
      "Ġstorage": 8790,
      "changing": 8791,
      "oln": 8792,
      "cip": 8793,
      "ĠSud": 8794,
      "ĠSystem": 8795,
      "izers": 8796,
      "Ġcoat": 8797,
      "ĠBo": 8798,
      "Ġagents": 8799,
      "Ġclue": 8800,
      "ĠHi": 8801,
      "ĠPart": 8802,
      "ĠTwo": 8803,
      "ĠDV": 8804,
      "Ġads": 8805,
      "ĠRay": 8806,
      "ĠFBI": 8807,
      "ĠJuly": 8808,
      "Ġbuilds": 8809,
      "weight": 8810,
      "Ġscrew": 8811,
      "Ġrelation": 8812,
      "hea": 8813,
      "Ġsciences": 8814,
      "Ġinsul": 8815,
      "Ġinterven": 8816,
      "Ġinterior": 8817,
      "Ġslime": 8818,
      "Ġslums": 8819,
      "Ġwarr": 8820,
      "Ġaddiction": 8821,
      "Ġpassive": 8822,
      "ĠNewton": 8823,
      "Ġlocom": 8824,
      "Ġterrifying": 8825,
      "ometown": 8826,
      "Ġwinds": 8827,
      "Ġaudiences": 8828,
      "Ġsensation": 8829,
      "Ġbreakfast": 8830,
      "Ġspecialized": 8831,
      "Ġencry": 8832,
      "Ġpredictable": 8833,
      "Ġcycles": 8834,
      "Ġstepped": 8835,
      "crim": 8836,
      "Ġsilver": 8837,
      "Ġestate": 8838,
      "Ġbedroom": 8839,
      "Ġfault": 8840,
      "Ġmobility": 8841,
      "Ġdiscovering": 8842,
      "Ġmiserable": 8843,
      "Ġignored": 8844,
      "Ġwheat": 8845,
      "Ġwheels": 8846,
      "Ġparks": 8847,
      "Ġteenage": 8848,
      "incoln": 8849,
      "Ġsucceeded": 8850,
      "Ġunconscious": 8851,
      "ĠNeander": 8852,
      "Ġencouraging": 8853,
      "Ġestimates": 8854,
      "ĠMoz": 8855,
      "Ġdesperately": 8856,
      "ĠAlexander": 8857,
      "Ġmathematicians": 8858,
      "Ġrhythm": 8859,
      "Ġtroops": 8860,
      "Ġhelicopter": 8861,
      "Ġschizophrenia": 8862,
      "Ġphosphorus": 8863,
      "ĠMoore": 8864,
      "Ġcocaine": 8865,
      "Ġubiquitous": 8866,
      "Boy": 8867,
      "Eight": 8868,
      "Hello": 8869,
      "Make": 8870,
      "Pr": 8871,
      "Part": 8872,
      "RN": 8873,
      "Sp": 8874,
      "ao": 8875,
      "col": 8876,
      "ege": 8877,
      "lades": 8878,
      "rance": 8879,
      "sized": 8880,
      "inth": 8881,
      "inery": 8882,
      "Ġwedding": 8883,
      "Ġbold": 8884,
      "Ġhal": 8885,
      "ona": 8886,
      "Ġtoes": 8887,
      "Ġpiz": 8888,
      "Ġdrought": 8889,
      "Ġles": 8890,
      "Ġnative": 8891,
      "uts": 8892,
      "uther": 8893,
      "Ġrect": 8894,
      "Ġredef": 8895,
      "sell": 8896,
      "raham": 8897,
      "Ġanten": 8898,
      "irlf": 8899,
      "outs": 8900,
      "Ġworms": 8901,
      "Ġheal": 8902,
      "Ġshit": 8903,
      "Ġshine": 8904,
      "Ġproven": 8905,
      "Ġknife": 8906,
      "istot": 8907,
      "Ġintended": 8908,
      "Ġven": 8909,
      "Ġspill": 8910,
      "Ġseeking": 8911,
      "ĠAge": 8912,
      "iece": 8913,
      "Ġplank": 8914,
      "ĠSee": 8915,
      "ĠSnow": 8916,
      "ĠSanta": 8917,
      "ĠMom": 8918,
      "ĠMike": 8919,
      "Ġdonor": 8920,
      "Ġmanual": 8921,
      "Ġcoinc": 8922,
      "ĠBell": 8923,
      "ĠEric": 8924,
      "Ġovernight": 8925,
      "ensus": 8926,
      "ĠTy": 8927,
      "ĠNic": 8928,
      "eps": 8929,
      "Ġcontrary": 8930,
      "Ġresidents": 8931,
      "Ġampl": 8932,
      "icked": 8933,
      "ĠRand": 8934,
      "ĠRos": 8935,
      "Ġprevention": 8936,
      "ĠFord": 8937,
      "Ġbrid": 8938,
      "Ġmayor": 8939,
      "Ġtrace": 8940,
      "iously": 8941,
      "Ġobt": 8942,
      "Ġinterconnected": 8943,
      "Ġsidewalk": 8944,
      "Ġreasonable": 8945,
      "Ġdefic": 8946,
      "Ġequations": 8947,
      "Ġlabs": 8948,
      "Ġchallenged": 8949,
      "Ġterritory": 8950,
      "Ġabsence": 8951,
      "Ġ55": 8952,
      "ĠYorker": 8953,
      "Somebody": 8954,
      "Ġdawn": 8955,
      "Ġarguing": 8956,
      "Ġrequest": 8957,
      "Ġdestiny": 8958,
      "ĠShanghai": 8959,
      "Ġmarvel": 8960,
      "Ġmainstream": 8961,
      "Ġdescribes": 8962,
      "Ġimmig": 8963,
      "Ġempowered": 8964,
      "Ġsafely": 8965,
      "Ġecology": 8966,
      "Ġconcerns": 8967,
      "Ġclinics": 8968,
      "uddenly": 8969,
      "Ġcooperate": 8970,
      "Ġpuzzles": 8971,
      "Ġbags": 8972,
      "ĠBanglades": 8973,
      "Ġpursuit": 8974,
      "Ġvolunteer": 8975,
      "Ġbullet": 8976,
      "ĠColumb": 8977,
      "Ġminimum": 8978,
      "Ġhorizon": 8979,
      "ĠResearch": 8980,
      "Ġhormone": 8981,
      "Ġwhistle": 8982,
      "Ġconstraints": 8983,
      "Ġcluster": 8984,
      "Ġacknowledge": 8985,
      "Ġstriking": 8986,
      "Ġconvenient": 8987,
      "ĠPalestin": 8988,
      "Ġunhappy": 8989,
      "Both": 8990,
      "Cons": 8991,
      "During": 8992,
      "bow": 8993,
      "gram": 8994,
      "gments": 8995,
      "uctor": 8996,
      "Ġathe": 8997,
      "Ġfallen": 8998,
      "Ġfires": 8999,
      "Ġgif": 9000,
      "ete": 9001,
      "erent": 9002,
      "Ġstored": 9003,
      "ifty": 9004,
      "Ġmelt": 9005,
      "Ġjet": 9006,
      "Ġjazz": 9007,
      "Ġjihad": 9008,
      "Ġproved": 9009,
      "Ġproceed": 9010,
      "Ġchains": 9011,
      "ureauc": 9012,
      "Ġmapping": 9013,
      "Ġvia": 9014,
      "Ġvalley": 9015,
      "Ġenabled": 9016,
      "ĠMill": 9017,
      "Ġexposure": 9018,
      "Ġsheets": 9019,
      "ĠLake": 9020,
      "ictor": 9021,
      "Ġoffers": 9022,
      "ĠJose": 9023,
      "Ġraped": 9024,
      "Ġhumanitarian": 9025,
      "Ġtransmit": 9026,
      "Ġtransmission": 9027,
      "Ġinsane": 9028,
      "Ġgrabb": 9029,
      "ucose": 9030,
      "Ġterrain": 9031,
      "Ġstrict": 9032,
      "Being": 9033,
      "conomic": 9034,
      "Ġbiol": 9035,
      "Ġeconomist": 9036,
      "...\"": 9037,
      "Ġinfant": 9038,
      "Ġ42": 9039,
      "Ġformula": 9040,
      "Ġheadlines": 9041,
      "Ġsett": 9042,
      "Ġhalfway": 9043,
      "Ġstopping": 9044,
      "eady": 9045,
      "Ġprotest": 9046,
      "Ġ2002": 9047,
      "Ġreflection": 9048,
      "Ġlocally": 9049,
      "Ġlocations": 9050,
      "Ġassets": 9051,
      "Ġadvances": 9052,
      "Ġmarketplace": 9053,
      "Ġlistened": 9054,
      "Ġmotors": 9055,
      "Ġfailures": 9056,
      "Ġpsychologist": 9057,
      "Ġtempor": 9058,
      "Ġstays": 9059,
      "ĠThree": 9060,
      "ĠZeal": 9061,
      "Ġattacked": 9062,
      "Ġextraordinarily": 9063,
      "ĠFriday": 9064,
      "Ġinfections": 9065,
      "Ġcalculations": 9066,
      "Ġcontributed": 9067,
      "Ġemails": 9068,
      "Ġpreparing": 9069,
      "Ġhonestly": 9070,
      "Ġsurrounding": 9071,
      "Ġtension": 9072,
      "Ġdoubled": 9073,
      "criptions": 9074,
      "Ġclaims": 9075,
      "Ġconcentrated": 9076,
      "Ġcomplain": 9077,
      "Ġelementary": 9078,
      "Ġnewspapers": 9079,
      "Ġkingdom": 9080,
      "Ġlimitations": 9081,
      "Ġcontinuous": 9082,
      "Ġmanipulate": 9083,
      "Ġpalm": 9084,
      "Ġreproduce": 9085,
      "Ġelectrodes": 9086,
      "Ġbarrier": 9087,
      "Ġrecycling": 9088,
      "ĠPeace": 9089,
      "Ġgeometry": 9090,
      "Ġelegant": 9091,
      "ĠCarolina": 9092,
      "ĠBrooklyn": 9093,
      "Ġinevitably": 9094,
      "Ġdowntown": 9095,
      ",'": 9096,
      "Bl": 9097,
      "ga": 9098,
      "grad": 9099,
      "hh": 9100,
      "oen": 9101,
      "ye": 9102,
      "Ġturb": 9103,
      "Ġaug": 9104,
      "Ġwrap": 9105,
      "Ġsons": 9106,
      "erry": 9107,
      "Ġbother": 9108,
      "Ġbills": 9109,
      "Ġfate": 9110,
      "Ġfathers": 9111,
      "Ġinch": 9112,
      "Ġloose": 9113,
      "arians": 9114,
      "Ġnodes": 9115,
      "uty": 9116,
      "Ġrender": 9117,
      "enth": 9118,
      "ifact": 9119,
      "irts": 9120,
      "ules": 9121,
      "Ġprostate": 9122,
      "Ġrib": 9123,
      "Ġmand": 9124,
      "Ġvit": 9125,
      "Ġvoting": 9126,
      "Ġsperm": 9127,
      "ĠSur": 9128,
      "ĠSir": 9129,
      "ĠSky": 9130,
      "Whatever": 9131,
      "Ġsail": 9132,
      "ournal": 9133,
      "aped": 9134,
      "Ġworkplace": 9135,
      "Ġenforce": 9136,
      "Ġmanner": 9137,
      "enses": 9138,
      "elled": 9139,
      "ĠLincoln": 9140,
      "Ġambit": 9141,
      "Ġguard": 9142,
      "Ġobese": 9143,
      "Ġsched": 9144,
      "Ġkeys": 9145,
      "Ġbelieving": 9146,
      "Ġboats": 9147,
      "Ġfoundations": 9148,
      "Ġdrum": 9149,
      "cycl": 9150,
      "Ġreaders": 9151,
      "ĠYemen": 9152,
      "Ġcorrupt": 9153,
      "Ġconfig": 9154,
      "Ġbeautifully": 9155,
      "Ġcolored": 9156,
      "Ġamazed": 9157,
      "Ġamazingly": 9158,
[...]
