{"<s>":0,"<pad>":1,"</s>":2,"<unk>":3,"<mask>":4,"!":5,"\"":6,"#":7,"$":8,"%":9,"&":10,"'":11,"(":12,")":13,"*":14,"+":15,",":16,"-":17,".":18,"/":19,"0":20,"1":21,"2":22,"3":23,"4":24,"5":25,"6":26,"7":27,"8":28,"9":29,":":30,";":31,"<":32,"=":33,">":34,"?":35,"@":36,"A":37,"B":38,"C":39,"D":40,"E":41,"F":42,"G":43,"H":44,"I":45,"J":46,"K":47,"L":48,"M":49,"N":50,"O":51,"P":52,"Q":53,"R":54,"S":55,"T":56,"U":57,"V":58,"W":59,"X":60,"Y":61,"Z":62,"[":63,"\\":64,"]":65,"^":66,"_":67,"`":68,"a":69,"b":70,"c":71,"d":72,"e":73,"f":74,"g":75,"h":76,"i":77,"j":78,"k":79,"l":80,"m":81,"n":82,"o":83,"p":84,"q":85,"r":86,"s":87,"t":88,"u":89,"v":90,"w":91,"x":92,"y":93,"z":94,"{":95,"|":96,"}":97,"~":98,"¡":99,"¢":100,"£":101,"¤":102,"¥":103,"¦":104,"§":105,"¨":106,"©":107,"ª":108,"«":109,"¬":110,"®":111,"¯":112,"°":113,"±":114,"²":115,"³":116,"´":117,"µ":118,"¶":119,"·":120,"¸":121,"¹":122,"º":123,"»":124,"¼":125,"½":126,"¾":127,"¿":128,"À":129,"Á":130,"Â":131,"Ã":132,"Ä":133,"Å":134,"Æ":135,"Ç":136,"È":137,"É":138,"Ê":139,"Ë":140,"Ì":141,"Í":142,"Î":143,"Ï":144,"Ð":145,"Ñ":146,"Ò":147,"Ó":148,"Ô":149,"Õ":150,"Ö":151,"×":152,"Ø":153,"Ù":154,"Ú":155,"Û":156,"Ü":157,"Ý":158,"Þ":159,"ß":160,"à":161,"á":162,"â":163,"ã":164,"ä":165,"å":166,"æ":167,"ç":168,"è":169,"é":170,"ê":171,"ë":172,"ì":173,"í":174,"î":175,"ï":176,"ð":177,"ñ":178,"ò":179,"ó":180,"ô":181,"õ":182,"ö":183,"÷":184,"ø":185,"ù":186,"ú":187,"û":188,"ü":189,"ý":190,"þ":191,"ÿ":192,"Ā":193,"ā":194,"Ă":195,"ă":196,"Ą":197,"ą":198,"Ć":199,"ć":200,"Ĉ":201,"ĉ":202,"Ċ":203,"ċ":204,"Č":205,"č":206,"Ď":207,"ď":208,"Đ":209,"đ":210,"Ē":211,"ē":212,"Ĕ":213,"ĕ":214,"Ė":215,"ė":216,"Ę":217,"ę":218,"Ě":219,"ě":220,"Ĝ":221,"ĝ":222,"Ğ":223,"ğ":224,"Ġ":225,"ġ":226,"Ģ":227,"ģ":228,"Ĥ":229,"ĥ":230,"Ħ":231,"ħ":232,"Ĩ":233,"ĩ":234,"Ī":235,"ī":236,"Ĭ":237,"ĭ":238,"Į":239,"į":240,"İ":241,"ı":242,"Ĳ":243,"ĳ":244,"Ĵ":245,"ĵ":246,"Ķ":247,"ķ":248,"ĸ":249,"Ĺ":250,"ĺ":251,"Ļ":252,"ļ":253,"Ľ":254,"ľ":255,"Ŀ":256,"ŀ":257,"Ł":258,"ł":259,"Ń":260,"en":261,"er":262,"ch":263,"Ġd":264,"in":265,"ie":266,"Ġw":267,"un":268,"Ġs":269,"ich":270,"Ġe":271,"an":272,"st":273,"as":274,"ei":275,"Ġdie":276,"Ġa":277,"Ġun":278,"Ġm":279,"Ġein":280,"te":281,"ge":282,"Ã¼":283,"Ġi":284,"on":285,"Ġv":286,"ĠS":287,"ir":288,"sch":289,"Ġh":290,"Ġn":291,"Ġz":292,"ll":293,"Ã¤":294,"Ġund":295,"Ġdas":296,"ar":297,"gen":298,"ten":299,"Ġb":300,"es":301,"hr":302,"Ġzu":303,"Ġk":304,"Ġder":305,"or":306,"ein":307,"at":308,"it":309,"em":310,"der":311,"Ġin":312,"au":313,"Ġwir":314,"ĠM":315,"Ġau":316,"Ġist":317,"Ã¶":318,"icht":319,"de":320,"den":321,"al":322,"ĠA":323,"ach":324,"ier":325,"Ġf":326,"lich":327,"ben":328,"Ġg":329,"ber":330,"ĠG":331,"el":332,"ur":333,"Ġge":334,"ter":335,"Ġich":336,"ĠB":337,"ĠW":338,"Ġes":339,"ĠK":340,"ung":341,"le":342,"se":343,"Ġan":344,"ĠE":345,"ĠF":346,"Ġer":347,"Ġsie":348,"Un":349,"sen":350,"Ġden":351,"ĠP":352,"Ã¼r":353,"ĠD":354,"mm":355,"ro":356,"ĠL":357,"um":358,"nen":359,"ig":360,"Ġnicht":361,"Ġver":362,"ls":363,"ĠT":364,"ĠI":365,"eit":366,"Ġvon":367,"Ġdass":368,"re":369,"Ġbe":370,"is":371,"Ġeine":372,"ck":373,"ser":374,"Ġauf":375,"Und":376,"ann":377,"Ġha":378,"Ġso":379,"ÃŁ":380,"tz":381,"eh":382,"Ġmit":383,"ĠSie":384,"ion":385,"ind":386,"Ġwie":387,"isch":388,"am":389,"ĠH":390,"enn":391,"ĠR":392,"Ġals":393,"ra":394,"Ġwar":395,"Ġsch":396,"ĠV":397,"Ġsich":398,"us":399,"kt":400,"ent":401,"Ġl":402,"eu":403,"Ġo":404,"Ġt":405,"ft":406,"ahr":407,"ol":408,"Ã¼ber":409,"Ġsind":410,"Ã¶n":411,"be":412,"ehr":413,"Ġhaben":414,"ĠfÃ¼r":415,"ĠZ":416,"lle":417,"Ġj":418,"ste":419,"Ġhat":420,"Ġman":421,"Ich":422,"ĠN":423,"Ġaus":424,"ĠJ":425,"ag":426,"Ġum":427,"and":428,"iel":429,"il":430,"ik":431,"Ã¤n":432,"ff":433,"ĠSt":434,"ĠÃ¼ber":435,"ĠkÃ¶n":436,"eine":437,"Ġp":438,"och":439,"ut":440,"Ġwer":441,"llen":442,"tw":443,"sten":444,"om":445,"Ġ\"":446,"hl":447,"Ġâ":448,"Ġda":449,"ĠGe":450,"eil":451,"Ġdiese":452,"ĠSch":453,"Ġdem":454,"Ġwas":455,"Ġim":456,"Die":457,"igen":458,"Das":459,"ern":460,"hen":461,"rei":462,"Ġihr":463,"Ġ-":464,"bt":465,"Ġwenn":466,"Ġuns":467,"sp":468,"Ġeinen":469,"chen":470,"mmen":471,"Ġdies":472,"ieren":473,"Es":474,"ensch":475,"ne":476,"ĠVer":477,"Wir":478,"ĠkÃ¶nnen":479,"Ġdes":480,"Ġunser":481,"Ġje":482,"ien":483,"Ġwerden":484,"ĠJahr":485,"wei":486,"iv":487,"Ġoder":488,"ungen":489,"rau":490,"zu":491,"ĠPro":492,"ĠC":493,"Ġvor":494,"ehen":495,"ige":496,"ĠIn":497,"Ġsein":498,"elt":499,"iert":500,"ĠO":501,"ĠAr":502,"scha":503,"rÃ¼":504,"ation":505,"Ġander":506,"Ġkann":507,"Ġwo":508,"Ġauch":509,"Ġaber":510,"Ġeiner":511,"Sie":512,"men":513,"ĠâĢ":514,"Ġeinem":515,"ĠMensch":516,"gt":517,"ĠAn":518,"ĠEr":519,"Ġnach":520,"Ġ1":521,"anz":522,"ken":523,"Ġmein":524,"ort":525,"Ġmach":526,"uch":527,"hnen":528,"Ġnur":529,"Ġwird":530,"Ġetw":531,"Ġsehr":532,"Ġbei":533,"ĠBe":534,"ischen":535,"Ġhier":536,"Ġall":537,"00":538,"und":539,"Ã¶r":540,"os":541,"ht":542,"Ġdar":543,"aus":544,"ibt":545,"ĠMenschen":546,"fen":547,"Ġent":548,"hn":549,"Ġ--":550,"Ġmich":551,"urch":552,"Ġst":553,"Aber":554,"Ã¤ch":555,"Ġgibt":556,"issen":557,"Ġle":558,"ot":559,"ĠâĢĵ":560,"Ġwur":561,"ĠRe":562,"lau":563,"Ġdann":564,"Ã¤t":565,"Ġsp":566,"hal":567,"Ġalso":568,"ill":569,"tzt":570,"ab":571,"eute":572,"ĠLe":573,"ing":574,"ru":575,"Ġnoch":576,"og":577,"dern":578,"ĠEn":579,"schaft":580,"Ġetwas":581,"bl":582,"ick":583,"rie":584,"ommen":585,"mmer":586,"Ġher":587,"et":588,"tet":589,"ang":590,"Ġsehen":591,"Ġhabe":592,"Ġwei":593,"ĠWelt":594,"Ġvie":595,"Ġsa":596,"Ġmir":597,"Ġdieser":598,"ul":599,"bei":600,"Ġmehr":601,"heit":602,"Ġdurch":603,"ĠUn":604,"ĠSp":605,"Ġkl":606,"ische":607,"ers":608,"roÃŁ":609,"op":610,"Ġsag":611,"Ġre":612,"mal":613,"lichen":614,"keit":615,"we":616,"all":617,"Ġgen":618,"acht":619,"Ġviel":620,"ank":621,"he":622,".\"":623,"ffen":624,"ĠLeben":625,"her":626,"liche":627,"Als":628,"Ã¼s":629,"ĠU":630,"Ã¤r":631,"Ġalle":632,"cht":633,"Ġ2":634,"uss":635,"fach":636,"Ġganz":637,"klich":638,"end":639,"Ġwurde":640,"Ġzum":641,"ĠmÃ¶":642,"Ġunter":643,"rin":644,"ass":645,"ess":646,"fÃ¼":647,"ri":648,"ĠZeit":649,"ĠwÃ¼r":650,"ze":651,"Ã¤hr":652,"ĠIhnen":653,"bst":654,"Wenn":655,"uf":656,"assen":657,"Ġmachen":658,"tzen":659,"oll":660,"Ġste":661,"ĠgroÃŁ":662,"ech":663,"Ġab":664,"Ġzwei":665,"Ġwirklich":666,"for":667,"Ġeinfach":668,"ĠGesch":669,"Ġimmer":670,"wer":671,"Ġmeine":672,"ungs":673,"Ġbes":674,"ob":675,"rÃ¼ck":676,"fl":677,"Ġr":678,"Ġam":679,"inge":680,"Ġkon":681,"Ġweil":682,"tern":683,"bar":684,"Ġtun":685,"chte":686,"ekt":687,"mmt":688,"ĠfÃ¼":689,"schie":690,"art":691,"ner":692,"nte":693,"aten":694,"ĠÃ":695,"ĠEin":696,"ad":697,"Ġneu":698,"ist":699,"ĠmÃ¼s":700,"Ġhatte":701,"iz":702,"inden":703,"Ġunsere":704,"Ein":705,"ap":706,"lie":707,"Ġbis":708,"ĠâĻ":709,"Ġdieses":710,"ehmen":711,"che":712,"ĠIch":713,"elbst":714,"leich":715,"Ġhin":716,"per":717,"Ã¼ck":718,"Ġkeine":719,"gel":720,"eiten":721,"Er":722,"ger":723,"im":724,"glich":725,"Ġihre":726,"ionen":727,"Ġwissen":728,"ĠGr":729,"iger":730,"rach":731,"stell":732,"ĠmÃ¼ssen":733,"ĠLeute":734,"est":735,"hlen":736,"unkt":737,"sa":738,"Also":739,"Ġdiesem":740,"dem":741,"Ġsoll":742,"omp":743,"In":744,"Ġviele":745,"pt":746,"Ġwaren":747,"ÃŁen":748,"ĠArt":749,"itte":750,"olog":751,"ke":752,"rÃ¤":753,"Ġdam":754,"Ġsagte":755,"Ġsagen":756,"ĠDinge":757,"lt":758,"Ġdiesen":759,"gend":760,"unden":761,"ĠJahren":762,"ĠUnd":763,"ĠIhr":764,"blem":765,"ĠGes":766,"Ġweiter":767,"Ġbeg":768,"Ġlie":769,"Ġbin":770,"ĠWir":771,"ild":772,"Ã¤u":773,"sam":774,"Ġeines":775,"du":776,"zen":777,"age":778,"einen":779,"Ġandere":780,"kommen":781,"Ġgew":782,"ats":783,"ed":784,"ĠâĻ«":785,"ver":786,"hm":787,"ĠOr":788,"Ġjetzt":789,"ĠKon":790,"Ġzei":791,"Ġko":792,"Ġanderen":793,"itÃ¤t":794,"ster":795,"Ġwieder":796,"lan":797,"auf":798,"Ġeigen":799,"ichte":800,"Was":801,"det":802,"ichtig":803,"lleicht":804,"inder":805,"nis":806,"Ġglau":807,"ĠwÃ¼rde":808,"geb":809,"ĠProblem":810,"pp":811,"Ġalles":812,"Ġzur":813,"zi":814,"eg":815,"Ã¼n":816,"ĠEs":817,"Ġselbst":818,"Ġnie":819,"Ġdamit":820,"sehen":821,"Ġdu":822,"Ġverb":823,"Ġar":824,"Ġwen":825,"ug":826,"auen":827,"eln":828,"ande":829,"ĠCh":830,"yst":831,"Ġgeht":832,"Ã¤nder":833,"under":834,"ast":835,"Ġgem":836,"ĠMill":837,"ĠWas":838,"ler":839,"spiel":840,"ĠAus":841,"Ġvers":842,"ĠJahre":843,"halten":844,"tes":845,"ystem":846,"Ġob":847,"ĠzurÃ¼ck":848,"Ġber":849,"ale":850,"beit":851,"Ġger":852,"kl":853,"off":854,"Ġmuss":855,"rÃ¶":856,"ragen":857,"ĠVor":858,"pf":859,"Ġwel":860,"mer":861,"war":862,"ÃŁer":863,"angen":864,"Ġdenn":865,"inn":866,"Ġgut":867,"Ã¤re":868,"schl":869,"nten":870,"amen":871,"ĠFrau":872,"igkeit":873,"Ġschon":874,"Der":875,"Ã¤chlich":876,"von":877,"ĠDas":878,"ran":879,"Ġheraus":880,"des":881,"zeu":882,"ĠNe":883,"aar":884,"Wie":885,"Ġverst":886,"Man":887,"lei":888,"vor":889,"ok":890,"ĠmÃ¶chte":891,"rit":892,"stellen":893,"ell":894,"ierte":895,"Ġihnen":896,"fahr":897,"zent":898,"Ġbest":899,"echn":900,"ahl":901,"ĠBei":902,"ringen":903,"Ġzusa":904,"ĠKinder":905,"Ġvielleicht":906,"ert":907,"Ġletz":908,"ationen":909,"Ġpass":910,"Ġzusammen":911,"imm":912,"ha":913,"ĠHer":914,"Ġson":915,"ĠTeil":916,"atsÃ¤chlich":917,"Ġbrau":918,"ĠIde":919,"ĠGeh":920,"Ġpro":921,"Ġdrei":922,"Ġ3":923,"Ġdavon":924,"zie":925,"ĠFl":926,"ade":927,"Ġdort":928,"Ġarbei":929,"alen":930,"hne":931,"uchen":932,"rechen":933,"alt":934,"ant":935,"Ġgleich":936,"ĠLand":937,"Ġheute":938,"halb":939,"agen":940,"ek":941,"ĠAuf":942,"Ġhatten":943,"form":944,"wo":945,"000":946,"Ġgenau":947,"Ġinter":948,"atÃ¼r":949,"Nun":950,"ĠGeschichte":951,"cken":952,"att":953,"..":954,"esen":955,"Ġeinige":956,"Ġbet":957,"ater":958,"ichten":959,"Ġkein":960,"weise":961,"mlich":962,"ĠAu":963,"ĠTechn":964,"Ã¤ndern":965,"aut":966,"ĠBild":967,"eld":968,"anden":969,"aum":970,"net":971,"Ġihn":972,"Ġjem":973,"zÃ¤":974,"ĠkÃ¶nnte":975,"ak":976,"ĠArbeit":977,"Dies":978,"ĠDie":979,"Ġir":980,"rage":981,"schen":982,"ennen":983,"atz":984,"ud":985,"ĠZu":986,"ielen":987,"ĠFor":988,"ĠKl":989,"ologie":990,"Ġzw":991,"Ġwollen":992,"ĠBl":993,"unde":994,"oren":995,"Ġpaar":996,"irn":997,"ĠUm":998,"Ġmeiner":999,"ine":1000,"Ġwoll":1001,"Ġgehen":1002,"Ġwurden":1003,"reich":1004,"Ġeinz":1005,"Ġwahr":1006,"ĠdarÃ¼ber":1007,"fÃ¼r":1008,"rag":1009,"qu":1010,"Ġnun":1011,"fr":1012,"wick":1013,"Ã¤d":1014,"Ġwerde":1015,"unktion":1016,"Ġben":1017,"ĠUnter":1018,"?\"":1019,"tlich":1020,"Ġbesser":1021,"utzen":1022,"hren":1023,"ĠtatsÃ¤chlich":1024,"Hier":1025,"eich":1026,"schieden":1027,"Ġverw":1028,"gar":1029,"ĠKo":1030,"ĠInter":1031,"ĠgrÃ¶":1032,"ĠBeispiel":1033,"Ġange":1034,"hÃ¶r":1035,"Ã¤hrend":1036,"Ġzie":1037,"atur":1038,"ĠBer":1039,"ĠWei":1040,"ache":1041,"ĠweiÃŁ":1042,"fol":1043,"Ġunserer":1044,"Ġgab":1045,"ah":1046,"atÃ¼rlich":1047,"ativ":1048,"eisten":1049,"Ġsondern":1050,"Ġgu":1051,"ĠGeb":1052,"Ġseine":1053,"ander":1054,"Ã¤nd":1055,"Ġbede":1056,"ĠWissen":1057,"Diese":1058,"ĠSo":1059,"Ġbek":1060,"ĠwÃ¤re":1061,"Ġleben":1062,"ĠWasser":1063,"akt":1064,"Ġneue":1065,"ode":1066,"schei":1067,"Ġdazu":1068,"ult":1069,"fe":1070,"schein":1071,"Ġvom":1072,"Ġwill":1073,"Ġdenke":1074,"Ġgef":1075,"Ġ5":1076,"teil":1077,"ĠFre":1078,"ite":1079,"ĠGen":1080,"ĠAb":1081,"ĠhÃ¤t":1082,"Ã¶glich":1083,"achen":1084,"hin":1085,"eite":1086,"Ġirgend":1087,"gie":1088,"Ġfinden":1089,"br":1090,"ĠAut":1091,"Ġdenken":1092,"Ġentwick":1093,"Ġkommen":1094,"Ġsogar":1095,"me":1096,"Ġdenen":1097,"utz":1098,"Ġmacht":1099,"Ġeinmal":1100,"Ã¶ff":1101,"ittel":1102,"Ġhei":1103,"ĠGrund":1104,"ma":1105,"Ġgegen":1106,"ĠAl":1107,"Ġlang":1108,"Ġzwischen":1109,"ĠMon":1110,"Ġges":1111,"Ġgerade":1112,"ĠTag":1113,"ľber":1114,"Ġgemacht":1115,"ark":1116,"Ġglaube":1117,"ften":1118,"ierung":1119,"ĠerzÃ¤":1120,"Ġfunktion":1121,"Ġwichtig":1122,"Ġinteress":1123,"Ġgeben":1124,"ĠGehirn":1125,"Ġkommt":1126,"erson":1127,"Ġ20":1128,"ingen":1129,"Ã¤h":1130,"andel":1131,"geben":1132,"Ġex":1133,"ĠFrage":1134,"rank":1135,"Ġerst":1136,"ĠLebens":1137,"ika":1138,"enden":1139,"rÃ¼n":1140,"keiten":1141,"ĠEnt":1142,"lÃ¼ck":1143,"Ġbedeu":1144,"Ġohne":1145,"Ġmus":1146,"ys":1147,"ĠNach":1148,"ĠnÃ¤ch":1149,"gan":1150,"Ġjeder":1151,"hem":1152,"ĠFrauen":1153,"Ġletzten":1154,"tschaft":1155,"ĠDank":1156,"Ġnichts":1157,"ĠMal":1158,"ate":1159,"Ġ19":1160,"Ġihren":1161,"Ġzeigen":1162,"alten":1163,"ĠwÃ¼rden":1164,"ellen":1165,"So":1166,"ĠdafÃ¼r":1167,"Ġverl":1168,"od":1169,"weg":1170,"achte":1171,"Je":1172,"Ġkonnte":1173,"ic":1174,"Ġpassiert":1175,"Ġverschieden":1176,"gef":1177,"Ġersten":1178,"ay":1179,"Ġ4":1180,"chten":1181,"Ġsieht":1182,"ĠDaten":1183,"gehen":1184,"Ã¤l":1185,"ĠProzent":1186,"cher":1187,"ikan":1188,"Ġmeisten":1189,"gr":1190,"Ġverstehen":1191,"nell":1192,"ĠMed":1193,"ÃŁt":1194,"ĠReg":1195,"immt":1196,"Ġdaran":1197,"ss":1198,"ischer":1199,"rupp":1200,"ĠwÃ¤hrend":1201,"Ġbesch":1202,"wir":1203,"aufen":1204,"iele":1205,"ĠMillionen":1206,"Ġetwa":1207,"ĠEx":1208,"sel":1209,"fer":1210,"Ġmal":1211,"stand":1212,"wie":1213,"Ġerste":1214,"ÃŁe":1215,"Ġwarum":1216,"erst":1217,"Ġlassen":1218,"Ġsicher":1219,"ĠMe":1220,"Ġsollte":1221,"zeit":1222,"hrt":1223,"ord":1224,"bs":1225,"ĠHand":1226,"sicht":1227,"âĢ":1228,"Ġmensch":1229,"Ġsollten":1230,"erk":1231,"ts":1232,"agt":1233,"ĠnatÃ¼rlich":1234,"ĠPh":1235,"ign":1236,"yp":1237,"jekt":1238,"licher":1239,"ivers":1240,"Ġschw":1241,"ĠIdee":1242,"ogen":1243,"Ġ10":1244,"iere":1245,"Ġmeinen":1246,"als":1247,"ucht":1248,"stellt":1249,"ergie":1250,"Ġmeinem":1251,"elle":1252,"ĠkÃ¶nnten":1253,"ompu":1254,"gew":1255,"Ġschnell":1256,"ĠÃľber":1257,"ce":1258,"Ġwollte":1259,"ĠGeld":1260,"ĠPerson":1261,"fte":1262,"Ġgel":1263,"Ġkomp":1264,"igt":1265,"Ã¤lt":1266,"Ġja":1267,"ĠRaum":1268,"ia":1269,"Ġgesch":1270,"tro":1271,"Ġgeb":1272,"Ġganze":1273,"ĠgroÃŁe":1274,"ide":1275,"pro":1276,"aupt":1277,"ramm":1278,"ĠWeg":1279,"schied":1280,"Ġjemand":1281,"ckt":1282,"ange":1283,"llt":1284,"Ã¶s":1285,"Ġsprechen":1286,"Ã¶rper":1287,"Ġziemlich":1288,"innen":1289,"Ã¤ren":1290,"Ġscha":1291,"onder":1292,"Ġklein":1293,"Ġins":1294,"Ġbekommen":1295,"Ġihrer":1296,"ollar":1297,"ĠSchl":1298,"richt":1299,"lung":1300,"Ġarbeiten":1301,"Ã¤ng":1302,"Ġdabei":1303,"ĠMit":1304,"ĠInform":1305,"adt":1306,"Ġging":1307,"ktiv":1308,"Ġsagt":1309,"Ġkam":1310,"ĠSe":1311,"ĠMar":1312,"ĠSte":1313,"kun":1314,"ĠhÃ¶r":1315,"ernen":1316,"io":1317,"ĠSystem":1318,"ierten":1319,"twort":1320,"omputer":1321,"Ġdarauf":1322,"arum":1323,"ĠGer":1324,"ĠÃĦ":1325,"scheinlich":1326,"Ġnehmen":1327,"amil":1328,"tt":1329,"eist":1330,"Da":1331,"olut":1332,"str":1333,"utter":1334,"ktur":1335,"laub":1336,"dien":1337,"enz":1338,"ahm":1339,"Ã¤ter":1340,"ĠPlan":1341,"mus":1342,"orden":1343,"ĠAber":1344,"ĠUnivers":1345,"ĠIhre":1346,"Ġbereit":1347,"Qu":1348,"olit":1349,"finden":1350,"reiben":1351,"ĠKre":1352,"rad":1353,"Ġweniger":1354,"ĠEnde":1355,"ele":1356,"urz":1357,"Ġkleinen":1358,"pl":1359,"Ġschl":1360,"fÃ¼hl":1361,"Ġdoch":1362,"ĠKind":1363,"ĠPl":1364,"ĠDollar":1365,"\".":1366,"Ġvier":1367,"ĠDes":1368,"ĠGem":1369,"ĠRo":1370,"Sch":1371,"id":1372,"kunft":1373,"Eine":1374,"ĠStra":1375,"ĠWissenschaft":1376,"lo":1377,"ker":1378,"ĠMen":1379,"Ġbedeutet":1380,"arbei":1381,"ĠEl":1382,"ĠBo":1383,"rat":1384,"Ġunseren":1385,"ĠFamil":1386,"ĠUS":1387,"sst":1388,"ennt":1389,"ĠMin":1390,"Ġsol":1391,"ĠÃĸ":1392,"ial":1393,"Ġdir":1394,"itz":1395,"usst":1396,"ĠQu":1397,"orgen":1398,"ĠMus":1399,"annt":1400,"asch":1401,"ĠVerb":1402,"Ġung":1403,"ĠEntw":1404,"ĠSache":1405,"ganis":1406,"ĠRei":1407,"Ġdachte":1408,"ĠEnergie":1409,"ĠTechnologie":1410,"Ã¤ft":1411,"ĠMÃ¶glich":1412,"ĠComputer":1413,"anke":1414,"tete":1415,"Ġbringen":1416,"ruck":1417,"no":1418,"gl":1419,"Ġihm":1420,"ĠSta":1421,"Ġwelche":1422,"ĠMann":1423,"mp":1424,"Ġseit":1425,"Ġkleine":1426,"ĠmÃ¶glich":1427,"Ġbrauchen":1428,"Ġgesehen":1429,"Ġeigentlich":1430,"ĠWe":1431,"ĠTe":1432,"nit":1433,"tr":1434,"oment":1435,"Ġsei":1436,"ald":1437,"ĠLie":1438,"ive":1439,"ĠY":1440,"raft":1441,"unk":1442,"achsen":1443,"uten":1444,"unter":1445,"ĠgroÃŁen":1446,"Ġgest":1447,"ĠSeite":1448,"aben":1449,"Ġwenig":1450,"fall":1451,"etz":1452,"Ã¤tz":1453,"ition":1454,"ĠWeise":1455,"\",":1456,"schw":1457,"ĠMÃ¤n":1458,"iges":1459,"isten":1460,"Ġjeden":1461,"Ġen":1462,"Ġausge":1463,"An":1464,"ĠGew":1465,"alis":1466,"schaften":1467,"Im":1468,"ĠStadt":1469,"Ġganzen":1470,"opf":1471,"ĠSchu":1472,"icher":1473,"inde":1474,"ard":1475,"nung":1476,"legen":1477,"Ġ6":1478,"Ġschle":1479,"Ġkeinen":1480,"raf":1481,"Ġhoch":1482,"ĠauÃŁer":1483,"eht":1484,"ĠhÃ¤tte":1485,"Ġvoll":1486,"halt":1487,"folg":1488,"ust":1489,"Ġal":1490,"ĠMan":1491,"wegen":1492,"ĠZukunft":1493,"ĠMenge":1494,"hlt":1495,"ĠKÃ¶rper":1496,"ĠWoch":1497,"ĠspÃ¤ter":1498,"Ã¶ffent":1499,"Ġgesagt":1500,"stellung":1501,"ĠTage":1502,"Ġversuchen":1503,"ĠGrupp":1504,"ĠLicht":1505,"ĠfÃ¼n":1506,"our":1507,"ultur":1508,"fft":1509,"ernt":1510,"ip":1511,"Ã¤hn":1512,"Ġgern":1513,"leben":1514,"Ġglauben":1515,"th":1516,"indet":1517,"iss":1518,"denken":1519,"achten":1520,"rieben":1521,"ormal":1522,"Ġverm":1523,"ĠGed":1524,"wohl":1525,"ĠBuch":1526,"ĠGroÃŁ":1527,"undheit":1528,"ĠOrt":1529,"hol":1530,"Ġvielen":1531,"ĠKar":1532,"...":1533,"lex":1534,"Ġbeim":1535,"essen":1536,"Ġunglaub":1537,"ĠEntwick":1538,"iar":1539,"ĠFil":1540,"asse":1541,"eim":1542,"ĠWie":1543,"lekt":1544,"ĠAugen":1545,"ĠâĢŀ":1546,"ĠMa":1547,"ĠSpiel":1548,"Ġte":1549,"Ã¶l":1550,"Ġstellen":1551,"Ġkonnten":1552,"eten":1553,"ausen":1554,"eilen":1555,"alitÃ¤t":1556,"ĠheiÃŁt":1557,"Ġfest":1558,"gramm":1559,"ĠDe":1560,"Ġeigenen":1561,"Ġoft":1562,"ĠgehÃ¶r":1563,"Ġlernen":1564,"fahren":1565,"ĠGemein":1566,"ĠFall":1567,"ĠVers":1568,"Ġbesonder":1569,"Ġget":1570,"Ġsozi":1571,"ahmen":1572,"Ġfast":1573,"Ġfunktioniert":1574,"elfen":1575,"zeug":1576,"Dann":1577,"nehmen":1578,"onnen":1579,"ruktur":1580,"stÃ¤nd":1581,"aden":1582,"Ġ200":1583,"ĠfÃ¼nf":1584,"setzen":1585,"reichen":1586,"Ġwunder":1587,"Ġindem":1588,"ĠWo":1589,"Ġjedes":1590,"Ġschaffen":1591,"allen":1592,"ĠnÃ¤":1593,"Ã¤ndert":1594,"lieÃŁ":1595,"Ġrie":1596,"ĠStud":1597,"ges":1598,"Ġbef":1599,"ĠNatur":1600,"eile":1601,"reis":1602,"ĠgrÃ¶ÃŁ":1603,"ium":1604,"stoff":1605,"ĠErde":1606,"ĠUntern":1607,"frika":1608,"ritt":1609,"Ġgute":1610,"so":1611,"Ġlange":1612,"oten":1613,"Ġschwer":1614,"zeich":1615,"Ġoffen":1616,"St":1617,"satz":1618,"Ġnutzen":1619,"ĠMutter":1620,"ĠMoment":1621,"ĠProbleme":1622,"ĠSchul":1623,"ĠHaus":1624,"Ġgl":1625,"ho":1626,"ĠMilliar":1627,"ause":1628,"Warum":1629,"inner":1630,"gefÃ¤hr":1631,"âĢľ":1632,"ĠPat":1633,"hle":1634,"ĠSprach":1635,"ib":1636,"ĠInternet":1637,"ott":1638,"echs":1639,"nisse":1640,"ĠProdu":1641,"eiden":1642,"lichkeit":1643,"Ġseiner":1644,"iker":1645,"mpf":1646,"zahl":1647,"ĠGesell":1648,"spro":1649,"ED":1650,"wusst":1651,"isches":1652,"volut":1653,"ett":1654,"ack":1655,"Ġsah":1656,"Ġwahrscheinlich":1657,"ĠWenn":1658,"Ġaller":1659,"Ġhelfen":1660,"ĠGesundheit":1661,"ahlen":1662,"Ġallen":1663,"esser":1664,"ammen":1665,"Ġ8":1666,"euten":1667,"Ġweit":1668,"ĠKam":1669,"ĠAng":1670,"kon":1671,"Ġweg":1672,"itu":1673,"Ġanders":1674,"Ġc":1675,"Ġfol":1676,"Ġeinge":1677,"Ġgenug":1678,"Ġzeigt":1679,"Ġherum":1680,"Ã¼nst":1681,"ĠschÃ¶n":1682,"chmal":1683,"Ġunserem":1684,"Ġneuen":1685,"duz":1686,"Ġwicht":1687,"ĠfrÃ¼":1688,"ĠerzÃ¤hlen":1689,"ilder":1690,"Ġklar":1691,"volution":1692,"Denn":1693,"fangen":1694,"ĠForm":1695,"ĠHin":1696,"heiten":1697,"dent":1698,"ĠnÃ¤chsten":1699,"glichen":1700,"Ġverk":1701,"Ġ7":1702,"ossen":1703,"ĠUSA":1704,"ph":1705,"unst":1706,"yn":1707,"Ġkennen":1708,"Ġbegann":1709,"ren":1710,"liches":1711,"Ġne":1712,"raum":1713,"gleich":1714,"ĠLehr":1715,"ĠWahr":1716,"kay":1717,"welt":1718,"rieg":1719,"Ġse":1720,"ĠgrÃ¶ÃŁer":1721,"Ġwus":1722,"schaffen":1723,"Ġbeh":1724,"ko":1725,"zess":1726,"scheid":1727,"'s":1728,"abe":1729,"ĠungefÃ¤hr":1730,"Ġwe":1731,"Ġbetrach":1732,"gangen":1733,"lÃ¶":1734,"land":1735,"Ġbauen":1736,"Ġ100":1737,"Ġjede":1738,"Ġstar":1739,"ron":1740,"ĠVide":1741,"andeln":1742,"kennen":1743,"uft":1744,"ĠMo":1745,"umen":1746,"Ġ15":1747,"ehn":1748,"ĠGegen":1749,"Ġrichtig":1750,"hunder":1751,"fÃ¤":1752,"Ġblei":1753,"setzt":1754,"llig":1755,"ĠMet":1756,"ina":1757,"reffen":1758,"Ġbevor":1759,"zieh":1760,"Ġgemein":1761,"Ġ30":1762,"Ġ50":1763,"Ġliegt":1764,"ĠverÃ¤ndern":1765,"Ġbisschen":1766,"ĠPlaneten":1767,"Ã¶t":1768,"ĠAmer":1769,"ĠDesign":1770,"Ġ9":1771,"Ġrecht":1772,"ĠBÃ¼r":1773,"ĠNew":1774,"ekte":1775,"ĠhÃ¶":1776,"Ġnormal":1777,"ere":1778,"mmun":1779,"ĠLeuten":1780,"Ġseinen":1781,"ens":1782,"igkeiten":1783,"Ġgar":1784,"ĠFÃ¤h":1785,"Ã¤che":1786,"ĠProjekt":1787,"Ġfal":1788,"ĠKunst":1789,"eut":1790,"forder":1791,"bo":1792,"Ġkurz":1793,"ĠSchule":1794,"asst":1795,"Jetzt":1796,"ĠRob":1797,"ĠIdeen":1798,"chn":1799,"ĠMater":1800,"Ã¤nde":1801,"ink":1802,"Ã¤dchen":1803,"ĠFot":1804,"ĠInformationen":1805,"ĠWer":1806,"ĠÃ¼berall":1807,"mÃ¶":1808,"ĠSchw":1809,"av":1810,"sche":1811,"ktion":1812,"omen":1813,"ĠErfahr":1814,"dig":1815,"Ġro":1816,"Ġsagten":1817,"Ġstehen":1818,"ĠForsch":1819,"utzt":1820,"ĠMusik":1821,"anken":1822,"mit":1823,"mittel":1824,"Ġern":1825,"Ġinner":1826,"Mit":1827,"Ã¼tz":1828,"ĠDi":1829,"ĠTED":1830,"ringt":1831,"itzen":1832,"ĠgehÃ¶rt":1833,"ismus":1834,"ĠAt":1835,"ĠArten":1836,"Ġversuch":1837,"ĠMu":1838,"los":1839,"ĠMode":1840,"Ġerkl":1841,"ĠKopf":1842,"Ġhinter":1843,"orten":1844,"ĠPunkt":1845,"Ġdarum":1846,"Ġnennen":1847,"Ġanzu":1848,"ienten":1849,"mand":1850,"Ġschwier":1851,"immen":1852,"enken":1853,"ĠSu":1854,"ĠWirtschaft":1855,"ĠKrank":1856,"ĠAntwort":1857,"sy":1858,"Ġeben":1859,"Ġmusste":1860,"ĠAls":1861,"usammen":1862,"Ġihrem":1863,"Ġreden":1864,"ĠMilliarden":1865,"werk":1866,"gesch":1867,"ĠUnternehmen":1868,"eren":1869,"anzen":1870,"pr":1871,"Ġsel":1872,"rieb":1873,"Ã¤nger":1874,"Ġanderes":1875,"ĠVort":1876,"ief":1877,"zept":1878,"izin":1879,"Ġdich":1880,"ĠGebÃ¤u":1881,"scheiden":1882,"Ġbereits":1883,"ĠNetz":1884,"fang":1885,"Ġbem":1886,"bringen":1887,"ĠExper":1888,"ĠMÃ¤nner":1889,"olle":1890,"Ġhal":1891,"auer":1892,"ĠgroÃŁart":1893,"Vielen":1894,"Ġeuch":1895,"ĠJahrhunder":1896,"ubl":1897,"ĠUniversum":1898,"gung":1899,"ĠStu":1900,"ĠBi":1901,"gem":1902,"ĠFragen":1903,"ĠRicht":1904,"amens":1905,"riff":1906,"Ġentwickelt":1907,"einander":1908,"Ġfragen":1909,"ĠGeschichten":1910,"sk":1911,"voll":1912,"Ġerkennen":1913,"ĠBed":1914,"Ġerreichen":1915,"ĠMinuten":1916,"zei":1917,"ĠBÃ¼":1918,"Ã¶hn":1919,"Ġfrag":1920,"ĠAuto":1921,"was":1922,"Ġhalten":1923,"Ġsteht":1924,"ĠLÃ¶s":1925,"Ġbesonders":1926,"Ġoben":1927,"Ġerh":1928,"ĠGesellschaft":1929,"Ġspielen":1930,"Ġnamens":1931,"ielleicht":1932,"Ã¶sen":1933,"ome":1934,"Ġbenutzen":1935,"Ġverschiedene":1936,"ielt":1937,"Ġentde":1938,"ĠFamilie":1939,"if":1940,"ĠOb":1941,"inen":1942,"ĠhÃ¤tten":1943,"ĠMÃ¤dchen":1944,"Ġseinem":1945,"Ġgerne":1946,"ilfe":1947,"ĠVerhalten":1948,"ĠÃ¼":1949,"aun":1950,"ahn":1951,"pen":1952,"erv":1953,"annte":1954,"zentr":1955,"cke":1956,"indung":1957,"Meine":1958,"nahm":1959,"Ġde":1960,"Ġmachte":1961,"andelt":1962,"ras":1963,"ĠAfrika":1964,"Ġdarin":1965,"ĠhÃ¶ren":1966,"ĠEntscheid":1967,"ĠFilm":1968,"Ġerf":1969,"ĠKor":1970,"Ġho":1971,"ĠÃ¤hn":1972,"deut":1973,"Danke":1974,"oter":1975,"ĠGl":1976,"ĠThem":1977,"ĠGruppe":1978,"akter":1979,"ient":1980,"Ġsechs":1981,"unge":1982,"rom":1983,"Ġglob":1984,"kte":1985,"Ġbeein":1986,"ĠStÃ¼ck":1987,"Ġwohl":1988,"Ġstatt":1989,"grund":1990,"schnit":1991,"Mein":1992,"ĠErgeb":1993,"bare":1994,"richten":1995,"Ġjedem":1996,"Ġbraucht":1997,"ĠGlÃ¼ck":1998,"indern":1999,"geln":2000,"Ġbestimm":2001,"ĠFlug":2002,"Ã¶lker":2003,"onen":2004,"urs":2005,"euer":2006,"ĠBeweg":2007,"ĠOrganis":2008,"bild":2009,"kehr":2010,"Ã¼t":2011,"Ġgesam":2012,"ĠIndien":2013,"lieÃŁlich":2014,"ĠMacht":2015,"let":2016,"ĠFar":2017,"ings":2018,"Dieses":2019,"ĠAngst":2020,"ĠSelbst":2021,"Ġentwickeln":2022,"son":2023,"ĠFir":2024,"All":2025,"Ġch":2026,"endet":2027,"mals":2028,"setz":2029,"Ã¤cht":2030,"Ġricht":2031,"ock":2032,"anten":2033,"ĠZusammen":2034,"Ġvorstellen":2035,"ĠHerz":2036,"ĠEltern":2037,"Ġries":2038,"ĠPatienten":2039,"dr":2040,"ĠBilder":2041,"FÃ¼r":2042,"Ã¤uf":2043,"ume":2044,"heor":2045,"Ã¼tzen":2046,"Ġtro":2047,"fÃ¼hrt":2048,"ase":2049,"Ġmag":2050,"sych":2051,"ĠglÃ¼ck":2052,"amm":2053,"system":2054,"ĠGefÃ¼hl":2055,"ĠLuft":2056,"ikro":2057,"Auf":2058,"punkt":2059,"ĠMÃ¶glichkeit":2060,"ĠFreund":2061,"ezie":2062,"genommen":2063,"Ġflie":2064,"ĠBau":2065,"ĠKultur":2066,"Ġerhalten":2067,"ĠâĻª":2068,"Ġeinigen":2069,"ĠSÃ¼":2070,"Ġbewegen":2071,"zug":2072,"ĠUr":2073,"err":2074,"ĠStunden":2075,"ĠVater":2076,"Ġirgendwie":2077,"ai":2078,"ĠSprache":2079,"ante":2080,"Ġna":2081,"urop":2082,"ider":2083,"iken":2084,"Ġverschiedenen":2085,"icherheit":2086,"ĠBeh":2087,"reten":2088,"ĠStr":2089,"gte":2090,"Ã¤sst":2091,"ĠFÃ¼":2092,"Ġbeiden":2093,"ersÃ¶n":2094,"Ġ%":2095,"Ġhoff":2096,"Ġerw":2097,"ow":2098,"uer":2099,"ĠFol":2100,"Ġmanchmal":2101,"haupt":2102,"annen":2103,"zeugen":2104,"ĠÃ¤ndern":2105,"inieren":2106,"esse":2107,"okrat":2108,"Ġalt":2109,"Ġwollten":2110,"ohn":2111,"ork":2112,"sie":2113,"ĠWort":2114,"ĠfÃ¼hren":2115,"Vor":2116,"Ã¤ten":2117,"ĠBereich":2118,"gal":2119,"ĠDu":2120,"ĠVerÃ¤nder":2121,"ĠArm":2122,"Ġfrei":2123,"Unser":2124,"ĠRÃ¼ck":2125,"Ġdrau":2126,"Ġbesten":2127,"gestellt":2128,"Ġstell":2129,"Ġeinzige":2130,"teten":2131,"ĠLin":2132,"Ġabs":2133,"ĠnÃ¤mlich":2134,"ĠVideo":2135,"vest":2136,"tens":2137,"ĠGrÃ¼n":2138,"Ġerk":2139,"ĠHause":2140,"Ġeinzel":2141,"ĠRegierung":2142,"Um":2143,"gang":2144,"ure":2145,"ĠStÃ¤d":2146,"ĠMeer":2147,"isk":2148,"ublik":2149,"Ġvert":2150,"bte":2151,"Ġunbe":2152,"ĠSachen":2153,"Ġfor":2154,"ĠPart":2155,"ĠGener":2156,"Ġunterschied":2157,"ĠRoboter":2158,"inanz":2159,"ĠBeg":2160,"ĠSinn":2161,"ĠDem":2162,"zt":2163,"Ġverwenden":2164,"tel":2165,"ĠverÃ¤ndert":2166,"hÃ¤ng":2167,"ĠAm":2168,"ĠBezieh":2169,"ĠGesicht":2170,"Ihr":2171,"Ġeher":2172,"Ġunglaublich":2173,"Ġper":2174,"zustellen":2175,"Ġsage":2176,"Ġdr":2177,"ehe":2178,"stens":2179,"fÃ¼hr":2180,"one":2181,"Ġinnerhalb":2182,"arten":2183,"ĠMasch":2184,"hlte":2185,"Ġbeginnen":2186,"ĠÃ¶ffent":2187,"Ġmenschlichen":2188,"Bei":2189,"erweise":2190,"Ġfand":2191,"Ja":2192,"reifen":2193,"ĠWerk":2194,"ĠKindern":2195,"Ġgemeinsam":2196,"stehen":2197,"ĠMein":2198,"ĠAufg":2199,"ĠGebÃ¤ude":2200,"druck":2201,"ĠÃ¼berhaupt":2202,"Ġwelch":2203,"Ġwegen":2204,"Vielleicht":2205,"kten":2206,"tem":2207,"ym":2208,"denten":2209,"Ġlos":2210,"ĠHeraus":2211,"ĠKrebs":2212,"Ġbrach":2213,"ĠKomp":2214,"sent":2215,"ĠHÃ¶":2216,"icken":2217,"Ġgetan":2218,"enzen":2219,"ĠGott":2220,"hemat":2221,"ĠPol":2222,"nov":2223,"iet":2224,"berfl":2225,"ĠPo":2226,"schlossen":2227,"ĠSk":2228,"ĠSon":2229,"ĠZiel":2230,"ĠFahr":2231,"mme":2232,"ĠLÃ¤nder":2233,"uÃŁ":2234,"Ġ[":2235,"erikan":2236,"Ġabge":2237,"fÃ¼hren":2238,"Ġgleichen":2239,"az":2240,"eint":2241,"Zu":2242,"Ġbeob":2243,"ĠNeu":2244,"Ġansch":2245,"rauen":2246,"Ġgr":2247,"Ġversucht":2248,"Ġzwar":2249,"igten":2250,"ffekt":2251,"vÃ¶lker":2252,"Ġschauen":2253,"racht":2254,"ont":2255,"ĠLage":2256,"ivi":2257,"Doch":2258,"ĠEntwicklung":2259,"han":2260,"ingt":2261,"Ġverd":2262,"Ġallem":2263,"Ġweltw":2264,"ative":2265,"ende":2266,"athemat":2267,"abor":2268,"ute":2269,"ĠArch":2270,"Ġpolit":2271,"ĠKn":2272,"Ġtreffen":2273,"ĠWochen":2274,"ĠMaterial":2275,"Ġaufge":2276,"kÃ¼":2277,"ĠDer":2278,"amp":2279,"Ġlei":2280,"ĠHerausforder":2281,"ĠBab":2282,"Ġjen":2283,"ĠChina":2284,"aw":2285,"entr":2286,"ĠKrieg":2287,"ĠTo":2288,"Ã¤ngt":2289,"iff":2290,"fel":2291,"ĠNacht":2292,"ublikum":2293,"enk":2294,"haus":2295,"eigen":2296,"ĠGrÃ¶":2297,"Ġniemand":2298,"ĠUmwelt":2299,"imen":2300,"Ġauszu":2301,"ĠAlso":2302,"Ġrau":2303,"wert":2304,"dlich":2305,"Ġmeines":2306,"Ġmussten":2307,"ĠBr":2308,"ument":2309,"ĠRest":2310,"Oder":2311,"ĠPar":2312,"ĠAnt":2313,"baren":2314,"nahme":2315,"eister":2316,"Ġbel":2317,"achst":2318,"ĠProzess":2319,"Ġwusste":2320,"ĠErfahrung":2321,"oss":2322,"Ġdre":2323,"ĠAnfang":2324,"mÃ¶glich":2325,"wÃ¤r":2326,"uren":2327,"ĠDingen":2328,"Ġfolgen":2329,"Nach":2330,"Ġbl":2331,"Ste":2332,"Ġkamen":2333,"enne":2334,"auso":2335,"Ġweitere":2336,"Ġ40":2337,"elig":2338,"ĠTiere":2339,"Ġ...":2340,"Ġentf":2341,"ĠnÃ¤chste":2342,"ĠTier":2343,"sein":2344,"Ġleicht":2345,"ranken":2346,"Ġ18":2347,"Ġproduz":2348,"doch":2349,"sÃ¤tz":2350,"ĠvÃ¶":2351,"ĠPrÃ¤":2352,"Ã¤chst":2353,"are":2354,"arbeit":2355,"ĠfÃ¼hlen":2356,"ager":2357,"ĠEssen":2358,"ĠMittel":2359,"Ġerre":2360,"ĠVerein":2361,"ehl":2362,"Ġbeko":2363,"ian":2364,"aren":2365,"ĠAll":2366,"ĠPap":2367,"tzlich":2368,"Ġtut":2369,"ĠGrunde":2370,"Ġster":2371,"ĠGeschÃ¤ft":2372,"ĠLehrer":2373,"achstum":2374,"Des":2375,"anach":2376,"ĠKap":2377,"annten":2378,"Ġsolche":2379,"ĠTages":2380,"Ġersch":2381,"ragt":2382,"antwort":2383,"ĠFreunde":2384,"ĠSicherheit":2385,"Ġfl":2386,"ĠZug":2387,"ziehen":2388,"itze":2389,"rieden":2390,"Ġexist":2391,"Ġunten":2392,"ĠStruktur":2393,"Dieser":2394,"Ġvorher":2395,"Ġeigene":2396,"ĠYork":2397,"old":2398,"ĠJa":2399,"ĠJe":2400,"Ġ12":2401,"lligen":2402,"ĠEigen":2403,"ĠFrei":2404,"ransp":2405,"ĠKlim":2406,"Ġmenschliche":2407,"Ġfalsch":2408,"nahmen":2409,"Ġworden":2410,"Ġaufzu":2411,"ĠSitu":2412,"ational":2413,"sph":2414,"alls":2415,"ĠKont":2416,"ax":2417,"man":2418,"Ġletzte":2419,"Ġerstaun":2420,"ĠMÃ¶glichkeiten":2421,"orte":2422,"Ġerwar":2423,"ĠPf":2424,"ĠlÃ¤sst":2425,"ĠCo":2426,"ations":2427,"Ġunters":2428,"ĠBoden":2429,"ĠwÃ¤ren":2430,"Ġbringt":2431,"Ġdamals":2432,"ĠUnterschied":2433,"Ġwor":2434,"Ġderen":2435,"ĠProgramm":2436,"ĠInst":2437,"zean":2438,"hÃ¤lt":2439,"ĠGleich":2440,"Ġverschw":2441,"Ġjedoch":2442,"Ġhervor":2443,"lungs":2444,"ĠDurch":2445,"iment":2446,"Ġ'":2447,"ĠVert":2448,"min":2449,"izieren":2450,"xt":2451,"statt":2452,"ĠRes":2453,"stet":2454,"Ġgrund":2455,"ksam":2456,"elten":2457,"Ġerlau":2458,"Ġschreiben":2459,"haft":2460,"ĠGedanken":2461,"drÃ¼ck":2462,"ĠHilfe":2463,"sichtlich":2464,"troll":2465,"falls":2466,"ĠvÃ¶llig":2467,"ĠSek":2468,"ĠMikro":2469,"ĠBes":2470,"Ġobwohl":2471,"ahren":2472,"ienen":2473,"zellen":2474,"Ġgleiche":2475,"ĠPr":2476,"Ġmo":2477,"Ġor":2478,"ĠSter":2479,"ĠBet":2480,"imme":2481,"ĠTyp":2482,"ĠberÃ¼":2483,"ue":2484,"ĠJob":2485,"Ġbleiben":2486,"Ġfragte":2487,"bauen":2488,"opp":2489,"langen":2490,"innt":2491,"ĠThema":2492,"Ġhunder":2493,"uche":2494,"ograf":2495,"fluss":2496,"Ġdirekt":2497,"ĠStaaten":2498,"wesen":2499,"ĠFort":2500,"Ġentscheiden":2501,"ĠlÃ¶sen":2502,"iziert":2503,"ologien":2504,"get":2505,"ĠFern":2506,"ĠDr":2507,"Ġdessen":2508,"bau":2509,"bung":2510,"blick":2511,"ĠMarkt":2512,"Ġsollen":2513,"Ġteil":2514,"Ġph":2515,"ĠSchwe":2516,"lieÃŁen":2517,"ĠWoche":2518,"Ġerinner":2519,"inger":2520,"Ġ25":2521,"Ġfunktionieren":2522,"ub":2523,"Ġsuchen":2524,"Ġbesteht":2525,"Sp":2526,"Wo":2527,"Zum":2528,"ĠDN":2529,"rakt":2530,"Ġstark":2531,"Ġbetrachten":2532,"mot":2533,"ĠNu":2534,"Ġverbesser":2535,"hÃ¶ren":2536,"ĠMonate":2537,"bes":2538,"scht":2539,"ĠPolit":2540,"ĠLi":2541,"ament":2542,"ilden":2543,"ausende":2544,"fort":2545,"zogen":2546,"ehm":2547,"ĠHaupt":2548,"wirk":2549,"cen":2550,"alien":2551,"ĠKÃ¼":2552,"ĠNamen":2553,"lÃ¶tzlich":2554,"Ġteilen":2555,"zip":2556,"ikaner":2557,"Ġzuvor":2558,"flanzen":2559,"Ã¤hlen":2560,"ĠOzean":2561,"Ġgenauso":2562,"schnitt":2563,"ĠLÃ¤ndern":2564,"ĠTr":2565,"gebung":2566,"trem":2567,"licht":2568,"ĠpersÃ¶n":2569,"ĠNeur":2570,"ĠElekt":2571,"spr":2572,"erstÃ¶r":2573,"Ġschwierig":2574,"Ġged":2575,"arbeitet":2576,"Ġzehn":2577,"atten":2578,"osit":2579,"Ġinteressant":2580,"Wissen":2581,"vers":2582,"ĠKraft":2583,"ĠHa":2584,"Ġstellt":2585,"Ver":2586,"ĠZellen":2587,"Ġsprach":2588,"rifft":2589,"ĠGesetz":2590,"ĠbenÃ¶t":2591,"Ġlangsam":2592,"zeigt":2593,"af":2594,"ool":2595,"elbe":2596,"ĠKat":2597,"ĠermÃ¶":2598,"ĠDar":2599,"ĠfÃ¼hrt":2600,"Ġgefunden":2601,"Ġtrotz":2602,"ond":2603,"ame":2604,"Ġbemer":2605,"ĠLÃ¶sung":2606,"wend":2607,"ĠNahr":2608,"innern":2609,"ĠFamilien":2610,"ĠTeam":2611,"Ġgescha":2612,"Ġzweite":2613,"aktion":2614,"chter":2615,"Ġunseres":2616,"heorie":2617,"Weil":2618,"weisen":2619,"ĠIhren":2620,"Ġverbunden":2621,"ĠÃĸl":2622,"Ġinte":2623,"ĠgrÃ¶ÃŁten":2624,"gegen":2625,"ore":2626,"Ġsieben":2627,"rop":2628,"ĠFÃ¤higkeit":2629,"Lassen":2630,"Nein":2631,"spiele":2632,"Ġsterben":2633,"ieten":2634,"ĠModell":2635,"Ġbitte":2636,"Ġkaufen":2637,"zeuge":2638,"ĠMedik":2639,"berflÃ¤che":2640,"alter":2641,"ĠHo":2642,"Ġamerikan":2643,"Ġkomplex":2644,"Nicht":2645,"ĠWahl":2646,"ĠPer":2647,"jekte":2648,"bene":2649,"Ġscheint":2650,"ĠErfolg":2651,"itein":2652,"ĠAutos":2653,"Pro":2654,"ĠPrin":2655,"igung":2656,"ffe":2657,"tworten":2658,"spir":2659,"iven":2660,"Ġliebe":2661,"ĠLiebe":2662,"ĠgrÃ¶ÃŁte":2663,"aler":2664,"Ġanderer":2665,"ĠEngl":2666,"bten":2667,"Ġlesen":2668,"reiten":2669,"ĠLabor":2670,"Ġherauszu":2671,"auft":2672,"ĠBru":2673,"ĠdrauÃŁen":2674,"line":2675,"ĠBro":2676,"sprochen":2677,"ĠZahl":2678,"ĠInd":2679,"ĠBewegung":2680,"ĠGemeinschaft":2681,"Ġbeeinfl":2682,"Ġwelches":2683,"vÃ¶lkerung":2684,"die":2685,"jÃ¤hr":2686,"Ġdein":2687,"Ġhast":2688,"ĠBedeut":2689,"ĠfÃ¼hr":2690,"unehmen":2691,"Ġmitein":2692,"Ġeins":2693,"Ġerinnern":2694,"ĠInnov":2695,"Ã¤uft":2696,"wohn":2697,"ffiz":2698,"aÃŁ":2699,"Du":2700,"ĠIs":2701,"ĠStand":2702,"Ġnahm":2703,"ĠFr":2704,"ĠPublikum":2705,"ware":2706,"ĠschlieÃŁlich":2707,"Ġgelernt":2708,"Ġgro":2709,"lassen":2710,"iver":2711,"dust":2712,"Ġgewesen":2713,"ĠArchite":2714,"jen":2715,"Ġerschaffen":2716,"ĠTats":2717,"Ã¼nstler":2718,"ity":2719,"agieren":2720,"sieht":2721,"zw":2722,"Ġhinein":2723,"ĠMedien":2724,"bel":2725,"ans":2726,"Ġfanden":2727,"Ġbewusst":2728,"ochen":2729,"ose":2730,"inne":2731,"Ġpassieren":2732,"ĠAlter":2733,"Ġsehe":2734,"ance":2735,"immer":2736,"ĠMil":2737,"Ġessen":2738,"reck":2739,"ehler":2740,"olz":2741,"iko":2742,"ĠerklÃ¤ren":2743,"ĠglÃ¼cklich":2744,"ift":2745,"ĠEis":2746,"ĠEurop":2747,"ĠgegenÃ¼ber":2748,"ĠReihe":2749,"Wer":2750,"nern":2751,"ĠlÃ¤nger":2752,"ĠVerbindung":2753,"Ge":2754,"Ġerle":2755,"ĠBÃ¼rger":2756,"ĠMuster":2757,"Am":2758,"ĠGo":2759,"ĠNicht":2760,"Ġ60":2761,"fern":2762,"Ġwachsen":2763,"Ġerfolg":2764,"Ã¤lter":2765,"ĠJahrhundert":2766,"wasser":2767,"lin":2768,"Ã¤ÃŁ":2769,"ese":2770,"Ġdaraus":2771,"ĠTechnik":2772,"Ġjemals":2773,"ĠÃĦr":2774,"fin":2775,"gliche":2776,"Ġbist":2777,"itut":2778,"lett":2779,"Ġschwar":2780,"reibt":2781,"Ġunterst":2782,"Ġgeworden":2783,"gewÃ¶hn":2784,"Ġgebaut":2785,"inks":2786,"Ġnimmt":2787,"Ġhinaus":2788,"Ã¤lfte":2789,"Ġschlecht":2790,"gessen":2791,"ĠWahrheit":2792,"ĠStudenten":2793,"ĠSÃ¼d":2794,"ĠWert":2795,"ĠZwei":2796,"ĠÃ¼br":2797,"Okay":2798,"Ġkonzentr":2799,"fÃ¤h":2800,"nt":2801,"Ġqu":2802,"gefÃ¼hl":2803,"Ġfr":2804,"ĠKranken":2805,"ividu":2806,"Ġmiteinander":2807,"ĠmÃ¶chten":2808,"ĠFÃ¼hr":2809,"mo":2810,"Ġbr":2811,"itÃ¤ten":2812,"Ġaussehen":2813,"ĠSchritt":2814,"ĠErw":2815,"Ġwissenschaft":2816,"ĠTechnologien":2817,"ĠRichtung":2818,"gn":2819,"oral":2820,"ĠRis":2821,"zeugt":2822,"ĠBlut":2823,"ĠWissenschaftler":2824,"Ġneben":2825,"Ã¤mp":2826,"ĠHoff":2827,"ĠVir":2828,"Ġdeshalb":2829,"ĠAnzahl":2830,"Ġnachdem":2831,"dass":2832,"Ġmache":2833,"Ġbeginnt":2834,"Ġanfangen":2835,"Ġbew":2836,"Ġverloren":2837,"Ġkleines":2838,"lauf":2839,"eid":2840,"Ã¶rter":2841,"ĠPlatz":2842,"Heute":2843,"Ġkleiner":2844,"Ġ80":2845,"Be":2846,"kel":2847,"rÃ¤n":2848,"Ġversch":2849,"ĠChr":2850,"ativen":2851,"ja":2852,"ator":2853,"ĠBlick":2854,"Ġperf":2855,"Ġsofort":2856,"weis":2857,"merksam":2858,"igit":2859,"Ġtief":2860,"dustrie":2861,"CA":2862,"ĠSicht":2863,"Ġgezeigt":2864,"ktu":2865,"Ã¤ngen":2866,"ĠplÃ¶tzlich":2867,"Unsere":2868,"Ġdanach":2869,"Ġeinzu":2870,"Ġhil":2871,"Ġschrieb":2872,"ĠErk":2873,"lang":2874,"ĠTest":2875,"rauch":2876,"rift":2877,"ĠAufgabe":2878,"wand":2879,"Ġbi":2880,"Ġfindet":2881,"ĠRecht":2882,"Ġstellte":2883,"ĠÃ¼berras":2884,"ĠIhrem":2885,"ĠKrankheit":2886,"Ġlaufen":2887,"spekt":2888,"ĠUmgebung":2889,"Viele":2890,"durch":2891,"Ã¤nden":2892,"Ġwert":2893,"Ġguten":2894,"ĠAben":2895,"ĠFuÃŁ":2896,"fon":2897,"ĠbeschÃ¤ft":2898,"ĠForschung":2899,"Ġraus":2900,"ey":2901,"zeitig":2902,"ĠTatsache":2903,"sm":2904,"stra":2905,"Ġgenannt":2906,"edizin":2907,"Stellen":2908,"asz":2909,"Ġind":2910,"ĠMot":2911,"ĠIhrer":2912,"Gen":2913,"asen":2914,"esent":2915,"Ġfort":2916,"Ġallein":2917,"echan":2918,"ĠVorstellung":2919,"ĠRolle":2920,"wusstsein":2921,"ĠVerÃ¤nderung":2922,"ĠTeile":2923,"unkte":2924,"ĠhÃ¶her":2925,"Ġentfernt":2926,"Ġbekommt":2927,"si":2928,"ĠDanke":2929,"ĠBedeutung":2930,"ezi":2931,"Ġacht":2932,"ĠgrÃ¼n":2933,"Ġverwendet":2934,"ĠReise":2935,"Ġschau":2936,"ĠSituation":2937,"kraft":2938,"prÃ¤":2939,"dete":2940,"sprechen":2941,"Ġnachzu":2942,"ĠChar":2943,"Ġegal":2944,"ĠkÃ¼":2945,"urt":2946,"ĠHÃ¤lfte":2947,"Ġtat":2948,"ĠtÃ¶":2949,"ĠGewalt":2950,".âĢľ":2951,"NatÃ¼rlich":2952,"ct":2953,"Ġaktiv":2954,"ĠBel":2955,"raten":2956,"Ã¤nge":2957,"Ġsonst":2958,"KÃ¶n":2959,"gende":2960,"Ġbewe":2961,"ĠBildung":2962,"ĠGrÃ¶ÃŁe":2963,"recht":2964,"Ġsamm":2965,"Ġelekt":2966,"ĠSonnen":2967,"ierungen":2968,"ĠDa":2969,"ĠverÃ¶ffent":2970,"Ġnachdenken":2971,"radition":2972,"ĠFoto":2973,"ĠGal":2974,"elte":2975,"ĠRealitÃ¤t":2976,"Ġbenutzt":2977,"ace":2978,"zus":2979,"ines":2980,"ĠMag":2981,"ĠMitte":2982,"ĠgefÃ¤hr":2983,"ĠKamer":2984,"ĠStÃ¤dte":2985,"ĠAktiv":2986,"Ã¤user":2987,"Ġniemals":2988,"Ã¤ndig":2989,"Ġhoffe":2990,"ĠMeinung":2991,"Oh":2992,"lage":2993,"Ġgeh":2994,"Ġreich":2995,"gten":2996,"iten":2997,"ĠHerausforderung":2998,"Ġrei":2999,"ĠTÃ¼r":3000,"ĠStimme":3001,"Ġbeide":3002,"ĠStudie":3003,"zÃ¼":3004,"ĠÃ¶ff":3005,"sphÃ¤re":3006,"ment":3007,"ichtet":3008,"roh":3009,"Ġbeste":3010,"ysik":3011,"ĠStraÃŁen":3012,"immel":3013,"Ġjemanden":3014,"trolle":3015,"Ġweltweit":3016,"Ġerreicht":3017,"Ã¤ss":3018,"ĠKil":3019,"teilt":3020,"wirtschaft":3021,"Ġsoziale":3022,"ĠVortrag":3023,"arm":3024,"ĠMathemat":3025,"ĠKÃ¶n":3026,"ĠFÃ¤":3027,"ĠverrÃ¼ck":3028,"Ġbekannt":3029,"Ġtechn":3030,"Ġerfolgreich":3031,"affen":3032,"ĠTem":3033,"cker":3034,"ĠmÃ¶gen":3035,"lant":3036,"ĠDemokrat":3037,"Ġkre":3038,"Ġalten":3039,"ĠEntscheidungen":3040,"âĻ":3041,"Ġgingen":3042,"tzut":3043,"ppe":3044,"ritten":3045,"Ġbekam":3046,"Ġextrem":3047,"ĠFisch":3048,"eutzut":3049,"ĠNord":3050,"omb":3051,"ĠErd":3052,"app":3053,"ĠInformation":3054,"eutzutage":3055,"Ġrein":3056,"Ġzeige":3057,"Ġkomplett":3058,"Ġur":3059,"Ġtoll":3060,"uchs":3061,"Ġentst":3062,"ette":3063,"TatsÃ¤chlich":3064,"Ġkontroll":3065,"Ġziehen":3066,"arbeiten":3067,"ve":3068,"Ġru":3069,"Ġgegeben":3070,"Ġhinzu":3071,"Ġgenommen":3072,"ĠStraÃŁe":3073,"ĠPrinzip":3074,"eig":3075,"ĠJu":3076,"dessen":3077,"ertig":3078,"tu":3079,"arte":3080,"Ġblau":3081,"ĠTat":3082,"ehmer":3083,"Ġlieben":3084,"tten":3085,"Ġak":3086,"Ġfahren":3087,"Ġdaher":3088,"ĠChem":3089,"ĠKolle":3090,"ĠGeist":3091,"ĠWachstum":3092,"itel":3093,"ĠEntwicklungs":3094,"Ġwichtiger":3095,"ĠSonne":3096,"arkt":3097,"rab":3098,"Ġlau":3099,"ologen":3100,"ĠSchÃ¼":3101,"ĠMedizin":3102,"Ġschneller":3103,"bildung":3104,"iegen":3105,"Ã¤llt":3106,"orf":3107,"lekÃ¼":3108,"ĠRad":3109,"ĠPreis":3110,"Ġmachten":3111,"Ġstand":3112,"antast":3113,"jenigen":3114,"wissen":3115,"Ġempf":3116,"schul":3117,"Ġzer":3118,"ari":3119,"Ã¶st":3120,"rech":3121,"ĠZahlen":3122,"schieht":3123,"ĠKosten":3124,"Ġsetzen":3125,"ĠDNA":3126,"ĠDro":3127,"rim":3128,"Ġinteressiert":3129,"ĠGef":3130,"ogra":3131,"istan":3132,"Ist":3133,"stÃ¼ck":3134,"Ã¤tzen":3135,"arr":3136,"Ġgeschieht":3137,"ĠKal":3138,"ĠStrom":3139,"ister":3140,"Ġbrachte":3141,"ĠVereinigten":3142,"Zwei":3143,"ĠBÃ¤":3144,"ĠAmerika":3145,"Ġherauszufinden":3146,"stein":3147,"legt":3148,"ftware":3149,"ĠOberflÃ¤che":3150,"rans":3151,"Ġgeboren":3152,"struktur":3153,"ĠMeter":3154,"auern":3155,"Ġfasz":3156,"ĠRu":3157,"Ġliegen":3158,"Ġfliegen":3159,"viel":3160,"zte":3161,"Ġnennt":3162,"gebracht":3163,"ĠFÃ¤higkeiten":3164,"ĠErgebnis":3165,"ĠFirma":3166,"50":3167,"kre":3168,"atte":3169,"amer":3170,"ĠZeu":3171,"Einige":3172,"ĠMaÃŁ":3173,"ĠfrÃ¼her":3174,"ĠPapier":3175,"WÃ¤hrend":3176,"gor":3177,"ile":3178,"ssen":3179,"inz":3180,"ons":3181,"ĠBakter":3182,"ĠFehler":3183,"isse":3184,"Ġ11":3185,"uchten":3186,"ĠEinz":3187,"Ġbas":3188,"indungen":3189,"Ġstimmt":3190,"ĠNachrichten":3191,"Ġabsolut":3192,"Ġtot":3193,"Ġenor":3194,"ĠGeneration":3195,"ĠMaschine":3196,"auber":3197,"ĠIm":3198,"Ġbed":3199,"twas":3200,"abhÃ¤ng":3201,"ogle":3202,"itzt":3203,"ĠBeziehung":3204,"Ġ000":3205,"rain":3206,"ĠInf":3207,"essour":3208,"Ġgesamte":3209,"Ġeinfache":3210,"obil":3211,"Ġneues":3212,"samm":3213,"ĠGesundheits":3214,"ĠFortsch":3215,"schlagen":3216,"!\"":3217,"alle":3218,"ieg":3219,"ĠzerstÃ¶r":3220,"Ġwirtschaft":3221,"imp":3222,"schlag":3223,"Jeder":3224,"ĠKarte":3225,"ĠBÃ¼cher":3226,"wirkungen":3227,"itter":3228,"ĠJahrz":3229,"indest":3230,"hand":3231,"Ġdachten":3232,"iegel":3233,"Ġnein":3234,"Ġerfor":3235,"ĠDruck":3236,"ĠZeich":3237,"ikel":3238,"Ġbegannen":3239,"Ġsozialen":3240,"ollen":3241,"ĠGel":3242,"ĠDing":3243,"ĠHier":3244,"gendes":3245,"Ġdigit":3246,"ĠTod":3247,"Ġlok":3248,"Ã¼ss":3249,"Ġgeschrieben":3250,"ĠEuropa":3251,"echt":3252,"tler":3253,"ĠTele":3254,"merksamkeit":3255,"verb":3256,"Ã¤mpfen":3257,"co":3258,"glie":3259,"Ġzuerst":3260,"ĠApp":3261,"Ġgesprochen":3262,"sell":3263,"Ġtragen":3264,"ikation":3265,"Ġ90":3266,"fess":3267,"Ġheut":3268,"Ġverurs":3269,"ĠStat":3270,"ĠÃ¼bert":3271,"igens":3272,"eller":3273,"Ġverg":3274,"isst":3275,"Ã¼ssel":3276,"ĠKommun":3277,"Ġ199":3278,"ĠProdukt":3279,"lungen":3280,"Ġgebe":3281,"Ġanstatt":3282,"ĠViel":3283,"ussen":3284,"ĠRevolution":3285,"ĠDies":3286,"ĠExperiment":3287,"ĠHoffnung":3288,"ĠPark":3289,"ime":3290,"ĠWirklich":3291,"vent":3292,"Â»":3293,"isu":3294,"ĠHoch":3295,"ĠprÃ¤":3296,"ĠgroÃŁer":3297,"Ġabzu":3298,"ĠAufmerksamkeit":3299,"Ġbewegt":3300,"Ġgleichzeitig":3301,"ote":3302,"ĠDo":3303,"rate":3304,"Ġlern":3305,"Ġpassierte":3306,"Ġernst":3307,"ĠSeiten":3308,"ales":3309,"ĠBewusstsein":3310,"Ġsahen":3311,"beh":3312,"ĠÃ¤lter":3313,"ĠSau":3314,"Ġbein":3315,"laufen":3316,"ĠÃ¤hnlich":3317,"ĠBehand":3318,"Deshalb":3319,"ĠPolitik":3320,"iot":3321,"pfen":3322,"Â«":3323,"nete":3324,"ivil":3325,"deck":3326,"ĠEvolution":3327,"ama":3328,"ĠBevÃ¶lkerung":3329,"hnung":3330,"ĠEine":3331,"pfer":3332,"ĠGruppen":3333,"ĠSchulen":3334,"feld":3335,"hode":3336,"ĠPsych":3337,"altung":3338,"Ġverlassen":3339,"Ġbeobachten":3340,"ĠLeiden":3341,"Ġvorbei":3342,"ĠInte":3343,"Ġwichtige":3344,"Ġbestimmten":3345,"ins":3346,"inken":3347,"iell":3348,"del":3349,"Ġerg":3350,"Ġstud":3351,"Ġkosten":3352,"ĠHinter":3353,"ĠZugang":3354,"Ġfre":3355,"ĠDorf":3356,"ĠÃ¼berw":3357,"Ġbestimmt":3358,"Ġnahe":3359,"hang":3360,"ĠverfÃ¼":3361,"imul":3362,"ĠVersuch":3363,"Ġfinanz":3364,"Ġgearbeitet":3365,"Ġanf":3366,"Ġjunge":3367,"Ġschlechte":3368,"ĠnÃ¤her":3369,"Ġversuchte":3370,"Ġansehen":3371,"ĠRessour":3372,"ickt":3373,"xu":3374,"ĠGu":3375,"ĠKÃ¼nstler":3376,"Ġ16":3377,"ĠMonaten":3378,"Ġkompl":3379,"elegen":3380,"Ġkur":3381,"Ġfinde":3382,"ologische":3383,"Sehen":3384,"orfen":3385,"Ġaut":3386,"mmern":3387,"ĠUhr":3388,"ĠOrte":3389,"Ġehr":3390,"Ġbedeuten":3391,"Alles":3392,"lern":3393,"rist":3394,"ĠEinfluss":3395,"ĠUniversitÃ¤t":3396,"ĠArmut":3397,"ĠPflanzen":3398,"ĠHimmel":3399,"eltsam":3400,"ĠstÃ¤ndig":3401,"Alle":3402,"ĠWÃ¶rter":3403,"ĠKontrolle":3404,"ĠSohn":3405,"bracht":3406,"Ãľber":3407,"Ġend":3408,"ĠnatÃ¼r":3409,"Ġinspir":3410,"Ġfantast":3411,"ĠKa":3412,"ĠRegeln":3413,"Ġspezie":3414,"ĠStudien":3415,"wÃ¼r":3416,"Ġintern":3417,"ĠWind":3418,"ĠKan":3419,"ĠDenn":3420,"ĠSpezie":3421,"ĠKonzept":3422,"Ġbessere":3423,"ĠÃ¶":3424,"Ġsitzen":3425,"Ġmedizin":3426,"Ġblo":3427,"Ġbald":3428,"ĠBaum":3429,"ĠMenschheit":3430,"herap":3431,"apan":3432,"ĠWebs":3433,"error":3434,"ĠDemokratie":3435,"Dam":3436,"ĠRegen":3437,"ĠWohl":3438,"Ġverbessern":3439,"ix":3440,"les":3441,"Ġwider":3442,"Ġinvest":3443,"abel":3444,"Ġoffensichtlich":3445,"ĠSuper":3446,"Ġrichtige":3447,"Ã¼tzt":3448,"indigkeit":3449,"ĠHig":3450,"Ġprakt":3451,"ĠErinner":3452,"Ġ14":3453,"Ġbleibt":3454,"ĠMedikamen":3455,"Ġfalls":3456,"Ġrichtigen":3457,"IV":3458,"ies":3459,"Ġgek":3460,"schluss":3461,"ĠNachbar":3462,"stÃ¤ndnis":3463,"Ġwussten":3464,"gemein":3465,"Ġeinzelne":3466,"ĠGoogle":3467,"blich":3468,"stes":3469,"Ã¤hlt":3470,"atisch":3471,"Ġvergessen":3472,"ĠSchÃ¶n":3473,"Ġihres":3474,"ĠKrankheiten":3475,"digen":3476,"machen":3477,"ĠStelle":3478,"kommt":3479,"ufen":3480,"Ġbilden":3481,"ĠTrÃ¤":3482,"ĠBesch":3483,"abil":3484,"rise":3485,"ppen":3486,"ĠDiese":3487,"ĠSoftware":3488,"Ġmoder":3489,"itÃ¤r":3490,"igner":3491,"ĠHÃ¼":3492,"ĠgroÃŁes":3493,"ĠMitgefÃ¼hl":3494,"ausend":3495,"ĠPoliz":3496,"Ġbemerken":3497,"fre":3498,"to":3499,"Ġposit":3500,"ĠmÃ¶glichen":3501,"zÃ¤hl":3502,"Ã¤tze":3503,"Mensch":3504,"ĠMorgen":3505,"ielten":3506,"ĠPhil":3507,"ĠMolekÃ¼":3508,"ĠSym":3509,"ĠLauf":3510,"eits":3511,"eitung":3512,"ĠHel":3513,"Ġdahin":3514,"ĠOrten":3515,"Ã¼nft":3516,"dung":3517,"schung":3518,"ums":3519,"ĠBeispiele":3520,"Ġarbeitete":3521,"Ġanschauen":3522,"ĠKern":3523,"ĠTon":3524,"ĠTagen":3525,"bet":3526,"ĠVergangen":3527,"schir":3528,"ath":3529,"ĠHIV":3530,"ĠProte":3531,"Ġkannst":3532,"ĠSpaÃŁ":3533,"ĠGrenzen":3534,"Ġverlieren":3535,"Ġerzeugen":3536,"Ġverh":3537,"Ġlinks":3538,"uchte":3539,"klÃ¤r":3540,"quenz":3541,"ĠNachricht":3542,"ĠEntscheidung":3543,"ĠZeug":3544,"orge":3545,"Ġdenkt":3546,"ĠGebiet":3547,"Ġvoller":3548,"Ġechte":3549,"ĠAd":3550,"ĠKu":3551,"Ġaussieht":3552,"lauben":3553,"Ġzumindest":3554,"ekten":3555,"Schauen":3556,"âĻ«":3557,"sto":3558,"eisen":3559,"Ã¤chen":3560,"org":3561,"Ġfertig":3562,"Ġpl":3563,"ĠerzÃ¤hlt":3564,"Ġerlaubt":3565,"ĠVergangenheit":3566,"ĠBus":3567,"Ġnachzudenken":3568,"ĠSchÃ¼ler":3569,"ĠWirklichkeit":3570,"Dar":3571,"uz":3572,"Ġdeine":3573,"ĠVol":3574,"ĠAnge":3575,"rÃ¤fte":3576,"ĠOrd":3577,"teilen":3578,"ĠerklÃ¤r":3579,"go":3580,"rig":3581,"aup":3582,"Ġgebracht":3583,"Ã¼rz":3584,"ĠTerror":3585,"Ġproduzieren":3586,"ital":3587,"ĠBot":3588,"ĠLeist":3589,"igte":3590,"Ġmanche":3591,"werfen":3592,"Ġirgendwo":3593,"ĠGalax":3594,"mut":3595,"mÃ¤ÃŁ":3596,"ĠMiss":3597,"ierter":3598,"ĠstÃ¤r":3599,"Ġreg":3600,"Ġarbeitet":3601,"ĠSpezies":3602,"will":3603,"stru":3604,"ĠWorte":3605,"ĠFeuer":3606,"Ġschreck":3607,"ĠKonfl":3608,"ĠPersonen":3609,"ĠhÃ¤uf":3610,"Ã¤te":3611,"stelle":3612,"merz":3613,"Ġkeiner":3614,"troffen":3615,"ĠGerÃ¤t":3616,"Ġgesamten":3617,"ĠSekunden":3618,"ail":3619,"eben":3620,"falt":3621,"sta":3622,"ktor":3623,"ĠOn":3624,"ĠArbei":3625,"ĠErf":3626,"oph":3627,"zeichnet":3628,"ĠInstitut":3629,"ĠfÃ¼hrte":3630,"sion":3631,"Ġauft":3632,"ĠRelig":3633,"folgen":3634,"Ġsolchen":3635,"Ġversuche":3636,"Ġtrotzdem":3637,"ĠInnovation":3638,"Von":3639,"weil":3640,"Ġdest":3641,"Ġwinz":3642,"Ġmorgen":3643,"Ġkaum":3644,"ĠMÃ¼":3645,"ĠWand":3646,"ĠEbene":3647,"ĠTh":3648,"Ġtraf":3649,"ĠNein":3650,"Ġgewalt":3651,"Ġ70":3652,"ĠFirmen":3653,"Ġ17":3654,"ĠGeschw":3655,"Ġgewinnen":3656,"ĠErgebnisse":3657,"Nur":3658,"Ġseltsam":3659,"ĠSol":3660,"ĠSign":3661,"ĠBill":3662,"letz":3663,"Ġbefinden":3664,"ildet":3665,"Ġretten":3666,"Ġinteressante":3667,"ferenz":3668,"licherweise":3669,"ĠElem":3670,"holen":3671,"ĠMathematik":3672,"ĠBakterien":3673,"met":3674,"ĠSc":3675,"Ġheutzutage":3676,"altet":3677,"ĠHÃ¤nde":3678,"ĠVerantwort":3679,"Ġbestimmte":3680,"Auch":3681,"Ã¤st":3682,"ĠDet":3683,"ĠTheorie":3684,"ĠâĢĶ":3685,"ingungen":3686,"zimmer":3687,"utzung":3688,"Ġet":3689,"Ġbau":3690,"orben":3691,"Ġgekommen":3692,"ĠZuf":3693,"ĠZentr":3694,"ĠNerv":3695,"Ġumzu":3696,"Ġzeigte":3697,"ĠArbeits":3698,"ĠMonat":3699,"Ġgeschehen":3700,"ĠObjekt":3701,"Aus":3702,"Na":3703,"up":3704,"Ġnenne":3705,"Ġrunter":3706,"ĠBaby":3707,"ograph":3708,"ball":3709,"fg":3710,"Ġerfahren":3711,"Ġsodass":3712,"Ġverbinden":3713,"press":3714,"Ġglobalen":3715,"anter":3716,"Ġhol":3717,"genie":3718,"Ã¶pf":3719,"reitet":3720,"werke":3721,"Ġriesige":3722,"Ġuntersuchen":3723,"Ġaufre":3724,"osition":3725,"ĠChance":3726,"Ġ201":3727,"Ġneun":3728,"Ġeinzelnen":3729,"uhr":3730,"ĠunmÃ¶glich":3731,"itten":3732,"ĠGol":3733,"Ġvorh":3734,"Ġgefragt":3735,"ĠStamm":3736,"ĠNetzwerk":3737,"ometer":3738,"ĠMeeres":3739,"Ġdritte":3740,"ĠRessourcen":3741,"iniert":3742,"ĠRau":3743,"ĠVielen":3744,"sprach":3745,"peratur":3746,"Ã¼cht":3747,"Ġaufgrund":3748,"twend":3749,"ĠLandes":3750,"ĠerhÃ¶":3751,"ĠGefÃ¤ng":3752,"wenden":3753,"gest":3754,"ĠFrieden":3755,"ĠHe":3756,"ĠtÃ¤":3757,"ĠNot":3758,"Ġrund":3759,"ĠLinie":3760,"Denken":3761,"ĠGra":3762,"ĠNÃ¤":3763,"assung":3764,"Eines":3765,"eiter":3766,"ckte":3767,"Ġtie":3768,"ationalen":3769,"ĠErn":3770,"ĠBezug":3771,"rÃ¤gt":3772,"Ġalte":3773,"ĠAmerikaner":3774,"Ġentdecken":3775,"Ġhilft":3776,"ov":3777,"emand":3778,"ĠDien":3779,"ret":3780,"isieren":3781,"ehme":3782,"ĠJohn":3783,"Ġlebt":3784,"Ġirgendw":3785,"ĠgroÃŁartige":3786,"kul":3787,"schÃ¶n":3788,"ĠDenken":3789,"ĠGefÃ¼":3790,"zial":3791,"ssystem":3792,"ĠKampf":3793,"ĠKollegen":3794,"ĠTelefon":3795,"lam":3796,"ĠSy":3797,"Ġhab":3798,"ĠHeim":3799,"Ġjungen":3800,"Ġreduz":3801,"Ġniedr":3802,"Ġherausfinden":3803,"Ġverstanden":3804,"Ġdanke":3805,"bert":3806,"ĠNa":3807,"sprÃ¼n":3808,"ĠPartner":3809,"ĠOrdnung":3810,"grupp":3811,"ĠzufÃ¤":3812,"Ġsowohl":3813,"ĠHaut":3814,"Ġpsych":3815,"ĠJahres":3816,"ĠOper":3817,"Ã¶rder":3818,"Ġentschieden":3819,"ĠAuswirkungen":3820,"ĠhÃ¶rte":3821,"ĠgroÃŁartig":3822,"ĠPrÃ¤si":3823,"Ġorganis":3824,"fghan":3825,"Ġdunk":3826,"schu":3827,"ĠFe":3828,"reche":3829,"Ġleisten":3830,"ĠlÃ¤uft":3831,"ĠAnder":3832,"edes":3833,"leist":3834,"stÃ¤ndig":3835,"ĠDiag":3836,"otwend":3837,"Ġwann":3838,"Ġmoral":3839,"Ġhinge":3840,"reise":3841,"ĠerzÃ¤hlte":3842,"ĠRegierungen":3843,"glicht":3844,"gleichen":3845,"stre":3846,"asche":3847,"Ġeinander":3848,"Ġvisu":3849,"ĠhÃ¤lt":3850,"Ġgestellt":3851,"Ġdadurch":3852,"Ġ13":3853,"Ġzweiten":3854,"odell":3855,"ĠHÃ¶he":3856,"ĠNahrung":3857,"stÃ¤nde":3858,"ĠDann":3859,"ĠDisk":3860,"twor":3861,"ĠVerl":3862,"ationale":3863,"abr":3864,"Ġgenet":3865,"ologischen":3866,"Ġkommun":3867,"ĠermÃ¶glicht":3868,"ĠErwachsen":3869,"Ġsammeln":3870,"grÃ¼n":3871,"ille":3872,"wart":3873,"ĠSinne":3874,"Ġfing":3875,"ĠGelegen":3876,"Ġlag":3877,"Ġarbeite":3878,"ĠFormen":3879,"stoffe":3880,"Ġrechts":3881,"Ġnormalerweise":3882,"ĠÃ¶ffentlichen":3883,"motion":3884,"ac":3885,"ou":3886,"volle":3887,"zahlen":3888,"zunehmen":3889,"ĠBas":3890,"Ġwarten":3891,"Ġtau":3892,"ĠCar":3893,"astrop":3894,"ĠWieder":3895,"ude":3896,"inter":3897,"deten":3898,"Ġgeschaffen":3899,"ĠFrÃ¼":3900,"Ġtradition":3901,"ĠMillion":3902,"arbeiter":3903,"ĠWohn":3904,"ĠÃ¼brigens":3905,"zwei":3906,"Ġdiejenigen":3907,"aur":3908,"reg":3909,"Ġentwe":3910,"ĠGeheim":3911,"Ġeinzig":3912,"frikan":3913,"ĠauÃŁerhalb":3914,"buch":3915,"nungen":3916,"Ġuner":3917,"ĠMark":3918,"Ġ21":3919,"Ġbestehen":3920,"ativitÃ¤t":3921,"Ġbefindet":3922,"Ġca":3923,"ĠMethode":3924,"ĠhÃ¶ch":3925,"tert":3926,"schiede":3927,"ĠFotos":3928,"ĠBrust":3929,"rochen":3930,"Ġverste":3931,"ĠZivil":3932,"ĠReaktion":3933,"ĠGeburt":3934,"ĠGehirns":3935,"ĠSysteme":3936,"ĠBÃ¼ro":3937,"hy":3938,"schn":3939,"Ġhandelt":3940,"ĠAk":3941,"ĠWesen":3942,"ĠCO":3943,"ĠInvest":3944,"ĠArzt":3945,"Ġherunter":3946,"Daher":3947,"ynam":3948,"Ġentdeckt":3949,"ĠOrganisation":3950,"ĠBeziehungen":3951,"ffizien":3952,"ĠKrankenhaus":3953,"Ġis":3954,"ĠKer":3955,"ĠschÃ¼tzen":3956,"Ġof":3957,"Ġtaten":3958,"folge":3959,"ĠSex":3960,"len":3961,"par":3962,"ritte":3963,"ieÃŁen":3964,"Ġmessen":3965,"iti":3966,"Ġgesp":3967,"leb":3968,"anze":3969,"Ġbisher":3970,"ĠSchlÃ¼ssel":3971,"ĠGrÃ¼nde":3972,"ĠFreiheit":3973,"Ġdesto":3974,"greifen":3975,"ĠBienen":3976,"Ã¤nomen":3977,"ĠStre":3978,"Ġsta":3979,"Ġwelcher":3980,"ĠFluss":3981,"Ġebenso":3982,"ven":3983,"unÃ¤chst":3984,"arf":3985,"iter":3986,"Ã¼rf":3987,"ĠHirn":3988,"rak":3989,"Ã¤hrt":3990,"ĠEntdeck":3991,"Menschen":3992,"Re":3993,"stern":3994,"aschen":3995,"schte":3996,"ĠMy":3997,"urg":3998,"ĠKur":3999,"ĠVerstÃ¤ndnis":4000,"Ġspielt":4001,"stellungen":4002,"ĠgewÃ¶hn":4003,"Ġeinzigen":4004,"ĠBerg":4005,"ĠGerÃ¤u":4006,"Ġselben":4007,"ĠBeginn":4008,"mt":4009,"Ġant":4010,"ĠTransp":4011,"icks":4012,"ĠLiebl":4013,"Ġbetrachtet":4014,"ĠFlugzeug":4015,"ĠArchitektur":4016,"ĠunterstÃ¼tzen":4017,"Ob":4018,"stÃ¤":4019,"ĠmÃ¤cht":4020,"Ã¶nen":4021,"ĠWarum":4022,"ision":4023,"ivat":4024,"liegen":4025,"ĠGespr":4026,"ĠDrogen":4027,"nehm":4028,"onie":4029,"orn":4030,"ĠVo":4031,"wÃ¤rts":4032,"ĠListe":4033,"KÃ¶nnen":4034,"Ġentweder":4035,"illen":4036,"tag":4037,"ĠÃ¤u":4038,"Ġeffekt":4039,"Ã¼gen":4040,"ĠSand":4041,"ĠLÃ¶":4042,"ĠfÃ¼hlte":4043,"selben":4044,"dienen":4045,"ĠFarbe":4046,"ĠAbend":4047,"ĠgrÃ¼":4048,"Ġbean":4049,"ĠJungen":4050,"ĠStunde":4051,"Ġherstellen":4052,"gebaut":4053,"ĠKlimaw":4054,"ĠberÃ¼hm":4055,"ĠKÃ¶nig":4056,"schirm":4057,"ifor":4058,"oo":4059,"iels":4060,"stag":4061,"ĠPunkte":4062,"ĠVerfÃ¼":4063,"ĠZeitpunkt":4064,"apt":4065,"ĠArtikel":4066,"Ġlief":4067,"ĠHerr":4068,"ĠBÃ¼hne":4069,"Ġphys":4070,"zer":4071,"Ġgetroffen":4072,"Ġdasselbe":4073,"ĠHar":4074,"Ġopt":4075,"ĠName":4076,"ĠRegel":4077,"lose":4078,"Ander":4079,"ĠMaschinen":4080,"Ġgrundlegen":4081,"Ġdrin":4082,"achtet":4083,"unger":4084,"lebt":4085,"ĠIngenie":4086,"Ġdurchge":4087,"ĠHerzen":4088,"ĠInteresse":4089,"Ġguter":4090,"ĠBehandlung":4091,"ake":4092,"passen":4093,"such":4094,"Ġsetz":4095,"Ġerleben":4096,"ĠTraum":4097,"ierend":4098,"Ihre":4099,"Ġerwarten":4100,"ĠÂ»":4101,"ĠNun":4102,"ĠOkay":4103,"ĠAnal":4104,"Ġgutes":4105,"ĠÃĸk":4106,"Ġbelie":4107,"Ġamerikanischen":4108,"Ã¤mpf":4109,"orgt":4110,"amb":4111,"ildern":4112,"maÃŁen":4113,"ĠErfahrungen":4114,"ĠJahrhunderts":4115,"Ġheutigen":4116,"kur":4117,"kop":4118,"zut":4119,"seh":4120,"bed":4121,"ilien":4122,"ĠInse":4123,"ĠMuse":4124,"ĠLÃ¶sungen":4125,"Ġhundert":4126,"stÃ¼tz":4127,"Ġunver":4128,"scher":4129,"ĠErei":4130,"ĠLond":4131,"Ġmehrere":4132,"Ġwenige":4133,"Ġbenutz":4134,"ĠMars":4135,"Ġcool":4136,"Ġbehaup":4137,"Ġerinnere":4138,"ĠEnglisch":4139,"ĠÃĦrzte":4140,"iete":4141,"ĠWeil":4142,"ĠPass":4143,"ĠPoten":4144,"ĠTisch":4145,"Ġumge":4146,"ĠEinkommen":4147,"ritann":4148,"Ġjene":4149,"ĠIndividu":4150,"ĠGefÃ¤ngnis":4151,"unt":4152,"Ġnahmen":4153,"Ġkn":4154,"ĠFinanz":4155,"ĠFinger":4156,"ĠNational":4157,"Ã¶rp":4158,"rÃ¼cken":4159,"gefunden":4160,"fassen":4161,"plan":4162,"sser":4163,"Ġaktu":4164,"ĠSan":4165,"ĠBen":4166,"Ġschicken":4167,"Ġspricht":4168,"barkeit":4169,"ĠEinzel":4170,"ente":4171,"eigt":4172,"Ġunge":4173,"ĠSa":4174,"urm":4175,"ĠFel":4176,"Ġsowie":4177,"entlich":4178,"istor":4179,"ĠGene":4180,"ĠfrÃ¼h":4181,"Ġverkaufen":4182,"Ġebenfalls":4183,"gaben":4184,"vie":4185,"Ġon":4186,"hre":4187,"ĠFakt":4188,"gnor":4189,"brechen":4190,"ĠwÃ¼n":4191,"ĠwÃ¤hlen":4192,"elche":4193,"ĠWorten":4194,"ĠFen":4195,"Ġvoraus":4196,"ĠInstr":4197,"etten":4198,"ption":4199,"maÃŁ":4200,"gress":4201,"ĠQuad":4202,"Ġbehandeln":4203,"Ġselten":4204,"ĠVerÃ¤nderungen":4205,"ĠRisiko":4206,"ikt":4207,"sichtig":4208,"eien":4209,"Ġkrei":4210,"ĠMÃ¤r":4211,"Ã¶se":4212,"ĠfÃ¤llt":4213,"ĠBall":4214,"rastruktur":4215,"ĠZeiten":4216,"Ġpr":4217,"produ":4218,"ĠÃĦn":4219,"ĠWege":4220,"Ġehrlich":4221,"krieg":4222,"ierungs":4223,"rÃ¤ge":4224,"ĠBeruf":4225,"ĠSommer":4226,"Ġ500":4227,"ĠKamera":4228,"iforn":4229,"gien":4230,"lagen":4231,"inos":4232,"Ġhart":4233,"Ġkm":4234,"Ġeinfachen":4235,"istisch":4236,"ĠTeilen":4237,"Ġjemandem":4238,"Ġerfunden":4239,"ails":4240,"Ġgedacht":4241,"ĠMedikamente":4242,"ĠVerantwortung":4243,"Ar":4244,"dings":4245,"prÃ¼":4246,"seite":4247,"umor":4248,"ĠThe":4249,"isser":4250,"ĠauÃŁergewÃ¶hn":4251,"ĠBedÃ¼rf":4252,"Ã¼tter":4253,"oldaten":4254,"wendung":4255,"Ġgeschah":4256,"Ġintelligen":4257,"ĠErkennt":4258,"fter":4259,"kam":4260,"Ġwesent":4261,"organis":4262,"ĠAfghan":4263,"bewer":4264,"ilt":4265,"ĠAuge":4266,"alismus":4267,"Ġunterschiedliche":4268,"imente":4269,"ritannien":4270,"ĠdÃ¼r":4271,"ĠSer":4272,"aul":4273,"Ġerwei":4274,"ĠIndustrie":4275,"ĠEigenschaften":4276,"Ġelektr":4277,"zusagen":4278,"ĠLondon":4279,"pekt":4280,"schutz":4281,"ĠAhnung":4282,"ĠFunktion":4283,"ĠNie":4284,"ĠJapan":4285,"wech":4286,"Ġkomme":4287,"Ġunglaubliche":4288,"ĠVolk":4289,"Ġkultur":4290,"ĠKol":4291,"ĠMÃ¤nnern":4292,"Ġexistiert":4293,"\"-":4294,"bald":4295,"unsch":4296,"ĠKreis":4297,"ĠLernen":4298,"ĠTieren":4299,"isiert":4300,"ĠHy":4301,"ĠVergleich":4302,"ĠOK":4303,"webe":4304,"Ġverbringen":4305,"ĠKomplex":4306,"Ġkonzentrieren":4307,"bieren":4308,"techn":4309,"Ġbill":4310,"ĠWunder":4311,"ĠÃ¼berleben":4312,"ĠSchwar":4313,"Ġ198":4314,"erstoff":4315,"ĠStÃ¤dten":4316,"prÃ¤sent":4317,"Ġfaszinieren":4318,"ĠNÃ¤he":4319,"ĠÃ¤uÃŁer":4320,"enze":4321,"stieg":4322,"Ġnutz":4323,"reib":4324,"ĠZustand":4325,"Ġwunderbar":4326,"ĠÃ¶ffnen":4327,"ĠverrÃ¼ckt":4328,"ĠBar":4329,"ierenden":4330,"Ġnachhalt":4331,"Ġentsp":4332,"ĠWesten":4333,"alisierung":4334,"ourn":4335,"ĠfrÃ¼hen":4336,"ĠWerte":4337,"Ġlernte":4338,"bol":4339,"britannien":4340,"frage":4341,"tra":4342,"Ġdank":4343,"Ġzeich":4344,"auert":4345,"ĠMut":4346,"Ġfangen":4347,"Ġsobald":4348,"raucht":4349,"Ġeigenes":4350,"ĠFreunden":4351,"ĠBiologie":4352,"ĠCharakter":4353,"ĠIntelligen":4354,"ĠReligion":4355,"Ġemotion":4356,"stadt":4357,"einer":4358,"ĠGlauben":4359,"Ġgegangen":4360,"ĠWol":4361,"ennung":4362,"Ġangefangen":4363,"ĠSchÃ¶nheit":4364,"Au":4365,"masch":4366,"ĠunabhÃ¤ng":4367,"Ġident":4368,"itionen":4369,"Ġtrifft":4370,"ĠSchutz":4371,"ĠProjekte":4372,"Ġspreche":4373,"ĠSpitze":4374,"ĠPhysik":4375,"Ġkontrollieren":4376,"ĠVerfÃ¼gung":4377,"seit":4378,"ĠWÃ¼r":4379,"hlten":4380,"ĠAntworten":4381,"ĠFreude":4382,"ĠKarr":4383,"ĠursprÃ¼n":4384,"sellschaft":4385,"19":4386,"afen":4387,"bÃ¼":4388,"das":4389,"geg":4390,"Ġgehe":4391,"ĠWald":4392,"ochter":4393,"ĠKomm":4394,"ĠRegion":4395,"ĠDesigner":4396,"ĠÃĸff":4397,"ĠMaterialien":4398,"uster":4399,"ielle":4400,"Ġfallen":4401,"Ġentstehen":4402,"rachte":4403,"Ġbegonnen":4404,"haben":4405,"ĠhÃ¶rt":4406,"Ġeng":4407,"ĠWahrscheinlich":4408,"ĠGelegenheit":4409,"gier":4410,"orgung":4411,"ĠIdent":4412,"ikas":4413,"ĠProt":4414,"Ġherzustellen":4415,"Ã¤rm":4416,"ĠProdukte":4417,"Ġriesigen":4418,"Ġgeschafft":4419,"hei":4420,"ĠGrad":4421,"Ġerzeugt":4422,"ierende":4423,"Ġseines":4424,"ĠUnterstÃ¼tz":4425,"ĠSchluss":4426,"ĠgrÃ¶ÃŁere":4427,"drÃ¼cken":4428,"ĠSauerstoff":4429,"Ġwest":4430,"Ġecht":4431,"ane":4432,"ichtbar":4433,"Ġgenutzt":4434,"istenz":4435,"konom":4436,"fÃ¤lle":4437,"Ġglobale":4438,"Ġchines":4439,"Ġbeeinflusst":4440,"acebo":4441,"sinn":4442,"ĠBio":4443,"ĠWaffen":4444,"ĠZelle":4445,"oper":4446,"Einer":4447,"ĠlieÃŁ":4448,"Ġbrauchte":4449,"Ġ300":4450,"ĠgrÃ¶ÃŁeren":4451,"ĠWirtschafts":4452,"ĠNummer":4453,"Ġakzept":4454,"ĠInfrastruktur":4455,"ĠJahrzeh":4456,"ĠKommunikation":4457,"ĠEreig":4458,"Ġonline":4459,"20":4460,"ĠWor":4461,"ĠTal":4462,"ĠTro":4463,"Ġaufgenommen":4464,"ĠOrgan":4465,"ĠVerbindungen":4466,"haltung":4467,"ĠGeschÃ¤fts":4468,"ĠhÃ¤ufig":4469,"ID":4470,"ain":4471,"ĠKrie":4472,"ĠTochter":4473,"neten":4474,"ĠArme":4475,"Ġreagieren":4476,"Ġ24":4477,"stellte":4478,"Ġwichtigsten":4479,"ĠÃľberleben":4480,"ĠStrate":4481,"ĠAtmo":4482,"setzung":4483,"ĠerwÃ¤hn":4484,"Genau":4485,"dre":4486,"ox":4487,"Ġkor":4488,"ĠkÃ¤mpfen":4489,"ĠMassen":4490,"lef":4491,"Ġbezahl":4492,"Ġmittler":4493,"ĠSchiff":4494,"netz":4495,"ĠCl":4496,"ĠFarben":4497,"Ġpolitischen":4498,"Ġerstaunlich":4499,"wohner":4500,"ĠVielfalt":4501,"ĠHigh":4502,"ĠPolizei":4503,"ĠFenster":4504,"ĠWider":4505,"ĠPal":4506,"Ġsogen":4507,"ami":4508,"ĠfÃ¼hlt":4509,"lange":4510,"ettbewer":4511,"ĠKnochen":4512,"sÃ¤tzlich":4513,"ĠermÃ¶glichen":4514,"ĠÃ¼berraschen":4515,"ĠLeidenschaft":4516,"aber":4517,"fs":4518,"hÃ¶":4519,"hause":4520,"geht":4521,"ĠSuche":4522,"Ġnotwend":4523,"Ġwirk":4524,"rael":4525,"eutlich":4526,"utlich":4527,"ĠOpfer":4528,"sagen":4529,"Ġweiterhin":4530,"ĠAusdruck":4531,"ĠUnterschiede":4532,"geschichte":4533,"En":4534,"text":4535,"Ġfehl":4536,"Ġverantwort":4537,"riffen":4538,"ĠKons":4539,"ĠKlasse":4540,"Ġschlimm":4541,"zeichnen":4542,"ĠRÃ¼cken":4543,"minister":4544,"Ġbeeinflussen":4545,"ĠEntwicklungsl":4546,"Ġendlich":4547,"ĠGeschwindigkeit":4548,"Jedes":4549,"rum":4550,"schauen":4551,"atter":4552,"ĠEp":4553,"ĠHÃ¤user":4554,"Ġlust":4555,"rug":4556,"heben":4557,"Ã¼sse":4558,"ĠfÃ¼hle":4559,"ĠAltern":4560,"ĠKreativitÃ¤t":4561,"ĠGroÃŁbritannien":4562,"ĠWerkzeuge":4563,"kung":4564,"ana":4565,"Ġhandeln":4566,"ĠnÃ¶t":4567,"Ġblie":4568,"Ġkenne":4569,"ĠMehr":4570,"ĠPil":4571,"Ġokay":4572,"Ġtyp":4573,"ĠAnsatz":4574,"Ġentlang":4575,"Ġeinfacher":4576,"istische":4577,"wiesen":4578,"ĠPhÃ¤nomen":4579,"ĠPlast":4580,"holt":4581,"ĠGlas":4582,"Ġproduziert":4583,"ĠPrivat":4584,"ĠNahrungs":4585,"ĠBÃ¤ume":4586,"mel":4587,"wahr":4588,"Ġdeutlich":4589,"stab":4590,"Ġgilt":4591,"ĠBu":4592,"ĠBank":4593,"ĠKlei":4594,"leun":4595,"Ġlangen":4596,"ĠZw":4597,"ĠOsten":4598,"Manchmal":4599,"Ġdorthin":4600,"Ġseien":4601,"Ġvertrau":4602,"ĠKilometer":4603,"Ġkompliz":4604,"Ġhielt":4605,"ĠnÃ¼tz":4606,"lecht":4607,"vert":4608,"schlÃ¤":4609,"ĠGehir":4610,"ĠKlassen":4611,"ĠMond":4612,"ĠSchlag":4613,"ĠVersion":4614,"tember":4615,"ĠTodes":4616,"ĠStandard":4617,"Noch":4618,"renz":4619,"zur":4620,"ĠSh":4621,"ĠLoch":4622,"ĠVari":4623,"Ġtransp":4624,"undament":4625,"ektion":4626,"artig":4627,"iertel":4628,"akten":4629,"ĠWeb":4630,"Damit":4631,"ĠGefÃ¼hle":4632,"fallen":4633,"gra":4634,"Ġnehme":4635,"Ġbuch":4636,"Ġkrit":4637,"ĠKÃ¶rp":4638,"Ġanal":4639,"ĠDel":4640,"Ġschaut":4641,"ĠSport":4642,"ĠGewicht":4643,"Ġstellten":4644,"Ġerlauben":4645,"Ġabst":4646,"ĠWal":4647,"opul":4648,"bruch":4649,"ĠSchlaf":4650,"Ġdefin":4651,"fÃ¼hrer":4652,"ĠTemperatur":4653,"gorit":4654,"Nehmen":4655,"dimen":4656,"swer":4657,"Ġerstellen":4658,"ĠDenk":4659,"Ġverbl":4660,"Ã¤nderte":4661,"Ġentsteht":4662,"ĠAfghanistan":4663,"SA":4664,"ka":4665,"Âł":4666,"ĠÃ¤ndert":4667,"Ġgaben":4668,"ĠZit":4669,"Ã¶rt":4670,"Ġkostet":4671,"Ġbehandelt":4672,"umente":4673,"ĠZusammenhang":4674,"ĠBegriff":4675,"spektive":4676,"ĠStatist":4677,"acebook":4678,"hilfe":4679,"ged":4680,"Ġzug":4681,"ĠKunden":4682,"ĠHolz":4683,"ĠRÃ¤":4684,"ĠJunge":4685,"Ġdarf":4686,"otyp":4687,"Ġspezi":4688,"Ġganzes":4689,"ĠText":4690,"ĠGesellschaften":4691,"Ġpolitische":4692,"ĠMÃ¼ll":4693,"Haben":4694,"eitet":4695,"ĠkÃ¼rz":4696,"ĠFrank":4697,"ĠTel":4698,"indust":4699,"Ġdagegen":4700,"osystem":4701,"Ġentschied":4702,"etter":4703,"formen":4704,"ĠEinsatz":4705,"andels":4706,"ĠProduktion":4707,"ĠNeuronen":4708,"view":4709,"ĠKarriere":4710,"acken":4711,"fisch":4712,"gern":4713,"laden":4714,"seln":4715,"ĠkÃ¼nst":4716,"ĠPosition":4717,"ĠDav":4718,"Ġleiden":4719,"Ġlegen":4720,"pfel":4721,"Ġverkauft":4722,"mÃ¶gen":4723,"ĠTypen":4724,"zwischen":4725,"ĠVirus":4726,"Ġerforschen":4727,"ĠZeichen":4728,"ĠBotschaft":4729,"dit":4730,"kauf":4731,"pfl":4732,"ĠSatz":4733,"schrÃ¤n":4734,"Ġkrie":4735,"ĠAfr":4736,"ĠPe":4737,"ĠjÃ¼n":4738,"ikal":4739,"Ã¤nglich":4740,"Ġpassen":4741,"etr":4742,"gere":4743,"Ġbetrifft":4744,"ĠKohlen":4745,"alisieren":4746,"ĠKarten":4747,"ĠBedingungen":4748,"ĠerhÃ¤lt":4749,"ifornien":4750,"industrie":4751,"bank":4752,"cy":4753,"fit":4754,"Ã¼h":4755,"Ġand":4756,"ĠTim":4757,"anda":4758,"Ġres":4759,"artige":4760,"Erstens":4761,"ĠMaterie":4762,"ĠWerkzeug":4763,"ĠverÃ¶ffentlicht":4764,"ĠDiskuss":4765,"fil":4766,"oge":4767,"Ġafrikan":4768,"ĠiP":4769,"ĠGang":4770,"ĠFacebook":4771,"beweg":4772,"Ġdavor":4773,"ĠSchrift":4774,"spl":4775,"Ġalleine":4776,"Ġsteigen":4777,"ĠRep":4778,"ĠsaÃŁ":4779,"Ġweiteres":4780,"okument":4781,"ĠLebensmittel":4782,"Ġ197":4783,"Ã¤lte":4784,"Ġsolch":4785,"hoden":4786,"ĠverfÃ¼g":4787,"ĠKomplexitÃ¤t":4788,"ost":4789,"ĠSal":4790,"ĠWunsch":4791,"recher":4792,"ĠOh":4793,"ufe":4794,"ĠAusbildung":4795,"Ġletztes":4796,"ĠQualitÃ¤t":4797,"Ġchem":4798,"ĠResult":4799,"ĠbenÃ¶tigen":4800,"ĠFortschritt":4801,"Ġverursacht":4802,"ĠbloÃŁ":4803,"Ġinvestieren":4804,"ĠUnterstÃ¼tzung":4805,"ĠAtmosphÃ¤re":4806,"vel":4807,"yr":4808,"tend":4809,"Ġhabt":4810,"ĠHaar":4811,"Ġschn":4812,"Ã¤hrung":4813,"Ġgewonnen":4814,"Ġbeschreiben":4815,"ĠGemeinde":4816,"digung":4817,"ĠKontakt":4818,"ĠDrittel":4819,"klÃ¤rung":4820,"dingt":4821,"ĠSoldaten":4822,"Ġhe":4823,"ĠPort":4824,"ĠTitel":4825,"ĠÃ¼berzeugt":4826,"ĠBef":4827,"Manche":4828,"Ġentwickelten":4829,"gewicht":4830,"how":4831,"ĠKorallen":4832,"ĠAufgaben":4833,"ĠSekunde":4834,"Ġkommunizieren":4835,"ĠsÃ¼":4836,"stimm":4837,"ĠSzen":4838,"Ġvern":4839,"ĠZiele":4840,"otograf":4841,"ĠspÃ¼r":4842,"halte":4843,"Ġbegeister":4844,"wirken":4845,"ĠAmeisen":4846,"ĠKlimawandel":4847,"imal":4848,"sÃ¤chlich":4849,"vollen":4850,"Ġus":4851,"Ġdauer":4852,"ong":4853,"Ġvir":4854,"ĠAuss":4855,"bereich":4856,"omat":4857,"zubringen":4858,"Ã¶rdern":4859,"urcht":4860,"Ġklingt":4861,"spielt":4862,"Ġschafft":4863,"indestens":4864,"ĠUniversums":4865,"Ġleider":4866,"eligi":4867,"ĠKlima":4868,"IDS":4869,"orm":4870,"ĠBrie":4871,"ĠDis":4872,"ĠHeil":4873,"ĠHund":4874,"Ġumgehen":4875,"Ġ2000":4876,"appen":4877,"schloss":4878,"losen":4879,"ĠFernsehen":4880,"ĠZentrum":4881,"ĠÃĸkosystem":4882,"ĠInsekten":4883,"ĠIntelligenz":4884,"ipp":4885,"kn":4886,"Ġzentr":4887,"arch":4888,"ĠAbst":4889,"ĠWandel":4890,"ĠKop":4891,"ĠFeld":4892,"reu":4893,"ĠÃ¼berzeugen":4894,"Ġneuer":4895,"ĠUntersuch":4896,"Ġunbedingt":4897,"ĠJugend":4898,"ĠbuchstÃ¤":4899,"ender":4900,"serv":4901,"ames":4902,"rÃ¼cke":4903,"Ġrel":4904,"hindern":4905,"ĠSee":4906,"Ġvermutlich":4907,"ĠwunderschÃ¶n":4908,"ĠSterne":4909,"ĠFÃ¤llen":4910,"Ġlautet":4911,"ournal":4912,"dimension":4913,"Ġmerk":4914,"Ġhaupt":4915,"auran":4916,"ĠFach":4917,"ĠerfÃ¼":4918,"ĠStÃ¤r":4919,"Ġrechten":4920,"ĠAuft":4921,"atell":4922,"ĠMitglie":4923,"ĠZusammenarbeit":4924,"hÃ¤ltnis":4925,"ĠHintergrund":4926,"Seit":4927,"ination":4928,"asi":4929,"eils":4930,"ĠBand":4931,"ĠBud":4932,"ĠKir":4933,"ĠEind":4934,"ĠTrans":4935,"Ġober":4936,"Ġtrau":4937,"Ġtolle":4938,"ĠCity":4939,"ĠÃľ":4940,"Ġherausgefunden":4941,"ĠBlog":4942,"ĠauÃŁerdem":4943,"Ġvollkommen":4944,"ĠOrganisationen":4945,"aurier":4946,"ĠdurchgefÃ¼hrt":4947,"frist":4948,"har":4949,"ĠWar":4950,"anne":4951,"Ġdieselbe":4952,"osoph":4953,"ford":4954,"Ġverbreitet":4955,"ĠGenom":4956,"Ġ196":4957,"ĠHandy":4958,"Ġunterschiedlichen":4959,"ĠHerausforderungen":4960,"ĠBabys":4961,"ĠJobs":4962,"impan":4963,"ĠÃ¼bertragen":4964,"ĠVogel":4965,"ca":4966,"Ġkrank":4967,"Ġinst":4968,"ĠMich":4969,"Ġgeha":4970,"ĠFein":4971,"ĠSpielen":4972,"steller":4973,"Inter":4974,"Ġwiederum":4975,"ĠSchwier":4976,"Ġfragten":4977,"ĠObjekte":4978,"ĠGrÃ¼nden":4979,"Ġdrehen":4980,"ĠbeschÃ¤ftigt":4981,"AuÃŁer":4982,"ĠWahrscheinlichkeit":4983,"Ġsorgen":4984,"Ġsitzt":4985,"ĠSÃ¤u":4986,"ĠKÃ¤":4987,"ĠDeut":4988,"Ġverdienen":4989,"Ã¤nn":4990,"ĠSpiele":4991,"Ġbesitzen":4992,"ĠProblemen":4993,"aterial":4994,"Ġsicherlich":4995,"Ġgestalten":4996,"Ġselber":4997,"ĠGesetze":4998,"krebs":4999,"fessor":5000,"ĠerklÃ¤rt":5001,"gument":5002,"mung":5003,"Ġ.":5004,"Ġwirst":5005,"ĠMc":5006,"ĠgefÃ¼hrt":5007,"ĠBal":5008,"ĠWest":5009,"lege":5010,"ĠFabr":5011,"ĠIrak":5012,"Ġbezahlen":5013,"ĠHunder":5014,"Ġentw":5015,"Ġspiel":5016,"Ġabsch":5017,"richtung":5018,"ĠGroÃŁteil":5019,"ehnt":5020,"fÃ¼hrung":5021,"ĠbenÃ¶tigt":5022,"ĠPlastik":5023,"Ġusw":5024,"ĠbuchstÃ¤blich":5025,"Selbst":5026,"fÃ¤lt":5027,"ling":5028,"ull":5029,"Ġbitten":5030,"Ġzuk":5031,"ĠEi":5032,"ĠIst":5033,"ĠZwe":5034,"ĠSchmerz":5035,"ĠChe":5036,"ĠRed":5037,"ruf":5038,"rid":5039,"Ġstecken":5040,"ternehmen":5041,"spieler":5042,"ĠLandwirtschaft":5043,"hÃ¶rt":5044,"folgt":5045,"Ġerstes":5046,"platz":5047,"lette":5048,"ĠJetzt":5049,"Ġerwartet":5050,"ĠVertrauen":5051,"oppelt":5052,"Ġindividu":5053,"ĠBasis":5054,"Ġat":5055,"ĠMasse":5056,"Ġgelangen":5057,"ĠBeine":5058,"isation":5059,"entwick":5060,"ĠStoff":5061,"ĠReich":5062,"ektor":5063,"ĠMex":5064,"ĠStellen":5065,"zeichen":5066,"ĠschÃ¶ne":5067,"ĠnatÃ¼rliche":5068,"ĠzufÃ¤llig":5069,"Bis":5070,"Nie":5071,"chtz":5072,"ieÃŁ":5073,"Ġsu":5074,"Ġsinn":5075,"Ã¼gel":5076,"ĠMobil":5077,"ĠWÃ¼":5078,"isierung":5079,"Ġsozusagen":5080,"Ġanderem":5081,"Ã¤tsel":5082,"istischen":5083,"Ġhinweg":5084,"ĠKonferenz":5085,"Ġbestimmen":5086,"front":5087,"Ã¤chtnis":5088,"ĠkÃ¼mmern":5089,"ĠstÃ¤rker":5090,"ĠIdentitÃ¤t":5091,"fert":5092,"grÃ¶":5093,"ring":5094,"iellen":5095,"Ġmindestens":5096,"Ã¶tet":5097,"Ġwerfen":5098,"Ġwohin":5099,"ĠreprÃ¤sent":5100,"fÃ¼gen":5101,"ada":5102,"hafte":5103,"ĠBildschirm":5104,"aktionen":5105,"Ġhohen":5106,"Ġdreht":5107,"ĠBrot":5108,"wissenschaft":5109,"Ġmodernen":5110,"ĠdÃ¼rfen":5111,"ĠzukÃ¼nft":5112,"air":5113,"pe":5114,"uh":5115,"Ġ&":5116,"Ġnah":5117,"Ġderzeit":5118,"ĠAffen":5119,"ĠGraf":5120,"ĠlÃ¤ch":5121,"ungskraft":5122,"teilung":5123,"ice":5124,"ĠStein":5125,"ĠMilliarde":5126,"Ġwissenschaftliche":5127,"ĠDienst":5128,"Ġmot":5129,"ĠSorgen":5130,"ĠMÃ¶":5131,"ĠFo":5132,"Ġaufw":5133,"Ġtra":5134,"Ġauseinander":5135,"ĠJo":5136,"Ġentwerfen":5137,"ĠRede":5138,"Ġsteckt":5139,"spielen":5140,"ĠzurÃ¼ckzu":5141,"Ġbeteil":5142,"Ġerinnert":5143,"Zweitens":5144,"ĠLeistung":5145,"ĠtÃ¤glich":5146,",\"":5147,"sse":5148,"ĠwÃ¤chst":5149,"ĠhÃ¤ngt":5150,"ala":5151,"iertes":5152,"ĠFest":5153,"ĠLos":5154,"Ġverle":5155,"ĠBett":5156,"Ġstolz":5157,"forschung":5158,"stellten":5159,"Ġlieber":5160,"leisch":5161,"Ġverwir":5162,"ĠKindheit":5163,"Ġfalsche":5164,"herapie":5165,"ĠMuseum":5166,"inosaurier":5167,"Chr":5168,"Durch":5169,"mann":5170,"win":5171,"Ã¤be":5172,"ĠDre":5173,"Ġverlie":5174,"Ġtausende":5175,"ĠdaÃŁ":5176,"ĠBeste":5177,"Ġreligi":5178,"Ġ150":5179,"ĠÃ¶ffentliche":5180,"band":5181,"iste":5182,"markt":5183,"chern":5184,"Ġdisk":5185,"ĠGold":5186,"ĠKen":5187,"Ġverfolgen":5188,"ĠRat":5189,"ĠRom":5190,"ĠNutzen":5191,"ĠSchn":5192,"ungssystem":5193,"Ġinteragieren":5194,"ĠStaat":5195,"ĠForscher":5196,"ĠGolf":5197,"Ġirgendwann":5198,"gs":5199,"iag":5200,"sh":5201,"Ġrad":5202,"Ġel":5203,"Ġeinsetzen":5204,"schau":5205,"ĠBildern":5206,"ĠerÃ¶ff":5207,"ĠTrain":5208,"Ġscheinen":5209,"ĠGefahr":5210,"ĠColle":5211,"Ġweiteren":5212,"ĠKontext":5213,"Ġglaubt":5214,"ĠChin":5215,"ĠAustr":5216,"Ġverwandeln":5217,"Ġinteressanter":5218,"Ġtesten":5219,"ĠgetÃ¶tet":5220,"Ġweder":5221,"ĠStrukturen":5222,"jÃ¤hrigen":5223,"ĠÃ¼berrascht":5224,"ĠErinnerung":5225,"30":5226,"uern":5227,"zeiten":5228,"Ġ,":5229,"Ġignor":5230,"ĠSatell":5231,"Ġfragt":5232,"Ġans":5233,"ĠSchimpan":5234,"ĠProj":5235,"klus":5236,"ĠGerÃ¤te":5237,"nitt":5238,"ausenden":5239,"ĠModelle":5240,"ĠThemen":5241,"Ġperfekt":5242,"ĠMotor":5243,"ĠtÃ¶ten":5244,"ĠKaffe":5245,"aptop":5246,"gabe":5247,"macht":5248,"schm":5249,"urf":5250,"ĠEcke":5251,"Ġschlie":5252,"ĠVerkehr":5253,"adem":5254,"geladen":5255,"alisiert":5256,"ibel":5257,"ĠOnline":5258,"ĠInstitutionen":5259,"ĠÃĦnder":5260,"ĠhauptsÃ¤chlich":5261,"Mir":5262,"frieden":5263,"lÃ¶s":5264,"nissen":5265,"pag":5266,"weit":5267,"onom":5268,"ĠPaar":5269,"ĠDir":5270,"Ġverein":5271,"ĠTw":5272,"ĠTau":5273,"ĠHil":5274,"Ġlaut":5275,"ĠGest":5276,"ĠSchwei":5277,"Ġweiss":5278,"achtung":5279,"riz":5280,"ĠTeilchen":5281,"ĠAutor":5282,"Ġletztendlich":5283,"programm":5284,"ĠGegenteil":5285,"inkel":5286,"Ġhalte":5287,"ĠFÃ¼hrung":5288,"ĠKalifornien":5289,"ĠÃĸffent":5290,"Kl":5291,"MS":5292,"idem":5293,"wahl":5294,"anst":5295,"Ġmathemat":5296,"ĠEm":5297,"ĠFÃ¼r":5298,"ĠLern":5299,"ĠRahmen":5300,"Ġschick":5301,"Ġtue":5302,"utt":5303,"ĠSchau":5304,"Ġverbracht":5305,"Ġwichtigste":5306,"Ġinteressieren":5307,"ĠmÃ¶glicherweise":5308,"gendetwas":5309,"ĠHeimat":5310,"krank":5311,"lÃ¤ss":5312,"nimmt":5313,"ry":5314,"eiste":5315,"ĠSyn":5316,"ĠFran":5317,"ĠschlieÃŁen":5318,"ĠNorden":5319,"Ġaussch":5320,"Ġgegenseit":5321,"ĠnÃ¤chstes":5322,"ĠSep":5323,"ĠWahrnehm":5324,"ĠBruder":5325,"ĠPrÃ¤sident":5326,"Ġbegeistert":5327,"dige":5328,"arb":5329,"bern":5330,"leg":5331,"ĠEing":5332,"ĠIran":5333,"Ġbegeg":5334,"ĠNation":5335,"ĠOder":5336,"quenzen":5337,"Ġ400":5338,"ĠvollstÃ¤ndig":5339,"ĠgefÃ¤hrlich":5340,"ĠAktivitÃ¤t":5341,"Ġvorhanden":5342,"ĠLieblings":5343,"ĠKohlenstoff":5344,"Gut":5345,"Letz":5346,"ĠX":5347,"Ġdeinen":5348,"atoren":5349,"ĠMos":5350,"ĠFische":5351,"Ġausb":5352,"Ġregel":5353,"Ġgener":5354,"Ġgewisse":5355,"verstÃ¤nd":5356,"Ġbesseren":5357,"aktiv":5358,"ĠDepress":5359,"Ġeingesetzt":5360,"Ġversuchten":5361,"ĠBauern":5362,"jÃ¤hrige":5363,"Ġgehabt":5364,"bliche":5365,"eider":5366,"Ġmer":5367,"ĠMeilen":5368,"ĠAsp":5369,"Ġfrage":5370,"ĠLiter":5371,"Ġverhindern":5372,"ĠVÃ¶":5373,"ĠVision":5374,"Ġausgeb":5375,"ĠJungs":5376,"reite":5377,"ingu":5378,"wood":5379,"Ġgesund":5380,"richtungen":5381,"Ġschlimmer":5382,"ĠBoot":5383,"Ġschwarz":5384,"ĠChris":5385,"Ġkreativ":5386,"Ko":5387,"hi":5388,"hmen":5389,"hÃ¤user":5390,"Ġzunehmen":5391,"alte":5392,"Ġantwor":5393,"amt":5394,"ĠZimmer":5395,"ĠAuÃŁen":5396,"ĠerzÃ¤hle":5397,"ĠSprachen":5398,"ĠVerhaltens":5399,"Ġexistieren":5400,"Ġamerikanische":5401,"Ġbasiert":5402,"ĠGalaxien":5403,"bahn":5404,"stau":5405,"Ġbieten":5406,"Ġerster":5407,"ĠDinosaurier":5408,"ĠTre":5409,"ĠGewebe":5410,"spiels":5411,"ĠVerstand":5412,"Ġstelle":5413,"Ġgewisser":5414,"langt":5415,"ĠKohle":5416,"ĠFilme":5417,"Ġwunderbare":5418,"Ġstarb":5419,"ĠVideos":5420,"Ġnormalen":5421,"Ġhohe":5422,"Zuerst":5423,"Ġbemerkt":5424,"ĠEngland":5425,"Ġvirtu":5426,"ĠÃĸffentlichkeit":5427,"ĠSeptember":5428,"blichkeit":5429,"kle":5430,"sweise":5431,"yl":5432,"Ġdauert":5433,"ieben":5434,"Ġsauber":5435,"Ġeinsch":5436,"Ã¼hr":5437,"ĠMaus":5438,"ĠgÃ¤be":5439,"ĠFleisch":5440,"amin":5441,"ĠHaufen":5442,"omit":5443,"Ġirgendetwas":5444,"ĠAugenblick":5445,"ĠMilitÃ¤r":5446,"Ġpraktisch":5447,"ĠNerven":5448,"schule":5449,"The":5450,"afrika":5451,"sver":5452,"ĠĠ":5453,"asste":5454,"Ġeint":5455,"Ġeinst":5456,"ĠPu":5457,"ĠHÃ¤nden":5458,"ĠRand":5459,"ĠschÃ¶nen":5460,"ĠStift":5461,"Ġdurchschnitt":5462,"Ġunterscheiden":5463,"Ġarbeiteten":5464,"Ã¤ngst":5465,"Ġteuer":5466,"kehren":5467,"Ġabsol":5468,"Ġunterschiedlich":5469,"ĠBrenn":5470,"ĠElektro":5471,"ĠFrem":5472,"Ġholen":5473,"Ġpriv":5474,"Ġentworfen":5475,"fragen":5476,"po":5477,"rennen":5478,"Ġnannte":5479,"Ġkennt":5480,"ĠMI":5481,"ĠGut":5482,"ĠCon":5483,"ĠSpekt":5484,"echsel":5485,"Ġwenigen":5486,"fahrt":5487,"Ã¤dt":5488,"hingt":5489,"ĠFolge":5490,"Ġhunderte":5491,"ĠErkenntnis":5492,"Ġverantwortlich":5493,"ds":5494,"mutter":5495,"port":5496,"swert":5497,"unken":5498,"Ġmeist":5499,"Ġfiel":5500,"ĠBras":5501,"reien":5502,"Ġ35":5503,"utzer":5504,"problem":5505,"Statt":5506,"ĠExperten":5507,"ĠStress":5508,"Ġkurze":5509,"ĠLaufe":5510,"ĠGesprÃ¤ch":5511,"chtzeit":5512,"ex":5513,"ly":5514,"nehmer":5515,"Ġeiniger":5516,"ĠSil":5517,"ĠMechan":5518,"ĠLog":5519,"Ġschien":5520,"Ġlinken":5521,"ĠVerletz":5522,"ĠInner":5523,"Ġlebte":5524,"Ġherr":5525,"ologisch":5526,"agement":5527,"ĠGedanke":5528,"ĠPatient":5529,"ĠSchwester":5530,"fÃ¤higkeit":5531,"Ġschaute":5532,"ĠprÃ¤sent":5533,"Ġbeantworten":5534,"ĠDavid":5535,"hington":5536,"iden":5537,"kan":5538,"zy":5539,"ichard":5540,"Ġneg":5541,"Ġkap":5542,"ierer":5543,"Ġgehalten":5544,"ĠWesent":5545,"ĠWettbewer":5546,"ĠEhe":5547,"ĠTer":5548,"eucht":5549,"werden":5550,"artigen":5551,"wegs":5552,"Ġmeistens":5553,"Ġsexu":5554,"Ġbemerk":5555,"ĠElektron":5556,"ĠIsrael":5557,"ĠQuadrat":5558,"hte":5559,"keln":5560,"Ġdritten":5561,"schrift":5562,"ĠWill":5563,"ĠaufhÃ¶ren":5564,"Ġsomit":5565,"ĠHall":5566,"ĠNor":5567,"ĠkÃ¶nnt":5568,"hlung":5569,"ĠOx":5570,"Ġnochmal":5571,"ulieren":5572,"ĠmÃ¼sste":5573,"ĠGras":5574,"ĠlieÃŁen":5575,"Ġangesehen":5576,"ĠSozial":5577,"nost":5578,"Ġwichtigen":5579,"Ġsetzt":5580,"ĠGlob":5581,"ĠRestauran":5582,"Ġentstanden":5583,"vention":5584,"Ġentspricht":5585,"rgend":5586,"sichten":5587,"iesen":5588,"gegeben":5589,"ĠMund":5590,"ĠLaptop":5591,"bewesen":5592,"ĠZÃ¤":5593,"agiert":5594,"ĠBeweis":5595,"Ġeigent":5596,"ĠLied":5597,"ĠDeb":5598,"ĠDefin":5599,"Ġhalb":5600,"Ġhoffentlich":5601,"ĠTrend":5602,"mÃ¤ÃŁig":5603,"ĠKonflikt":5604,"bas":5605,"cis":5606,"heim":5607,"pret":5608,"ietet":5609,"schauer":5610,"Ġkom":5611,"Ġfotograf":5612,"ĠFehl":5613,"Ġvergleichen":5614,"ĠHom":5615,"ĠSchei":5616,"ĠInnen":5617,"ognit":5618,"ĠSpr":5619,"ĠUN":5620,"ungsk":5621,"Ã¤use":5622,"ĠLandschaft":5623,"Ġbekamen":5624,"Jede":5625,"ĠPhys":5626,"Ġallerdings":5627,"ĠGegensatz":5628,"Ġerkannte":5629,"Ġerlebt":5630,"ĠMolekÃ¼le":5631,"maschine":5632,"ĠKÃ¶rpers":5633,"Le":5634,"ahe":5635,"fische":5636,"eiger":5637,"Ġkauf":5638,"ĠDen":5639,"ĠDunk":5640,"igsten":5641,"ckten":5642,"Ġmitten":5643,"ĠCol":5644,"oth":5645,"eting":5646,"Ġklass":5647,"zelle":5648,"samt":5649,"ĠChir":5650,"Ġberech":5651,"Ġdennoch":5652,"ĠAlgorit":5653,"ĠSteuer":5654,"ĠMinute":5655,"ĠSpieler":5656,"hÃ¤ngig":5657,"ĠToi":5658,"sÃ¤tze":5659,"ĠKatastrop":5660,"ĠPerspektive":5661,"Ġtotal":5662,"ĠIndividuen":5663,"digt":5664,"Ġdran":5665,"ĠSehen":5666,"Ġzog":5667,"ĠMem":5668,"ĠAs":5669,"ĠFig":5670,"ĠPfl":5671,"Ġschm":5672,"usion":5673,"ĠNationen":5674,"ĠJournal":5675,"abei":5676,"Ġhergestellt":5677,"ĠIhres":5678,"Ġgenauer":5679,"ĠExperimente":5680,"Ġhoffen":5681,"ĠRadio":5682,"echtigkeit":5683,"gruppe":5684,"Ġeffektiv":5685,"ĠEindruck":5686,"Den":5687,"Dort":5688,"meister":5689,"pte":5690,"sionen":5691,"trag":5692,"anen":5693,"stÃ¤nden":5694,"ĠSamm":5695,"Ġnutzt":5696,"ĠMat":5697,"ĠfÃ¶rdern":5698,"rotz":5699,"ischt":5700,"ĠRÃ¤tsel":5701,"Ġdemokrat":5702,"ĠAnw":5703,"ĠWashington":5704,"Ġirgendein":5705,"Ġmusst":5706,"gewalt":5707,"Ġschlechter":5708,"Ġroten":5709,"ĠDimen":5710,"riffe":5711,"ĠMedikament":5712,"Ġstammt":5713,"ĠCollege":5714,"pft":5715,"wachstum":5716,"ĠMomen":5717,"ĠAma":5718,"ĠWichtig":5719,"ĠKrÃ¤fte":5720,"ĠEffekt":5721,"ologe":5722,"igend":5723,"ĠBeob":5724,"rippe":5725,"ĠZeitalter":5726,"ĠGrenze":5727,"Ġbrauchten":5728,"ica":5729,"Ġgelesen":5730,"ĠQuanten":5731,"Ġgestern":5732,"wÃ¤rt":5733,"Ġerscheinen":5734,"ates":5735,"dlichen":5736,"finieren":5737,"gyp":5738,"rasch":5739,"Ġzahlen":5740,"eskop":5741,"ĠGanze":5742,"ĠWellen":5743,"ĠKomb":5744,"Ġverf":5745,"Ġaufbauen":5746,"Ġschlau":5747,"Ġlernt":5748,"Ġtrin":5749,"ĠNan":5750,"ĠInsel":5751,"ogar":5752,"Ġvieler":5753,"hmus":5754,"Ġprogramm":5755,"eicher":5756,"Ġentwickelte":5757,"ordnung":5758,"ĠBewegungen":5759,"Ġbrachten":5760,"ĠGleiche":5761,"ĠDiagramm":5762,"ĠEntdeckung":5763,"ĠGehirne":5764,"Ġanalys":5765,"ĠTwitter":5766,"Falls":5767,"Techn":5768,"aster":5769,"vard":5770,"Ġechten":5771,"Ġzuzu":5772,"ĠMÃ¼tter":5773,"ĠGar":5774,"Ġerfinden":5775,"ĠPfer":5776,"Ġwieso":5777,"Ġtausend":5778,"ĠOpt":5779,"osm":5780,"riften":5781,"Ġwelchen":5782,"Ġbrauche":5783,"ondere":5784,"ĠUnternehmer":5785,"Ġstarke":5786,"ĠForschungs":5787,"ĠMission":5788,"Ġreduzieren":5789,"ĠSatelliten":5790,"ichen":5791,"ĠAkt":5792,"acher":5793,"ĠGas":5794,"Unter":5795,"ĠTie":5796,"ĠImpf":5797,"rechte":5798,"Ġbeschlossen":5799,"Ġaufs":5800,"Ġaufgew":5801,"ĠStimmen":5802,"ĠRechte":5803,"akte":5804,"Ġschlagen":5805,"skop":5806,"Ġverschwinden":5807,"ĠpersÃ¶nlich":5808,"Ġbezahlt":5809,"Ġrelativ":5810,"Ġdiskut":5811,".,":5812,"Kann":5813,"ld":5814,"use":5815,"yse":5816,"Ġag":5817,"Ġeindeut":5818,"test":5819,"ĠAtem":5820,"ĠGi":5821,"Ġoh":5822,"ĠtrÃ¤gt":5823,"ĠZell":5824,"ĠSchne":5825,"rauchen":5826,"ĠErleb":5827,"ruption":5828,"etrie":5829,"ĠSpiegel":5830,"erseits":5831,"Ã¤hren":5832,"bares":5833,"Ġverbrachte":5834,"Ġwahre":5835,"ĠHinsicht":5836,"Ġnormale":5837,"ĠKontin":5838,"ĠPolitiker":5839,"Ġbeinhal":5840,"AuÃŁerdem":5841,"rizitÃ¤t":5842,"ĠBrasilien":5843,"Eigen":5844,"lÃ¤uf":5845,"ĠSens":5846,"ĠzunÃ¤chst":5847,"ĠBein":5848,"ĠElef":5849,"ĠFett":5850,"hek":5851,"Ġverbreiten":5852,"adel":5853,"ĠZucker":5854,"elev":5855,"Ġgestorben":5856,"Ġengl":5857,"ĠGemeinden":5858,"kosten":5859,"ĠMetap":5860,"ĠMethoden":5861,"ĠVorteil":5862,"ĠFolgendes":5863,"Ġintegr":5864,"ĠMilch":5865,"Ġreichen":5866,"ĠGesundheitswesen":5867,"Ġstudieren":5868,"Ġlustig":5869,"ĠSchimpansen":5870,"200":5871,"aff":5872,"dru":5873,"wagen":5874,"ĠrÃ¼ck":5875,"ĠmÃ¤nn":5876,"Ã¼te":5877,"Ġzeit":5878,"ĠFle":5879,"ĠFakten":5880,"ĠDam":5881,"Ġbehalten":5882,"Ġlas":5883,"ĠNA":5884,"reisen":5885,"ĠCom":5886,"Ġvorber":5887,"olly":5888,"ĠZuhause":5889,"Ġstarten":5890,"ĠLinien":5891,"amerika":5892,"Ġidentif":5893,"OK":5894,"umm":5895,"uck":5896,"Ġfuhr":5897,"ĠKrise":5898,"ĠHyp":5899,"ĠVerbr":5900,"rÃ¼ben":5901,"ĠAnsicht":5902,"ĠabhÃ¤ngig":5903,"Ã¼nf":5904,"ĠAusmaÃŁ":5905,"schland":5906,"ĠStaats":5907,"fordert":5908,"Ġkurzem":5909,"ĠFolgen":5910,"Ġkurzen":5911,"ĠDetails":5912,"Ã¶pfe":5913,"Ġtiefer":5914,"ĠnÃ¶tig":5915,"Mann":5916,"ham":5917,"jahr":5918,"ux":5919,"wach":5920,"Ġzahl":5921,"ĠkÃ¶rper":5922,"auchen":5923,"ĠAspekt":5924,"ĠfÃ¤ngt":5925,"ĠgeÃ¤ndert":5926,"ĠEmpf":5927,"ĠjÃ¤hr":5928,"ĠLebewesen":5929,"Ġnieder":5930,"ĠKlein":5931,"ĠKlang":5932,"Ġvermittel":5933,"ĠBuchst":5934,"ĠAtom":5935,"Ġhalbe":5936,"ĠOrganismen":5937,"ĠGenerationen":5938,"ĠMikroben":5939,"Ġschwarze":5940,"Ġmedizinische":5941,"ĠPrototyp":5942,"ĠkÃ¼rzlich":5943,"ĠAustralien":5944,"ĠFrancis":5945,"?âĢľ":5946,"Ab":5947,"hÃ¼":5948,"osen":5949,"Ã©":5950,"ara":5951,"itt":5952,"ĠKrit":5953,"Ġangeb":5954,"ĠLaden":5955,"Ġvergangen":5956,"ĠNiger":5957,"ike":5958,"Ġentgegen":5959,"Ġheran":5960,"antas":5961,"ĠInteressen":5962,"ĠExistenz":5963,"ĠgehÃ¶ren":5964,"ĠNetzwerke":5965,"mÃ¶glichkeiten":5966,"ĠWebsite":5967,"ĠArbeiten":5968,"ĠElemente":5969,"Chris":5970,"Sind":5971,"mehr":5972,"oc":5973,"ĠdrÃ¼ben":5974,"Ġmeiste":5975,"Ã¼ge":5976,"ĠzÃ¤hlen":5977,"atik":5978,"Ġfern":5979,"ĠfÃ¤h":5980,"Ġgetr":5981,"umb":5982,"ĠTanz":5983,"ischem":5984,"Ġpar":5985,"Ġwobei":5986,"Ġlebten":5987,"Ġreicht":5988,"rachten":5989,"Ġbegrenz":5990,"merzen":5991,"Ġzusammenge":5992,"ĠWeile":5993,"Ġ45":5994,"Ġgeschickt":5995,"Ġdefinieren":5996,"ohnt":5997,"Ġbeobachtet":5998,"ĠbeschÃ¤ftigen":5999,"ĠnatÃ¼rlichen":6000,"ĠKonflik":6001,"Ġoptim":6002,"Ġblieb":6003,"ĠzugÃ¤nglich":6004,"ĠDiskussion":6005,"Keine":6006,"by":6007,"ube":6008,"Ġwechs":6009,"Ġeure":6010,"steigen":6011,"ĠSitz":6012,"Ġinform":6013,"aust":6014,"ĠWetter":6015,"ĠEd":6016,"uman":6017,"Ġbeschloss":6018,"Ġpasst":6019,"ĠProfessor":6020,"ĠCode":6021,"Ġentsprechen":6022,"ĠWeltraum":6023,"ĠVorfahren":6024,"ĠFlag":6025,"aturen":6026,"olitik":6027,"ĠTex":6028,"motionen":6029,"Ġwissenschaftlichen":6030,"Ġaufregend":6031,"IP":6032,"kr":6033,"Ġkomb":6034,"ĠGarten":6035,"ffer":6036,"Ġplan":6037,"ĠBeweise":6038,"Ġdarstellen":6039,"bliot":6040,"Ġrede":6041,"ĠUmfeld":6042,"scheint":6043,"ĠAbschluss":6044,"ĠStreit":6045,"Ġsprachen":6046,"Ġkomplexe":6047,"ĠIslam":6048,"ĠzerstÃ¶rt":6049,"verbrauch":6050,"ĠTrÃ¤ume":6051,"Ġmorgens":6052,"Ġgrundlegende":6053,"ĠGrafik":6054,"ĠWahrnehmung":6055,"Ok":6056,"part":6057,"ancen":6058,"stung":6059,"ĠungewÃ¶hn":6060,"Ġmass":6061,"ĠBri":6062,"Ġanwenden":6063,"ĠEmotionen":6064,"Ġerscheint":6065,"ĠPak":6066,"ĠDach":6067,"omben":6068,"ĠOber":6069,"ĠArmen":6070,"ĠAngel":6071,"ĠErklÃ¤rung":6072,"Ġsteigt":6073,"Ġspannen":6074,"ĠGeschlecht":6075,"edia":6076,"Ġverbindet":6077,"klen":6078,"ĠArbeitspl":6079,"ategor":6080,"Ġerkennt":6081,"Ġdram":6082,"ĠElektrizitÃ¤t":6083,"ĠViren":6084,"Ġtraditionellen":6085,"spielsweise":6086,"pon":6087,"tin":6088,"tial":6089,"Ġdauern":6090,"Ġwuchs":6091,"ones":6092,"Ġhistor":6093,"ĠKurz":6094,"ĠSchool":6095,"Ġdeswegen":6096,"ĠBest":6097,"Ġstop":6098,"Ã¤tigkeit":6099,"rufen":6100,"ĠGenau":6101,"Ġexper":6102,"Ġbeschleun":6103,"Ġfolgt":6104,"letten":6105,"Ġenorme":6106,"ĠEntwicklungslÃ¤ndern":6107,"ĠverfÃ¼gbar":6108,"ĠMIT":6109,"Zur":6110,"passt":6111,"ton":6112,"zon":6113,"onstr":6114,"Ġbat":6115,"Ġzut":6116,"einbar":6117,"ement":6118,"ichter":6119,"ĠAch":6120,"ĠBlau":6121,"ĠWik":6122,"Ġverschl":6123,"ĠTausende":6124,"Ġbewer":6125,"Ġla":6126,"ehren":6127,"ĠVerhÃ¤ltnis":6128,"Ġallgem":6129,"Ġklin":6130,"ersagen":6131,"endung":6132,"ĠEinfach":6133,"ĠKonse":6134,"Ġverwende":6135,"sichts":6136,"ĠQuelle":6137,"Ġausgest":6138,"ĠGedicht":6139,"umenten":6140,"Ġaufzubauen":6141,"ĠBesitz":6142,"wirkung":6143,"ĠÃ¼brig":6144,"ĠTests":6145,"ĠMaÃŁstab":6146,"ĠzerstÃ¶ren":6147,"ĠNachbarn":6148,"ĠKerl":6149,"Ġsetzte":6150,"ĠZitat":6151,"bewegung":6152,"ĠSchwierigkeiten":6153,"Niemand":6154,"Bitte":6155,"karte":6156,"mark":6157,"Ġ0":6158,"geber":6159,"Ġannehmen":6160,"ĠFischer":6161,"Ġerstellt":6162,"ĠPersÃ¶n":6163,"recken":6164,"Ġaufgebaut":6165,"ĠHack":6166,"ĠSchatten":6167,"rÃ¤umen":6168,"ĠÃĦgyp":6169,"ĠKapital":6170,"ografie":6171,"ĠWohlstand":6172,"ĠSolar":6173,"ĠTheater":6174,"Ġspielte":6175,"ĠZweck":6176,"Sehr":6177,"Trotz":6178,"mord":6179,"talien":6180,"enter":6181,"eise":6182,"ĠSen":6183,"ĠAIDS":6184,"ĠLang":6185,"ĠImp":6186,"ĠViertel":6187,"oler":6188,"herr":6189,"Ġgewissen":6190,"elles":6191,"ĠInteress":6192,"ĠMitarbeiter":6193,"ĠPlanet":6194,"Ġschlechten":6195,"ĠFreundin":6196,"Ġleid":6197,"ĠGrÃ¶ÃŁen":6198,"ĠFÃ¤lle":6199,"Ġruh":6200,"ographie":6201,"Obwohl":6202,"Ġwesentlich":6203,"ĠerwÃ¤hnt":6204,"ĠKaffee":6205,"Eigentlich":6206,"Ġvermitteln":6207,".Â«":6208,"Hey":6209,"gibt":6210,"ino":6211,"Ġabl":6212,"ĠSl":6213,"ĠSei":6214,"aria":6215,"gener":6216,"Ġbeit":6217,"orient":6218,"Ġverhalten":6219,"Ġumgeben":6220,"Ã¤ne":6221,"ĠmÃ¼ssten":6222,"rÃ¤ume":6223,"Ġzieht":6224,"ĠheiÃŁen":6225,"stren":6226,"ĠKreuz":6227,"Ġsolcher":6228,"ĠKorruption":6229,"ĠBereichen":6230,"ĠAlles":6231,"spruch":6232,"sprache":6233,"ĠnÃ¼tzlich":6234,"ĠTimes":6235,"Ġmotiv":6236,"verstÃ¤ndlich":6237,"rt":6238,"Ġunend":6239,"Ġmiss":6240,"Ã¤hm":6241,"ember":6242,"ĠauÃŁen":6243,"Ġgrau":6244,"Ġkannte":6245,"ĠVorstell":6246,"ĠAuff":6247,"Ġschaff":6248,"ĠKulturen":6249,"Ġformen":6250,"ĠKapit":6251,"ĠworÃ¼ber":6252,"ĠDNS":6253,"ĠNull":6254,"versorgung":6255,"zÃ¼glich":6256,"Ġenorm":6257,"Ġergibt":6258,"ĠErwachsenen":6259,"ĠwÃ¼":6260,"stu":6261,"Ġide":6262,"Ġnerv":6263,"ĠzusÃ¤tz":6264,"Ġinf":6265,"ĠMerk":6266,"Ġgep":6267,"rot":6268,"Ġtreten":6269,"ĠStau":6270,"erne":6271,"ulen":6272,"gerÃ¤t":6273,"ĠOrig":6274,"zieht":6275,"ĠKlin":6276,"ĠBerechn":6277,"ĠSeele":6278,"Ġrief":6279,"Ġentdeckte":6280,"ĠUrs":6281,"ĠNeues":6282,"ĠFernseh":6283,"ĠArchitekten":6284,"ĠNichts":6285,"Ġwirtschaftlichen":6286,"ĠMexiko":6287,"Mail":6288,"ael":6289,"bi":6290,"fir":6291,"jemand":6292,"nach":6293,"Ã¼lt":6294,"itiv":6295,"ĠBatter":6296,"Ġersetzen":6297,"ehlt":6298,"ĠRuss":6299,"ĠschÃ¤tzen":6300,"ĠJul":6301,"ĠVerw":6302,"ĠCent":6303,"igem":6304,"ĠAnrei":6305,"anzÃ¶s":6306,"Ġstill":6307,"Ġlangweil":6308,"ĠEntfern":6309,"gehend":6310,"ĠhÃ¶re":6311,"ĠFahrrad":6312,"ĠDurchschnitt":6313,"Ġgross":6314,"Ġquasi":6315,"ĠChemie":6316,"Ġgebeten":6317,"Ġschrecklich":6318,"ĠGerÃ¤usch":6319,"ĠHarvard":6320,"ĠfÃ¤hig":6321,"We":6322,"azi":6323,"res":6324,"Ġille":6325,"alk":6326,"Ġermut":6327,"ago":6328,"ikalien":6329,"ĠStart":6330,"ĠSchnitt":6331,"Ġvorne":6332,"ĠBestand":6333,"Ġstabil":6334,"Ġreal":6335,"indert":6336,"andert":6337,"icro":6338,"Ġmenschlicher":6339,"ĠgelÃ¶st":6340,"ĠVerbesser":6341,"ĠGewinn":6342,"Ġvermeiden":6343,"Ġstattdessen":6344,"ĠSituationen":6345,"Ġverbessert":6346,"ĠErwart":6347,"Ġbeinahe":6348,"Ġinspiriert":6349,"ĠVerlust":6350,"ĠGeheimnis":6351,"ĠZivilisation":6352,"ĠDeutschland":6353,"frei":6354,"nchen":6355,"pel":6356,"Ġdur":6357,"Ġheil":6358,"Ġgeist":6359,"ĠBon":6360,"ĠDrei":6361,"ĠIll":6362,"Ġbeweg":6363,"ĠÃ¼berprÃ¼":6364,"ĠInhalt":6365,"Ã¶ren":6366,"Ġentstand":6367,"Ġgering":6368,"ĠVoraus":6369,"Ġbetro":6370,"ĠInteraktion":6371,"Ġgefangen":6372,"issionen":6373,"ziehung":6374,"Ġrot":6375,"uropÃ¤":6376,"ĠBereiche":6377,"Ġwelchem":6378,"Ġuntersucht":6379,"ĠpersÃ¶nlichen":6380,"ĠArbeiter":6381,"ĠSignal":6382,"ĠBuchstaben":6383,"affe":6384,"linge":6385,"Ã¶pfen":6386,"lekul":6387,"ĠTonnen":6388,"ĠRiesen":6389,"Ġausger":6390,"Ġpoten":6391,"Ġvoran":6392,"ĠErzÃ¤hl":6393,"Ġhinten":6394,"ĠAuswahl":6395,"qualitÃ¤t":6396,"Ġlanger":6397,"Ġlangfrist":6398,"Jeden":6399,"Ġschwimmen":6400,"ĠpersÃ¶nliche":6401,"Ġnotwendig":6402,"ĠDefinition":6403,"Ger":6404,"Leute":6405,"Se":6406,"la":6407,"Ġdom":6408,"antes":6409,"ston":6410,"tels":6411,"ĠLes":6412,"Ġversp":6413,"ĠTor":6414,"euern":6415,"euert":6416,"weile":6417,"Ġherein":6418,"Ġbesuchen":6419,"samkeit":6420,"ĠVorh":6421,"ĠFlÃ¼cht":6422,"fernen":6423,"ĠGericht":6424,"ĠTeen":6425,"ĠKampag":6426,"ĠBedroh":6427,"zentrum":6428,"Nachdem":6429,"besondere":6430,"ĠunterstÃ¼tzt":6431,"ĠvergrÃ¶":6432,"ĠElement":6433,"ĠunabhÃ¤ngig":6434,"ĠWesentlichen":6435,"Wei":6436,"richtet":6437,"ummer":6438,"iein":6439,"artet":6440,"atische":6441,"Ġindustrie":6442,"ĠDoch":6443,"ĠLungen":6444,"Ġverteilt":6445,"ĠTun":6446,"ĠTrag":6447,"ilde":6448,"ĠAnteil":6449,"Ġstanden":6450,"gelassen":6451,"ĠWissens":6452,"âĢŀ":6453,"Ġseitdem":6454,"ĠGroÃŁmutter":6455,"Ġbesondere":6456,"lÃ¶sen":6457,"Ġschwieriger":6458,"ĠStudent":6459,"ĠerwÃ¤":6460,"ĠPost":6461,"sprung":6462,"ĠRisiken":6463,"ĠkÃ¼mmer":6464,"Ġfantastisch":6465,"grÃ¼ndet":6466,"ĠPassw":6467,"Ġwestlichen":6468,"ĠStrategie":6469,"bieten":6470,"com":6471,"ging":6472,"hung":6473,"ozi":6474,"teile":6475,"vol":6476,"einhalb":6477,"ĠWillen":6478,"amerikan":6479,"ĠRichard":6480,"ĠZahn":6481,"llektiv":6482,"omatisch":6483,"ĠAnwendung":6484,"Ġhierher":6485,"Ã¤tter":6486,"ĠSpezi":6487,"obald":6488,"flug":6489,"Ġversteht":6490,"Ġverstehe":6491,"leitet":6492,"Ġschlafen":6493,"ĠWerbung":6494,"ifiz":6495,"ĠSÃ¼den":6496,"owissen":6497,"Ġerstaunliche":6498,"ĠberÃ¼hrt":6499,"Ġbauten":6500,"ĠOperation":6501,"Ġdunkle":6502,"ĠAnderson":6503,"ĠNieder":6504,"ĠVÃ¶gel":6505,"Ġbeinhaltet":6506,"Beim":6507,"daten":6508,"nÃ¼":6509,"ĠdÃ¼n":6510,"int":6511,"Ġwes":6512,"Ġmut":6513,"Ġmult":6514,"ĠhÃ¼":6515,"hrop":6516,"denkt":6517,"Ġfundament":6518,"ĠWurz":6519,"ĠKurs":6520,"ĠLager":6521,"Ġbeweisen":6522,"ĠJan":6523,"ĠStock":6524,"ĠGegend":6525,"reibung":6526,"ĠOffen":6527,"Ġmeinte":6528,"undes":6529,"Ã¶rungen":6530,"ĠRechen":6531,"etik":6532,"Ġsteuern":6533,"ĠKongress":6534,"Ġlebens":6535,"Ġexpl":6536,"Ġbeschrieben":6537,"Ġfeststellen":6538,"diglich":6539,"Ġerhielt":6540,"fÃ¤hig":6541,"ĠGutes":6542,"Ġinternationalen":6543,"ĠErinnerungen":6544,"ĠWorld":6545,"ĠStÃ¤rke":6546,"Ġeindeutig":6547,"Irgend":6548,"Mehr":6549,"Sein":6550,"pol":6551,"rang":6552,"Ġdra":6553,"testen":6554,"Ã¤sser":6555,"Ġbietet":6556,"ĠEier":6557,"ĠEchtzeit":6558,"ĠTeu":6559,"Ġaufnehmen":6560,"kton":6561,"ĠStufe":6562,"weite":6563,"Ġvorzustellen":6564,"Ġdarunter":6565,"ĠenthÃ¤lt":6566,"ĠspÃ¤t":6567,"Ġstehe":6568,"Ġbesagt":6569,"Ġkonstru":6570,"Ġkollektiv":6571,"ĠChic":6572,"ĠStuhl":6573,"Ġform":6574,"ĠPrÃ¤sent":6575,"ĠPfund":6576,"drÃ¼ckt":6577,"ĠErkrank":6578,"Ġblauen":6579,"sammelt":6580,"Ġwirtschaftliche":6581,"Ġdigitalen":6582,"imeter":6583,"ĠGalaxie":6584,"ĠFrÃ¼h":6585,"Ġbelieb":6586,"wechsel":6587,"ĠKomment":6588,"lÃ¶sung":6589,"ĠKombination":6590,"Kon":6591,"Kein":6592,"blichen":6593,"pha":6594,"zig":6595,"Ġsucht":6596,"Ġsyn":6597,"Ġfurcht":6598,"ĠGot":6599,"elben":6600,"ĠBrÃ¼":6601,"ĠSchlei":6602,"Ġentfernen":6603,"Ġlediglich":6604,"Ġsparen":6605,"ĠgenÃ¼":6606,"Ġliefern":6607,"ĠHerren":6608,"Ġprofit":6609,"ida":6610,"omentan":6611,"ĠSchuld":6612,"boden":6613,"ĠBelohn":6614,"ĠChemikalien":6615,"staat":6616,"Ġetc":6617,"ĠInstrument":6618,"ĠBedÃ¼rfnisse":6619,"Ġfaszinierend":6620,"Ġvertraut":6621,"PS":6622,"oÃŁen":6623,"Ġstet":6624,"Ġsingen":6625,"aser":6626,"Ã¤fte":6627,"ĠAlle":6628,"Ġgesellschaft":6629,"Ġgespielt":6630,"ĠgegrÃ¼ndet":6631,"ĠKom":6632,"ĠPingu":6633,"ĠIr":6634,"ĠRoll":6635,"Ġtrag":6636,"ĠZauber":6637,"ĠÃ¼bernehmen":6638,"reif":6639,"rustr":6640,"etische":6641,"ringe":6642,"sah":6643,"Ġweiterer":6644,"haften":6645,"ĠgefÃ¤llt":6646,"mack":6647,"lÃ¼cklicherweise":6648,"Ġseid":6649,"Ġneur":6650,"ĠÃ¤hnliche":6651,"Ġgemeinsame":6652,"ĠKomponen":6653,"Ġfolgende":6654,"ĠRespekt":6655,"ĠGeistes":6656,"Ġlokalen":6657,"Ġspeziell":6658,"ĠPotential":6659,"ĠÃ¤uÃŁerst":6660,"ĠWolken":6661,"ĠBrief":6662,"10":6663,"bÃ¼r":6664,"bchen":6665,"burg":6666,"ippen":6667,"kreis":6668,"sum":6669,"Ġmin":6670,"geschw":6671,"ird":6672,"Ġinnov":6673,"ĠMess":6674,"Ġgelebt":6675,"ĠWel":6676,"ĠWild":6677,"Ġverab":6678,"ĠHem":6679,"ĠVern":6680,"Ġjunger":6681,"ags":6682,"Ġarmen":6683,"andelte":6684,"ideo":6685,"nose":6686,"iveau":6687,"ĠBibliot":6688,"ĠParad":6689,"Ġleichter":6690,"fession":6691,"ĠÃ¼berwinden":6692,"Ġkompliziert":6693,"ĠPhilosoph":6694,"ĠHelden":6695,"ĠZufall":6696,"gruppen":6697,"Ġkreieren":6698,"geregt":6699,"ĠHilfs":6700,"ĠFrancisco":6701,"ĠTeufel":6702,"Ent":6703,"zum":6704,"zesse":6705,"inkt":6706,"Ġsichtbar":6707,"ash":6708,"Ġzuge":6709,"benen":6710,"ĠBrÃ¼cke":6711,"ĠWinter":6712,"ley":6713,"Ġerz":6714,"ĠverÃ¤nderte":6715,"ĠTumor":6716,"ĠHei":6717,"ĠHunde":6718,"ĠRake":6719,"ĠfÃ¼rs":6720,"ĠCy":6721,"ĠOk":6722,"Ã¶rung":6723,"Ġdurchs":6724,"vermÃ¶gen":6725,"ĠzurÃ¼ckge":6726,"okus":6727,"ĠÃľberrasch":6728,"ĠMengen":6729,"nitten":6730,"lieÃŁend":6731,"sprozess":6732,"Ġstattf":6733,"ĠBauch":6734,"ĠOzeane":6735,"Ġbrill":6736,"Ġinternationale":6737,"Ġmoderne":6738,"ĠSymbol":6739,"ffizienz":6740,"Ġwirkliche":6741,"ĠEpidem":6742,"ĠMehrheit":6743,"Ġkriegen":6744,"Ġdurchschnittliche":6745,"ĠKontinent":6746,"fig":6747,"nungs":6748,"eier":6749,"ĠSkl":6750,"schriften":6751,"Ġkognit":6752,"Ġfil":6753,"ĠGro":6754,"ĠKr":6755,"ĠKrÃ¤":6756,"ĠPrim":6757,"ĠTa":6758,"ĠRot":6759,"ĠVielleicht":6760,"bevÃ¶lkerung":6761,"Ġmanchen":6762,"ĠBetr":6763,"anger":6764,"ĠEinheit":6765,"lied":6766,"unktionen":6767,"Ġglaubte":6768,"ĠNeben":6769,"Wieso":6770,"fahrer":6771,"ĠGrundlage":6772,"ĠgroÃŁartigen":6773,"Ġdrauf":6774,"wÃ¤rmung":6775,"ĠSicherheits":6776,"Ġgrundle":6777,"ĠKÃ¼ste":6778,"zwungen":6779,"ĠJahrzehnt":6780,"ĠDoktor":6781,"Ġdahinter":6782,"ĠErfindung":6783,"Ġakzeptieren":6784,"Ġtransport":6785,"ĠverblÃ¼":6786,"gas":6787,"hls":6788,"ole":6789,"inf":6790,"Ġarab":6791,"Ã¼hen":6792,"Ġbrit":6793,"Ġinnen":6794,"ĠAir":6795,"ĠAllt":6796,"Ġverring":6797,"Ġsoviel":6798,"Ġscheinbar":6799,"eilung":6800,"ĠSchÃ¤":6801,"ĠSchicks":6802,"Ġdieselben":6803,"ruh":6804,"Ã¼ssen":6805,"ĠGesamt":6806,"Ġverwandelt":6807,"ĠWeihn":6808,"Ġheisst":6809,"Ġfunktionierte":6810,"grenz":6811,"ĠYou":6812,"ĠJeder":6813,"ĠAktivitÃ¤ten":6814,"Ġfasziniert":6815,"Ġerweitern":6816,"ĠJahrzehnten":6817,"Ġgegenseitig":6818,"ĠMomente":6819,"-,":6820,"Erin":6821,"Leider":6822,"hÃ¤ngen":6823,"ĠwÃ¼s":6824,"ĠMoral":6825,"Ġfroh":6826,"berg":6827,"ĠWein":6828,"Ġangenommen":6829,"ison":6830,"llektu":6831,"ĠNase":6832,"ĠSchle":6833,"spiegel":6834,"ĠAnim":6835,"ĠErst":6836,"Ġvieles":6837,"ĠLebenser":6838,"ĠmÃ¶gliche":6839,"ĠEinstellung":6840,"Ã¼cken":6841,"ĠgewÃ¤hlt":6842,"Ġzeigten":6843,"leib":6844,"ĠAufnahme":6845,"ĠBildungs":6846,"ĠBlumen":6847,"ĠInterview":6848,"scheidet":6849,"ĠMalaria":6850,"Ġmenschliches":6851,"ĠGerechtigkeit":6852,"ĠPlatt":6853,"ĠGemÃ¤l":6854,"unkten":6855,"ĠGedÃ¤chtnis":6856,"ĠGegenwart":6857,"losigkeit":6858,"ĠChrist":6859,"Ġmedizinischen":6860,"Ġplatz":6861,"ĠerhÃ¶hen":6862,"ĠFabrik":6863,"ĠKenia":6864,"WÃ¼r":6865,"kungen":6866,"krie":6867,"ÃĦ":6868,"stud":6869,"eiern":6870,"gesamt":6871,"ĠSeh":6872,"ĠSam":6873,"ĠWÃ¤l":6874,"ĠKabel":6875,"ĠDamen":6876,"igste":6877,"rett":6878,"Ġvorzu":6879,"Ã¶rm":6880,"Ġrealen":6881,"rimin":6882,"ĠZeitung":6883,"zipl":6884,"ĠbestÃ¤t":6885,"ĠheiÃŁ":6886,"ruppen":6887,"ips":6888,"Ġunglaublichen":6889,"ĠVorteile":6890,"teln":6891,"arbeitung":6892,"ĠPflege":6893,"ĠSignale":6894,"Ġbaute":6895,"Andere":6896,"ĠEreignis":6897,"ĠStatistiken":6898,"ĠWÃ¼ste":6899,"Publikum":6900,"biert":6901,"iber":6902,"unternehmen":6903,"Ġeffizien":6904,"Ġmark":6905,"ĠStern":6906,"ĠGre":6907,"urer":6908,"ĠTop":6909,"Ġlog":6910,"Ġlachen":6911,"Ġallgemein":6912,"hnt":6913,"ĠEng":6914,"ĠUngleich":6915,"Ġbesitzt":6916,"ĠWirkung":6917,"ĠGebiete":6918,"ĠGemÃ¼":6919,"holfen":6920,"Ġ99":6921,"Ġrote":6922,"Ġunbek":6923,"Ġjener":6924,"ĠInnovationen":6925,"ĠSÃ¼dafrika":6926,"Ġelektron":6927,"ĠFortschritte":6928,"stoffen":6929,"ĠTerrorismus":6930,"ĠNASA":6931,"ĠPakistan":6932,"Al":6933,"Ges":6934,"Welche":6935,"bungen":6936,"flekt":6937,"fÃ¶rm":6938,"mechan":6939,"uhren":6940,"Ġsenden":6941,"atastrop":6942,"ĠfÃ¤hrt":6943,"Ġgra":6944,"Ġgeschlossen":6945,"ĠBarr":6946,"ĠWechsel":6947,"Ġansieht":6948,"ĠFliegen":6949,"Ġbezeichnen":6950,"ĠHor":6951,"ĠRhy":6952,"ĠlÃ¤nd":6953,"bek":6954,"ĠSchritte":6955,"ĠOpen":6956,"osh":6957,"ĠLektion":6958,"ettet":6959,"Ġarme":6960,"Ġbesseres":6961,"Ġgefallen":6962,"ĠÃľberzeug":6963,"Ġfalschen":6964,"ĠGesichter":6965,"ĠNeurowissen":6966,"erstÃ¶rung":6967,"linie":6968,"ĠSympt":6969,"ĠBillionen":6970,"Naja":6971,"ĠÃ¼berraschend":6972,"ĠTeleskop":6973,"ĠUntersuchung":6974,"ĠKirche":6975,"ĠLiteratur":6976,"ĠDunkel":6977,"ĠErlebnis":6978,"ĠChicago":6979,"Dollar":6980,"far":6981,"nÃ¼tz":6982,"tage":6983,"anc":6984,"gesetz":6985,"schicht":6986,"esie":6987,"Ġzust":6988,"itation":6989,"Ġintens":6990,"ĠWelten":6991,"ĠPan":6992,"ĠTrau":6993,"ĠTief":6994,"ĠTradition":6995,"Ġleiten":6996,"ĠÃ¼berlegen":6997,"reibe":6998,"spar":6999,"ney":7000,"Ġdargestellt":7001,"ĠweiÃŁen":7002,"ulpt":7003,"Ġkonfront":7004,"Erst":7005,"samen":7006,"ĠBlatt":7007,"Ġbedeut":7008,"ĠExp":7009,"ĠPhot":7010,"ĠInformations":7011,"ĠRoh":7012,"Ġ75":7013,"ĠKriegs":7014,"Ġbekomme":7015,"ĠgrundsÃ¤tzlich":7016,"ĠErdbe":7017,"Ġanfing":7018,"Ġautomatisch":7019,"ĠWebseite":7020,"ĠStammzellen":7021,"ĠTransport":7022,"Ġbehaupten":7023,"Ġzeichnen":7024,"bÃ¼cher":7025,"ĠRussland":7026,"beln":7027,"kor":7028,"kal":7029,"lim":7030,"mar":7031,"oÃŁ":7032,"wen":7033,"ĠShow":7034,"ĠAstr":7035,"ĠWagen":7036,"ĠDat":7037,"Ġschne":7038,"Ã¶nt":7039,"ĠJun":7040,"andid":7041,"ĠRech":7042,"Ġspringen":7043,"ĠdurchfÃ¼hren":7044,"ĠUni":7045,"ĠEinstein":7046,"Ġhinunter":7047,"rÃ¤ger":7048,"verhalten":7049,"Ġzusammenzu":7050,"reiche":7051,"Ġwillst":7052,"Ġextra":7053,"Ġgebraucht":7054,"ĠHindern":7055,"mitteln":7056,"zeigen":7057,"ĠFolie":7058,"ĠBesonder":7059,"Ġperfekte":7060,"ĠiPh":7061,"Ġdauerte":7062,"ĠSÃ¤uget":7063,"Ġaufgewachsen":7064,"ĠElefanten":7065,"Ġwechseln":7066,"ĠAngeles":7067,"ĠGottes":7068,"Ach":7069,"Dabei":7070,"Ex":7071,"dam":7072,"mensch":7073,"Ġra":7074,"star":7075,"Ġmoch":7076,"schiff":7077,"Ġzufrieden":7078,"ĠMio":7079,"ĠAss":7080,"Ġfingen":7081,"ĠBem":7082,"ĠBur":7083,"ĠPaten":7084,"ĠLab":7085,"Ġverz":7086,"ĠTom":7087,"ĠTour":7088,"ĠTheor":7089,"Ġsowas":7090,"Ġausgew":7091,"ĠÃ¼berein":7092,"ĠwofÃ¼r":7093,"menge":7094,"bstoff":7095,"fliegen":7096,"lernen":7097,"probieren":7098,"ktivitÃ¤t":7099,"Ġ600":7100,"iban":7101,"Ġbeobachte":7102,"ĠSternen":7103,"ĠTrick":7104,"ĠfÃ¼hrten":7105,"ĠFÃ¼hrer":7106,"Ġreisen":7107,"ysikal":7108,"Damals":7109,"ĠLÃ¶cher":7110,"ĠMetapher":7111,"Seine":7112,"System":7113,"ahnen":7114,"ober":7115,"dert":7116,"see":7117,"ĠPaul":7118,"ĠHunger":7119,"Ġlanden":7120,"Ġthe":7121,"Ġtrans":7122,"ĠNutzung":7123,"ĠStahl":7124,"Ġbeibringen":7125,"ĠUnfall":7126,"zepte":7127,"ĠChancen":7128,"ĠVorstellungen":7129,"ĠZuschauer":7130,"quelle":7131,"Ġbekannten":7132,"ĠAbsicht":7133,"ĠVerbrechen":7134,"noten":7135,"haltigkeit":7136,"ĠGemeinschaften":7137,"Ġerwachsen":7138,"Ġverschwunden":7139,"ĠMagaz":7140,"ĠPrinzipien":7141,"wissenschaften":7142,"Ġdigitale":7143,"Ġbemerkenswer":7144,"Ġpositive":7145,"ĠGeburtstag":7146,"ĠAfrikas":7147,"ĠResultat":7148,"Ġmerken":7149,"antasie":7150,"Sogar":7151,"Wor":7152,"phen":7153,"ĠdrÃ¼cken":7154,"gefÃ¼":7155,"schÃ¤tzen":7156,"ores":7157,"ĠGanz":7158,"ĠPri":7159,"Ġumher":7160,"ĠOkt":7161,"ĠAnnahme":7162,"Ġbeispielsweise":7163,"Ġ23":7164,"Ġzweimal":7165,"Ġberichten":7166,"ics":7167,"Ġ2008":7168,"ĠverknÃ¼":7169,"Ġstarben":7170,"Ġvertrauen":7171,"Ġgemeinsamen":7172,"Ġblaue":7173,"Ġlokale":7174,"ĠMolekÃ¼l":7175,"Ġtrafen":7176,"schmutzung":7177,"Ġbemerkte":7178,"Amer":7179,"ackt":7180,"Ġult":7181,"steh":7182,"Ġachten":7183,"Ã¤tzt":7184,"ĠDia":7185,"ĠTri":7186,"stechn":7187,"Ġums":7188,"ĠInspir":7189,"ĠBevÃ¶lker":7190,"Ġdurchzu":7191,"Ġunteren":7192,"Ġbesorgt":7193,"Ġverstand":7194,"ĠUnterhaltung":7195,"ĠSkulpt":7196,"Ġphysikal":7197,"ĠDarstellung":7198,"Ġschwarzen":7199,"behÃ¶r":7200,"Ġkostenlos":7201,"ĠÃ¶k":7202,"ĠÃ¶konom":7203,"Ġafrikanischen":7204,"ĠAussage":7205,"Stattdessen":7206,"Ġtrinken":7207,"Danach":7208,"karten":7209,"messen":7210,"tÃ¤u":7211,"Ġhielten":7212,"Ã¤hl":7213,"Ġgeholfen":7214,"ĠTÃ¶":7215,"ĠHandel":7216,"Ġok":7217,"Ġdarstellt":7218,"ĠWeltkrieg":7219,"ĠSpann":7220,"barer":7221,"ĠselbstverstÃ¤ndlich":7222,"ĠAusstellung":7223,"Ġirgendjemand":7224,"ĠPhase":7225,"ĠhÃ¶rten":7226,"Ġaltern":7227,"holz":7228,"ibiot":7229,"Ġbeeindru":7230,"ĠSkel":7231,"ĠBesuch":7232,"Ġkomplexen":7233,"Ġspeziellen":7234,"ĠKanada":7235,"leistungen":7236,"schneiden":7237,"Ġsogenannte":7238,"wahrscheinlich":7239,"cyc":7240,"ĠNigeria":7241,"azif":7242,"ĠgenÃ¼gend":7243,"Etwas":7244,"Sobald":7245,"aos":7246,"ep":7247,"ih":7248,"lager":7249,"muster":7250,"zn":7251,"eidet":7252,"Ġmechan":7253,"schaut":7254,"Ã¤um":7255,"Ġbaut":7256,"ĠMult":7257,"ĠAktion":7258,"ĠgÃ¼nst":7259,"tere":7260,"ĠBundes":7261,"ĠEmp":7262,"ĠFlie":7263,"Ġerm":7264,"Ġerhe":7265,"ĠPopul":7266,"ehrt":7267,"ĠNoten":7268,"Ã¤nner":7269,"ombe":7270,"ĠVerwand":7271,"ĠOhren":7272,"ĠAnwend":7273,"ĠstÃ¤dt":7274,"Ġlebe":7275,"atsÃ¤ch":7276,"ranche":7277,"Ġverlang":7278,"omputern":7279,"dienst":7280,"ordentlich":7281,"Ġsozial":7282,"Ġoffenen":7283,"ahnsinn":7284,"ĠStrand":7285,"Ġlangsamer":7286,"Ġbiologische":7287,"leistung":7288,"zweif":7289,"Ġisol":7290,"Ġstaat":7291,"ĠgrÃ¼nen":7292,"ĠAsien":7293,"ĠVorstellungskraft":7294,"ĠTeenager":7295,"Ganz":7296,"GroÃŁ":7297,"Sol":7298,"ias":7299,"modell":7300,"preis":7301,"ses":7302,"Ġenden":7303,"chtern":7304,"Ġwisst":7305,"ĠeuropÃ¤":7306,"stÃ¶":7307,"ĠSMS":7308,"Ġnannten":7309,"Ġwirken":7310,"ĠAc":7311,"Ġanhand":7312,"ĠLachen":7313,"ĠTreib":7314,"Ġsolange":7315,"ĠVÃ¶lker":7316,"Ġtreiben":7317,"ĠtatsÃ¤ch":7318,"Ġjung":7319,"ĠJames":7320,"andt":7321,"ilen":7322,"Ġvorge":7323,"Ġenthalten":7324,"ĠRett":7325,"uliert":7326,"Ġ22":7327,"ĠGeschenk":7328,"Ã¼cke":7329,"Ġherausf":7330,"Ġeiniges":7331,"Ġbetreiben":7332,"zÃ¤hlen":7333,"ĠBericht":7334,"ĠweiÃŁe":7335,"ĠAbfall":7336,"ĠRegionen":7337,"ĠbeschrÃ¤n":7338,"Ġgebrochen":7339,"ĠMÃ¤nnchen":7340,"Ġerkannt":7341,"Deswegen":7342,"Ġkonzentriert":7343,"freund":7344,"athie":7345,"Ġorganisieren":7346,"Ġdunkel":7347,"Ġversteckt":7348,"ĠKlassenzimmer":7349,"gedacht":7350,"Ġsuper":7351,"Ġantwortete":7352,"Ġstoppen":7353,"ĠMerkmal":7354,"Ġbetroffen":7355,"ĠKampagne":7356,"ĠSchicksal":7357,"NA":7358,"Reg":7359,"Tube":7360,"groÃŁ":7361,"Ġdynam":7362,"gesellschaft":7363,"ony":7364,"ĠSamen":7365,"iritu":7366,"ĠAlt":7367,"Ġfehlt":7368,"Ġverglichen":7369,"isierte":7370,"Ġschwe":7371,"ĠVen":7372,"ktionen":7373,"ĠZent":7374,"ĠStad":7375,"ĠSchaden":7376,"ĠIns":7377,"ĠOst":7378,"ĠArgument":7379,"rÃ¼stung":7380,"Ġnachts":7381,"Ġnachgedacht":7382,"Ã¶rtlich":7383,"tztlich":7384,"Ġunterrichten":7385,"fÃ¼llt":7386,"duktiv":7387,"sterben":7388,"rittens":7389,"Ġzusammenarbeiten":7390,"aktor":7391,"ĠRegierungs":7392,"Ã¤ltigen":7393,"ipedia":7394,"Ġverkauf":7395,"kehrt":7396,"ĠÃ¶ffentlich":7397,"ĠKapitel":7398,"Ġworauf":7399,"ĠHotel":7400,"Ġfrem":7401,"Ġwertvoll":7402,"ĠSonnenlicht":7403,"Ġpositiv":7404,"Ã¤sth":7405,"ĠErnÃ¤hrung":7406,"ynamik":7407,"ĠEreignisse":7408,"ĠWiderstand":7409,"ĠFrankreich":7410,"Ġbeteiligt":7411,"ĠDebatte":7412,"ĠAmazon":7413,"ĠPrÃ¤sentation":7414,"bringt":7415,"nommen":7416,"punkte":7417,"uls":7418,"Ġ$":7419,"anal":7420,"standen":7421,"ĠhÃ¤ngen":7422,"Ġkop":7423,"Ġwirkt":7424,"ĠGrippe":7425,"ĠEth":7426,"ĠFutter":7427,"sens":7428,"ĠTit":7429,"Ġvoneinander":7430,"amour":7431,"Ġschreibt":7432,"Ġland":7433,"ĠZer":7434,"Ġwoher":7435,"Ġ1000":7436,"Ġrechte":7437,"Ġrepar":7438,"weich":7439,"Ġhinauf":7440,"okuss":7441,"ĠUnterricht":7442,"Ġanget":7443,"ersonen":7444,"plos":7445,"ĠQuellen":7446,"Ġausgesetzt":7447,"ĠMangel":7448,"mittag":7449,"sondern":7450,"Ġfreien":7451,"linien":7452,"ĠMotiv":7453,"ĠSonnensystem":7454,"ĠDieses":7455,"Ġmoralische":7456,"ĠGerÃ¤usche":7457,"ĠMÃ¤rkte":7458,"Ġtraurig":7459,"Ġbegegnen":7460,"ĠRestaurant":7461,"ollywood":7462,"Jemand":7463,"dliche":7464,"lad":7465,"oberflÃ¤che":7466,"Ġsuchte":7467,"Ġew":7468,"onien":7469,"ĠSm":7470,"Ġderselben":7471,"ĠMeine":7472,"alent":7473,"ĠAst":7474,"ĠAlex":7475,"ĠFokus":7476,"ĠPen":7477,"ĠPra":7478,"ĠTab":7479,"Ġbewirken":7480,"ions":7481,"ams":7482,"Ġumfassen":7483,"Ġpri":7484,"ĠGeorge":7485,"ĠVerd":7486,"ĠAnfÃ¼hrer":7487,"Ġreagiert":7488,"Ġ27":7489,"Ġeinfaches":7490,"gelt":7491,"scheinend":7492,"ĠUniversity":7493,"ĠBoston":7494,"ĠYor":7495,"own":7496,"ĠParis":7497,"ĠEigent":7498,"ĠFreiwill":7499,"Ġteilweise":7500,"ĠMagie":7501,"ĠSymm":7502,"ĠJahrzehnte":7503,"ĠRÃ¤ume":7504,"ĠWettbewerb":7505,"ieinhalb":7506,"geschwindigkeit":7507,"Ġgrundlegend":7508,"Bo":7509,"Sc":7510,"frau":7511,"lesen":7512,"teils":7513,"Ãľ":7514,"Ġdoppelt":7515,"inal":7516,"Ġsystem":7517,"Ġunmittel":7518,"Ġheilen":7519,"Ġzit":7520,"ĠAp":7521,"ĠGPS":7522,"Ġgelie":7523,"ĠKoll":7524,"ĠLa":7525,"ĠTur":7526,"ĠStan":7527,"ience":7528,"rÃ¼che":7529,"ĠSpan":7530,"Ġneugier":7531,"Ġglaubten":7532,"gebiet":7533,"Ġbetrieben":7534,"Ġbekannte":7535,"Ġirgendeine":7536,"ĠSchlacht":7537,"ĠKindes":7538,"ĠMusiker":7539,"Ġwenigstens":7540,"Ġentz":7541,"ĠSpielzeug":7542,"ĠVersuche":7543,"hof":7544,"Ġanschaut":7545,"Ġverdient":7546,"Ġweltweiten":7547,"Ġgrosse":7548,"ĠverÃ¶ffentlichen":7549,"imulation":7550,"Ġgekauft":7551,"ĠerhÃ¶ht":7552,"Ġreduziert":7553,"ĠArmee":7554,"Ġvergangenen":7555,"ĠEntfernung":7556,"Ġweshalb":7557,"ĠYouTube":7558,"ĠiPhone":7559,"hir":7560,"manden":7561,"oder":7562,"pflanzen":7563,"tragen":7564,"uar":7565,"van":7566,"Ġdick":7567,"unklen":7568,"ĠSel":7569,"Ġnett":7570,"ĠBeit":7571,"ĠKategor":7572,"Ġergeben":7573,"ĠLad":7574,"ĠbezÃ¼glich":7575,"ĠVoll":7576,"bekommen":7577,"Ġjahr":7578,"ilitÃ¤r":7579,"omas":7580,"ĠComputern":7581,"ĠRezept":7582,"ĠgenieÃŁen":7583,"ĠZeitraum":7584,"werken":7585,"Ġbesessen":7586,"stero":7587,"ĠChaos":7588,"Ġbestand":7589,"ĠFlÃ¤che":7590,"ĠFlÃ¼ss":7591,"ĠHandys":7592,"Ġgelang":7593,"Ġinsbesondere":7594,"ĠRock":7595,"Ã¤tzung":7596,"Ġfolgendes":7597,"ĠAtlant":7598,"Ġhalf":7599,"ĠBiom":7600,"ĠAntibiot":7601,"ĠProgramme":7602,"ĠgrÃ¼nden":7603,"ĠRuhe":7604,"ĠStatus":7605,"ĠPotenzial":7606,"Ġrespekt":7607,"ĠAspekte":7608,"ĠBibliothek":7609,"Drei":7610,"Gleich":7611,"cin":7612,"unruh":7613,"Ġmomentan":7614,"Ġbeenden":7615,"ĠlÃ¶":7616,"Ġlande":7617,"ĠZerstÃ¶rung":7618,"agte":7619,"ĠÃ¼berqu":7620,"ĠSchicht":7621,"Ġmehreren":7622,"Ġrisk":7623,"Ġrelev":7624,"Ã¼nder":7625,"Ġarm":7626,"Ġversorgen":7627,"ĠverstÃ¤r":7628,"ĠAufnahmen":7629,"ĠNachhaltigkeit":7630,"prov":7631,"Ġerneut":7632,"ĠStÃ¼cke":7633,"ampe":7634,"Ġfolgenden":7635,"ĠPresse":7636,"ĠSchweden":7637,"Gesch":7638,"ĠZweifel":7639,"Ġschauten":7640,"ĠCharles":7641,"ĠverÃ¶ffentlich":7642,"Ġkontrolliert":7643,"ĠMarketing":7644,"ĠInstrumente":7645,"ĠKrieges":7646,"ĠspÃ¼ren":7647,"ĠFeind":7648,"ĠPersÃ¶nlichkeit":7649,"Kinder":7650,"winkel":7651,"Ġdienen":7652,"Ġeingeladen":7653,"ĠhieÃŁ":7654,"Ġkalt":7655,"its":7656,"auten":7657,"ĠMicro":7658,"Ġgele":7659,"Ġang":7660,"Ġangen":7661,"ĠDÃ¶r":7662,"ĠSchwer":7663,"schafft":7664,"Ã¤tte":7665,"halts":7666,"icket":7667,"angs":7668,"Ġunterwegs":7669,"flu":7670,"izont":7671,"Ġprofession":7672,"Ġproduktiv":7673,"ĠWeis":7674,"Ġ194":7675,"Ġverliert":7676,"fÃ¤llt":7677,"Ġmodern":7678,"Ġorgan":7679,"ĠDarwin":7680,"Ġintellektu":7681,"ĠSichtweise":7682,"Ġgehei":7683,"zÃ¼ge":7684,"ĠhinzufÃ¼gen":7685,"ĠHÃ¼hn":7686,"ĠProteine":7687,"Ã¶rdert":7688,"ĠFaktor":7689,"ĠursprÃ¼nglich":7690,"ĠKleidung":7691,"ĠmerkwÃ¼r":7692,"ĠDepression":7693,"ĠSchnee":7694,"ponent":7695,"ĠWikipedia":7696,"ĠKonsequenzen":7697,"ĠGemÃ¤lde":7698,"ĠBevÃ¶lkerungs":7699,"Fl":7700,"Wel":7701,"bie":7702,"dro":7703,"hÃ¤ngt":7704,"tÃ¤":7705,"ugen":7706,"zten":7707,"Ġdokument":7708,"ĠSuch":7709,"ĠMach":7710,"ĠAkte":7711,"ĠBeute":7712,"Ġaufgeregt":7713,"ĠNadel":7714,"ĠSchalt":7715,"Dass":7716,"ots":7717,"obel":7718,"flÃ¤che":7719,"gelÃ¶st":7720,"sterblichkeit":7721,"Ġwiederholen":7722,"Ġniemanden":7723,"ward":7724,"Ġletzter":7725,"eichern":7726,"Ġangeht":7727,"ĠSozi":7728,"Ġbedeutete":7729,"atein":7730,"ĠGerÃ¼":7731,"ĠÃĦra":7732,"ĠDecke":7733,"sproblem":7734,"Ġhinterlassen":7735,"berflÃ¤chen":7736,"Ġworan":7737,"Ġ250":7738,"ĠKrankenhÃ¤user":7739,"Ġhilf":7740,"ĠKameras":7741,"Ġbasierend":7742,"Ġverursachen":7743,"ussendlich":7744,"Ġ2010":7745,"ĠDimensionen":7746,"ĠCyber":7747,"Darum":7748,"Normal":7749,"Welt":7750,"bilder":7751,"kÃ¼n":7752,"lÃ¤nd":7753,"su":7754,"vin":7755,"wald":7756,"Ġwid":7757,"andern":7758,"stitut":7759,"ĠMel":7760,"decken":7761,"ĠAstero":7762,"urce":7763,"Ġgebl":7764,"ĠWitz":7765,"ĠEhem":7766,"Ġtrug":7767,"ĠNest":7768,"ĠVerkauf":7769,"Ġwovon":7770,"ĠReaktionen":7771,"Ġrech":7772,"Ġgerettet":7773,"haf":7774,"Ġlebendig":7775,"iox":7776,"ĠKredit":7777,"Ġgarant":7778,"ĠGebÃ¤uden":7779,"ĠRichtungen":7780,"Ġentscheidend":7781,"Spiel":7782,"Ġdeiner":7783,"ĠAlters":7784,"ĠhÃ¶here":7785,"ĠKurve":7786,"technologie":7787,"schlÃ¤ge":7788,"Ġzunehmend":7789,"lymp":7790,"ĠTiefe":7791,"ĠErwartungen":7792,"500":7793,"Ber":7794,"Mich":7795,"Video":7796,"back":7797,"bilden":7798,"gste":7799,"takt":7800,"erin":7801,"Ġdeut":7802,"Ġdiag":7803,"irbt":7804,"schreiben":7805,"eins":7806,"atischen":7807,"ĠMass":7808,"ĠMart":7809,"ĠMeister":7810,"seher":7811,"Ġveran":7812,"Ġbezeichnet":7813,"Ġbeunruh":7814,"ĠJung":7815,"ĠVerfahren":7816,"ĠIntern":7817,"illionen":7818,"Ã¤rme":7819,"endes":7820,"ĠEins":7821,"ittelt":7822,"aufnahme":7823,"ĠberÃ¼ck":7824,"ĠKlav":7825,"erkennung":7826,"hoben":7827,"ĠeingefÃ¼hrt":7828,"ront":7829,"Ġerfassen":7830,"ĠGesichts":7831,"kÃ¼ste":7832,"ĠTeams":7833,"ĠWachstums":7834,"deln":7835,"Ġinspirieren":7836,"abilitÃ¤t":7837,"ĠDetail":7838,"Ġumzugehen":7839,"wartung":7840,"ĠStreet":7841,"ĠEntdeckungen":7842,"ĠWÃ¼rde":7843,"ĠZwischen":7844,"Ġeigentliche":7845,"ĠPhysiker":7846,"Ġvorbereitet":7847,"ĠHypoth":7848,"ĠVerbreitung":7849,"ĠÃľberraschung":7850,"ĠJuni":7851,"ĠInspiration":7852,"BG":7853,"gut":7854,"iat":7855,"ipl":7856,"vater":7857,"viele":7858,"zir":7859,"Ġseht":7860,"Ġmikro":7861,"ire":7862,"irgend":7863,"ĠAth":7864,"Ġfokuss":7865,"Ġgezogen":7866,"ĠWh":7867,"Ġanpassen":7868,"ĠPrÃ¼":7869,"ĠToten":7870,"Ġmittels":7871,"Ġschmerz":7872,"stete":7873,"ikations":7874,"ĠSchm":7875,"Ġunsichtbar":7876,"ĠVerlauf":7877,"ĠAngeb":7878,"Ġlegt":7879,"schaftler":7880,"wellen":7881,"ĠGeschÃ¤fte":7882,"Ġkomm":7883,"ĠHerstellung":7884,"ĠAuÃŁer":7885,"ĠGebrauch":7886,"ĠSteve":7887,"Ġwunderbaren":7888,"ĠGegenden":7889,"Ġschwierige":7890,"Ġdeinem":7891,"rimine":7892,"ĠPsychologie":7893,"ĠgrÃ¼ne":7894,"Ġgrundlegenden":7895,"ĠFaktoren":7896,"ĠwÃ¼nschte":7897,"Ġelektrische":7898,"Ġdefiniert":7899,"ĠMobilte":7900,"ĠAlgorithmen":7901,"ĠGemÃ¼se":7902,"ĠErdbeben":7903,"Immer":7904,"Pl":7905,"dach":7906,"mon":7907,"sicherheit":7908,"Ġevolution":7909,"Ġad":7910,"ĠMr":7911,"ĠMas":7912,"ĠMale":7913,"ĠGanzen":7914,"ĠBIP":7915,"ĠDokument":7916,"ĠLeiter":7917,"Ġschul":7918,"ĠNur":7919,"ĠNÃ¤hr":7920,"Ġausgeben":7921,"ĠStimm":7922,"ĠSchok":7923,"reift":7924,"Ġvorhin":7925,"ĠAnstieg":7926,"ĠEnd":7927,"ĠUnser":7928,"fordern":7929,"Ġbesuchte":7930,"Ġbegreifen":7931,"same":7932,"Ã¼nden":7933,"ĠTeilnehmer":7934,"Ġdreidimension":7935,"ĠPho":7936,"prozess":7937,"ĠBox":7938,"these":7939,"zeichnungen":7940,"ĠMetall":7941,"mitglie":7942,"ĠSub":7943,"Ġbeeindruck":7944,"schnittlich":7945,"zÃ¼g":7946,"stÃ¼cke":7947,"Ġinvestiert":7948,"ĠErwachsene":7949,"Ġknapp":7950,"ĠMichael":7951,"ĠChinesen":7952,"Ġgetrennt":7953,"ĠFlagge":7954,"ĠDunkelheit":7955,"ĠTheorien":7956,"messer":7957,"Ġmel":7958,"schten":7959,"ĠzÃ¼":7960,"Ã¤den":7961,"ora":7962,"ory":7963,"elen":7964,"ĠWahlen":7965,"Ġdenselben":7966,"ĠDsch":7967,"ĠDial":7968,"ĠTreffen":7969,"ĠTaschen":7970,"ĠHal":7971,"ĠViele":7972,"betes":7973,"Ġausser":7974,"ĠStÃ¤":7975,"ĠÃ¼bersch":7976,"ĠprÃ¼":7977,"anzt":7978,"Ġmachst":7979,"Ġlehren":7980,"ĠspÃ¤ten":7981,"ĠAusgang":7982,"ĠAufbau":7983,"eichert":7984,"ĠweiÃŁt":7985,"ĠbekÃ¤mpfen":7986,"Ġlebenden":7987,"Anstatt":7988,"ĠSchuhe":7989,"ĠernÃ¤hren":7990,"schnitts":7991,"hana":7992,"ĠEigenschaft":7993,"gnÃ¼gen":7994,"Bevor":7995,"Ġrufen":7996,"Ġstudiert":7997,"Ġspezielle":7998,"ĠHiggs":7999,"ĠAngelegen":8000,"Ġgenetische":8001,"ĠIngenieur":8002,"ĠEisen":8003,"ĠBedrohung":8004,"ĠWeisheit":8005,"Hall":8006,"ZunÃ¤chst":8007,"eter":8008,"ect":8009,"hst":8010,"kst":8011,"kÃ¶rper":8012,"park":8013,"ĠSÃ¤":8014,"Ġneigen":8015,"aumen":8016,"ichtum":8017,"Ġfe":8018,"ĠBan":8019,"ĠBord":8020,"ĠWicht":8021,"ĠKart":8022,"Ġanhalten":8023,"Ã¼ren":8024,"ĠItalien":8025,"ĠHitze":8026,"Ġauss":8027,"iens":8028,"Ġvorsichtig":8029,"ĠArzn":8030,"schaff":8031,"Ã¤cher":8032,"gert":8033,"Ġliebte":8034,"ichtete":8035,"ĠzurÃ¼ckkehren":8036,"Ġwahrnehmen":8037,"ĠBerge":8038,"Ġinteressanten":8039,"Ã¤hern":8040,"ĠExtrem":8041,"Ġstarken":8042,"Ġanzusehen":8043,"systeme":8044,"ĠGeneral":8045,"ĠAnti":8046,"Ġentfern":8047,"ffizient":8048,"ĠIsland":8049,"Ġgrossen":8050,"zusp":8051,"Ġfantastische":8052,"ĠNachbarschaft":8053,"ĠIngenieure":8054,"produktion":8055,"Ġsogenannten":8056,"ĠKonsum":8057,"ĠDenkweise":8058,"ĠerfÃ¼llen":8059,"Ġoberen":8060,"Ġatmen":8061,"ĠProjekten":8062,"ĠÃĦnderungen":8063,"ĠZÃ¤hne":8064,"Ġkaufte":8065,"ĠOptim":8066,"ĠverblÃ¼ffen":8067,"DH":8068,"Lasst":8069,"Ohne":8070,"Wann":8071,"brech":8072,"di":8073,"gÃ¤nger":8074,"heuer":8075,"kultur":8076,"tion":8077,"ĠÃ¤r":8078,"ĠwÃ¤r":8079,"ĠsÃ¤":8080,"ĠzÃ¤hlt":8081,"llung":8082,"ĠMisch":8083,"lichkeiten":8084,"ĠBang":8085,"ĠEhr":8086,"ĠDan":8087,"ĠLaufen":8088,"ĠSchild":8089,"ĠSchmerzen":8090,"ĠCenter":8091,"ĠIniti":8092,"Ġbeigebracht":8093,"rink":8094,"Ġkonsum":8095,"ĠProblems":8096,"ĠFlÃ¼gel":8097,"ĠWeibchen":8098,"ĠMedium":8099,"Ġschlug":8100,"ĠReihen":8101,"Ġwundervoll":8102,"sprogramm":8103,"ĠAngriff":8104,"Ġcm":8105,"ĠUrsprung":8106,"Ġnaja":8107,"ĠPollen":8108,"ĠAbente":8109,"Ġbemerkenswert":8110,"ĠerklÃ¤rte":8111,"ĠBrustkrebs":8112,"ĠAnalyse":8113,"ĠauÃŁergewÃ¶hnlich":8114,"Ġdankbar":8115,"ĠAfrikaner":8116,"Ġchemische":8117,"Ġplanen":8118,"ĠÃĦgypten":8119,"ĠlÃ¤ndlichen":8120,"Ã¶ntgen":8121,"Aut":8122,"Kurz":8123,"ban":8124,"brauch":8125,"ils":8126,"oh":8127,"sun":8128,"iness":8129,"Ġsens":8130,"Ġsorg":8131,"Ġment":8132,"ĠSing":8133,"Ġharte":8134,"Ġbrechen":8135,"emin":8136,"derm":8137,"leicht":8138,"ĠFunktionen":8139,"ĠPosit":8140,"roht":8141,"ĠLo":8142,"ĠImmun":8143,"Ġsoweit":8144,"ÃŁern":8145,"ĠRuf":8146,"raun":8147,"ratet":8148,"ĠNiveau":8149,"Ġausmachen":8150,"Ġvorn":8151,"ĠAnruf":8152,"Ã¶rtern":8153,"ĠEnkel":8154,"ĠWeltbevÃ¶lkerung":8155,"ĠGeschmack":8156,"Ġbesucht":8157,"design":8158,"ĠUmstÃ¤nden":8159,"ĠWasserstoff":8160,"aktoren":8161,"ĠAbs":8162,"Ġgesunden":8163,"ischerweise":8164,"Ġbeschreibt":8165,"fÃ¼hlt":8166,"SchlieÃŁlich":8167,"ĠWissenschaftlern":8168,"Ġ2007":8169,"Ġschwere":8170,"ĠSchulter":8171,"konomen":8172,"ĠHinblick":8173,"aven":8174,"Ġworum":8175,"ĠKatze":8176,"Nichts":8177,"Ġtechnischen":8178,"Ġerforscht":8179,"Ġgenetischen":8180,"stausch":8181,"ĠInneren":8182,"Technologie":8183,"stuhl":8184,"ĠLebenserwartung":8185,"ĠYorker":8186,"Bet":8187,"Ne":8188,"Soll":8189,"fung":8190,"kap":8191,"viert":8192,"ĠÃ¤lte":8193,"eiben":8194,"tex":8195,"Ã¼d":8196,"Ġhind":8197,"Ġkoll":8198,"ĠMor":8199,"ĠEt":8200,"ight":8201,"ĠTin":8202,"Ġbeherr":8203,"Ġschock":8204,"Ġlin":8205,"beg":8206,"ĠJack":8207,"ffekte":8208,"Ġpf":8209,"twick":8210,"ĠCamp":8211,"Ġstre":8212,"ota":8213,"ogramm":8214,"appt":8215,"Ġgewann":8216,"ĠKongo":8217,"Ġgemessen":8218,"Ġgere":8219,"ĠBlock":8220,"Ġexponent":8221,"Ġverschiedener":8222,"gehensweise":8223,"wirkt":8224,"ĠSystemen":8225,"Ġ65":8226,"soft":8227,"enseits":8228,"ĠSubst":8229,"ĠRichtige":8230,"ĠObama":8231,"ĠglÃ¼cklicher":8232,"ĠKnie":8233,"Ġjenen":8234,"Ġblind":8235,"ĠBrow":8236,"ĠTerroristen":8237,"ĠGesprÃ¤che":8238,"ĠSaal":8239,"Ġkulturelle":8240,"operation":8241,"ĠChef":8242,"Ġberechnen":8243,"ĠwÃ¼tend":8244,"ĠSymptome":8245,"Ġkonfrontiert":8246,"\"]":8247,"Dem":8248,"Te":8249,"dringen":8250,"Ġunvor":8251,"ĠSorge":8252,"Ġzwe":8253,"Ġgezwungen":8254,"ĠLeid":8255,"Ġmitnehmen":8256,"ĠNutz":8257,"ĠkÃ¶nne":8258,"ĠVerm":8259,"Ã¤cheln":8260,"abl":8261,"ĠLevel":8262,"Ġvielmehr":8263,"rinzip":8264,"Ġangehen":8265,"ĠAutom":8266,"gefallen":8267,"âĢĿ":8268,"ĠSystems":8269,"ĠÃĦl":8270,"ĠReisen":8271,"Ġgestartet":8272,"alisierte":8273,"ĠGesundheitssystem":8274,"Ġhoher":8275,"ĠNeuigkeiten":8276,"ĠberÃ¼hren":8277,"ĠfranzÃ¶s":8278,"Ġbiologischen":8279,"Ġkreativen":8280,"Ġernsthaft":8281,"ĠhÃ¶chsten":8282,"ĠInvestitionen":8283,"Ġchinesische":8284,"melzen":8285,"stimmung":8286,"ĠlÃ¤cher":8287,"ĠTraining":8288,"ĠSpektrum":8289,"ĠSprung":8290,"ĠGipfel":8291,"ĠHacker":8292,"ĠnervÃ¶s":8293,"ĠAntibiotika":8294,"ĠKlavier":8295,"Bl":8296,"Gibt":8297,"Wahr":8298,"ammt":8299,"brochen":8300,"dy":8301,"fassung":8302,"uen":8303,"vir":8304,"ziel":8305,"Ġdunklen":8306,"Ġeth":8307,"anlage":8308,"Ġhassen":8309,"Ġfoss":8310,"Ġerl":8311,"ĠLinks":8312,"Ġverfolgt":8313,"Ġwieviel":8314,"hlend":8315,"Ġdazwischen":8316,"ĠVerwendung":8317,"ĠVergnÃ¼gen":8318,"ĠOberflÃ¤chen":8319,"ĠalltÃ¤":8320,"Ã¤tten":8321,"fache":8322,"fÃ¼hlen":8323,"ĠEinrichtungen":8324,"chester":8325,"Ġgewiss":8326,"Ġkommer":8327,"ppich":8328,"ĠAusnahme":8329,"ĠzurÃ¼ckgehen":8330,"ĠMetern":8331,"Ġgelassen":8332,"ĠÃĦhn":8333,"Ġbesonderen":8334,"ĠAmerikan":8335,"Ġerneuer":8336,"ĠDipl":8337,"ĠBehinder":8338,"ĠGleichgewicht":8339,"oppel":8340,"ĠÃ¶fter":8341,"ĠKuh":8342,"stoÃŁen":8343,"Ġwinzig":8344,"Ġwinzigen":8345,"Ġvisuelle":8346,"Ġkorre":8347,"ĠAlternative":8348,"ĠvernÃ¼nft":8349,"ĠMitglieder":8350,"Interess":8351,"ridge":8352,"Ġsinnvoll":8353,"ĠChirur":8354,"Ġidentifizieren":8355,"ĠJanuar":8356,"Ġdiagnost":8357,"--":8358,"Frauen":8359,"Heutzutage":8360,"Offen":8361,"kord":8362,"wÃ¤hlen":8363,"xis":8364,"chtet":8365,"chite":8366,"Ã¼ter":8367,"aucht":8368,"Ġgete":8369,"ĠBibel":8370,"Ġanstelle":8371,"ĠEuch":8372,"Ã¼rzen":8373,"ĠHir":8374,"ĠRitu":8375,"ĠVag":8376,"Ġtr":8377,"Ġmanip":8378,"ĠGefangen":8379,"ĠSchreiben":8380,"ives":8381,"ĠCart":8382,"ĠErste":8383,"Ġstirbt":8384,"riebs":8385,"ĠsaÃŁen":8386,"Ġabgesch":8387,"gebiete":8388,"Ġwenden":8389,"Wieder":8390,"hai":8391,"ĠGebur":8392,"utzend":8393,"Ġmusikal":8394,"ĠÃľberwach":8395,"ĠMusl":8396,"Ġalter":8397,"ĠMamm":8398,"gemacht":8399,"ĠNeugier":8400,"ivileg":8401,"Ġ120":8402,"Ġmolekul":8403,"osexu":8404,"ĠhÃ¶heren":8405,"Ġschaue":8406,"Ġlernten":8407,"Ġseltsame":8408,"twortet":8409,"Ġunerwar":8410,"ĠMosk":8411,"ĠregelmÃ¤ÃŁig":8412,"Ġkaputt":8413,"Ġruhig":8414,"Ġlangweilig":8415,"ĠerwÃ¤hnen":8416,"ĠBelohnung":8417,"ĠEpidemie":8418,"ĠPlattform":8419,"ĠSkelett":8420,"Hallo":8421,"Ġhindurch":8422,"Fre":8423,"Vers":8424,"Wow":8425,"mat":8426,"ps":8427,"tausende":8428,"station":8429,"Ġatt":8430,"Ġuniver":8431,"Ġmon":8432,"ars":8433,"Ġklet":8434,"ĠMama":8435,"ĠGlet":8436,"ĠGhana":8437,"Ġgesetzt":8438,"Ġverkl":8439,"Ġvergleich":8440,"ĠHaw":8441,"ĠRÃ¶":8442,"Ġtanzen":8443,"Ã¤nz":8444,"reibstoff":8445,"ĠProzesse":8446,"Ġstimmen":8447,"Ġstieg":8448,"Ġleer":8449,"adurch":8450,"Inner":8451,"ologischer":8452,"Ġlieb":8453,"ĠKonstru":8454,"ĠVorgang":8455,"ĠVorschlag":8456,"Ġ32":8457,"ĠBlÃ¤tter":8458,"quem":8459,"Ġangemessen":8460,"ĠAlpha":8461,"ĠNachfrage":8462,"DafÃ¼r":8463,"ĠUniversitÃ¤ten":8464,"mph":8465,"ĠGroÃŁen":8466,"ĠDesigns":8467,"Ġriesiges":8468,"ĠFÃ¼ÃŁe":8469,"ĠFahrzeug":8470,"Ġjenem":8471,"ianer":8472,"ĠBeton":8473,"ĠgrÃ¼ndete":8474,"Ġelektrischen":8475,"ĠWirtschaftswachstum":8476,"ĠPrivatsphÃ¤re":8477,"ĠjÃ¼nger":8478,"ĠSzene":8479,"ĠwunderschÃ¶ne":8480,"Ġirgendeinem":8481,"ĠSensoren":8482,"ĠKonflikte":8483,"ĠTragÃ¶":8484,"ĠKomponenten":8485,"ioxid":8486,"AR":8487,"Her":8488,"ise":8489,"pass":8490,"wenn":8491,"Ġwem":8492,"Ġsub":8493,"ĠhÃ¤ss":8494,"arenz":8495,"Ġbildet":8496,"ĠMad":8497,"deckt":8498,"ĠArab":8499,"Ġfrustr":8500,"lichem":8501,"Ġgefl":8502,"Ġgeteilt":8503,"Ġgeeig":8504,"ĠKe":8505,"letzt":8506,"leger":8507,"Ġanscheinend":8508,"ĠFa":8509,"ĠFrie":8510,"ĠDame":8511,"umpf":8512,"Ġverpf":8513,"ĠRÃ¶ntgen":8514,"ĠVon":8515,"ikale":8516,"twa":8517,"ĠScham":8518,"ĠProben":8519,"etisch":8520,"Ġ26":8521,"Ġ28":8522,"Ġunternehmen":8523,"gerufen":8524,"gerÃ¤te":8525,"ĠKonz":8526,"leiter":8527,"ektes":8528,"Ġinterpret":8529,"Ġkeines":8530,"ĠDieser":8531,"ĠUmgang":8532,"ĠAutob":8533,"Ġheiraten":8534,"ĠGeruch":8535,"ĠMuskel":8536,"alisierten":8537,"Ġ2005":8538,"iums":8539,"âĢľ.":8540,"ĠfrÃ¼he":8541,"ĠPartei":8542,"Ġdrehte":8543,"ianischen":8544,"ĠSchwestern":8545,"ĠHaiti":8546,"âĻª":8547,"arry":8548,"ĠProtein":8549,"Ġmoralischen":8550,"Ġphysische":8551,"Ġbenutze":8552,"ĠBedÃ¼rfnis":8553,"ĠSchwarz":8554,"Ġmittleren":8555,"Ġignorieren":8556,"ĠKatastrophe":8557,"Trotzdem":8558,"ĠKapitalismus":8559,"Erinnern":8560,"ĠWÃ¤lder":8561,"ĠTreibhaus":8562,"ĠStanford":8563,"Os":8564,"Talk":8565,"bit":8566,"funktion":8567,"jekten":8568,"material":8569,"put":8570,"wachsen":8571,"ĠÃ¤rm":8572,"ches":8573,"Ġwomit":8574,"Ġmisst":8575,"ĠmilitÃ¤r":8576,"Ġeingeb":8577,"gespr":8578,"Ġvierte":8579,"ĠSha":8580,"Ġinvol":8581,"ĠMig":8582,"ĠGrie":8583,"ĠGute":8584,"ĠBier":8585,"ĠKle":8586,"ĠEur":8587,"ĠFundament":8588,"ĠFÃ¼nf":8589,"Uns":8590,"Ġverur":8591,"ĠTÃ¤u":8592,"ĠOl":8593,"ĠOhr":8594,"Ġspiritu":8595,"fachen":8596,"edy":8597,"klasse":8598,"ĠFlÃ¤chen":8599,"selbe":8600,"ordnet":8601,"ĠÃľbergang":8602,"Ġinsgesamt":8603,"ĠMuskeln":8604,"ĠManh":8605,"stÃ¤ndige":8606,"ĠStudio":8607,"kohol":8608,"Ġrom":8609,"ĠAtomen":8610,"ĠOrganismus":8611,"Ã¼tte":8612,"Ġfliegt":8613,"Ġpolitisch":8614,"ĠVertei":8615,"ĠKÃ¼che":8616,"ĠKÃ¶nnen":8617,"Ġ1990":8618,"ĠTrÃ¤nen":8619,"DarÃ¼ber":8620,"ĠPrÃ¤sidenten":8621,"ĠmÃ¤chtig":8622,"ĠStrategien":8623,"Ġmittlerweile":8624,"Ġ1960":8625,"ĠPrototypen":8626,"ĠEinfachheit":8627,"ĠBatterie":8628,"Ġneugierig":8629,"For":8630,"IS":8631,"gÃ¤nge":8632,"gÃ¼lt":8633,"kol":8634,"ua":8635,"wehr":8636,"wandeln":8637,"ĠÃ¤nderte":8638,"Ġwelt":8639,"asern":8640,"Ġwirksam":8641,"ĠMent":8642,"Ã¶ch":8643,"ichtung":8644,"ĠgeÃ¶ff":8645,"ĠBenz":8646,"ĠBase":8647,"ĠWut":8648,"legte":8649,"ĠEhre":8650,"ĠEffizienz":8651,"ĠPazif":8652,"ĠDon":8653,"ĠDutzend":8654,"ĠLast":8655,"ĠTherap":8656,"annter":8657,"ĠHumor":8658,"Ġumso":8659,"ikationen":8660,"ĠVerschw":8661,"ĠVerlangen":8662,"ĠAnstren":8663,"Ġstammen":8664,"Ġleg":8665,"eta":8666,"Ġweibliche":8667,"Ġrum":8668,"istin":8669,"rÃ¤um":8670,"Ã¤ude":8671,"formation":8672,"brigens":8673,"ĠAutismus":8674,"ĠSequenz":8675,"Ġwundervolle":8676,"Ġschwerer":8677,"ĠGlÃ¼h":8678,"ĠPolio":8679,"Ġabgesehen":8680,"ĠGeschÃ¤ftsm":8681,"ortex":8682,"ĠHaie":8683,"ĠMathematiker":8684,"Ġfreund":8685,"ĠMedikamenten":8686,"zÃ¤hler":8687,"ĠScience":8688,"Ġorganisiert":8689,"ĠHÃ¶hepunkt":8690,"Ġislam":8691,"ĠLiebling":8692,"ĠOrgane":8693,"fÃ¤ltig":8694,"Ġschickte":8695,"Ã¼hrung":8696,"ĠFigur":8697,"Ġanalysieren":8698,"ĠUrsache":8699,"Ġexplod":8700,"ĠPhilosophie":8701,"ĠWeihnacht":8702,"ĠDiabetes":8703,"Ġreparieren":8704,"ĠSchokol":8705,"De":8706,"Geh":8707,"MA":8708,"fischen":8709,"gin":8710,"hel":8711,"iop":8712,"kopf":8713,"ĠwÃ¤":8714,"steine":8715,"eige":8716,"Ġmobil":8717,"Ġeingehen":8718,"Ġhand":8719,"Ġhuman":8720,"llige":8721,"Ã¤men":8722,"Ġinzwischen":8723,"deuten":8724,"Ġfeiern":8725,"Ġgift":8726,"Ã¼rzt":8727,"ĠDaumen":8728,"ĠValle":8729,"Ġtre":8730,"Ġjapan":8731,"weils":8732,"orth":8733,"Ġbeides":8734,"Ġleuchten":8735,"ĠLeber":8736,"Ġreflekt":8737,"aufgaben":8738,"Ġ36":8739,"ĠgegenwÃ¤rt":8740,"Ġmuslim":8741,"ĠMarken":8742,"ĠDeshalb":8743,"ĠRollen":8744,"ĠKarik":8745,"Ġ2009":8746,"mÃ¶gliche":8747,"ĠBedarf":8748,"ĠKnopf":8749,"Ġnebenbei":8750,"Ġindischen":8751,"schuldigung":8752,"ĠApple":8753,"staaten":8754,"ĠThomas":8755,"ĠDiagnose":8756,"ĠgewÃ¶hnt":8757,"Ġsetzten":8758,"ĠSalz":8759,"ĠBudget":8760,"ĠHunderte":8761,"Letzten":8762,"ĠWichtigste":8763,"Ġspannend":8764,"ĠMotivation":8765,"Ġromant":8766,"Neu":8767,"Test":8768,"oben":8769,"ule":8770,"wendet":8771,"yto":8772,"Ġdient":8773,"eitern":8774,"Ġhy":8775,"Ġzurecht":8776,"Ġgesammelt":8777,"ĠverlieÃŁ":8778,"ismen":8779,"ĠHard":8780,"ĠHandeln":8781,"ĠRel":8782,"ĠVie":8783,"ola":8784,"ĠNÃ¤ch":8785,"reide":8786,"ĠVermÃ¶gen":8787,"Ġjeweils":8788,"raucher":8789,"zukommen":8790,"Ġnachdenkt":8791,"ĠEner":8792,"Ġdurchschnittlich":8793,"Ġret":8794,"Ġbeseit":8795,"Ġrichten":8796,"Eins":8797,"Ġwiederholt":8798,"Ġberuh":8799,"ĠAufstieg":8800,"ĠUmstÃ¤nde":8801,"ĠGebieten":8802,"Ġlebende":8803,"Ġexakt":8804,"ordnen":8805,"Ġkleinere":8806,"ĠMannes":8807,"Ġsozialer":8808,"ĠÃ¤hnlichen":8809,"ĠHÃ¶hlen":8810,"ĠKatzen":8811,"Ã¤mpft":8812,"Ġempfinden":8813,"Ġenormen":8814,"sammlung":8815,"Ġechtes":8816,"Darauf":8817,"Ġhingehen":8818,"Ġtraditionelle":8819,"Anders":8820,"Ġbenutzten":8821,"Ġkomplizierter":8822,"ĠMitglied":8823,"ĠerÃ¶ffnet":8824,"ĠLogik":8825,"Ġexperiment":8826,"Ġbeitragen":8827,"Ġinfiziert":8828,"Ġpotent":8829,"Ġarabischen":8830,"ziplin":8831,"Normalerweise":8832,"Ġkommerzie":8833,"Innerhalb":8834,"FrÃ¼":8835,"Machen":8836,"bir":8837,"hh":8838,"komp":8839,"leiten":8840,"ohlen":8841,"vo":8842,"waffen":8843,"ĠdrÃ¼ck":8844,"Ġsimul":8845,"Ġehem":8846,"stÃ¤d":8847,"ask":8848,"ĠWÃ¤nde":8849,"ĠFantasie":8850,"ĠTasche":8851,"ish":8852,"raktiv":8853,"Ġleist":8854,"ĠZum":8855,"agern":8856,"ĠGet":8857,"ĠSchauen":8858,"ĠVerz":8859,"ĠIntu":8860,"obby":8861,"ĠEinschrÃ¤n":8862,"Ġgeraten":8863,"ĠFlor":8864,"ĠTechniken":8865,"Ġwahren":8866,"eitete":8867,"Ġverlor":8868,"gefÃ¤":8869,"ruppe":8870,"ĠMeere":8871,"ogenese":8872,"ĠMarke":8873,"ĠÃĸkonomen":8874,"Ġfestgestellt":8875,"Ġoffenbar":8876,"ĠInternets":8877,"ĠgemeinnÃ¼tz":8878,"Ã¤ufer":8879,"ĠflieÃŁt":8880,"ĠKÃ¼hl":8881,"Ġqual":8882,"Ġkreative":8883,"amera":8884,"ĠfrÃ¼heren":8885,"Ġnahezu":8886,"ĠKugel":8887,"Ġaktuelle":8888,"Ġemotionale":8889,"Ġabstra":8890,"ĠResultate":8891,"ĠHaare":8892,"archie":8893,"Komm":8894,"ĠTexas":8895,"ĠStaub":8896,"ĠVerbesserung":8897,"ĠSpezial":8898,"ĠAnwendungen":8899,"ĠMicrosoft":8900,"ĠCarto":8901,"Gehen":8902,"PlÃ¶tzlich":8903,"baut":8904,"etzen":8905,"ios":8906,"jet":8907,"lament":8908,"pern":8909,"politik":8910,"rieren":8911,"enkt":8912,"anlagen":8913,"stat":8914,"steht":8915,"assten":8916,"eifen":8917,"gesetzt":8918,"ĠSektor":8919,"Ġheben":8920,"Ġnu":8921,"Ã¤ger":8922,"ary":8923,"Ġint":8924,"Ġinklus":8925,"ĠAug":8926,"Ġfein":8927,"Ġfrie":8928,"Ġflex":8929,"lehnen":8930,"Ġantworten":8931,"Ġanbieten":8932,"Ġerlaub":8933,"ĠLÃ¤cheln":8934,"igungen":8935,"Ġverarbeiten":8936,"ĠStick":8937,"Wirklich":8938,"Ġvorgestellt":8939,"ĠâĢľ":8940,"Ġletztlich":8941,"Ã¤tig":8942,"ĠSpinnen":8943,"Ġrest":8944,"werte":8945,"ektar":8946,"zenten":8947,"Ġgeworfen":8948,"edback":8949,"Ġverbr":8950,"ĠverstÃ¤nd":8951,"Ġsonder":8952,"Ġkeinem":8953,"aku":8954,"Ġeinziges":8955,"Ġwahrhaft":8956,"quellen":8957,"ĠAlkohol":8958,"ĠHandlungen":8959,"ĠMittler":8960,"Dazu":8961,"ĠunglÃ¼ck":8962,"itute":8963,"ĠSchweine":8964,"Ġrob":8965,"Ġinnere":8966,"ĠBÃ¼chern":8967,"Ġtrocken":8968,"errt":8969,"ĠDurchschnitts":8970,"ĠverrÃ¼ckte":8971,"Ġheutige":8972,"Ġtauchen":8973,"ĠhÃ¶chste":8974,"ĠTransparenz":8975,"ĠSerie":8976,"Ġchinesischen":8977,"ĠKonsumenten":8978,"ĠToiletten":8979,"ĠPflanze":8980,"Ġbegrenzt":8981,"ĠKlinik":8982,"Ġstets":8983,"ĠUngleichheit":8984,"Ġverpflich":8985,"Lie":8986,"Mails":8987,"PA":8988,"eah":8989,"kÃ¤":8990,"lÃ¤sst":8991,"nicht":8992,"wÃ¤":8993,"Ġdanken":8994,"Ġsym":8995,"eigung":8996,"Ġmy":8997,"ĠSur":8998,"ĠzuhÃ¶ren":8999,"Ġkg":9000,"ĠAct":9001,"Ġgefahren":9002,"ĠBomben":9003,"lefon":9004,"ĠEbenen":9005,"ĠFal":9006,"ĠPreise":9007,"ĠDist":9008,"ĠRos":9009,"Ġausgehen":9010,"ĠStich":9011,"ĠÃ¼bersetzen":9012,"ĠÃ¼berlebt":9013,"Ġunsicht":9014,"weist":9015,"ĠvorwÃ¤rts":9016,"Ġlegte":9017,"ĠUng":9018,"Ġreicher":9019,"schieben":9020,"Ġhinsichtlich":9021,"Ã¼nde":9022,"Ġverbrei":9023,"ĠVorder":9024,"akul":9025,"?\",":9026,"Ġbedeckt":9027,"meter":9028,"ĠLebensraum":9029,"ĠEntsteh":9030,"âĢĵ":9031,"ĠRobert":9032,"Schl":9033,"ĠMac":9034,"ĠVersorgung":9035,"Ġbefassen":9036,"Ġbefreien":9037,"skraft":9038,"ĠGlÃ¼cks":9039,"Ġweltweite":9040,"Ġflog":9041,"ĠErfolgs":9042,"Projekt":9043,"ĠRechts":9044,"ĠÃ¶ffnet":9045,"ĠMaÃŁnahmen":9046,"ĠDrucker":9047,"ĠanfÃ¤ngt":9048,"ĠBush":9049,"Ġverstecken":9050,"Ġ1980":9051,"Ġschlimmsten":9052,"ĠRÃ¼ckenmark":9053,"ĠSchlagz":9054,"ĠreprÃ¤sentiert":9055,"Ġverletzt":9056,"Ġverliebt":9057,"ĠÃĦnderung":9058,"ĠSchauspieler":9059,"ĠFremden":9060,"Ġdiskutieren":9061,"ĠjÃ¤hrlich":9062,"Ġdurfte":9063,"Ġmochte":9064,"ĠPrior":9065,"Ġgetestet":9066,"ĠgeÃ¶ffnet":9067,"ĠValley":9068,"Hat":9069,"Masch":9070,"Zusammen":9071,"eder":9072,"fasst":9073,"ganda":9074,"hil":9075,"nÃ¤":9076,"ood":9077,"asien":9078,"ĠSar":9079,"ĠServ":9080,"schalten":9081,"Ġbo":9082,"ĠMÃ¤use":9083,"ĠAbl":9084,"ĠGramm":9085,"Ġgelegen":9086,"Ġgelangt":9087,"teren":9088,"lechter":9089,"ĠFer":9090,"ĠverÃ¤nder":9091,"Ġverteilen":9092,"ĠTu":9093,"ĠTum":9094,"ĠTherapie":9095,"Ġwartet":9096,"Ġschreibe":9097,"Ġlasse":9098,"Ġtrat":9099,"ĠZut":9100,"steckt":9101,"Ġausmacht":9102,"spunkt":9103,"ĠVerzwei":9104,"ĠVerteilung":9105,"ĠInseln":9106,"ĠAnweis":9107,"ĠAnsichten":9108,"ĠBewohner":9109,"Ġstat":9110,"ĠfÃ¼llen":9111,"izz":9112,"Einen":9113,"duktion":9114,"ĠAusland":9115,"ĠAusrÃ¼stung":9116,"Ġ1950":9117,"ĠExplos":9118,"ĠEnergieverbrauch":9119,"Ġausgegeben":9120,"Stud":9121,"otto":9122,"ronen":9123,"ĠMount":9124,"ĠSchwanz":9125,"ĠUnternehmens":9126,"ĠGebÃ¤udes":9127,"Ġerhielten":9128,"setzungen":9129,"Ġfreiwill":9130,"ampag":9131,"Programm":9132,"jÃ¤hriger":9133,"Ġinternational":9134,"ĠErfinder":9135,"ĠFels":9136,"Ġkreiert":9137,"organisationen":9138,"Ġbillig":9139,"drehen":9140,"ĠEntwicklungslÃ¤nder":9141,"Ġinstall":9142,"Ġprivaten":9143,"ĠToilette":9144,"ĠAchse":9145,"Ġbeeindruckend":9146,"18":9147,"Chin":9148,"JÃ¤hr":9149,"baum":9150,"pack":9151,"sitzen":9152,"thmus":9153,"unft":9154,"Ġsan":9155,"anischen":9156,"schlieÃŁen":9157,"Ġfair":9158,"ura":9159,"ĠWaffe":9160,"ĠWÃ¤rme":9161,"ĠKy":9162,"ĠKoch":9163,"Ã¼rze":9164,"Ġverlei":9165,"reht":9166,"Ġaufeinander":9167,"ĠHorm":9168,"ĠVi":9169,"befinden":9170,"bezogen":9171,"andem":9172,"ĠStil":9173,"anzig":9174,"Ġentwar":9175,"laube":9176,"uld":9177,"ric":9178,"imb":9179,"ĠKonzentr":9180,"ĠKonzepte":9181,"ĠWasch":9182,"ĠbetrÃ¤gt":9183,"aker":9184,"ĠUnterwasser":9185,"ĠAbhÃ¤ng":9186,"Ġheim":9187,"Ġgesunde":9188,"stands":9189,"ĠEntwurf":9190,"now":9191,"Ã¶lf":9192,"Ġbefest":9193,"Ġoffene":9194,"mith":9195,"Ġselbe":9196,"ĠFahrer":9197,"ĠauszudrÃ¼cken":9198,"Ġverschwindet":9199,"ĠBetrieb":9200,"ĠÃ¤ltere":9201,"Ġbedeutend":9202,"Ġpositiven":9203,"Ġschreckliche":9204,"Ġniedrig":9205,"Ġniedriger":9206,"ĠhÃ¶chst":9207,"ĠMyth":9208,"ĠberÃ¼hmt":9209,"Ġphysischen":9210,"Ġaktuellen":9211,"Ġungeheuer":9212,"Ġkulturellen":9213,"ĠSchwarze":9214,"heimer":9215,"Ġzentrale":9216,"krankheiten":9217,"ĠausschlieÃŁlich":9218,"ĠOxford":9219,"ĠPferd":9220,"ĠkÃ¼mmert":9221,"ĠWurzeln":9222,"ĠBetracht":9223,"Ġverringern":9224,"ĠFlÃ¼ssigkeit":9225,"Ġgelehrt":9226,"ĠEhemann":9227,"ĠDialog":9228,"ĠManhatt":9229,"ytocin":9230,"Ġleistungs":9231,"Bahn":9232,"Frau":9233,"Fast":9234,"Gem":9235,"Viel":9236,"WÃ¤re":9237,"afe":9238,"car":9239,"ucken":9240,"gegangen":9241,"arren":9242,"orien":9243,"ĠMeg":9244,"eltern":9245,"Ġgeg":9246,"Ġgefr":9247,"ĠBis":9248,"lever":9249,"ĠPop":9250,"ĠLive":9251,"eitungen":9252,"reut":9253,"Ġschrieben":9254,"Ġlasst":9255,"Ġjenseits":9256,"ĠausdrÃ¼cken":9257,"ĠJer":9258,"Ġwerdet":9259,"bteilung":9260,"spanne":9261,"ĠVerhand":9262,"ĠCr":9263,"Ġherab":9264,"flie":9265,"Ġkonserv":9266,"ĠKond":9267,"ĠAusgaben":9268,"odelle":9269,"Ġ195":9270,"ĠTee":9271,"icherung":9272,"Ġaltes":9273,"ĠschÃ¶ner":9274,"Ġglobal":9275,"ĠSÃ¼ÃŁ":9276,"ĠFahrzeuge":9277,"Ġkomplexer":9278,"Ġerledigen":9279,"ĠÃ¤lteren":9280,"ĠIntegr":9281,"Ġfreie":9282,"ĠThun":9283,"Ġumzusetzen":9284,"Ġirgendwelche":9285,"ĠFeedback":9286,"Ġeinzigartig":9287,"bedingungen":9288,"Ġbenutzte":9289,"Ġwirklichen":9290,"ĠPeter":9291,"ĠAuftrag":9292,"aktivitÃ¤t":9293,"ĠMechanismus":9294,"ĠBerechnungen":9295,"Ãľbrigens":9296,"ĠAbenteuer":9297,"Ch":9298,"Jahr":9299,"bru":9300,"ĠÃ¶rt":9301,"any":9302,"ĠSmith":9303,"irca":9304,"schild":9305,"Ġnationale":9306,"ĠkÃ¼nstler":9307,"Ġderer":9308,"aters":9309,"ĠBitte":9310,"ĠKok":9311,"ĠKuchen":9312,"ĠKÃ¼nst":9313,"ĠKosm":9314,"ĠDort":9315,"ĠTreibstoff":9316,"ĠHÃ¶r":9317,"ĠRatten":9318,"ĠlÃ¶st":9319,"Ġtrain":9320,"iene":9321,"zugehen":9322,"ĠProbe":9323,"ĠCA":9324,"ĠAnh":9325,"aller":9326,"Ġunterhalten":9327,"Ġunterhalb":9328,"ĠEinblick":9329,"aps":9330,"Indem":9331,"verkehr":9332,"Ġbetreffen":9333,"ical":9334,"projekt":9335,"Ġgestaltet":9336,"ĠGedichte":9337,"ĠHinweise":9338,"ĠLehrern":9339,"ĠBiologen":9340,"ĠSelbstmord":9341,"ĠUrkn":9342,"uropa":9343,"Ġ[\"":9344,"azitÃ¤t":9345,"wertung":9346,"ĠBrut":9347,"ĠAllgem":9348,"riedenheit":9349,"ĠGleichung":9350,"wesenheit":9351,"Ġteilnehmen":9352,"ĠBlickwinkel":9353,"ĠOnkel":9354,"streben":9355,"ĠFrÃ¼hl":9356,"ĠInvestition":9357,"ĠberÃ¼hmte":9358,"ĠauÃŁergewÃ¶hnliche":9359,"Ġbilliger":9360,"ĠkÃ¼nstliche":9361,"ĠzukÃ¼nftigen":9362,"ĠWilli":9363,"ĠhÃ¼b":9364,"ĠPinguine":9365,"ĠEngagement":9366,"ĠBeitrag":9367,"ĠAngebot":9368,"ĠGriechen":9369,"Gott":9370,"binden":9371,"ku":9372,"ocken":9373,"uste":9374,"Ġemp":9375,"Ġaben":9376,"Ã¼chtern":9377,"onym":9378,"Ġhung":9379,"Ġzogen":9380,"atom":9381,"Ġintu":9382,"achs":9383,"Ġfuhren":9384,"Ġgegessen":9385,"ĠEver":9386,"ĠPause":9387,"ĠLu":9388,"ĠLaut":9389,"ĠLux":9390,"umpen":9391,"igant":9392,"Ġverlangen":9393,"Ġvergewalt":9394,"cks":9395,"ĠHandels":9396,"Ġschief":9397,"Ġoper":9398,"beziehen":9399,"stecken":9400,"uth":9401,"Ġdemonstr":9402,"ĠProp":9403,"mengen":9404,"Ġstra":9405,"ĠReichtum":9406,"Ġspont":9407,"iller":9408,"ĠLeg":9409,"ogie":9410,"ĠSpe":9411,"Ġklingen":9412,"ophren":9413,"ĠUganda":9414,"Ġras":9415,"ĠrÃ¼ber":9416,"izophren":9417,"igerweise":9418,"Ġkooper":9419,"Ġdumm":9420,"ĠAuswirkung":9421,"ĠzurÃ¼ckkommen":9422,"Ġberu":9423,"ĠFlasche":9424,"ĠBlase":9425,"ĠKohlend":9426,"ĠLichter":9427,"Ġ2004":9428,"Ġ700":9429,"ĠWerke":9430,"Ġanzugehen":9431,"ĠflieÃŁen":9432,"ĠHÃ¶lle":9433,"ĠBÃ¼rgermeister":9434,"Ġbewahren":9435,"Ġeinzusetzen":9436,"straÃŁe":9437,"ĠBelast":9438,"ĠTÃ¼rk":9439,"abhÃ¤ngigkeit":9440,"ĠWohlbefinden":9441,"ĠLÃ¶wen":9442,"Ġbehaupte":9443,"ĠwÃ¼nschen":9444,"Ġkomplizierte":9445,"ĠStatistik":9446,"Ġ1970":9447,"ĠSzenar":9448,"ĠzukÃ¼nftige":9449,"ĠNervenzellen":9450,"ĠGlobalisierung":9451,"ĠKatastrophen":9452,"ĠJournalisten":9453,"tragung":9454,"ĠFlederm":9455,"Ġdramatisch":9456,"Ġallgemeinen":9457,"firma":9458,"Ġillegal":9459,"WÃ¼rden":9460,"ĠPopulation":9461,"ĠPraxis":9462,"Ġinklusive":9463,"KW":9464,"Kopf":9465,"Rob":9466,"Teil":9467,"ci":9468,"fro":9469,"hten":9470,"ius":9471,"ippe":9472,"nam":9473,"wa":9474,"Ġy":9475,"chron":9476,"undern":9477,"Ġsuchten":9478,"Ġmar":9479,"gekommen":9480,"Ġhalt":9481,"Ġnationalen":9482,"ĠzusÃ¤tzlich":9483,"ĠMÃ¼n":9484,"ĠMahl":9485,"ĠMauer":9486,"Ġgreifen":9487,"els":9488,"ĠKandid":9489,"Ġersetzt":9490,"ĠHon":9491,"Ġschie":9492,"steten":9493,"ĠNov":9494,"ĠNutzer":9495,"raut":9496,"ĠOption":9497,"ĠenttÃ¤u":9498,"ingung":9499,"ops":9500,"well":9501,"Ġkonkur":9502,"kept":9503,"Ġliebt":9504,"Ġargument":9505,"klar":9506,"hafen":9507,"Ġzweit":9508,"Ã¤ndler":9509,"grunde":9510,"Ġschlussendlich":9511,"Ġvermittelt":9512,"Ġoffensicht":9513,"ĠGegenstÃ¤nde":9514,"ĠAmerikas":9515,"mitten":9516,"ĠVortrÃ¤ge":9517,"Ġentdeckten":9518,"ifest":9519,"ĠKore":9520,"Ã¼tteln":9521,"Ġerkunden":9522,"ĠParlament":9523,"ĠReserv":9524,"ĠLife":9525,"ĠStandpunkt":9526,"Ġverschm":9527,"ĠMagnet":9528,"Ġtechnische":9529,"ĠBÃ¤umen":9530,"Ġbedroht":9531,"Ġblock":9532,"ĠZufriedenheit":9533,"Ġvorhersagen":9534,"Ã¼chtig":9535,"ĠNotiz":9536,"Ġvisuellen":9537,"Ġliefert":9538,"ĠBallon":9539,"Ġnachhaltig":9540,"Ġnachhaltige":9541,"grÃ¶ÃŁe":9542,"ĠRaketen":9543,"ĠAlltag":9544,"ĠOktober":9545,"ĠFliege":9546,"ĠTitan":9547,"Ġlinke":9548,"Wahrscheinlich":9549,"ĠMuslime":9550,"ĠÃ¤rmsten":9551,"ĠBaseball":9552,"ĠEntstehung":9553,"Zeit":9554,"bein":9555,"da":9556,"dauer":9557,"ks":9558,"way":9559,"ymm":9560,"zo":9561,"Ãĸ":9562,"stil":9563,"stÃ¤r":9564,"Ġhell":9565,"Ġbraun":9566,"ĠGift":9567,"ĠKeine":9568,"ĠKÃ¶pfen":9569,"leute":9570,"Ġerlangen":9571,"rott":9572,"ĠImm":9573,"Ġbefr":9574,"Ġbeachten":9575,"Ġaufmerksam":9576,"ĠHai":9577,"ĠRichtig":9578,"Ġoffiz":9579,"Ġtheor":9580,"ĠausfÃ¼hren":9581,"Ġpfl":9582,"ĠInhalte":9583,"hnte":9584,"Ġstimm":9585,"oto":9586,"ular":9587,"ulation":9588,"ĠSpur":9589,"ĠSpeicher":9590,"heber":9591,"Ġunterscheidet":9592,"ĠZeitungen":9593,"Ġzweitens":9594,"ĠEinheiten":9595,"Ġgewinnt":9596,"ĠKontroll":9597,"ĠKonkur":9598,"ĠHeran":9599,"garten":9600,"Ġangekommen":9601,"ĠAlz":9602,"ĠLebensqualitÃ¤t":9603,"Ġgebildet":9604,"kunst":9605,"ĠGroÃŁvater":9606,"Ġfestge":9607,"Ġ800":9608,"ĠschÃ¶nes":9609,"ĠWerten":9610,"Ġschwierigen":9611,"ĠGeschichtener":9612,"Ġhoffnungs":9613,"ĠParty":9614,"ĠHÃ¶hle":9615,"ĠMikroskop":9616,"Woher":9617,"ĠFuÃŁball":9618,"ĠTempo":9619,"ĠSchÃ¼lern":9620,"Ġwidersp":9621,"Ġwinzige":9622,"ĠGrav":9623,"Ġtiefe":9624,"ĠFelsen":9625,"ĠBerufs":9626,"Ġintelligente":9627,"ĠNiemand":9628,"Ġnutzten":9629,"ĠÃľbung":9630,"wissenschaftler":9631,"ĠreligiÃ¶sen":9632,"Ġvirtuellen":9633,"ĠStiftung":9634,"ĠSammlung":9635,"ĠDamit":9636,"ĠArbeitsplatz":9637,"ĠIllusion":9638,"ĠÃ¼berprÃ¼fen":9639,"Ġprofitieren":9640,"ĠSchÃ¤del":9641,"Ġschnelle":9642,"Ġangetrieben":9643,"Ġhilfreich":9644,"summen":9645,"ĠMoskit":9646,"ĠGletscher":9647,"Ġehemal":9648,"BI":9649,"ET":9650,"aver":9651,"kette":9652,"wort":9653,"erdings":9654,"Ġeffizient":9655,"Ã¼hle":9656,"schÃ¶nen":9657,"ĠnÃ¶r":9658,"llte":9659,"Ã¤ser":9660,"Ġzugrunde":9661,"orter":9662,"auch":9663,"Ġwirft":9664,"ĠMR":9665,"ĠAv":9666,"lichung":9667,"terte":9668,"terung":9669,"ĠBeinen":9670,"ĠBron":9671,"ĠKenn":9672,"ĠFront":9673,"Ġerfordert":9674,"ĠDichte":9675,"ĠDÃ¼n":9676,"row":9677,"igma":9678,"ĠTode":9679,"ĠTrink":9680,"isierten":9681,"ĠHals":9682,"ray":9683,"ĠschÃ¤d":9684,"Ġtreibt":9685,"bew":9686,"ĠZig":9687,"Ġumwelt":9688,"ĠÃ¼bersetzt":9689,"ĠGefahren":9690,"ĠSchnell":9691,"ĠSchreibt":9692,"zustand":9693,"ĠOel":9694,"ĠErschein":9695,"Ġstruktur":9696,"rugen":9697,"ĠSpenden":9698,"ĠSpuren":9699,"wecken":9700,"rix":9701,"flei":9702,"ĠfÃ¼hlten":9703,"geld":9704,"Ġweiterentwick":9705,"Ã¤ub":9706,"gebungen":9707,"Ġverbrauchen":9708,"ĠFlu":9709,"reichend":9710,"ĠheiÃŁe":9711,"unterricht":9712,"thiop":9713,"eimittel":9714,"ĠDez":9715,"Ġ2006":9716,"zeichnung":9717,"ĠProduktivitÃ¤t":9718,"Ġcirca":9719,"ĠGegenstand":9720,"fÃ¤llig":9721,"Ġbevorzu":9722,"ĠFotograf":9723,"werkraft":9724,"geschÃ¤ft":9725,"ĠÃ¼ben":9726,"ĠFlugzeuge":9727,"Ã¤chtigen":9728,"ĠEuropÃ¤":9729,"Ġquer":9730,"ĠKilo":9731,"ĠRuanda":9732,"organisation":9733,"ministerium":9734,"Ġafrikanische":9735,"ĠSchriftsteller":9736,"ĠGestaltung":9737,"Ġsexuelle":9738,"ĠTrends":9739,"ĠHomo":9740,"Ġprogrammieren":9741,"ĠungewÃ¶hnlich":9742,"ĠzusÃ¤tzliche":9743,"Jedenfalls":9744,"zweifelt":9745,"ĠSymmetrie":9746,"Ġgeblieben":9747,"Br":9748,"Bes":9749,"Or":9750,"breite":9751,"griffen":9752,"ln":9753,"lem":9754,"uden":9755,"vas":9756,"enten":9757,"Ġdicht":9758,"inationen":9759,"ani":9760,"Ġmalen":9761,"gehÃ¶r":9762,"ĠSatur":9763,"ati":9764,"ĠMist":9765,"ĠAuch":9766,"ĠGand":9767,"urr":9768,"Ġert":9769,"Ġerrichten":9770,"ĠDinger":9771,"ĠDynamik":9772,"ĠLau":9773,"ĠTV":9774,"ĠTÃ¤tigkeit":9775,"ĠId":9776,"reter":9777,"Ġbedenken":9778,"Ġaufrecht":9779,"ĠHaben":9780,"ĠschieÃŁen":9781,"Ġlagen":9782,"Ġtrennen":9783,"ildeten":9784,"ĠStille":9785,"ĠStÃ¶rungen":9786,"ĠVeranst":9787,"ĠOlymp":9788,"ĠMenschlichkeit":9789,"ĠAnerkennung":9790,"Ġallzu":9791,"Ġspiele":9792,"ĠWeltall":9793,"opt":9794,"ĠEinige":9795,"gerung":9796,"Ġweitermachen":9797,"dustr":9798,"Ġverbraucht":9799,"Ġirr":9800,"ĠWeiter":9801,"ĠgesÃ¼nder":9802,"ĠerzÃ¤hlten":9803,"ĠbeschÃ¼tzen":9804,"Ġsicherstellen":9805,"âĢ¹":9806,"Ġclever":9807,"ĠHinweis":9808,"Ġforder":9809,"Ġabgeschlossen":9810,"ĠJeff":9811,"Ġerinnerte":9812,"jenige":9813,"ĠÃĦrzten":9814,"eidung":9815,"Ġreiste":9816,"ĠHÃ¼gel":9817,"ĠAdam":9818,"Ġauftreten":9819,"ĠCarol":9820,"sichtigt":9821,"ĠNahrungsmittel":9822,"ĠDienstleistungen":9823,"Ġausgebildet":9824,"Ġprivate":9825,"ĠAstron":9826,"Ġprimit":9827,"ĠAsteroiden":9828,"Ġattraktiv":9829,"ĠGlÃ¼hbir":9830,"ĠManhattan":9831,"ĠKohlendioxid":9832,"ĠAlzheimer":9833,"80":9834,"BC":9835,"MÃ¶":9836,"PM":9837,"Sicher":9838,"].":9839,"col":9840,"flex":9841,"krise":9842,"mod":9843,"ris":9844,"sucht":9845,"sitz":9846,"sorge":9847,"erkennen":9848,"inson":9849,"Ġsign":9850,"strÃ¤ger":9851,"eis":9852,"Ġunangen":9853,"Ã¼ster":9854,"ĠSeil":9855,"Ġnirgend":9856,"Ã¤me":9857,"Ġzugleich":9858,"ĠWelle":9859,"ĠKing":9860,"ĠKnoten":9861,"ĠFalle":9862,"ĠPenn":9863,"ĠPunkten":9864,"ĠLesen":9865,"Ġverne":9866,"regung":9867,"Ġbeendet":9868,"ÃŁte":9869,"ehnte":9870,"Ġto":9871,"Ġtollen":9872,"Ã¶ne":9873,"besch":9874,"ĠNobel":9875,"agd":9876,"Ġdiesmal":9877,"ĠIntens":9878,"ĠIndustr":9879,"ĠAnzeichen":9880,"Ġleeren":9881,"aby":9882,"block":9883,"Ġherbei":9884,"werten":9885,"obi":9886,"flÃ¤chen":9887,"ima":9888,"ĠbegrÃ¼":9889,"verl":9890,"ĠChip":9891,"...\"":9892,"ĠAustausch":9893,"Ġzwingen":9894,"Ġeinziger":9895,"ĠKooperation":9896,"ĠAutoren":9897,"ĠLehre":9898,"ensystem":9899,"Ġwohlhaben":9900,"Ġfolgender":9901,"ĠGleichheit":9902,"drÃ¼cke":9903,"ĠNordamerika":9904,"eigern":9905,"ĠAppar":9906,"ĠhÃ¤ufiger":9907,"graben":9908,"ĠAbstand":9909,"ĠerfÃ¼llt":9910,"ĠKÃ¤fer":9911,"ĠElektronen":9912,"ĠFiguren":9913,"ĠMathe":9914,"Ġallgemeine":9915,"Ġerzielen":9916,"ĠGreen":9917,"tagessen":9918,"ĠMartin":9919,"ĠGeburts":9920,"ĠBenzin":9921,"ĠPazifik":9922,"ĠIntuition":9923,"ĠMittleren":9924,"ĠAllgemeinen":9925,"Met":9926,"SS":9927,"grad":9928,"handel":9929,"kamen":9930,"uell":9931,"vern":9932,"Ġass":9933,"une":9934,"Ġsinken":9935,"Ġechter":9936,"ĠmÃ¼":9937,"schel":9938,"Ã¤nen":9939,"Ġkosm":9940,"auben":9941,"ĠApfel":9942,"Ġgigant":9943,"ĠGriff":9944,"ĠGates":9945,"ĠKÃ¶pfe":9946,"Ġansprechen":9947,"Unternehmen":9948,"ĠTaten":9949,"amide":9950,"ĠHollywood":9951,"ĠRio":9952,"ĠRiff":9953,"Ġlenken":9954,"Ġtrage":9955,"Ġtausenden":9956,"omos":9957,"ĠSchwerkraft":9958,"Ġunsicher":9959,"ĠCal":9960,"ĠCamb":9961,"ĠâĢº":9962,"ĠErwÃ¤rmung":9963,"ĠEinwohner":9964,"ĠChines":9965,"designer":9966,"ĠKindersterblichkeit":9967,"ĠHerkunft":9968,"Ġdreimal":9969,"ĠKluft":9970,"orenen":9971,"Ġeinzeln":9972,"Ġangepasst":9973,"ativer":9974,"anders":9975,"Ġirgendwas":9976,"Ġendet":9977,"ipend":9978,"ĠStudium":9979,"fÃ¤llen":9980,"Ġ95":9981,"Ġanzuschauen":9982,"geschritten":9983,"Ġerfuhr":9984,"Ġstattfinden":9985,"ĠFlughafen":9986,"ĠBewegungs":9987,"ĠBehÃ¶r":9988,"ĠPocken":9989,"ĠInstitute":9990,"ĠKÃ¼sten":9991,"ropfen":9992,"ĠbewÃ¤ltigen":9993,"ĠAbendessen":9994,"ĠVortrags":9995,"Ġtolles":9996,"Ġverhei":9997,"Ġregion":9998,"Ġethn":9999,"pressiv":10000,"ĠOperationen":10001,"Ġgenetisch":10002,"ĠKreislauf":10003,"ĠursprÃ¼ngliche":10004,"Ġchemischen":10005,"yramide":10006,"ĠDepressionen":10007,"zumachen":10008,"Ġultim":10009,"ĠEmpathie":10010,"ĠSmart":10011,"schaffung":10012,"ĠTragÃ¶die":10013,"FrÃ¼her":10014,"EC":10015,"Fol":10016,"LA":10017,"Tja":10018,"dacht":10019,"gungen":10020,"iffen":10021,"katastrop":10022,"lÃ¤nder":10023,"Ġdeta":10024,"iegeln":10025,"Ġweh":10026,"stel":10027,"stisch":10028,"ĠSir":10029,"ĠSÃ¤tze":10030,"schuss":10031,"Ġkauft":10032,"Ġkochen":10033,"ĠMak":10034,"ĠAcht":10035,"ĠGÃ¼te":10036,"ĠermÃ¶glich":10037,"ĠPC":10038,"ĠDom":10039,"ĠTenden":10040,"Ġbeziehen":10041,"Ġbedienen":10042,"ampen":10043,"ĠHut":10044,"ĠHaust":10045,"raht":10046,"ĠViet":10047,"Ġlive":10048,"ildete":10049,"Ġpol":10050,"spart":10051,"enschwe":10052,"ĠVerstehen":10053,"Ġvorkommen":10054,"ĠErziehung":10055,"rufe":10056,"etischen":10057,"ĠWeltbank":10058,"Ġrennen":10059,"ichteten":10060,"ĠzwÃ¶lf":10061,"ĠUmfrage":10062,"Ġangeschaut":10063,"Ġsicherer":10064,"iversitÃ¤t":10065,"ĠgeschÃ¼tzt":10066,"ĠschlÃ¤":10067,"ĠLiefer":10068,"ardo":10069,"Ġvermute":10070,"ĠMaÃŁe":10071,"Ġsoziales":10072,"ĠwunderschÃ¶nen":10073,"âĢľ,":10074,"Dennoch":10075,"Ġstartete":10076,"bole":10077,"ĠSumme":10078,"fangs":10079,"sonsten":10080,"ĠMeinungen":10081,"ĠKomprom":10082,"ĠFernseher":10083,"besitz":10084,"ĠTricks":10085,"wohnheiten":10086,"Ġperfekten":10087,"Ġakadem":10088,"ĠVielzahl":10089,"stoÃŁ":10090,"ĠLeistungen":10091,"ĠstÃ¤rk":10092,"Ġauftauchen":10093,"ĠtÃ¤glichen":10094,"ĠErnst":10095,"ĠVolks":10096,"ĠKriege":10097,"kasten":10098,"Ġleidenschaft":10099,"ĠUntersuchungen":10100,"ĠFabriken":10101,"ĠStoffwechsel":10102,"ĠschlieÃŁt":10103,"ĠOxytocin":10104,"Ġkomisch":10105,"ĠKurzem":10106,"Ġschaffte":10107,"Ġbewegte":10108,"ĠvergrÃ¶ÃŁer":10109,"ĠPanik":10110,"ĠdurchzufÃ¼hren":10111,"ĠAmazonas":10112,"ĠMischung":10113,"Ġgeredet":10114,"ĠVagina":10115,"ĠFlorida":10116,"ĠAbhÃ¤ngigkeit":10117,"ĠSchreibtisch":10118,"fleisch":10119,"ĠDezember":10120,"ĠSaturn":10121,"ĠCambridge":10122,"Ġdetaill":10123,"'.":10124,"15":10125,"Don":10126,"FÃ¼nf":10127,"GlÃ¼cklicherweise":10128,"Pat":10129,"gner":10130,"gÃ¤ng":10131,"haufen":10132,"iale":10133,"lass":10134,"otel":10135,"srate":10136,"uk":10137,"utet":10138,"Ġwach":10139,"Ġweich":10140,"Ġsenken":10141,"strÃ¶":10142,"Ġunwahrscheinlich":10143,"arakter":10144,"emp":10145,"Ġinmitten":10146,"alitÃ¤ten":10147,"achel":10148,"ierbar":10149,"ĠBahn":10150,"ĠWatt":10151,"Ġanerk":10152,"ĠDass":10153,"ĠLÃ¤rm":10154,"ĠLÃ¼cke":10155,"ĠLatein":10156,"raben":10157,"Ġschme":10158,"ĠVis":10159,"ĠtrÃ¤umen":10160,"bell":10161,"ĠjÃ¼d":10162,"ĠauslÃ¶":10163,"ĠSchall":10164,"Ġentschlossen":10165,"ĠstÃ¤nd":10166,"ĠstoÃŁen":10167,"otter":10168,"Ġherz":10169,"ĠSpiels":10170,"Ġzweites":10171,"gebÃ¤ude":10172,"haber":10173,"antom":10174,"ĠMittagessen":10175,"ĠStrahlung":10176,"ĠMinister":10177,"ĠLiebes":10178,"ĠMai":10179,"Ġhalben":10180,"Ã¼ttern":10181,"ĠPoster":10182,"Ġverdopp":10183,"Ġverdoppelt":10184,"Ġblicken":10185,"Ġerschien":10186,"ĠPrem":10187,"ĠPrivileg":10188,"getragen":10189,"ĠDarm":10190,"Ġerledigt":10191,"Ġfressen":10192,"Ġempfind":10193,"Ġbasieren":10194,"ĠZeichnungen":10195,"ĠKommunikations":10196,"Ġfinanzieren":10197,"ĠRegenwald":10198,"Ġetabl":10199,"Ã¶rderung":10200,"ĠKÃ¶nigin":10201,"Ġbeliebt":10202,"technik":10203,"ĠabschlieÃŁen":10204,"Ġtrainieren":10205,"onomie":10206,"ĠgewissermaÃŁen":10207,"Ġherrscht":10208,"ĠHallo":10209,"ĠNorwegen":10210,"Ġvielerlei":10211,"Ġoptimistisch":10212,"Ġkombinieren":10213,"Ġbewerten":10214,"ĠFischerei":10215,"ĠErkrankungen":10216,"ĠausgewÃ¤hlt":10217,"Ġbemerkenswerte":10218,"ĠzÃ¼chten":10219,"Ġzweieinhalb":10220,"Ġinvolviert":10221,"ĠEuro":10222,"ĠEnergien":10223,"bruar":10224,"Afrika":10225,"Fil":10226,"Null":10227,"Oft":10228,"aa":10229,"bele":10230,"brachte":10231,"drom":10232,"je":10233,"krÃ¤":10234,"lings":10235,"lÃ¤uft":10236,"okl":10237,"rien":10238,"wÃ¤l":10239,"wjet":10240,"stimmen":10241,"Ġeinstellen":10242,"geord":10243,"gewebe":10244,"Ã¼ben":10245,"ĠkÃ¤mpf":10246,"dest":10247,"alem":10248,"Ġfett":10249,"bergen":10250,"ĠGast":10251,"Ġgeschlagen":10252,"ĠgefÃ¼llt":10253,"ĠBanken":10254,"ĠKann":10255,"ĠKiste":10256,"Ġankommen":10257,"Ġanstellen":10258,"ĠEffekte":10259,"ĠFro":10260,"ĠDauer":10261,"Ġbeur":10262,"ĠbefÃ¼r":10263,"Ġaufgeben":10264,"ĠVier":10265,"ussten":10266,"ĠNatÃ¼rlich":10267,"Ġaussah":10268,"Ġpo":10269,"ĠSchlange":10270,"ĠCD":10271,"ĠClo":10272,"Ġkannten":10273,"uchsen":10274,"Ġspielten":10275,"ettel":10276,"ulin":10277,"ĠSpitzen":10278,"Ġreale":10279,"Ġrevolution":10280,"Ã¤hrungs":10281,"flung":10282,"ĠEinkauf":10283,"rachen":10284,"rÃ¶h":10285,"Ġbetreten":10286,"ĠInterpret":10287,"ĠgrÃ¶sser":10288,"Ġangesichts":10289,"atives":10290,"ĠGenen":10291,"Ġirgendeiner":10292,"Ġinteressantes":10293,"ĠbeschÃ¤d":10294,"Ġschwach":10295,"ttausende":10296,"Schon":10297,"ĠGewÃ¤sser":10298,"Ġwundervollen":10299,"ĠStudierenden":10300,"Ġkurzer":10301,"setzten":10302,"ĠFÃ¼ÃŁen":10303,"Ġverdammt":10304,"ĠKontinen":10305,"Ġwissenschaftlich":10306,"ĠBewusstseins":10307,"ĠSupermarkt":10308,"Ġverhindert":10309,"ĠInstitution":10310,"ĠNahen":10311,"ĠursprÃ¼nglichen":10312,"Ġwestliche":10313,"ĠTalent":10314,"ĠBandbreite":10315,"ĠRoman":10316,"ĠDirektor":10317,"ĠAutoritÃ¤t":10318,"ĠConne":10319,"ĠChirurg":10320,"Ã¤hmt":10321,"WeiÃŁt":10322,"ĠAnimation":10323,"ĠÃľberzeugung":10324,"Ġbeobachtete":10325,"Ġtransform":10326,"behÃ¶rde":10327,"Ã¤hler":10328,"Ġlandete":10329,"Ġexponentiell":10330,"ĠFrÃ¼hling":10331,"12":10332,"Egal":10333,"MÃ¤dchen":10334,"gab":10335,"hus":10336,"liste":10337,"paar":10338,"ville":10339,"wich":10340,"insel":10341,"Ġwein":10342,"Ġsimp":10343,"Ġunf":10344,"Ġmater":10345,"Ġeinnehmen":10346,"Ã¼ten":10347,"arzt":10348,"ors":10349,"ĠMesser":10350,"ĠAqu":10351,"ĠFund":10352,"ĠFoss":10353,"mmel":10354,"ĠLÃ¤nge":10355,"ĠverhÃ¤lt":10356,"Ġverlangt":10357,"ĠTausenden":10358,"reicht":10359,"Ġbewirkt":10360,"Ġmitteilen":10361,"ĠHu":10362,"Ġlass":10363,"Ġtritt":10364,"ehrte":10365,"steck":10366,"ĠNormal":10367,"ikeln":10368,"ĠÃ¼berlassen":10369,"ĠSchichten":10370,"ĠSchÃ¶pf":10371,"ĠVersagen":10372,"Ġwozu":10373,"ĠAnf":10374,"ĠErforschung":10375,"ĠBesten":10376,"Ġspeichern":10377,"obile":10378,"artiges":10379,"Ġneulich":10380,"istent":10381,"Ġbeginne":10382,"Ġgewachsen":10383,"Ġberuf":10384,"ĠGehalt":10385,"Ġprobieren":10386,"Ġ33":10387,"andelten":10388,"aya":10389,"ĠMedia":10390,"ĠSexu":10391,"laubnis":10392,"ĠKreaturen":10393,"ĠStraf":10394,"loser":10395,"ĠÃĸkonom":10396,"ĠFilter":10397,"konstru":10398,"Ġinneren":10399,"Ġerfasst":10400,"ĠKoran":10401,"ĠÃ¤hnliches":10402,"ĠVideospiele":10403,"ĠAmeise":10404,"ĠBruch":10405,"ĠVereinten":10406,"ĠflÃ¼ss":10407,"ĠInstall":10408,"Ġentscheidende":10409,"ĠArchitekt":10410,"ĠMotoren":10411,"Ġfortgeschritten":10412,"sammeln":10413,"ĠverfÃ¼gen":10414,"Ġfinanziellen":10415,"ĠWÃ¶rterbuch":10416,"Ãľberall":10417,"ĠBeschreibung":10418,"ĠBusiness":10419,"ĠFebruar":10420,"Ġunverm":10421,"ĠBenutzer":10422,"gnoranz":10423,"ĠHyper":10424,"ĠRepubl":10425,"Letztes":10426,"probleme":10427,"ĠElektronik":10428,"ĠAlgorithmus":10429,"Ġunendlich":10430,"Ġschafften":10431,"ĠAnreize":10432,"ĠBrÃ¼der":10433,"ĠRollstuhl":10434,"Ġstattfindet":10435,"ĠHindernisse":10436,"Ġrelevant":10437,"ĠprÃ¼fen":10438,"ĠImmunsystem":10439,"Ġnukle":10440,"Gemein":10441,"ĠTÃ¼rkei":10442,"Beg":10443,"Co":10444,"belt":10445,"brÃ¼che":10446,"iologie":10447,"klichen":10448,"las":10449,"pra":10450,"uel":10451,"vid":10452,"ĠÃ¤":10453,"Ġtend":10454,"Ġbrei":10455,"Ġzugeben":10456,"ĠMandel":10457,"ĠAg":10458,"ĠAre":10459,"ĠAmp":10460,"ĠWinkel":10461,"ĠKauf":10462,"Ġankommt":10463,"ĠFin":10464,"ĠLassen":10465,"ĠLaser":10466,"Ġverzweifelt":10467,"ĠTra":10468,"ĠbeÃ¤ngst":10469,"Ġscheitern":10470,"ktoren":10471,"bewusstsein":10472,"ĠfÃ¼rchte":10473,"Ã¤nzen":10474,"ĠStar":10475,"ĠProf":10476,"ĠErsatz":10477,"uchtet":10478,"ĠBek":10479,"ĠBew":10480,"laubt":10481,"ĠEinrichtung":10482,"istischer":10483,"Ġliest":10484,"Ġwiederher":10485,"aufbau":10486,"Ġverboten":10487,"Ġberichtet":10488,"Ġgeringer":10489,"Ġgerecht":10490,"ĠVorles":10491,"Ġbrauch":10492,"ĠGehÃ¶r":10493,"ĠAuflÃ¶sung":10494,"ĠAufzeichnungen":10495,"formt":10496,"Ġwahrschein":10497,"hÃ¶rer":10498,"ĠDatenbank":10499,"grenzen":10500,"ĠÃĦthiop":10501,"ahme":10502,"ĠPlanung":10503,"legenen":10504,"Ġ2001":10505,"hundert":10506,"ĠObjekten":10507,"ĠUrheber":10508,"temperatur":10509,"ĠDerek":10510,"ĠMittelpunkt":10511,"ĠAllgemein":10512,"Ġerstaunlichen":10513,"Ġphil":10514,"SpÃ¤ter":10515,"iversen":10516,"ĠFÃ¼hrungsk":10517,"ĠÃ¼berwÃ¤lt":10518,"Ġfinanziert":10519,"Ġplus":10520,"Ġgewaltige":10521,"ĠgewÃ¶hnlich":10522,"ĠberÃ¼hmten":10523,"ĠEinzelnen":10524,"Ġandauern":10525,"ĠBudd":10526,"Ġindividuellen":10527,"ĠReichweite":10528,"Ġschickten":10529,"lÃ¤ssig":10530,"ĠVerletzungen":10531,"ĠprÃ¤sentieren":10532,"ĠFettleib":10533,"Ġenglischen":10534,"ĠInteressante":10535,"Ġsynth":10536,"Ġbritischen":10537,"ĠErstaun":10538,"Ġeffizienter":10539,"ĠSkulptur":10540,"ladung":10541,"ĠÃ¼berqueren":10542,"Ġwidmen":10543,"ĠStÃ¤mme":10544,"ĠHardware":10545,"Ġsymbol":10546,"ĠVerzweiflung":10547,"',":10548,"?Â«":10549,"BF":10550,"Bild":10551,"Kommen":10552,"Leben":10553,"Mus":10554,"Vier":10555,"aot":10556,"beu":10557,"cl":10558,"gsten":10559,"kinder":10560,"mÃ¤r":10561,"otern":10562,"theorie":10563,"uge":10564,"vis":10565,"erei":10566,"strom":10567,"eide":10568,"Ġmet":10569,"schungen":10570,"arma":10571,"ĠbrÃ¤":10572,"Ġbele":10573,"Ã¶ser":10574,"altete":10575,"ĠBay":10576,"ĠWÃ¼n":10577,"ĠWende":10578,"ĠKab":10579,"ĠKÃ¤mpf":10580,"ĠDok":10581,"ĠDichter":10582,"ĠLunge":10583,"Ġverdien":10584,"ĠIgnoranz":10585,"ĠHill":10586,"ĠHeld":10587,"ĠNat":10588,"ĠNoch":10589,"ĠJon":10590,"agos":10591,"ilem":10592,"Ġimit":10593,"spezi":10594,"sprecher":10595,"ĠBescheid":10596,"ĠhierfÃ¼r":10597,"Ġlegten":10598,"able":10599,"rucken":10600,"ope":10601,"wege":10602,"Ġvielmals":10603,"Ġuntersch":10604,"sage":10605,"ĠwÃ¼rdest":10606,"ranten":10607,"Ġgleicher":10608,"agent":10609,"Ġgenaue":10610,"ĠNachmittag":10611,"icon":10612,"erstehen":10613,"ĠHandlung":10614,"ĠSec":10615,"ĠLieder":10616,"ĠGewinner":10617,"ustern":10618,"Ġ2003":10619,"Ġ85":10620,"Ġeingeschlossen":10621,"ĠRichter":10622,"voller":10623,"Ġchaot":10624,"ĠBehaupt":10625,"ĠSki":10626,"ĠProzesses":10627,"Ã¤chstes":10628,"arenergie":10629,"ĠFÃ¼hrungs":10630,"ĠBlutgefÃ¤":10631,"Ġgeheim":10632,"ĠHochzeit":10633,"ĠprÃ¤zi":10634,"ĠÃ¼berwachen":10635,"ĠBeschÃ¤ft":10636,"ĠAngestellten":10637,"ĠReligionen":10638,"ĠFriedens":10639,"ĠKÃ¶nigreich":10640,"ĠErkenntnisse":10641,"maschinen":10642,"ĠWiderspruch":10643,"ĠAlternativen":10644,"Ġdefinitiv":10645,"ĠWÃ¼sten":10646,"ĠMÃ¶bel":10647,"Ġradikal":10648,"ĠFÃ¼hrungsp":10649,"ĠeinschlieÃŁlich":10650,"Ġfotografiert":10651,"Ġexperimente":10652,"Ġbeschleunigen":10653,"Ġzutief":10654,"ĠOriginal":10655,"Ġilleg":10656,"Ġdraht":10657,"ĠwÃ¼sste":10658,"ĠRechner":10659,"Ġbeeindrucken":10660,"ĠstÃ¤dtischen":10661,"Ġjahrel":10662,"ĠArzneimittel":10663,"ĠlÃ¤cherlich":10664,"ĠSchokolade":10665,"ĠTrinkwasser":10666,"ĠZigar":10667,"ĠVietnam":10668,"Dadurch":10669,"El":10670,"Eben":10671,"Plan":10672,"bogen":10673,"fabr":10674,"gase":10675,"person":10676,"passung":10677,"ĠSimulation":10678,"Ġzun":10679,"espe":10680,"attet":10681,"bereit":10682,"ĠGuten":10683,"ĠGÃ¶t":10684,"Ġgekl":10685,"ĠBig":10686,"ĠPre":10687,"ĠDick":10688,"ĠDop":10689,"ĠDigit":10690,"ĠDoppel":10691,"ĠLED":10692,"ĠTax":10693,"Ġbezieht":10694,"anner":10695,"ehle":10696,"ĠHol":10697,"ĠHeute":10698,"ĠHub":10699,"ĠRein":10700,"Ġwarm":10701,"ĠVan":10702,"ĠVul":10703,"ĠZur":10704,"ĠSchock":10705,"ĠSchizophren":10706,"ĠProb":10707,"ĠCor":10708,"Ġwodurch":10709,"osn":10710,"Ġstimul":10711,"Ġsteigern":10712,"Ġlehr":10713,"Ġleichte":10714,"otten":10715,"Ġspr":10716,"Ġspekt":10717,"illa":10718,"blasen":10719,"riech":10720,"ulierung":10721,"ĠUnabhÃ¤ngigkeit":10722,"Ġ29":10723,"Ġunterrichtet":10724,"echnet":10725,"ungslos":10726,"apier":10727,"apital":10728,"edoch":10729,"Ġverbrennen":10730,"klang":10731,"Ġbetonen":10732,"ĠUmgebungen":10733,"gefasst":10734,"Ġsicherzustellen":10735,"Ġkomplette":10736,"ĠSchlimm":10737,"raditionen":10738,"ĠManager":10739,"hltÃ¤tigkeit":10740,"ĠGroÃŁe":10741,"ĠKrankenschwe":10742,"ĠgroÃŁartiger":10743,"Ġerfand":10744,"ĠFarm":10745,"Ġchron":10746,"ĠDemonstr":10747,"imenten":10748,"Ġerstaunt":10749,"spruchs":10750,"ĠZweiten":10751,"Ġbiologisch":10752,"ĠKalorien":10753,"ĠInfektion":10754,"ĠGelÃ¤nde":10755,"Ġstudierte":10756,"ĠSymbole":10757,"Ġtiefen":10758,"ĠGeheimnisse":10759,"ĠKolonie":10760,"ĠTaliban":10761,"grammen":10762,"ĠBalance":10763,"Ġindividuelle":10764,"ĠJoe":10765,"ĠDreie":10766,"ĠerÃ¶ffnen":10767,"ĠEmissionen":10768,"ĠAuffassung":10769,"ĠAnreiz":10770,"ĠVorhersagen":10771,"ĠvergrÃ¶ÃŁern":10772,"ĠHorizont":10773,"ĠSelektion":10774,"zirk":10775,"ĠUnsere":10776,"ĠOptimismus":10777,"ĠReihenfolge":10778,"ĠTÃ¤uschung":10779,"ĠLuxus":10780,"ĠFettleibigkeit":10781,"Ġzutiefst":10782,"App":10783,"Computer":10784,"Etwa":10785,"Gr":10786,"Su":10787,"Will":10788,"fiz":10789,"gst":10790,"kind":10791,"meld":10792,"prim":10793,"Ã¡":10794,"Î²":10795,"ena":10796,"Ġwild":10797,"ĠSus":10798,"llten":10799,"genden":10800,"hrer":10801,"Ġkat":10802,"ĠMir":10803,"Ã¶mm":10804,"Ġfarb":10805,"ĠfrÃ¶h":10806,"bereitung":10807,"ĠBrÃ¼cken":10808,"ĠDek":10809,"ĠLar":10810,"ĠTropfen":10811,"Ġaufzunehmen":10812,"ĠHass":10813,"olum":10814,"bellen":10815,"ĠNotwend":10816,"ĠauslÃ¤nd":10817,"ĠauswÃ¤hlen":10818,"Ġausreichend":10819,"ĠJes":10820,"Ġumsetzen":10821,"ĠStabilitÃ¤t":10822,"ocht":10823,"uts":10824,"ĠVerpfl":10825,"weiten":10826,"ĠCE":10827,"Ġbeizubringen":10828,"ĠBeteil":10829,"osop":10830,"Ġdarzustellen":10831,"Ġstren":10832,"Ġklug":10833,"zell":10834,"flos":10835,"istr":10836,"imon":10837,"rÃ¤gen":10838,"zenz":10839,"schlafen":10840,"ĠFlut":10841,"Ġinterakt":10842,"ĠBlasen":10843,"ĠGrundlagen":10844,"Ġgesucht":10845,"odie":10846,"gefangen":10847,"sichtigen":10848,"âĢĺ":10849,"ĠSteine":10850,"ĠÃĦqu":10851,"ĠPlatten":10852,"enntnis":10853,"schwing":10854,"ĠWohnung":10855,"ĠProdukten":10856,"board":10857,"ĠRobot":10858,"ĠTEDTalk":10859,"ĠAtome":10860,"ĠdrÃ¼ber":10861,"fÃ¼hrten":10862,"ĠPoesie":10863,"iffer":10864,"ĠBrand":10865,"ĠAntarkt":10866,"ĠAnthrop":10867,"ehlen":10868,"ĠSterblichkeit":10869,"ropie":10870,"ĠFrucht":10871,"Ġbreit":10872,"Ġbrennen":10873,"strate":10874,"appe":10875,"schuldig":10876,"schuldigen":10877,"vielfalt":10878,"ĠAppl":10879,"Ġumgekehrt":10880,"ĠIndividuum":10881,"wechseln":10882,"Ġblieben":10883,"ĠBlogs":10884,"ĠDreh":10885,"Ġvirtuelle":10886,"ĠBesitzer":10887,"oleranz":10888,"ĠKommentare":10889,"ĠVernunft":10890,"ĠHilfsmittel":10891,"riminalitÃ¤t":10892,"ĠMagazin":10893,"ĠZentimeter":10894,"ĠHypothese":10895,"ĠDiplomat":10896,"ĠChirurgen":10897,"Ġgeeignet":10898,"ĠVieh":10899,"ĠAugust":10900,"averei":10901,"ĠTendenz":10902,"ĠschlÃ¤gt":10903,"ĠConnect":10904,"AA":10905,"AIDS":10906,"Glauben":10907,"He":10908,"],":10909,"do":10910,"dann":10911,"fiel":10912,"face":10913,"faktoren":10914,"gei":10915,"krÃ¤fte":10916,"wichtig":10917,"Ġdan":10918,"ini":10919,"Ġmax":10920,"ĠmaÃŁ":10921,"gezogen":10922,"Ġvierten":10923,"ĠSehr":10924,"Ġbiz":10925,"Ġbzw":10926,"ĠMotto":10927,"delt":10928,"denn":10929,"achter":10930,"ĠGore":10931,"ĠgeprÃ¤":10932,"ĠBrit":10933,"sektor":10934,"Ġanzunehmen":10935,"ĠLust":10936,"ĠLKW":10937,"ump":10938,"Ġverfl":10939,"ĠTher":10940,"ĠTran":10941,"ĠIron":10942,"ĠHung":10943,"ĠRennen":10944,"rav":10945,"Ġjagen":10946,"agert":10947,"ilitÃ¤t":10948,"Ã¤nzer":10949,"ĠStap":10950,"ĠSturm":10951,"ĠÃ¼bers":10952,"Diesen":10953,"ĠErle":10954,"ĠErlaubnis":10955,"osis":10956,"Ġspaz":10957,"abb":10958,"ĠEndes":10959,"blicken":10960,"ĠgroÃŁem":10961,"Ġbesie":10962,"gebnisse":10963,"Ã¤nderung":10964,"pfern":10965,"hafter":10966,"ĠWeiÃŁen":10967,"iction":10968,"ĠPhantom":10969,"plÃ¤tze":10970,"ission":10971,"ĠMais":10972,"Ġgetragen":10973,"Ġgetrieben":10974,"Ġglamour":10975,"ĠMethan":10976,"Ġanzuwenden":10977,"Allerdings":10978,"fÃ¼hrte":10979,"ĠHÃ¶hen":10980,"Ġniemandem":10981,"Ġflach":10982,"ĠCous":10983,"Ġgedreht":10984,"ĠVirgin":10985,"Ġtiefgreifen":10986,"Ġfortsch":10987,"ĠtÃ¶tet":10988,"KÃ¶nnte":10989,"ĠDaher":10990,"ĠFeuerwehr":10991,"ĠSolarenergie":10992,"ĠRauch":10993,"Ġeinzigartige":10994,"ĠAkadem":10995,"Ġeffektiver":10996,"ĠKlimawandels":10997,"ĠEinkommens":10998,"kampf":10999,"ĠStandards":11000,"ĠDiskussionen":11001,"film":11002,"ĠiPod":11003,"ĠHeilung":11004,"ĠKopie":11005,"Ġmerkte":11006,"ĠKÃ¤se":11007,"Ġbeteiligen":11008,"Ġeigentlichen":11009,"Ġklassische":11010,"Ġschmutz":11011,"ĠDimension":11012,"ĠmÃ¤nnliche":11013,"firmen":11014,"Ġermutigen":11015,"freiheit":11016,"Ġindustrielle":11017,"ĠTunn":11018,"ĠPasswÃ¶rter":11019,"ĠOffenheit":11020,"Ġgesellschaftlichen":11021,"figur":11022,"Ġtransportieren":11023,"ĠwÃ¼ssten":11024,"ĠRhythmus":11025,"Ġintensiv":11026,"ĠExped":11027,"ĠPhosph":11028,"Ġkorrekt":11029,"Ġverurteilt":11030,"ĠSchlagzeilen":11031,"ĠExplosion":11032,"ĠAnhÃ¤nger":11033,"ymmetr":11034,"Ġspektakul":11035,".:":11036,"100":11037,"60":11038,"99":11039,"Ah":11040,"BM":11041,"Dr":11042,"Modell":11043,"ao":11044,"aÃŁen":11045,"hinge":11046,"hielt":11047,"kern":11048,"kurs":11049,"na":11050,"val":11051,"wol":11052,"yt":11053,"zieren":11054,"ĠrÃ¼":11055,"inierte":11056,"Ġsc":11057,"Ġsendet":11058,"Ġeur":11059,"Ġeuer":11060,"stock":11061,"stheorie":11062,"Ġunaus":11063,"Ã¼hren":11064,"Ġvollen":11065,"schrank":11066,"Ġzivil":11067,"Ġkal":11068,"itÃ¤re":11069,"ĠAgen":11070,"Ġfalten":11071,"bereiten":11072,"Ġgeleitet":11073,"terten":11074,"ĠBÃ¶r":11075,"ĠWale":11076,"ĠKreise":11077,"sey":11078,"Ġanre":11079,"ĠFing":11080,"ĠLou":11081,"ĠTsun":11082,"Ġbewiesen":11083,"Ġwiegt":11084,"Ġwarf":11085,"Ġwarst":11086,"Ġlese":11087,"ftig":11088,"ĠNar":11089,"Ġpein":11090,"Ġallm":11091,"ĠLego":11092,"Ġnochmals":11093,"ĠUnsicherheit":11094,"Ġredet":11095,"allel":11096,"fÃ¼gt":11097,"ektionen":11098,"izitÃ¤t":11099,"ĠGesetzen":11100,"verschmutzung":11101,"Ã¼ndung":11102,"Ġversagt":11103,"leiden":11104,"okraten":11105,"ĠFlaschen":11106,"formationen":11107,"Ġinterview":11108,"ĠKlar":11109,"Ġangewand":11110,"ĠMont":11111,"Ã¤len":11112,"ĠExtra":11113,"ĠPersonal":11114,"Ġgelingt":11115,"ĠMary":11116,"ĠWegen":11117,"Ġgestohlen":11118,"Ġjedenfalls":11119,"ĠManagement":11120,"ĠGroÃŁeltern":11121,"Ġteure":11122,"Ġeingestellt":11123,"ĠRobotern":11124,"ĠgroÃŁartiges":11125,"zeige":11126,"Ġglobaler":11127,"ĠFarb":11128,"erry":11129,"ĠSchwefel":11130,"Problem":11131,"Ġaktivieren":11132,"right":11133,"Ġkeinerlei":11134,"ĠErfindungen":11135,"ĠZentral":11136,"ĠGolden":11137,"ĠStrecke":11138,"oole":11139,"Ġdringend":11140,"ĠFelder":11141,"ĠerwÃ¤hnte":11142,"ĠKleider":11143,"Ġtraur":11144,"ĠChinas":11145,"ĠRestaurants":11146,"ĠLaptops":11147,"ĠAnwalt":11148,"ĠWichtigkeit":11149,"ĠBeobachtung":11150,"ĠImpfstoff":11151,"ĠArbeitsplÃ¤tze":11152,"Ġbeschleunigt":11153,"ĠWeltw":11154,"ĠPrimaten":11155,"mechanik":11156,"ĠSÃ¤ugetiere":11157,"ĠTÃ¶chter":11158,"ĠSpannung":11159,"ihad":11160,"Ġverkaufte":11161,"ĠGerÃ¼st":11162,"ĠHalb":11163,"Ġkonsumieren":11164,"ĠsorgfÃ¤ltig":11165,"ĠUrknall":11166,"/&":11167,"Char":11168,"DA":11169,"Mar":11170,"SW":11171,"Syn":11172,"aj":11173,"ble":11174,"bran":11175,"computer":11176,"diger":11177,"kÃ¼r":11178,"kins":11179,"kreisen":11180,"leitung":11181,"med":11182,"neu":11183,"ohnen":11184,"pal":11185,"treten":11186,"Ġ:":11187,"iefer":11188,"Ġweinen":11189,"stimmt":11190,"ĠSechs":11191,"ĠSendung":11192,"Ã¤le":11193,"Ġbaten":11194,"Ġzuletzt":11195,"ĠfÃ¤":11196,"ĠGaler":11197,"ĠBob":11198,"ĠBÃ¤ren":11199,"ĠBranche":11200,"ĠEU":11201,"ĠFert":11202,"senden":11203,"ĠLÃ¼gen":11204,"ĠTank":11205,"rebs":11206,"iser":11207,"Ġaufstehen":11208,"Ġmittel":11209,"ĠHaltung":11210,"ĠZus":11211,"ĠZwill":11212,"ĠNÃ¤chstes":11213,"agnet":11214,"ĠStory":11215,"ĠÃ¼berdenken":11216,"Ġimp":11217,"ĠVerÃ¶ffent":11218,"schafter":11219,"ĠAnliegen":11220,"undation":11221,"ĠMenschenrechte":11222,"Ġstr":11223,"Ġstreiten":11224,"ickte":11225,"Ġdurchlaufen":11226,"opter":11227,"ĠgroÃŁzÃ¼g":11228,"flÃ¼ss":11229,"Ġkonst":11230,"ĠfÃ¼t":11231,"arth":11232,"Industrie":11233,"ĠOrchester":11234,"Ġwiederver":11235,"aufnahmen":11236,"zentren":11237,"attung":11238,"ĠBildungssystem":11239,"ĠUnterhalt":11240,"Ġbesserer":11241,"ĠInteraktionen":11242,"ĠSowjet":11243,"standard":11244,"ypen":11245,"Ġgelben":11246,"probe":11247,"ĠPlÃ¤ne":11248,"Schau":11249,"ĠVerbraucher":11250,"ĠReis":11251,"ĠBuches":11252,"ĠWohltÃ¤tigkeit":11253,"Ġschweren":11254,"Ġallerer":11255,"ĠeingeschrÃ¤n":11256,"ĠWerbe":11257,"ĠDikt":11258,"ĠBedauern":11259,"ifiziert":11260,"ĠKortex":11261,"ĠIndiens":11262,"ĠHerzinf":11263,"Ġdraussen":11264,"Ġerkannten":11265,"Beide":11266,"ĠPoly":11267,"ĠSong":11268,"ĠFreizeit":11269,"ĠHafen":11270,"wohnern":11271,"Ġaktiviert":11272,"ĠÃ¶ffnete":11273,"ĠverrÃ¼ckten":11274,"ventionen":11275,"rateg":11276,"Ġfreue":11277,"Ġschlechtes":11278,"Ġfantastischen":11279,"ĠStreben":11280,"Ġbeantwortet":11281,"Ġdrinnen":11282,"Ġakzeptiert":11283,"ĠPilz":11284,"ĠreprÃ¤sentieren":11285,"ĠreligiÃ¶se":11286,"ĠBrennstoff":11287,"Ġberechnet":11288,"ĠKritik":11289,"Ġklinische":11290,"ĠImpuls":11291,"Ġgeplant":11292,"ĠBerechnung":11293,"ĠLeser":11294,"burgh":11295,"Ġminimal":11296,"ĠSklaven":11297,"ĠSchlechte":11298,"ĠPatent":11299,"ĠMerkmale":11300,"ĠInitiative":11301,"ĠSubstanz":11302,"ĠStickstoff":11303,"Ġassozi":11304,"ĠSchizophrenie":11305,"ĠNotwendigkeit":11306,"Nummer":11307,"RB":11308,"Sagen":11309,"Somit":11310,"Zw":11311,"eget":11312,"gÃ¼nst":11313,"hett":11314,"ya":11315,"yle":11316,"erung":11317,"Ġsicht":11318,"ichern":11319,"ĠbÃ¶se":11320,"Ġzueinander":11321,"organ":11322,"ith":11323,"emen":11324,"ĠMod":11325,"Ġgol":11326,"ĠGlaube":11327,"elson":11328,"ĠBÃ¶se":11329,"ĠWall":11330,"ĠKub":11331,"ĠEle":11332,"ĠLein":11333,"ĠLiz":11334,"Ġverp":11335,"Ġverraten":11336,"ĠTed":11337,"Ġmithilfe":11338,"ĠHen":11339,"ĠRay":11340,"raham":11341,"ĠVaters":11342,"usste":11343,"Ġline":11344,"ĠfÃ¼rchten":11345,"ĠNeg":11346,"agten":11347,"ilz":11348,"iland":11349,"ĠState":11350,"ĠÃ¼berle":11351,"Ġimprov":11352,"ĠVerk":11353,"ivitÃ¤t":11354,"ĠProto":11355,"ĠCra":11356,"ersage":11357,"Ġregener":11358,"ĠUlt":11359,"ĠrÃ¤um":11360,"Einmal":11361,"ĠWirbel":11362,"Ġarchite":11363,"ĠAussehen":11364,"ĠVorbild":11365,"ĠNeandert":11366,"ĠBlack":11367,"Ġwahrgenommen":11368,"que":11369,"ĠBergen":11370,"ĠSoc":11371,"Ġ55":11372,"Ġerstmals":11373,"ĠEntropie":11374,"achtel":11375,"ferenzen":11376,"âĢĻ":11377,"Ġgebunden":11378,"Ġkleineren":11379,"ĠMittag":11380,"ĠPlÃ¤tze":11381,"ĠTeppich":11382,"ĠLichts":11383,"ible":11384,"komm":11385,"Ġgemeinschaft":11386,"Ġnormales":11387,"Ġhalfen":11388,"ifizieren":11389,"ĠKompl":11390,"ĠSonnt":11391,"Ġleise":11392,"ĠBrun":11393,"ĠParas":11394,"ĠPapa":11395,"ĠCount":11396,"ĠDurchmesser":11397,"ĠSchwellen":11398,"ĠLiber":11399,"Verb":11400,"ĠFreit":11401,"KÃ¶nnten":11402,"ĠgefÃ¤hrliche":11403,"ĠKollege":11404,"Ġlauter":11405,"ĠEinzige":11406,"Ġlokal":11407,"Ã¼sseln":11408,"Ġfinanziell":11409,"Ġfinanzielle":11410,"ĠLeistungs":11411,"ĠMÃ¼he":11412,"Ġeinzigartigen":11413,"schnitte":11414,"ĠInvestoren":11415,"ĠInsekt":11416,"Ġintelligent":11417,"Ġerweitert":11418,"ĠWortes":11419,"Ã¼hungen":11420,"ĠsÃ¼ÃŁ":11421,"ĠFoundation":11422,"Ġmathematische":11423,"basierte":11424,"Ġaggress":11425,"Ġkombiniert":11426,"Ġverwendeten":11427,"Ġmotivieren":11428,"ĠJuli":11429,"Gerade":11430,"ĠNebenwirkungen":11431,"ĠeuropÃ¤ischen":11432,"ĠRettung":11433,"ĠbeschrÃ¤nkt":11434,"Ġlandwirtschaft":11435,"Ġewig":11436,"ĠKategorie":11437,"Ġfokussieren":11438,"ĠKonstruktion":11439,"ĠGetreide":11440,"ĠAnweisungen":11441,"Ġvergewaltigt":11442,"ĠHonig":11443,"osophen":11444,"40":11445,"CH":11446,"Is":11447,"Netz":11448,"Per":11449,"Richtig":11450,"SP":11451,"dachte":11452,"hirn":11453,"ror":11454,"rein":11455,"rÃ¤t":11456,"uckt":11457,"Ġwahnsinn":11458,"Ġeingebaut":11459,"Ġhom":11460,"Ġharten":11461,"Ã¤ume":11462,"Ġbricht":11463,"ĠMinder":11464,"Ã¶hnen":11465,"Ġfassen":11466,"ĠGrÃ¼":11467,"Ġgestr":11468,"Ġgefolgt":11469,"ĠWÃ¶rtern":11470,"ĠFBI":11471,"ĠLaw":11472,"ĠTast":11473,"ÃŁig":11474,"ĠRande":11475,"ĠlÃ¼gen":11476,"ĠJaz":11477,"ĠSchreib":11478,"reiÃŁen":11479,"ĠVersprechen":11480,"ĠVerschmutzung":11481,"zuhalten":11482,"rÃ¼sen":11483,"Ġmeint":11484,"Ġstrateg":11485,"otherapie":11486,"abdruck":11487,"ĠLeder":11488,"riebe":11489,"Ġdurchaus":11490,"ĠSper":11491,"Ã¤rten":11492,"forscher":11493,"Ġkontin":11494,"lieÃŁt":11495,"Ã¤usen":11496,"Ġproblem":11497,"anthrop":11498,"ĠKoord":11499,"Ġkommenden":11500,"Ġjedermann":11501,"Ġ42":11502,"erkrank":11503,"geworfen":11504,"probiert":11505,"Ġcoole":11506,"ometern":11507,"setzte":11508,"Ġriesiger":11509,"ĠglÃ¼ckliche":11510,"ĠAmy":11511,"Ġerreichte":11512,"Design":11513,"oldat":11514,"ĠVertrag":11515,"ĠpersÃ¶nlicher":11516,"gegenwÃ¤rt":11517,"ĠBrookl":11518,"ĠChromos":11519,"ĠTÃ¼ren":11520,"Ġschrecklichen":11521,"ĠNervensystem":11522,"anterweise":11523,"gesteuer":11524,"ĠWohnzimmer":11525,"ĠAnalogie":11526,"zutreten":11527,"ĠWolke":11528,"Ġschlimmste":11529,"Ġtypische":11530,"Ġschneiden":11531,"Ġzentralen":11532,"Ġverletzen":11533,"ĠGestalt":11534,"ĠQuantenmechanik":11535,"Ġangeboten":11536,"ĠGrÃ¶ÃŁenordnung":11537,"ĠSlums":11538,"ĠSeife":11539,"Ġmissb":11540,"ĠSklaverei":11541,"kriegen":11542,"ĠFreiwilligen":11543,"haftes":11544,"Ġentfernten":11545,"Ġfossilen":11546,"ĠKarikatur":11547,"Ġerlaubte":11548,"China":11549,"Ġverheiratet":11550,"ĠSmartph":11551,"Ġdaneben":11552,"Drittens":11553,"KB":11554,"War":11555,"dieren":11556,"iktion":11557,"uter":11558,"uert":11559,"wann":11560,"erte":11561,"iner":11562,"Ġwandern":11563,"Ġsau":11564,"Ġsorgt":11565,"Ġele":11566,"eiert":11567,"ĠeinfÃ¼hren":11568,"ĠSah":11569,"irtschaft":11570,"armen":11571,"gender":11572,"Ġfahr":11573,"Ġgreif":11574,"Ġgelegt":11575,"ĠKÃ¼n":11576,"sex":11577,"Ġanziehen":11578,"ĠFasern":11579,"ĠPandem":11580,"ros":11581,"Ġverdeut":11582,"Ġverletz":11583,"ĠTraditionen":11584,"Ġbescheiden":11585,"ckel":11586,"Ġmitgebracht":11587,"ĠHipp":11588,"ĠRasse":11589,"Ġwartete":11590,"ĠVit":11591,"ĠVisu":11592,"ĠZehen":11593,"ĠJim":11594,"Ġumfasst":11595,"ometr":11596,"eilt":11597,"splan":11598,"ĠProfit":11599,"ĠClin":11600,"ĠArg":11601,"ĠAnnahmen":11602,"ĠAnlage":11603,"Ġentsetz":11604,"Ġherstellt":11605,"ets":11606,"Ġdurchgehen":11607,"welle":11608,"herz":11609,"ĠUfer":11610,"Ã¤rt":11611,"Ġruss":11612,"barung":11613,"imieren":11614,"rachter":11615,"stellbar":11616,"samer":11617,"Ġgewohnt":11618,"verstanden":11619,"gebieten":11620,"Ġgeringe":11621,"okal":11622,"ritts":11623,"fahrung":11624,"Ġbetr":11625,"ahll":11626,"bricht":11627,"ĠnatÃ¼rlicher":11628,"ĠRaumes":11629,"ĠRaumschiff":11630,"idee":11631,"David":11632,"Ġschlicht":11633,"Ġdirekte":11634,"ĠauÃŁerordentlich":11635,"ĠDete":11636,"Ġbefand":11637,"Ġwichtiges":11638,"Ġsequenz":11639,"ĠStufen":11640,"Ġverteid":11641,"endete":11642,"ĠBabies":11643,"Ġjenes":11644,"ĠAntrieb":11645,"Ġflogen":11646,"Ġteilt":11647,"ĠbenÃ¶tigte":11648,"Werden":11649,"Gew":11650,"ĠBÃ¼rgerkrieg":11651,"Ġbewahr":11652,"Genauso":11653,"Ġtechnisch":11654,"Ġerfolgreiche":11655,"ĠDrohnen":11656,"ografen":11657,"ventuell":11658,"ĠPsychologen":11659,"ĠPolizisten":11660,"Ġgewaltigen":11661,"ĠRaub":11662,"ĠMÃ¤rkten":11663,"wechs":11664,"Ġnutzte":11665,"Ġemotionalen":11666,"Ġfehlen":11667,"ĠPilot":11668,"ĠKÃ¶rpern":11669,"Ġsolches":11670,"ĠlÃ¤cheln":11671,"ĠHeimatstadt":11672,"ĠElektroden":11673,"Ġprogrammiert":11674,"ĠrÃ¼ckwÃ¤rts":11675,"Ġklinischen":11676,"Ġelektronische":11677,"ĠNeurowissenschaft":11678,"ĠTiefsee":11679,"Exper":11680,"ĠtatsÃ¤chlichen":11681,"ĠMobiltelef":11682,"ĠNÃ¤hrstoffe":11683,"ĠDschihad":11684,"ĠverblÃ¼ffend":11685,"Ġtrainiert":11686,"ĠKandidaten":11687,"gehÃ¶rigkeit":11688,"coln":11689,"ĠDopamin":11690,"Ġangewandt":11691,"Ġarchitekton":11692,"11":11693,"Do":11694,"Dank":11695,"Mach":11696,"code":11697,"hÃ¤u":11698,"rel":11699,"sw":11700,"ugend":11701,"viertel":11702,"zone":11703,"ieber":11704,"Ġmed":11705,"Ġeinfallen":11706,"gels":11707,"onach":11708,"ĠSw":11709,"ĠhÃ¤":11710,"Ġhey":11711,"Ġnational":11712,"Ġbinden":11713,"Ġbild":11714,"Ġbringe":11715,"Ġkle":11716,"Ġkraft":11717,"orischen":11718,"atschen":11719,"empf":11720,"ĠGÃ¼ter":11721,"ĠBamb":11722,"ĠBombe":11723,"seel":11724,"ĠEtwas":11725,"UngefÃ¤hr":11726,"Ġdenkst":11727,"ĠDV":11728,"ĠDÃ¼":11729,"ĠLeit":11730,"ĠTiger":11731,"ĠII":11732,"Ġaufgestellt":11733,"ĠRassen":11734,"ĠRatte":11735,"Ġschufen":11736,"ĠVÃ¤ter":11737,"Ġlan":11738,"becken":11739,"bett":11740,"ĠZun":11741,"Ġauszur":11742,"Ġausprobieren":11743,"ĠJose":11744,"ikalen":11745,"Ġpflanzen":11746,"ĠSchÃ¤tzung":11747,"reiber":11748,"Wird":11749,"weiÃŁ":11750,"Ġwoanders":11751,"ĠErwei":11752,"oskop":11753,"Ã¤chter":11754,"rief":11755,"etro":11756,"Ġklop":11757,"ĠabhÃ¤ngt":11758,"ungsmittel":11759,"Ġbislang":11760,"Ã¤uber":11761,"versprechen":11762,"ĠKonvers":11763,"ĠKonserv":11764,"gebildet":11765,"Ġverborgen":11766,"altungen":11767,"ĠBereit":11768,"ĠBerÃ¼hrung":11769,"ĠWeizen":11770,"Ġneuesten":11771,"ĠAlb":11772,"Ġgeschm":11773,"Ġgestiegen":11774,"Ġanderswo":11775,"lÃ¶ser":11776,"Ġgemeint":11777,"ĠKunststoff":11778,"avig":11779,"Ã¼tze":11780,"ĠObdach":11781,"Ġglobales":11782,"ĠSinnes":11783,"ĠLehrerin":11784,"ĠProgrammierer":11785,"versicht":11786,"wendig":11787,"iftung":11788,"Beweg":11789,"Ġfreuen":11790,"ĠGumm":11791,"Ġautomat":11792,"ĠAngesicht":11793,"Ġaufregende":11794,"Ġ2011":11795,"Ġ2012":11796,"ĠJohnson":11797,"Ġhingegen":11798,"ĠmÃ¤chtige":11799,"Ġphysisch":11800,"Ġsowieso":11801,"ĠKolonien":11802,"199":11803,"ĠPalÃ¤st":11804,"Ġtypischen":11805,"schlÃ¤gen":11806,"Ġaufwuchs":11807,"Ġschwarzes":11808,"ĠSilicon":11809,"ĠInnenstadt":11810,"ĠBeobacht":11811,"ĠGarage":11812,"ĠPferde":11813,"ĠFlÃ¼chtlinge":11814,"amerikanischen":11815,"ĠWurzel":11816,"ĠErkrankung":11817,"ĠKommentar":11818,"Ġfurchtbar":11819,"Ġkognitive":11820,"Ġtransportiert":11821,"ĠbestÃ¤tigen":11822,"ĠverknÃ¼pft":11823,"Ġphysikalischen":11824,"ĠtatsÃ¤chliche":11825,"ĠRettungs":11826,"ĠSpanien":11827,"ĠDÃ¶rfer":11828,"riminellen":11829,"ĠAngelegenheit":11830,"gesprÃ¤ch":11831,"Ġrestlichen":11832,"Ġverbreitete":11833,"ĠKonzentration":11834,"Ġspontan":11835,"ĠBehÃ¶rden":11836,"Ġverdoppeln":11837,"ĠPremier":11838,"ĠJazz":11839,".'":11840,"John":11841,"Mo":11842,"Ro":11843,"kennung":11844,"lers":11845,"mitte":11846,"medizin":11847,"rand":11848,"sal":11849,"Ġue":11850,"Ġwette":11851,"Ġserv":11852,"iche":11853,"ania":11854,"sters":11855,"steigt":11856,"Ġeinbringen":11857,"ĠShang":11858,"ĠSnow":11859,"schrau":11860,"arre":11861,"Ġbot":11862,"Ġzuhause":11863,"itÃ¤ren":11864,"Ã¶tt":11865,"ierst":11866,"Ġgriech":11867,"ĠGehen":11868,"Ġgez":11869,"Ġgesen":11870,"ĠWaren":11871,"leuchten":11872,"Ġanspruchs":11873,"Ung":11874,"ĠLong":11875,"ĠTes":11876,"ĠTatsÃ¤chlich":11877,"Ġaufhalten":11878,"Ġsolle":11879,"ĠSieben":11880,"ĠHell":11881,"ĠHektar":11882,"Ġschmal":11883,"ĠZy":11884,"Ġausprobiert":11885,"ĠJur":11886,"ĠStolz":11887,"ĠÃ¼berl":11888,"omÃ¶glich":11889,"ĠSchach":11890,"springen":11891,"Ġjegliche":11892,"zucht":11893,"ĠProv":11894,"Ġvorschlagen":11895,"ĠInder":11896,"ĠErnte":11897,"Ġstol":11898,"Ġlehrt":11899,"ĠLetz":11900,"blatt":11901,"ungsweise":11902,"ĠmÃ¼sst":11903,"izierten":11904,"Einfach":11905,"Ins":11906,"ĠHersteller":11907,"ĠLandschaften":11908,"ĠKlass":11909,"ĠBerat":11910,"ĠSouth":11911,"Ġwillkommen":11912,"Ġ2050":11913,"Ġjederzeit":11914,"Ġbeschrieb":11915,"Ġmenschlich":11916,"low":11917,"ĠausgedrÃ¼ckt":11918,"Ġvermuten":11919,"Ġklare":11920,"ĠverkÃ¼n":11921,"renzen":11922,"ĠgrÃ¶ÃŁeres":11923,"Ã¼tzten":11924,"Ġhinterher":11925,"ĠNetzwerken":11926,"Ġdeprim":11927,"Ġriesig":11928,"Ġ%.":11929,"okratie":11930,"ĠfÃ¼hrenden":11931,"ĠAmb":11932,"ĠWerkzeugen":11933,"Ġloszu":11934,"ĠPower":11935,"Ġanschau":11936,"Ġauszuprobieren":11937,"Ġflu":11938,"ĠDurchbruch":11939,"ĠgrÃ¶ÃŁtenteils":11940,"Ġwachsende":11941,"Ġwachsenden":11942,"ĠÃĦrger":11943,"Ġbrut":11944,"strahl":11945,"Ġindische":11946,"Ġtechnologische":11947,"ĠTempel":11948,"ĠBakterium":11949,"behalten":11950,"Ġanfingen":11951,"ĠZufÃ¤":11952,"ographic":11953,"ĠRauschen":11954,"ĠWohnungen":11955,"bÃ¼chern":11956,"heimlich":11957,"Ġkritische":11958,"ĠDelf":11959,"ĠVerkehrs":11960,"ĠTauch":11961,"ĠTreppe":11962,"euchtung":11963,"Ġintegrieren":11964,"Ġintegriert":11965,"Ġentsprechend":11966,"ĠInteressantes":11967,"Wegen":11968,"ĠPasswort":11969,"ĠRakete":11970,"ĠInterviews":11971,"ĠRhyth":11972,"Amerikaner":11973,"Ġstaatlichen":11974,"ĠAtlantik":11975,"ĠverÃ¶ffentlichte":11976,"ĠHÃ¼hner":11977,"Ġschuldig":11978,"Ġbeherrschen":11979,"Offensichtlich":11980,"ĠÃľberwachung":11981,"Ġuniverse":11982,"ĠDistanz":11983,"izza":11984,"Ġabends":11985,"ĠKonkurrenz":11986,"Ġwahrscheinlicher":11987,"ĠÃĦthiopien":11988,"ilemma":11989,"ĠprÃ¤zise":11990,"Ġelegan":11991,"70":11992,"CO":11993,"Em":11994,"Land":11995,"Vort":11996,"Weiter":11997,"blicherweise":11998,"digkeit":11999,"krÃ¶":12000,"last":12001,"mte":12002,"masse":12003,"mÃ¤nner":12004,"szeit":12005,"iehen":12006,"Ġeventuell":12007,"anzug":12008,"stamm":12009,"Ġeinig":12010,"Ã¼bt":12011,"Ġisst":12012,"Ã¤ge":12013,"arden":12014,"arent":12015,"Ġkart":12016,"ĠMeile":12017,"ĠAtt":12018,"ĠAffe":12019,"Ġgrauen":12020,"berecht":12021,"Ġgeschei":12022,"ĠBesser":12023,"ĠWander":12024,"ĠanhÃ¶ren":12025,"Ġveranst":12026,"ĠTenn":12027,"isationen":12028,"ĠHum":12029,"ĠRing":12030,"ragend":12031,"Ġschenken":12032,"Ġtrugen":12033,"Ã¼bergreifen":12034,"bestand":12035,"ĠNick":12036,"Ġumgew":12037,"ĠStrÃ¶":12038,"ĠÃ¼bernommen":12039,"Ġperson":12040,"ometrie":12041,"ĠGefÃ¤":12042,"ĠSchlangen":12043,"ĠProg":12044,"ĠCel":12045,"ĠArkt":12046,"Ġwohnen":12047,"ĠAnpassung":12048,"ĠErt":12049,"Ġhierbei":12050,"otische":12051,"ĠEnzy":12052,"Ġdurcheinander":12053,"ĠUnfÃ¤lle":12054,"ĠvielfÃ¤lt":12055,"fÃ¼llen":12056,"Ġrational":12057,"bart":12058,"ĠEinfÃ¼hrung":12059,"ester":12060,"Institut":12061,"gebrochen":12062,"Ġobjekt":12063,"Ġzusammenfassen":12064,"ĠZuhÃ¶ren":12065,"ĠFord":12066,"ĠBlind":12067,"Ġangewendet":12068,"ĠwillkÃ¼r":12069,"ĠFrequenz":12070,"ĠAbsichten":12071,"ĠAlgen":12072,"cherch":12073,"also":12074,"onders":12075,"Ġkleinsten":12076,"ĠMiner":12077,"ĠVerbrauch":12078,"ĠComputers":12079,"ĠmÃ¶glichst":12080,"ĠYo":12081,"Ġwenigsten":12082,"ĠManchmal":12083,"Ġfesthalten":12084,"Ġbefrie":12085,"ĠHaushalt":12086,"ibilitÃ¤t":12087,"ackte":12088,"ynman":12089,"Ġbetrachte":12090,"ĠNews":12091,"ĠProjekts":12092,"ĠSchwimmen":12093,"digungs":12094,"Meiner":12095,"ĠLincoln":12096,"Ġvertreten":12097,"Ġpolitischer":12098,"ĠKapazitÃ¤t":12099,"Ġexistierte":12100,"Wollen":12101,"ĠOzeans":12102,"afÃ©":12103,"onds":12104,"orea":12105,"Ġerlebte":12106,"strahlung":12107,"Ġempfangen":12108,"ĠKalk":12109,"Ġbedeutende":12110,"ĠHimmels":12111,"ĠBaumk":12112,"Ġauftau":12113,"ĠStammes":12114,"ova":12115,"Ġmoralisch":12116,"region":12117,"ĠgewÃ¶hnliche":12118,"ĠTransformation":12119,"ĠBalken":12120,"ĠMÃ¶gliche":12121,"Ġverwirklichen":12122,"ĠVerhaltensweisen":12123,"Ġnegativen":12124,"ĠTermin":12125,"Ġanalysiert":12126,"ĠzuzuhÃ¶ren":12127,"Ġmassive":12128,"Ġausgestorben":12129,"ĠKliniken":12130,"ĠBestandteil":12131,"Ġkollektiven":12132,"Ġzustimmen":12133,"Ġbedeutsam":12134,"Solche":12135,"Regierung":12136,"ĠberÃ¼cksichtigt":12137,"Ġstreben":12138,"ĠBrown":12139,"Ġdiagnostiziert":12140,"ĠKonzert":12141,"Ġinterpretieren":12142,"Ġmuslimischen":12143,"ĠEinschrÃ¤nkungen":12144,"ampagne":12145,"Ġverleihen":12146,"Ġgeglaubt":12147,"ĠWilliam":12148,"ĠHerangehensweise":12149,"ĠMRT":12150,"ĠmÃ¼de":12151,"ĠInterpretation":12152,"Ġjahrelang":12153,"ĠJesus":12154,"ĠBrooklyn":12155,"Ġlandet":12156,"\"?":12157,"BA":12158,"Keiner":12159,"Lass":12160,"Mal":12161,"OL":12162,"Po":12163,"aste":12164,"asten":12165,"bem":12166,"diert":12167,"hern":12168,"haut":12169,"ialen":12170,"ibr":12171,"leitungen":12172,"minen":12173,"ness":12174,"zog":12175,"Â°":12176,"enke":12177,"eres":12178,"erkt":12179,"untern":12180,"Ġeurer":12181,"anfall":12182,"Ġunheimlich":12183,"Ġeineinhalb":12184,"ĠSom":12185,"ĠSqu":12186,"ĠSeiden":12187,"ĠSav":12188,"irekt":12189,"schaltet":12190,"schÃ¤tzung":12191,"Ġhing":12192,"Ġhandelte":12193,"arer":12194,"arter":12195,"Ġbahn":12196,"atsch":12197,"auschen":12198,"alteten":12199,"Ġfange":12200,"urger":12201,"Ġgelei":12202,"Ġgelaufen":12203,"ĠKochen":12204,"Ġann":12205,"ĠEgo":12206,"ĠFischen":12207,"ĠFunk":12208,"ĠFeucht":12209,"Ġerheben":12210,"ĠPest":12211,"ĠLine":12212,"ignen":12213,"Ġbequem":12214,"Ġschwei":12215,"Ġschuf":12216,"ĠschÃ¤tze":12217,"ĠVent":12218,"ĠStÃ¶rung":12219,"Ġprim":12220,"Ġpopul":12221,"hlst":12222,"ĠSchein":12223,"ĠSchad":12224,"ĠVersch":12225,"ĠVerrÃ¼ck":12226,"ĠVergewalt":12227,"Ġandererseits":12228,"ĠEric":12229,"ĠRepar":12230,"ruhe":12231,"schafts":12232,"etts":12233,"Ġrecyc":12234,"Ġrecherch":12235,"Ġuntereinander":12236,"risen":12237,"Ġstehlen":12238,"Ġsteuert":12239,"Ġkonvention":12240,"ĠEinen":12241,"ads":12242,"ologisches":12243,"rÃ¤der":12244,"genda":12245,"steri":12246,"Ġwiederhol":12247,"ĠAusschnitt":12248,"Ġversorgt":12249,"leid":12250,"aks":12251,"Ġangezogen":12252,"ĠWeisen":12253,"breitung":12254,"Ġgesunken":12255,"ico":12256,"sslich":12257,"Ġsicheren":12258,"ĠgelÃ¤hmt":12259,"nosen":12260,"ĠEntwicklungen":12261,"Ġfestzustellen":12262,"Ġriecht":12263,"zahlt":12264,"kontrolle":12265,"ĠFormel":12266,"Ġstarteten":12267,"Ġhalbes":12268,"ĠJahrhunderte":12269,"volles":12270,"ĠFilmem":12271,"Ġcharakter":12272,"ĠUrlaub":12273,"ĠRÃ¼ckseite":12274,"Ġfordern":12275,"Ġformt":12276,"ĠParteien":12277,"ĠÃ¶ffentlicher":12278,"Ġuntersuchten":12279,"ĠKÃ¼chen":12280,"Wissenschaftler":12281,"ansas":12282,"itution":12283,"ĠFuÃŁgÃ¤nger":12284,"ĠbeschÃ¤ftigte":12285,"Ġgehst":12286,"Ġbedroh":12287,"ĠZeichnung":12288,"ristall":12289,"ĠKanal":12290,"uzz":12291,"Ġgewaltig":12292,"ĠNotfall":12293,"zutragen":12294,"Ġumgesetzt":12295,"ĠBenj":12296,"ĠMÃ¤rz":12297,"Ġintelligenten":12298,"Ġwesentlichen":12299,"ĠunabhÃ¤ngige":12300,"hÃ¶he":12301,"ĠRÃ¤umen":12302,"Ġhebt":12303,"ĠPortra":12304,"Ġverwirr":12305,"Ġgenerell":12306,"Ġabsolute":12307,"Ġnegativ":12308,"eigerung":12309,"ĠmÃ¤nnlichen":12310,"Ġidentifiziert":12311,"Ġhistorischen":12312,"Ġmotiviert":12313,"ĠUrsachen":12314,"ĠBestandteile":12315,"ĠHemis":12316,"Ġbritische":12317,"ĠbestÃ¤tigt":12318,"Ġlogisch":12319,"Ġbeeindruckt":12320,"ĠVerwandten":12321,"ĠAlexander":12322,"Ġunmittelbar":12323,"ĠBeutel":12324,"Ġrechnen":12325,"Ġgarantiert":12326,"Ġschmerzhaft":12327,"ĠWichtiges":12328,"Interessanterweise":12329,"Ġliebsten":12330,"Ġgeflogen":12331,"ĠTreibhausgase":12332,"ĠShak":12333,"Ġexperimentieren":12334,"ĠdrÃ¼ckt":12335,"ĠermÃ¶glichte":12336,"ĠAntarktis":12337,"Ġgolden":12338,"ĠDVD":12339,"Go":12340,"Tech":12341,"Up":12342,"Zahl":12343,"brett":12344,"dis":12345,"dungs":12346,"dlicher":12347,"fa":12348,"fone":12349,"ites":12350,"kunden":12351,"kreise":12352,"ustr":12353,"zel":12354,"Ġraten":12355,"ering":12356,"Ġdrittens":12357,"ĠwomÃ¶glich":12358,"union":12359,"Ġsech":12360,"Ġsinkt":12361,"Ġskal":12362,"Ġmod":12363,"ĠSind":12364,"irm":12365,"schern":12366,"Ġnimm":12367,"Ã¤mmer":12368,"orische":12369,"ĠMagen":12370,"ĠMatt":12371,"Ġfix":12372,"ĠGit":12373,"Ġgeformt":12374,"ĠBogen":12375,"ĠWarte":12376,"ĠKos":12377,"Ġangel":12378,"Ġankam":12379,"Ġansonsten":12380,"ĠEarth":12381,"ĠPack":12382,"ĠLib":12383,"Ġvereint":12384,"ĠTi":12385,"ĠTeller":12386,"ĠTÃ¶ne":12387,"reckt":12388,"Ġaufweisen":12389,"ĠRate":12390,"rast":12391,"euchten":12392,"Ġtanz":12393,"bewohner":12394,"ĠZelt":12395,"ĠNorth":12396,"Ġausgel":12397,"ĠausgelÃ¶st":12398,"ĠJust":12399,"ĠJemand":12400,"ĠStimmt":12401,"ĠStreifen":12402,"ĠÃ¼bersehen":12403,"uther":12404,"spunkte":12405,"ĠCap":12406,"ĠAnwesenheit":12407,"ĠErden":12408,"Ġmeinten":12409,"ĠallgegenwÃ¤rt":12410,"Ġentschl":12411,"ĠenthÃ¼":12412,"ĠstieÃŁ":12413,"ĠLeon":12414,"Ġweiblichen":12415,"ĠSprit":12416,"opÃ¤d":12417,"Ġuntere":12418,"esseln":12419,"Ġzweier":12420,"Ġbesp":12421,"Ġbegleitet":12422,"ĠAusgabe":12423,"ĠNeun":12424,"Ġ350":12425,"wollen":12426,"ĠbetrÃ¼":12427,"Ġiron":12428,"ĠBlitz":12429,"ĠUmlauf":12430,"quot":12431,"ĠBeispielen":12432,"ĠBerlin":12433,"ĠGenome":12434,"ĠGenetik":12435,"ĠAbweich":12436,"bry":12437,"ĠGrundstÃ¼ck":12438,"Ġexter":12439,"ĠEntschuldigung":12440,"Source":12441,"ody":12442,"ĠMeeting":12443,"Schaut":12444,"ĠMinen":12445,"trÃ¤n":12446,"holung":12447,"ĠUnternehm":12448,"ĠHauses":12449,"Ġweitaus":12450,"ituation":12451,"Ġherumzu":12452,"mmunity":12453,"mmunikation":12454,"presse":12455,"ĠExperimenten":12456,"ĠRichtlinien":12457,"euerung":12458,"Ã¤ufe":12459,"ĠSkala":12460,"ĠFahrt":12461,"ianische":12462,"Ġerschienen":12463,"ĠSterben":12464,"Ġteilten":12465,"ĠIndones":12466,"Ġnebeneinander":12467,"urteile":12468,"rechts":12469,"ĠgefÃ¤hrdet":12470,"ĠAktivisten":12471,"Ġtoller":12472,"ĠJuden":12473,"ĠParks":12474,"ĠBehandlungen":12475,"wÃ¼rdig":12476,"ĠDetro":12477,"ĠMeeresspiegel":12478,"ĠGelegenheiten":12479,"Ã¤mpfung":12480,"ĠwÃ¼nsche":12481,"maÃŁnahmen":12482,"produkte":12483,"Ġfaszinierende":12484,"Ġemotional":12485,"Ġkorrig":12486,"Ġspezifischen":12487,"ĠkÃ¼nstlichen":12488,"pflanz":12489,"ĠBriefe":12490,"ĠDisziplin":12491,"reuen":12492,"ĠMcDon":12493,"fertigen":12494,"Ġverwirrt":12495,"Ġignoriert":12496,"Ġgenerieren":12497,"ĠQuadratmeter":12498,"Ġfotografieren":12499,"ĠMatrix":12500,"ĠAmate":12501,"ĠNano":12502,"Ġagieren":12503,"Ġindustriellen":12504,"amerikanische":12505,"Ġkonstruiert":12506,"ĠTafel":12507,"Ġgraben":12508,"menschen":12509,"ĠSkulpturen":12510,"Ġschweben":12511,"ĠInsulin":12512,"ĠEthik":12513,"ĠverÃ¶ffentlichten":12514,"ĠÃ¤ltesten":12515,"ĠAutobahn":12516,"ĠAtomenergie":12517,"Ġbeseitigen":12518,"ĠZutaten":12519,"Ġfreiwillig":12520,"ĠstÃ¤rksten":12521,"ĠEinkaufs":12522,"Ġphilosoph":12523,"ĠFÃ¼hrungskrÃ¤fte":12524,"ĠSecond":12525,"Ġeurem":12526,"ĠCounty":12527,"ĠPremierminister":12528,"Ġumgewandelt":12529,"Best":12530,"Cl":12531,"Daten":12532,"Fragen":12533,"Ha":12534,"Hoff":12535,"Macht":12536,"PR":12537,"Son":12538,"ials":12539,"kÃ¶mm":12540,"li":12541,"offen":12542,"Ġ/":12543,"Ġdrucken":12544,"stÃ¼r":12545,"stro":12546,"stad":12547,"ona":12548,"Ġvari":12549,"ĠSucht":12550,"schmerzen":12551,"Ġhor":12552,"esst":12553,"Ġzusehen":12554,"atar":12555,"Ã¶scht":12556,"Ã¶konom":12557,"Ġfuer":12558,"ĠBol":12559,"ĠWahnsinn":12560,"Ġanrufen":12561,"ĠFast":12562,"Ġerschafft":12563,"Ġerschwing":12564,"ĠPyramide":12565,"rollen":12566,"Ġverschaffen":12567,"Ġversetzt":12568,"Ġverarbeitet":12569,"tzÃ¼ndung":12570,"ĠHang":12571,"ĠHong":12572,"ĠHuman":12573,"ĠVaku":12574,"Ġtier":12575,"Ġtoten":12576,"ehrer":12577,"steuropa":12578,"ĠNieren":12579,"ilometer":12580,"Ġpacken":12581,"omaten":12582,"ĠSchalter":12583,"ĠSchafe":12584,"ĠCre":12585,"ĠAnzeige":12586,"Ġentscheidet":12587,"otte":12588,"ĠReformen":12589,"Ã¤tigen":12590,"halter":12591,"ablen":12592,"ĠSpender":12593,"Ġreag":12594,"fÃ¼llung":12595,"ĠfÃ¼gen":12596,"ĠGrÃ¶s":12597,"stelligen":12598,"ĠbegrÃ¼n":12599,"Ġbegriffen":12600,"Ġliefen":12601,"Ã¤uschen":12602,"verw":12603,"verstÃ¤ndnis":12604,"Ġzwanzig":12605,"ĠUnterdrÃ¼ck":12606,"Ġgefil":12607,"ĠAbwasser":12608,"ĠverlÃ¤uft":12609,"ican":12610,"wiegend":12611,"proben":12612,"produz":12613,"ĠSteuern":12614,"locken":12615,"ĠElend":12616,"Ġunglaubliches":12617,"stÃ¤ndigen":12618,"ĠSchulden":12619,"ĠHausaufgaben":12620,"zahlung":12621,"sprodu":12622,"Ġfolgte":12623,"physik":12624,"Ġsex":12625,"ĠArtenvielfalt":12626,"Ġanzufangen":12627,"ĠErgebnissen":12628,"ĠStrassen":12629,"ĠPolar":12630,"ĠSkiz":12631,"azier":12632,"ĠArchiv":12633,"ĠZugriff":12634,"ĠBetrachter":12635,"ĠChristen":12636,"Ġsammelt":12637,"Ġbeinhalten":12638,"ĠBotschaften":12639,"Ġholte":12640,"ĠGraph":12641,"Ġpsychische":12642,"ĠGlaubens":12643,"Ġengagieren":12644,"ĠHÃ¤usern":12645,"ĠVariationen":12646,"Ġspezifische":12647,"bewegungen":12648,"ĠÃĸkosysteme":12649,"ĠJugendlichen":12650,"Ġinstitution":12651,"entwicklung":12652,"ĠSchweiz":12653,"ĠSchweigen":12654,"Ġmathematischen":12655,"ĠEingang":12656,"Ġausbreiten":12657,"ĠVerletzlichkeit":12658,"Ġnegative":12659,"ĠHalluz":12660,"Ġkauften":12661,"Ġdemokratische":12662,"ĠTiefen":12663,"Ġenglische":12664,"ĠKonflikten":12665,"Ġausgestattet":12666,"Ġdominieren":12667,"ĠVorhersage":12668,"ĠdÃ¼nn":12669,"Ġfundamentale":12670,"ĠFrÃ¼hstÃ¼ck":12671,"cycling":12672,"GroÃŁe":12673,"Ã¤sthesie":12674,"ĠEigentum":12675,"ĠTherapien":12676,"Ġverpflichtet":12677,"ĠMythos":12678,"ĠKorea":12679,"ĠvergrÃ¶ÃŁert":12680,"ĠFrosch":12681,"ĠMandela":12682,"ĠProbanden":12683,"olumines":12684,"ĠRobotik":12685,"ĠgeprÃ¤gt":12686,"ĠLeinwand":12687,"Ġkontinu":12688,"ĠShanghai":12689,"25":12690,":\"":12691,"Krieg":12692,"Laut":12693,"NG":12694,"Sh":12695,"Vir":12696,"bus":12697,"branche":12698,"dichte":12699,"himmel":12700,"kaufen":12701,"mil":12702,"sf":12703,"vort":12704,"ypt":12705,"zehn":12706,"Ġx":12707,"Ġsk":12708,"Ġsuche":12709,"eife":12710,"Ġunn":12711,"Ġeinger":12712,"tech":12713,"Ġitalien":12714,"ĠSn":12715,"ĠSonder":12716,"irurg":12717,"ĠhÃ¤r":12718,"Ġharm":12719,"ller":12720,"Ġkalten":12721,"ĠkÃ¤me":12722,"einheit":12723,"itor":12724,"Ġinne":12725,"ĠMi":12726,"ĠMord":12727,"Ġaustau":12728,"ĠAgr":12729,"ĠGig":12730,"ĠGlied":12731,"ĠWi":12732,"ĠWÃ¤hrend":12733,"ĠWett":12734,"ĠKÃ¶":12735,"ĠKra":12736,"ĠKell":12737,"legung":12738,"sehe":12739,"ĠFang":12740,"ĠFÃ¼n":12741,"ĠPrie":12742,"Ã¼re":12743,"Ã¼rt":12744,"ĠDÃ¼r":12745,"Ġvereinen":12746,"ĠTar":12747,"reden":12748,"ĠHÃ¤":12749,"ĠVeget":12750,"ĠZunge":12751,"ĠStirn":12752,"Ġpost":12753,"ĠGegner":12754,"ĠGeometrie":12755,"sprech":12756,"ĠProstat":12757,"ĠComp":12758,"Ġvorkommt":12759,"ĠâĢ¦":12760,"ĠAnspruch":12761,"ĠErbe":12762,"ĠErklÃ¤r":12763,"Ġstamm":12764,"ĠRechten":12765,"ĠEngel":12766,"bleiben":12767,"Ġweisen":12768,"malt":12769,"herum":12770,"rif":12771,"Ġabgel":12772,"Ġzweiter":12773,"artikel":12774,"ĠEinladung":12775,"ado":12776,"apur":12777,"Ġhinab":12778,"atson":12779,"ĠChile":12780,"ĠVorlie":12781,"ĠHerbst":12782,"Ġ37":12783,"alente":12784,"ĠArbeitsk":12785,"udd":12786,"Ġzwang":12787,"ĠBlume":12788,"Ġverwandt":12789,"ĠSource":12790,"teilte":12791,"ĠGenie":12792,"ĠAbraham":12793,"Ġinteressierte":12794,"Ġerstmal":12795,"ĠLebensunter":12796,"Ġsichere":12797,"Ġschwamm":12798,"Ġschwanger":12799,"ĠÃľberfluss":12800,"ĠFilmen":12801,"Ġteurer":12802,"ĠVersuchen":12803,"Ġriechen":12804,"ĠNaturschutz":12805,"Ġnormaler":12806,"box":12807,"Ġkurzes":12808,"Ġrollen":12809,"geschrieben":12810,"ĠKoralle":12811,"ĠGlamour":12812,"romagnet":12813,"Ġbeeintr":12814,"dresse":12815,"Ġmagnet":12816,"ĠglÃ¼cklicherweise":12817,"ĠNeuseel":12818,"ĠJede":12819,"hÃ¤ltnisse":12820,"Ġorient":12821,"ĠKÃ¼he":12822,"ĠTrennung":12823,"ĠHoward":12824,"jÃ¤hriges":12825,"Geb":12826,"ĠRisik":12827,"Ġreiche":12828,"Ġzerbrech":12829,"ĠendgÃ¼lt":12830,"Ġdunkler":12831,"produkt":12832,"ĠSchlussfol":12833,"drew":12834,"Entwick":12835,"Ġtransparent":12836,"ĠStÃ¤rken":12837,"Klar":12838,"ĠCola":12839,"Ġdiskutiert":12840,"jahre":12841,"ĠTexte":12842,"ĠBrian":12843,"ĠErzÃ¤hlungen":12844,"Ġlangfristige":12845,"Ġbeliebigen":12846,"Ġinnovativ":12847,"ĠKram":12848,"Ġplatzieren":12849,"fÃ¶rmige":12850,"ĠÃľberzeugungen":12851,"ĠBesonderes":12852,"Ġraff":12853,"stechnologie":12854,"ĠVÃ¶lkermord":12855,"Ġkopieren":12856,"ĠKategorien":12857,"ĠDÃ¶rfern":12858,"ĠmerkwÃ¼rdig":12859,"ĠKrankenhÃ¤usern":12860,"Betrachten":12861,"ĠAutomobil":12862,"ĠRituale":12863,"Ġvergleichbar":12864,"Ġsimulieren":12865,"ĠKÃ¼nstlern":12866,"ETI":12867,"ĠCarolina":12868,"Nullsummen":12869,"ĠRepublikaner":12870,"ĠZurÃ¼ck":12871,"ĠIronie":12872,"ĠExpedition":12873,"Ġpeinlich":12874,"ĠHemisph":12875,"ĠIndonesien":12876,"ĠDetroit":12877,"Ġkontinuier":12878,".-":12879,"Gl":12880,"Ide":12881,"Par":12882,"Verstehen":12883,"Wen":12884,"hes":12885,"iode":12886,"ket":12887,"oster":12888,"rungen":12889,"thalb":12890,"wel":12891,"yd":12892,"zin":12893,"Ġser":12894,"Ġehren":12895,"aner":12896,"anische":12897,"stunden":12898,"Ġeinher":12899,"tein":12900,"gets":12901,"Ġimmen":12902,"onanz":12903,"ĠSat":12904,"Ġnette":12905,"Ġzert":12906,"genau":12907,"Ġkan":12908,"ĠMur":12909,"Ã¶cke":12910,"ĠfÃ¶rdert":12911,"ĠGÃ¤n":12912,"ĠGange":12913,"ĠGrab":12914,"ĠKro":12915,"seg":12916,"set":12917,"ĠEc":12918,"senz":12919,"ĠPion":12920,"ĠPanz":12921,"ĠPizza":12922,"ĠLas":12923,"Ġvergeben":12924,"Ġverfolg":12925,"ĠTruppen":12926,"regel":12927,"regend":12928,"Ġaufstellen":12929,"tzu":12930,"Ġlitt":12931,"ĠNo":12932,"ĠNelson":12933,"ĠJet":12934,"Ġumwandeln":12935,"andte":12936,"ila":12937,"ĠStipend":12938,"Ġpreis":12939,"ochten":12940,"oma":12941,"ĠScher":12942,"Ġimpl":12943,"ĠVermut":12944,"ĠProfil":12945,"ĠAnzug":12946,"ĠErschaffung":12947,"ĠReden":12948,"ĠherkÃ¶mm":12949,"ĠUnger":12950,"Ġunterr":12951,"ĠZeitra":12952,"weren":12953,"flÃ¼gel":12954,"Ġkonkre":12955,"ĠEines":12956,"sahen":12957,"Ġgerufen":12958,"ĠNebel":12959,"halle":12960,"ĠKlÃ¤nge":12961,"Ġwollt":12962,"Ġbenannt":12963,"eichen":12964,"ĠgrÃ¶s":12965,"meer":12966,"ĠMonter":12967,"Ġgesundheit":12968,"Ġ2020":12969,"ĠLebensstil":12970,"ĠNachdenken":12971,"hema":12972,"ordnungen":12973,"ĠPhasen":12974,"ĠPharma":12975,"Ġgelbe":12976,"Ġgelungen":12977,"Ġkleinste":12978,"ĠMitleid":12979,"ordent":12980,"ĠKreb":12981,"ids":12982,"Ġungleich":12983,"ĠgestoÃŁen":12984,"etzung":12985,"Ã¤tzlich":12986,"Ġoftmals":12987,"Ġbefanden":12988,"Stu":12989,"zession":12990,"ĠNewton":12991,"ĠFotografie":12992,"digte":12993,"ĠForschern":12994,"pril":12995,"ĠExperte":12996,"Ġbestimmtes":12997,"ĠBausteine":12998,"aisen":12999,"ĠGrÃ¼nder":13000,"Ġleitet":13001,"entrum":13002,"ĠUmweltschutz":13003,"eisterung":13004,"ĠMitteln":13005,"ĠGleichungen":13006,"Ġverschwand":13007,"Ġstarkes":13008,"ĠNukle":13009,"ĠLippen":13010,"Ġkonzentrierte":13011,"Ġquant":13012,"Ġfrisch":13013,"ĠErdgas":13014,"Ġruft":13015,"Ġwirtschaftlich":13016,"Ġ1999":13017,"ĠSaudi":13018,"ĠBehandlungs":13019,"Ġergreifen":13020,"ĠkostengÃ¼nst":13021,"ĠRessource":13022,"Ġauton":13023,"frequenz":13024,"Ġgewaltt":13025,"Ġseltsamen":13026,"ĠMeeresboden":13027,"Ġniedrigen":13028,"ĠZivilisationen":13029,"Ġgespeichert":13030,"ĠKurse":13031,"ĠgewÃ¶hnlichen":13032,"sehbar":13033,"ĠFinanzierung":13034,"ĠauÃŁergewÃ¶hnlichen":13035,"Ġzeichnete":13036,"198":13037,"ĠGehirnen":13038,"ĠFeinde":13039,"ĠRedner":13040,"Ġeintreten":13041,"Ġdurchschnittlichen":13042,"portion":13043,"ĠJournalist":13044,"ĠAnwÃ¤lte":13045,"lÃ¤ufe":13046,"ĠComics":13047,"ĠKreuzung":13048,"ĠOrigami":13049,"Ġkognitiven":13050,"Ġverringert":13051,"ĠGanzes":13052,"Ġisoliert":13053,"Ġherausfanden":13054,"Boot":13055,"haftet":13056,"ĠberÃ¼cksichtigen":13057,"ĠPrÃ¼fung":13058,"riminelle":13059,"mitglieder":13060,"ĠwÃ¤rmer":13061,"ĠFried":13062,"Ġislamischen":13063,"Letztendlich":13064,"ĠverÃ¤nderten":13065,"ĠCricket":13066,"ĠÃ¶rtlichen":13067,"kugel":13068,"Ġhungrig":13069,"Ġberuht":13070,"ĠNovember":13071,"ĠGandhi":13072,"oteles":13073,"Ġtendieren":13074,"ĠDemonstration":13075,"Grund":13076,"ĠHungers":13077,"ĠTsunami":13078,"ĠSowjetunion":13079,"ĠErweiterung":13080,"ĠBenjamin":13081,"ĠShakespe":13082,"Effekt":13083,"Fir":13084,"Fangen":13085,"HC":13086,"Jedoch":13087,"Kind":13088,"Me":13089,"Mart":13090,"Med":13091,"cel":13092,"heil":13093,"ibl":13094,"iologen":13095,"king":13096,"mie":13097,"ny":13098,"ockt":13099,"sg":13100,"uko":13101,"wander":13102,"Ġ?":13103,"inktiv":13104,"Ġwa":13105,"Ġwuchsen":13106,"Ġsor":13107,"Ġsur":13108,"Ġsitze":13109,"Ġeuren":13110,"angt":13111,"Ġunber":13112,"Ġmischen":13113,"Ġeinladen":13114,"ĠSech":13115,"ĠSagen":13116,"ĠSud":13117,"ĠSender":13118,"school":13119,"Ã¤uren":13120,"tent":13121,"Ġzuver":13122,"ata":13123,"ita":13124,"ĠMike":13125,"Ġauth":13126,"Ã¶ten":13127,"ĠgÃ¤ng":13128,"ĠGall":13129,"ĠKeller":13130,"ĠEcken":13131,"ĠDabei":13132,"ĠLei":13133,"umpe":13134,"Ġversetzen":13135,"Ġverdr":13136,"Ġversagen":13137,"Ġverschieben":13138,"ĠTas":13139,"ĠTabe":13140,"ĠTÃ¤nzer":13141,"ĠIBM":13142,"reen":13143,"Ġbeschaffen":13144,"Ġbeauft":13145,"amas":13146,"ĠHey":13147,"ĠRem":13148,"ĠReh":13149,"raktion":13150,"ĠVin":13151,"entisch":13152,"ĠtÃ¤tig":13153,"ĠJones":13154,"ĠJÃ¤ger":13155,"ĠStill":13156,"ĠSchachtel":13157,"Ġvorlesen":13158,"ĠOs":13159,"ĠErfolge":13160,"ĠBewer":13161,"Ã¤chte":13162,"Ã¤ttern":13163,"Ġrekonstru":13164,"Ġgenannten":13165,"Ġeinfachste":13166,"Ġrasch":13167,"atent":13168,"imit":13169,"glicher":13170,"ĠGrand":13171,"Ġbegraben":13172,"Ġzurzeit":13173,"Ġbereiten":13174,"Ġgereist":13175,"klin":13176,"ragende":13177,"Ġherausgestellt":13178,"ziell":13179,"ĠUmfang":13180,"ragten":13181,"Ġangegriffen":13182,"eistens":13183,"Ġirgendeinen":13184,"ĠverlÃ¤sst":13185,"Ġ46":13186,"wirt":13187,"ĠRoy":13188,"ĠRohr":13189,"arbeitern":13190,"ĠElite":13191,"ĠComputerprogramm":13192,"mpor":13193,"ĠGewissen":13194,"Ã¤hnliche":13195,"Ġriefen":13196,"zeichnete":13197,"hole":13198,"Ġeingesp":13199,"ĠModer":13200,"ĠBÃ¼rgern":13201,"ĠKunstwerk":13202,"ĠSchwein":13203,"ĠForschungen":13204,"Ġhinterfragen":13205,"ĠAutoun":13206,"ifikation":13207,"ĠÃ¤hnelt":13208,"ĠBehÃ¤lter":13209,"ĠRÃ¼ckmeld":13210,"Ġforschen":13211,"ĠBegeisterung":13212,"drucks":13213,"Ġleidet":13214,"wertungen":13215,"Ġuntersuchte":13216,"ografische":13217,"Ġkomplexes":13218,"Ġaktiven":13219,"armonie":13220,"lantation":13221,"ĠEntwicklungshilfe":13222,"ĠHierarchie":13223,"gemeinschaft":13224,"ĠSchÃ¶ne":13225,"ĠBeschleun":13226,"mÃ¤ÃŁige":13227,"ĠSyrien":13228,"ĠAndere":13229,"ĠAnderen":13230,"Ġtauschen":13231,"regionen":13232,"Ġoptimal":13233,"Andererseits":13234,"Ġbeliebte":13235,"ĠÃĦngste":13236,"ĠCharaktere":13237,"ĠWÃ¼rfel":13238,"Entw":13239,"Ġtypisch":13240,"vertrauen":13241,"Ġobere":13242,"fertigt":13243,"Ġelf":13244,"ĠTrainings":13245,"zyklus":13246,"ĠMeme":13247,"useum":13248,"lÃ¤ufig":13249,"ĠKritiker":13250,"Ġangeblich":13251,"Ġhistorische":13252,"ZurÃ¼ck":13253,"Ġermutigt":13254,"ĠErzÃ¤hlung":13255,"Irgendwie":13256,"Ġsynchron":13257,"Ġmarkiert":13258,"ĠNeurowissenschaftler":13259,"analyse":13260,"ĠStimmung":13261,"ĠTinte":13262,"Ġmanipulieren":13263,"ĠAnstrengung":13264,"Ġtreffe":13265,"ĠPrioritÃ¤ten":13266,"ĠGravitation":13267,"ĠBronx":13268,"Ġnirgendwo":13269,"verlust":13270,"ĠfolgendermaÃŁen":13271,"Ġeinzelnes":13272,"Ġbeurteilen":13273,"ĠCloud":13274,"ĠWÃ¼nsche":13275,"geiz":13276,"ĠPhosphor":13277,"ĠFingern":13278,"ĠHerzinfarkt":13279,"ĠannÃ¤hern":13280,"ĠMcDonald":13281,"ĠLebensunterhalt":13282,"ĠNeuseeland":13283,"Ad":13284,"DR":13285,"EM":13286,"Lachen":13287,"Moment":13288,"Millionen":13289,"Ur":13290,"aida":13291,"brach":13292,"fell":13293,"nie":13294,"not":13295,"namen":13296,"nutzung":13297,"osphÃ¤re":13298,"pidem":13299,"uv":13300,"erken":13301,"Ġsymmetr":13302,"eiÃŁ":13303,"eihen":13304,"Ġah":13305,"ĠunzÃ¤hl":13306,"gesehen":13307,"Ã¼pfen":13308,"schÃ¶pf":13309,"Ã¤glich":13310,"genÃ¶":13311,"ĠblÃ¶":13312,"ĠkÃ¼n":13313,"empl":13314,"derweise":13315,"Ġgreift":13316,"ĠGrau":13317,"ĠGru":13318,"Ġgezeichnet":13319,"ĠgefÃ¼hlt":13320,"ĠBM":13321,"ĠKino":13322,"ĠFiktion":13323,"ĠLÃ¼cken":13324,"ĠLiban":13325,"igh":13326,"Ġverhaftet":13327,"ĠTausend":13328,"amie":13329,"ĠHaup":13330,"ĠHistor":13331,"ĠRab":13332,"ĠRente":13333,"rafen":13334,"ĠVeter":13335,"usalem":13336,"Ġli":13337,"Ġlohnt":13338,"bewegen":13339,"ĠNote":13340,"ĠauslÃ¶sen":13341,"ĠJosh":13342,"ikum":13343,"oche":13344,"ĠGeographic":13345,"eiler":13346,"Ġdemselben":13347,"Ġjeweil":13348,"ĠOut":13349,"Ġanderthalb":13350,"mente":13351,"ĠErb":13352,"ĠErfÃ¼llung":13353,"ĠBell":13354,"Ġentnehmen":13355,"Ġstunden":13356,"ĠRecycling":13357,"abschluss":13358,"ĠSprechen":13359,"ĠklÃ¼":13360,"Ġklasse":13361,"west":13362,"ript":13363,"Ġabsichtlich":13364,"ungsf":13365,"ĠEint":13366,"ĠEinstellungen":13367,"istisches":13368,"gerte":13369,"gerissen":13370,"ĠGrenz":13371,"ologin":13372,"Ġweiterzu":13373,"ĠWirk":13374,"ĠOrbit":13375,"ĠKong":13376,"aufgabe":13377,"ĠMillimeter":13378,"ĠAusnahmen":13379,"Ġbereitet":13380,"Ġgerichtet":13381,"merk":13382,"Ġherausstellt":13383,"Ġ31":13384,"altungs":13385,"ĠTechniker":13386,"akat":13387,"ĠZuhÃ¶rer":13388,"ĠInterface":13389,"teilten":13390,"ĠMonster":13391,"Ġ2030":13392,"wies":13393,"gewinn":13394,"ĠRaums":13395,"eistern":13396,"eley":13397,"ĠStrafe":13398,"ĠMini":13399,"ĠQue":13400,"Ġgesteuert":13401,"Ã¤tzungen":13402,"istenten":13403,"Ġendete":13404,"issheit":13405,"iarden":13406,"ĠVersicher":13407,"Ġ2002":13408,"gesundheit":13409,"Ġweitgehend":13410,"Ġ72":13411,"abeth":13412,"Ġkurzfrist":13413,"ĠRÃ¼ckgang":13414,"Ġabsor":13415,"ĠMeinungs":13416,"Ġaufgezeichnet":13417,"felder":13418,"ĠAntik":13419,"Ġbelohnt":13420,"ameter":13421,"ĠFranz":13422,"ĠgrÃ¼ndeten":13423,"ĠNordpol":13424,"Ġurb":13425,"Ġbedarf":13426,"Ġ1998":13427,"ĠParkinson":13428,"inseln":13429,"ĠBeschrÃ¤n":13430,"Ġregulieren":13431,"ĠRaubt":13432,"ĠRauchen":13433,"ĠDenkens":13434,"Ġpsychologische":13435,"strecken":13436,"Ġtaucht":13437,"ĠBiosphÃ¤re":13438,"Ġresult":13439,"dimensionalen":13440,"Ġinstinktiv":13441,"ĠMobilitÃ¤t":13442,"Ġradikale":13443,"Ġkreativer":13444,"ylinder":13445,"ĠFremde":13446,"ĠMechanismen":13447,"ĠVerletzung":13448,"ĠScheibe":13449,"Ġdemokratischen":13450,"ĠDampf":13451,"ĠkÃ¶rperliche":13452,"ĠEmpfÃ¤nger":13453,"ĠFlaggen":13454,"ĠVerbesserungen":13455,"Ġstattfand":13456,"ĠTrauer":13457,"ĠBemÃ¼hungen":13458,"gefÃ¼hls":13459,"Ġphysikalische":13460,"ĠÃ¶konomischen":13461,"ĠÃ¶konomische":13462,"ĠMobiltelefon":13463,"ĠAngelegenheiten":13464,"ĠBananen":13465,"Ġschockiert":13466,"ĠCampus":13467,"passungs":13468,"ĠMentor":13469,"ĠGeschÃ¤ftsmodell":13470,"stÃ¤dte":13471,"ĠKÃ¼hlschrank":13472,"allererst":13473,"Ġkooperieren":13474,"ĠSzenario":13475,"ĠErscheinung":13476,"Besonders":13477,"Ġunangenehm":13478,"Beginnen":13479,"ĠBeschÃ¤ftigung":13480,"ĠZigaretten":13481,"Ebenso":13482,"ĠStapel":13483,"ĠWeltwirtschaft":13484,"ĠTastatur":13485,"ĠSahara":13486,"ĠBambus":13487,"Ġueber":13488,"Ġfluores":13489,"ĠSquare":13490,"genÃ¶ss":13491,"Beh":13492,"Hand":13493,"Herr":13494,"HÃ¶ren":13495,"Jo":13496,"Junge":13497,"Pe":13498,"diges":13499,"dose":13500,"gingen":13501,"posit":13502,"ration":13503,"sha":13504,"wal":13505,"ĠÂ«":13506,"ĠÃ¤ngst":13507,"erien":13508,"Ġdopp":13509,"Ġwander":13510,"Ġwitz":13511,"Ġwonach":13512,"Ġseh":13513,"Ġsim":13514,"stÃ¼":13515,"Ġunkon":13516,"Ġeinfluss":13517,"Ã¼ht":13518,"Ã¼ler":13519,"Ġvolle":13520,"gentin":13521,"ĠbÃ¶sen":13522,"Ã¶re":13523,"Ã¶hne":13524,"Ã¶pfer":13525,"denke":13526,"ĠAbt":13527,"achlÃ¤ss":13528,"ĠgÃ¤nz":13529,"ĠGitter":13530,"ĠBern":13531,"ĠBade":13532,"ĠWelche":13533,"ĠKein":13534,"ĠKum":13535,"ĠKoff":13536,"Ġanz":13537,"Ġanstren":13538,"ĠEma":13539,"ĠFass":13540,"ĠDicht":13541,"ĠLande":13542,"ĠverÃ¤r":13543,"Ġvernetz":13544,"Ġverbergen":13545,"lsystem":13546,"ĠIQ":13547,"reaktion":13548,"Ġbekl":13549,"Ġbegehen":13550,"Ġbewerk":13551,"Ġbewohn":13552,"ĠSied":13553,"ischte":13554,"amten":13555,"ĠHÃ¼tte":13556,"Ġladen":13557,"Ġliber":13558,"Ġtote":13559,"bewusst":13560,"ĠZehn":13561,"ĠNG":13562,"ombar":13563,"Ġwaschen":13564,"sper":13565,"ĠVerschl":13566,"ĠVerfassung":13567,"ĠVerpack":13568,"ĠArist":13569,"ĠAnten":13570,"ĠErstes":13571,"ĠBeat":13572,"ĠBedenken":13573,"ĠBestes":13574,"ĠRecher":13575,"lauch":13576,"Ġspringt":13577,"ĠLektionen":13578,"Ġsagst":13579,"Ġredete":13580,"Ġrealisieren":13581,"heken":13582,"Ġunterm":13583,"rinken":13584,"rient":13585,"ĠZeitschriften":13586,"ĠZeitspanne":13587,"Ġsteckte":13588,"istik":13589,"igere":13590,"sack":13591,"Indien":13592,"Ġdamal":13593,"Ã¤uben":13594,"ĠgewÃ¼n":13595,"verse":13596,"ĠChips":13597,"Ã¤nderungen":13598,"ĠFlÃ¼sse":13599,"attle":13600,"ĠkÃ¶nntest":13601,"Ġangeschlossen":13602,"Ġangewiesen":13603,"ĠBerk":13604,"Ġbekannter":13605,"Ã¤hlich":13606,"Ġerstens":13607,"Ġ44":13608,"Ġ48":13609,"wirft":13610,"ĠExempl":13611,"ĠÃľbersetzung":13612,"prozent":13613,"ĠMarath":13614,"ĠGerÃ¤ten":13615,"ĠPlat":13616,"ĠRoten":13617,"ĠGewinne":13618,"ĠFallschirm":13619,"ĠVersionen":13620,"ĠWow":13621,"ĠAngi":13622,"landschaft":13623,"ĠMoz":13624,"ĠDiÃ¤t":13625,"geschichten":13626,"iefel":13627,"ifik":13628,"sonst":13629,"ĠElternteil":13630,"ĠglÃ¼cklichen":13631,"ows":13632,"ĠWochenende":13633,"Ġauszusehen":13634,"Ġteilte":13635,"ĠSchwelle":13636,"ĠTatsachen":13637,"molekÃ¼":13638,"ĠHoffnungen":13639,"Ġbewaff":13640,"Ġwertvolle":13641,"Gener":13642,"ĠKilometern":13643,"ameras":13644,"handlung":13645,"Ġvergleicht":13646,"ĠTrÃ¤umen":13647,"ĠstÃ¤rken":13648,"ĠtÃ¤gliche":13649,"ĠPartnerschaft":13650,"ĠFeynman":13651,"Ġversteckte":13652,"Ġantreibt":13653,"ĠHerrn":13654,"ĠÃĸkologie":13655,"ĠNationalpark":13656,"Ġaktuell":13657,"Ġnutze":13658,
[...]
