#version: 0.2
Ġ t
Ġt h
Ġ a
i n
Ġ w
Ġth e
r e
Ġ o
Ġ s
a t
e r
n d
o u
Ġ c
i s
i t
Ġ b
in g
Ġ m
e n
Ġ h
o n
Ġt o
Ġ p
Ġ f
a n
e s
Ġ d
Ġo f
o r
l l
Ġ in
Ġa nd
e d
Ġ l
a r
Ġ y
Ġth at
o m
Ġ g
a s
i c
l e
Ġy ou
v e
Ġ I
a l
Ġw e
Ġ n
Ġw h
o w
Ġ is
Ġ e
u s
Ġb e
u t
Ġ it
i on
o t
' s
e t
Ġ re
Ġh a
en t
c t
Ġo n
l d
v er
T h
a y
i d
A nd
s e
a ll
Ġth is
i m
s t
r o
i g
u r
e re
l y
Ġs t
c h
k e
c e
Ġf or
i f
Ġw as
r a
Ġa n
i r
Ġd o
Ġa re
o o
it h
all y
o p
t h
a m
Ġha ve
Ġw ith
Ġa b
Ġthe y
Ġ u
Ġs e
Ġ k
Ġc an
Ġ -
Ġ- -
Ġa s
Ġm o
at ion
ou t
h t
Ġl i
Ġs o
Ġg o
S o
Ġwh at
a d
Ġc om
Ġw or
' t
Ġh e
ver y
ou ld
i ll
Ġa t
Ġm e
Ġab out
Ġs h
Ġn e
an t
Ġn ot
t er
g e
i l
Th e
u l
o l
Ġa ll
us t
Ġ j
Ġf r
Ġe x
er s
us e
ig ht
Ġp ro
Ġs om
Ġc h
Ġ r
Ġo r
Ġd e
Ġthe re
Ġm y
W e
Ġp e
' re
e ar
u m
ar t
op le
p p
c k
Ġc on
es s
Ġli ke
at e
u re
Ġon e
i es
Ġpe ople
Ġ "
c a
i ve
it y
Ġm a
es t
Ġfr om
n t
Ġk n
e ct
is t
b le
in d
q u
Ġb ut
Ġo ur
in k
Ġo ut
Ġa l
Ġ us
I t
Ġin t
Ġkn ow
Ġt e
Ġj ust
oo k
r ou
u n
Ġ v
Ġth ing
a nd
ca use
Ġs p
id e
Ġthe m
B ut
Ġse e
Ġ A
i e
Ġthe se
Ġ very
o s
or t
Ġt r
Ġ if
Ġth ink
Ġu p
h er
Ġwh o
Ġg et
Ġp l
ic h
Ġgo ing
Ġb y
c i
Ġ S
e l
a in
Ġa ct
Ġsom e
on e
Ġwh en
i v
Ġ 1
Ġbe cause
Ġyou r
Ġha d
Ġmo re
W h
Ġy ear
e m
o g
Ġs a
ou r
Ġ im
Ġ C
Ġt im
Ġw ould
Ġwe re
in e
0 0
Ġwh ich
Ġl ook
o d
Ġthe ir
am e
Ġw ant
as t
Ġre ally
m ent
Ġh ow
Ġcom p
u ally
a p
. "
Ġs u
Ġwor k
ar d
oo d
i z
ou s
a ct
' ve
a ck
g h
Ġ en
re at
Ġ M
Ġw ay
Y ou
h ing
Ġt a
o se
Ġl e
Ġh ere
' m
o re
Ġwor ld
Th is
a re
Ġtim e
Ġh as
an s
th er
Ġthe n
a b
a g
Ġp er
on g
Ġ qu
Ġe very
Ġd on
Ġint o
Ġex p
Ġact ually
a ce
Ġs ay
Ġw ill
Ġc ould
Ġm an
Ġf e
re s
Ġe v
ion s
i ld
u d
Ġc o
en ce
it t
Ġthing s
Ġwh ere
a ge
Ġyear s
Ġn ow
Ġ B
Ġa g
Ġo ther
Ġd id
al k
N ow
Ġsom et
f f
if f
The y
a ch
nd er
ic al
Ġan y
Ġbe en
Ġn o
Ġma ke
Ġha pp
Ġd iff
Ġc l
ic e
Ġt w
i p
Ġth an
s o
Ġu n
Ġne ed
re d
Ġsa id
Ġ E
Ġ G
Ġst art
Ġp r
Ġp art
Ġr ight
ir st
Ġo ver
ow n
re e
Ġb u
Ġim p
r y
Ġ 2
Ġsomet hing
ig n
i a
Ġp o
om e
Ġd is
or y
it e
Ġ â
Ġb ack
u ch
p t
Ġtw o
or m
Ġ H
rou nd
ou nt
Ġm uch
ol og
Ġg ot
Ġ P
Ġa r
Ġk ind
i b
Ġc all
en s
Ġth ose
Ġ T
as s
if e
Ġf irst
Ġdiff ere
Ġ N
an g
itt le
at er
ou nd
Ġ D
Ġl ittle
se l
Ġal so
c ent
u e
Ġ ro
Ġne w
Ġl ot
e p
Ġl o
Th at
Ġsp e
c es
g ht
p le
Ġcon t
ul t
w ay
Ġâ Ļ
Ġa c
v es
Ġt alk
b er
Ġmo st
Ġbe t
k ing
Ġp h
Ġd es
Ġsh e
v ing
ve l
ra in
od y
Ġon ly
Ġre s
I n
Ġu nder
r u
at ed
a ble
Wh at
Ġl ife
ation s
c o
e ll
Ġh is
Ġs y
Ġa d
Ġd ay
Ġev en
Ġ L
Ġh um
Ġa m
Ġdiffere nt
is h
Ġta ke
m s
Ġman y
ic k
ic t
i al
Ġg ood
Ġ R
rou gh
ot her
Th ere
ĠâĻ «
d u
Ġdo es
Ġb l
in t
Ġre al
Ġd own
Ġa round
an ce
Ġ ide
Ġh er
an k
i re
Ġth rough
o b
p h
as e
Ġp ut
ent s
p l
' ll
Ġcom m
p e
ur n
ar k
Ġp re
Ġsh ow
Ġ use
an ge
c ess
Ġbe ing
Ġte ll
f orm
Ġof f
i ble
Ġ F
res s
ad e
or s
a k
Ġs ame
Ġhapp en
We ll
Ġth ou
Ġpro ble
Ġto o
et her
Ġtr y
Ġ W
Ġf l
ch n
ar y
p er
at h
Ġf act
Ġin c
j ect
y s
Ġe m
w n
Ġcom e
x t
Ġs m
i ver
Ġb r
st em
Ġc ount
f ul
d ay
ter n
Ġdo ing
ar s
or d
u al
n ing
Ġ J
Ġ ra
Ġ O
Ġm ay
Ġg reat
Ġf ind
oo l
r ic
Ġte chn
Ġth ree
Ġ U
Ġb ig
on s
ic ally
n e
r ow
t ing
Ġg en
Ġw r
Ġhum an
i le
a c
v ed
Ġp ers
Ġbe c
Ġs ur
Ġper cent
olog y
Ġwe ll
i ed
ow er
Ġsy stem
H e
Ġt ra
f ore
Ġde c
Ġbu ild
th ing
f ter
nd s
Ġst ud
ill ion
Ġcall ed
I f
u b
sel f
t e
Ġg u
' d
Ġl et
Ġa pp
ig h
Ġs im
Ġag ain
b ody
Ġch ild
ic s
w e
Ġqu est
it ion
ci al
i ous
Ġm ade
Ġin v
at ing
Ġin d
Ġl ong
Ġexp er
Ġo wn
Ġimp ort
os s
Ġbe l
m er
it ies
Ġre m
o c
Ġsh ould
Ġl ear
iz e
i an
ĠC h
re n
Ġwh y
Ġw om
l es
Ġs c
ere st
t y
Ġunder st
Ġt urn
e w
at es
a v
f t
Ġo b
Ġdes ign
Ġch ange
Ġhe l
00 0
Ġme an
Ġc our
Ġto day
Ġb rain
Ġe nd
ct ion
Ġimport ant
Ġa fter
Ġdid n
Ġthou ght
b e
Ġfe el
Ġide a
Ġas k
Th ank
c on
Ġb as
Ġpers on
Ġl ast
Ġpl ay
Ġc reat
Ġre l
Ġc ar
al s
Ġ And
? "
Ġint erest
Ġstart ed
Ġin st
Ġit s
a il
Ġg l
ĠI t
h e
Ġex am
u ll
Ġh im
Ġs ch
o ld
Ġs ci
ou gh
Ġtr ans
Ġw ent
is e
Ġbe fore
Ġunderst and
Ġcour se
Ġin s
g an
Ġm ight
ut ion
Ġhel p
Ġg ive
Ġb it
es e
Ġbet ter
il ity
Ġcon s
ist s
Ġ K
Ġg ra
o st
Ġan other
Ġpo int
Ġproble m
Ġ 3
ul ar
Ġne ver
Ġpro du
a ve
i ly
l ic
Ġ ke
Ġst ory
Ġbel ie
v en
Ġe le
Ġco ll
Ġab le
ro s
Ġin ter
Ġfe w
er t
u nd
k es
Ġb o
Ġf ound
Ġst ill
Ġs l
i x
Ġs ort
Ġag o
Ġk id
Ġ ent
Ġp ower
Ġp ol
Ġto g
Ġtog ether
Ġne xt
Ġpl an
Ġn um
ot h
er g
Ġf am
Ġd r
Ġpl ace
Ġc ame
Ġw ater
vel op
Ġso l
Ġsch ool
Ġm on
Ġmo d
u c
al th
en se
Ġcomm un
it ed
Ġ1 9
at ch
Ġh igh
Ġcomp le
we en
Ġc r
Ġim ag
Wh en
Ġt er
w ard
i ence
Ġst r
n g
at her
re ad
Ġlear n
B e
Ġus ed
Ġe ach
Ġbet ween
Ġar t
Ġp at
Ġd at
Ġl a
Ġtechn ology
iz ed
n ess
Ġquest ion
Ġre c
mer ic
Ġ1 0
Ġde velop
Ġ2 0
, "
ĠS t
is s
Ġex t
ure s
Ġsm all
Ġat t
Ġlo ve
ĠA f
Ġf our
Ġc re
or k
Ġlook ing
Ġexam ple
Ġm et
if ic
Ġm ed
Ġs er
ar ch
way s
ra m
Ġo p
Ġd one
co nd
a z
in ess
Ġo ld
et s
Ġpart ic
Ġdat a
ut e
ab ly
Ġdoes n
Ġl ight
Ġm in
Ġwom en
Ġf in
ĠA meric
ere d
c ed
Ġc ell
Ġg row
Ġc are
Ġm om
Ġe ff
Ġwor d
ce pt
Ġc ent
ing s
at ive
Ġwant ed
Ġcomp ut
c y
Ġbe h
Ġst u
con om
Ġh ard
Ġre ad
Ġmo ve
a h
Ġf ar
Ġwho le
Ġp oss
Ġl ar
Ġre as
Ġli ve
and s
Ġ Y
form ation
g er
Ġtry ing
Ġn at
Ġe ver
Ġm illion
Ġe ar
ros s
Ġ ed
Ġb i
ĠI n
Ġwork ing
Ġch ang
ot e
sel ves
Ġa way
Ġg iv
Ġal ways
op e
Ġe l
ation al
Be cause
ir d
Ġe conom
one y
Ġchild ren
Ġexp l
Ġl ess
Ġbelie ve
c er
Ġb us
Ġ So
w h
ur al
Ġ We
Ġgen er
. .
g in
is m
Ġre p
ment s
Ġc ap
Ġs k
5 0
Ġb ook
Ġhe alth
Ġcount ry
Ġan im
H ow
Ġres p
Ġsu pp
ĠAf ric
Ġp ict
Ġf o
Ġc or
Ġm us
on t
Ġfr ie
r ies
Ġsu b
Ġr un
ru ct
n ect
Ġus ing
ra ct
Ġsp ace
Ġop en
Ġpro ject
h ip
Ġha nd
Ġme ans
o ck
Ġf ive
Ġpro b
at ter
Ġthink ing
l ed
Ġtoo k
p s
Ġkid s
ver s
Ġcre ate
n ce
Ġin formation
Ġmay be
Ġv is
a ces
Ġin f
Ġ 4
Ġm oney
al f
Ġevery thing
Ġc ou
Ġdo ll
Ġnum ber
Ġp ub
a ir
Ġle ad
Ġh ome
ver n
Ġspe c
g g
Ġbec ome
Ġm ind
Ġse cond
o y
ir on
Ġre g
Ġpro cess
Ġcomp an
Ġor gan
it s
k s
Ġ You
Ġs ing
r ib
Ġle ft
id ent
o nd
Ġte ach
ie w
t en
u es
erg y
Ġf ood
ent ion
Ġen ough
ĠU n
Ġw alk
Ġqu ite
e ver
Ġac c
Ġb est
Ġget ting
a ut
iver s
Ġf ut
s w
Ġfor m
Ġhe ad
Ġinterest ing
Ġpro g
Ġen g
Th ese
Ġcom es
Ġf un
Ġw ar
or ies
Ġ V
p r
Ġs ense
ou se
it al
Ġp res
it ing
Ġprob ably
Ġso cial
Ġde m
Ġm ark
Ġfut ure
Ġen ergy
Ġgo vern
Ġc a
Ġhappen ed
Ġan sw
Ġcon f
Ġtim es
Ġs et
in es
Ġc le
ĠI nd
Ġele ct
ert ain
t s
Ġg rou
Ġmon th
et y
i er
Ġtalk ing
Ġma king
Ġad d
Ġbe gin
Ġstu ff
t ty
Ġcont ro
Ġro om
Ġbuild ing
Ġcon nect
Ġc ur
Ġmom ent
Ġp ass
i ent
Ġb ody
Ġp op
Ġgl ob
Ġen v
Ġph ys
Ġs ign
Ġwith out
Ġto ld
Ġd ist
ate ly
re en
Ġg r
Ġh alf
Ġs ide
Ġpre tty
Ġel se
Ġcount ries
a ke
n er
Ġwe e
Ġbe aut
Ġdoll ars
Ġp ie
Ġli ves
Ġcom ing
Ġreas on
Ġbus iness
og ra
Ġke ep
im es
Ġany thing
Ġmod el
Ġh ist
Ġso ci
Ġsu ch
O ne
Ġj ob
i or
Ġb ad
Ġw o
l f
Ġto p
ic es
Ġo pp
Wh y
g s
m e
Ġall ow
Ġde f
Ġac ross
M y
em ber
ort un
Ġenv iron
d er
Ġst op
Ġm en
Ġs ound
ur ing
Ġe as
Ġsay s
Ġ The
Ġma kes
H ere
Ġyou ng
Ġbr ing
Ġst and
e ad
Ġh ope
Ġa ir
Ġsci ence
Ġse en
ol ution
Ġsa w
Ġm atter
Ġli ving
id d
in ce
Ġt y
Ġl ater
Ġpr ot
m ost
Ġf ig
Ġask ed
Ġv al
Ġexper ience
Ġed uc
ĠAfric a
Ġgo es
Ġsim ple
Ġ2 00
Ġpartic ular
id ed
Ġh our
i o
Ġre se
wh ere
k ay
y ing
Ġe y
Ġhapp ens
Ġc ult
al ity
Ġs it
m an
Ġha ving
Ġwo nder
ll ow
ĠCh in
Ġsci ent
Ġc am
Ġph ot
Ġpict ure
as h
im e
il t
ap s
Ġway s
ang u
k en
u ght
S he
Ġa ut
iz ation
ot t
Ġcomple te
Ġc ol
Ġme m
Ġfam ily
Ġth ous
Ġd et
ot s
Ġeff ect
F or
Ġl ist
Ġs ix
ar th
Ġch ar
Ġproble ms
Ġre f
Ġpro f
Ġb re
Ġsh are
Ġle vel
ĠN ew
Ġday s
Ġcomput er
re am
Ġrese arch
Ġsing le
it er
Ġre st
Ġe qu
Ġglob al
Ġenviron ment
Ġplan et
Ġc ase
ar r
ir l
L et
Ġc ity
ogra ph
Ġl angu
A s
are nt
Ġf ore
Ġma ch
Ġbas ically
Ġt est
Ġlo c
E D
i ke
in s
or n
Ġins ide
Ġmus ic
read y
Ġpol it
Ġc ertain
Ġm or
ul ation
Ġal most
Ġposs ible
Ġpub lic
Ġs ure
l ess
Ġy et
Ġsay ing
o v
Ġb oth
Ġam az
Ġansw er
Ġw atch
Ġv ide
Ġon ce
Ġgu y
m ed
Ġhe ar
Ġwh ile
it ive
all en
ĠE arth
u ge
Ġwh ether
un ch
Ġro b
Ġp ain
ant s
os ed
Ġdis co
Ġa ge
Ġal ready
Ġnot hing
Ġcont in
e e
Ġsu c
ur y
Ġb illion
Ġinc red
Ġwr ong
l ish
iv id
Ġlook ed
Ġse lf
Ġide as
Ġdis e
iver se
Ġsome one
Ġex act
Ġwith in
o ice
Ġex c
â Ģ
Ġt reat
Ġrem ember
Ġcommun ity
Ġlook s
Ġprodu ct
Ġas s
Ġcontro l
Ġu nt
Ġhist ory
ie ld
Ġs w
Ġhe art
Ġmy self
if ul
Ġp ar
as es
w are
Ġlar ge
Ġcell s
Ġof ten
s ide
Ġtr ue
Ġco st
Ġamaz ing
und red
Ġde v
Ġhe ard
Ġm il
Ġl ab
Ġis s
ut es
Ġd ire
im ate
p ect
ĠIn tern
Ġk ill
Ġch allen
Ġco nd
Ġword s
u ro
ag es
Ġfig ure
w ork
Ġimag ine
Ġw a
d e
i ans
ater ial
as ter
Ġma g
âĢ Ļ
v ious
en e
Ġwork s
iv ity
Ġch e
c le
Ġad v
Ġbu ilt
ĠUn ited
Ġn ight
Ġh undred
Ġmonth s
l ing
Ġnew s
l and
Ġcou ple
er ing
Ġcl ass
Ġor der
Ġent ire
Ġbeaut iful
u ck
e x
Ġa ff
Ġind ivid
Ġfrie nds
Ġcan cer
idd le
b ers
Ġf ull
Ġf ace
ĠT ED
Ġgovern ment
Ġ1 00
b s
Ġres ult
Ġp ay
Ġ3 0
ap er
Ġmark et
Ġgrou p
Ġlangu age
Ġm ust
Ġinc re
Ġg irl
iv es
Ġt re
Ġf il
Ġpie ce
l ine
Ġn et
g et
t o
Ġ 6
Ġfo llow
Ġst ate
Ġspec ies
Ġpl aces
Ġ 50
Ġis n
Ġde ep
A ll
u p
Ġm aterial
Ġse c
Ġfr ont
Ġindivid ual
Ġv ir
Ġv iew
Ġevery body
Ġwas n
Ġvide o
Ġunt il
ust r
at ic
Ġapp ro
Ġcon st
i red
at or
us h
Ġdec ided
Ġp ast
n y
Ġd ra
Ġeduc ation
Ġcomplete ly
ĠIntern et
Ġl ine
e ah
Ġqu ick
Ġbeh av
r on
Ġun iverse
Ġin n
Ġd i
Ġt rain
N o
Ġc ra
ou th
om es
ĠI s
Ġre t
Ġstud y
an e
Ġob ject
Ġst ories
Ġter r
Ġnat ure
Ġexact ly
c ing
in ed
Ġbec ame
ĠSt ates
Ġde al
Ġthou gh
ent al
Ġf ree
b r
Ġ '
Ġn ame
Ġab s
Ġs ca
Ġta king
Ġhappen ing
Ġstud ents
Ġanim als
Ġto ol
Ġ 9
Ġm ess
Ġh uge
Ġf und
e nd
Ġp os
Ġl and
Ġkn ew
Ġkind s
Ġ They
Ġit self
Ġexper im
act er
Ġo ce
Ġcoll ect
Ġla w
ter s
Ġsome body
Ġst ruct
i en
Ġour selves
Ġwom an
Ġlearn ed
Ġeng ine
at s
is ion
g est
Ġs ince
i ents
og n
Ġsoci ety
Ġh ouse
Ġr is
Ġsuc cess
Ġ [
ion al
d d
Ġcl ose
Ġmin utes
et ic
Ġget s
re t
Ġd ru
h aps
om et
ro p
Ġspe nd
Ġcomple x
Ġcompan y
s y
Ġquest ions
c c
Ġthem selves
Ġ z
ic ult
Ġal ong
Ġturn s
Ġm ass
itt ing
Ġa v
ab ility
Ġagain st
oc us
c l
Ġme et
Ġrel ations
th ers
Ġm ic
ĠInd ia
Ġhour s
Ġg ame
ĠAmeric a
Ġopp ortun
ct or
Ġon es
Ġpro v
Ġr ather
Th en
Ġcreat ed
Ġb ott
Ġf ly
ib ly
Ġ This
ur s
i um
Ġ Thank
.. .
Ġcle ar
f ace
at ure
Ġp arent
a w
Ġle ast
ĠH e
Ġ 7
Ġ That
Ġth ird
Ġf ocus
Ġexp ect
Ġcould n
Ġinv est
Ġ 8
Ġw on
Ġw ind
am es
Ġme as
Ġgu ys
on es
Ġwork ed
at t
Ġsomet imes
Ġp red
Ġdiff icult
e g
ivers ity
ĠG od
m ing
Ġm other
Ġo thers
Ġ1 5
Ġar ch
Ġthous ands
Ġv ar
Ġdise ase
Ġl iter
Ġear ly
Ġg ave
Ġprog ram
Ġ ill
Ġh old
Ġhapp y
Ġspe ak
c ul
ist ic
pl es
Ġam ount
Ġsystem s
Ġn orm
ol ved
ward s
Ġlot s
Ġa ud
n ot
ill ions
Ġ ve
Ġevery one
Ġinn ov
Ġinst ead
a pp
Ġm ath
Ġf ield
Ġte am
Ġb ab
Ġs ens
er v
a le
ent ed
Ġbehav ior
ith er
Ġex ist
id er
Ġra d
Ġ 5
Ġnat ural
Ġprot ect
Ġlist en
i qu
o ve
in ation
Ġm ot
Ġta ken
ĠE uro
olog ical
ĠAmeric an
a king
Ġo il
Ġout side
f ect
i ally
Ġinter act
Ġrelations hip
Ġm iss
Ġc ir
are d
Ġdiffere nce
Ġc ut
Ġsh ap
Ġ What
Ġan t
t ed
Ġbl ack
Ġrec ord
E very
ĠB r
Ġlear ning
Ġh y
Ġre v
Ġre cent
D o
Ġle g
Ġchang ed
Ġmach ine
Ġo per
Ġf ail
ve red
Ġext ra
ĠY ork
g en
Ġse ven
Ġde ath
us s
ent ial
Ġare a
ĠChin a
Ġb ro
Ġcent ury
Ġst ep
S ome
Ġm iddle
Ġse x
Ġg reen
ull y
Ġbegin ning
Ġpat tern
Ġp ot
Ġre d
sy ch
id es
i ol
Ġnet work
ĠE ng
Ġcomm on
ĠEuro pe
Ġ ...
as ed
Ġst re
Ġper haps
Ġmo ving
Ġgiv en
Ġeas y
Ġey es
O r
Ġyour self
ut ions
Ġha nds
Ġsh ort
Ġd a
Ġle ave
N A
or th
Ġde l
ver age
Ġâ Ģ
Ġturn ed
Ġn on
Ġde p
Ġter ms
Ġsy m
Ġl ow
Ġf ish
Ġinc l
Ġexpl ain
Ġpop ulation
Ġ es
er a
er y
Ġta kes
Ġcult ure
Ġc ities
it ions
ol ute
Ġs ent
Ġneed s
um p
Ġty p
Ġo cc
Ġob vious
Ġsupp ort
Ġ1 2
Ġl im
Ġj our
el s
el t
pt ion
Ġcoll e
Ġwonder ful
Ġch em
Ġsee ing
ud e
Ġfin ally
Ġd ig
ĠA r
ĠâĻ ª
Ġbeh ind
in ary
Ġp aper
Ġint ell
ast ic
j or
p ly
Ġ ident
er n
ar ing
iv ing
i pp
Ġbe gan
Ġp sych
Ġimp ro
Ġcommun ic
Ġbre ak
Ġcan not
Ġj o
Ġp ract
Ġper form
Ġpart s
Ġfrie nd
id ence
Ġloc al
re w
Ġsa f
Ġtra d
Ġoce an
it ch
Ġe ight
Ġs qu
Ġre ach
y ear
Ġto t
Ġd uring
Ġim age
g es
Ġbl ue
Ġlong er
ĠâĢ Ķ
Ġp ick
Ġsu per
Ġper fect
Ġsim ply
r an
Ġs un
Ġte m
Ġcompan ies
e ople
Ġreal ized
Ġext re
Ġar g
Ġpower ful
Ġf all
it ect
Ġf re
Ġma jor
Ġev ent
f ully
Ġneed ed
Ġac cess
Ġst ay
ci ous
our ce
Ġw all
Ġd ream
ĠA l
Ġd ark
p ort
Ġ But
Ġwhat ever
Ġ ess
Ġwee k
Ġs ize
Ġcons um
Ġ1 8
Ġeconom ic
Ġspe cial
Ġfam il
Ġser v
Ġrep res
a x
Ġtr ied
Ġabs olute
Ġparent s
er o
our ces
Ġem ot
t on
ro du
Ġpo or
Ġsur v
Ġsur pr
Ġinterest ed
Ġperson al
Ġ4 0
on y
Ġmed ia
Ġpres ent
Ġgra nd
Ġf elt
Ġreal ity
Ġfe ed
g le
is ing
Ġe at
o h
Ġpr iv
Ġbu y
Ġp le
led ge
Ġsit u
Ġv iol
Ġem b
O n
is on
Ġg round
rou ght
Ġquick ly
Ġp ress
is ed
Ġg one
il ar
Ġrec ogn
Ġsca le
ib ility
c rib
ard s
Ġstr ong
Ġarch itect
b o
h ood
in al
re nt
Ġf ather
Ġy es
Ġrob ot
Ġgrow th
s h
Ġg e
av or
Ġab ility
Ġcon v
Ġsp ent
Ġke y
Ġre qu
Ġval ue
Ġappro ach
Ġc al
op h
Ġhum ans
Ġwee ks
g ed
iv ed
Ġfe et
Ġshow s
ne y
os p
Ġc ool
Ġdem oc
Ġs itting
Ġen c
Ġanim al
ill s
Ġopportun ity
at ors
ro om
Ġknow n
ĠD NA
A t
Ġpolit ical
or ld
Ġ vers
Ġne ar
Ġdis c
Ġtra vel
Ġm ult
Ġe ither
um ent
Ġph one
Ġdire ct
e v
Ġc iv
iz ing
Ġs um
Ġf ight
Ġeconom y
Ġpred ict
N ot
l er
ur b
Ġlo st
Ġsur face
u nt
Ġd est
Ġor ig
Ġmeas ure
O h
Ġf ear
if t
Ġare as
Ġob s
am p
olog ies
Ġwr ite
Ġdra w
ain s
Ġmor ning
u le
Ġsl ow
Ġresp ons
Ġincred ible
Ġstruct ure
ĠB e
Ġpo st
Ġlead ers
Ġmic ro
Ġbott om
o ll
ĠS h
ou ch
ut h
r om
le ct
Ġextre me
ĠO K
Ġpat ients
Ġatt ention
r al
Ġh ar
us es
Ġbl ood
Ġphot ograph
Ġbas ed
e ed
Ġa p
Ġp ull
Ġso ft
Ġwould n
ress ion
in y
Ġn ice
Ġchang es
Ġfo ot
Ġin tern
ci ally
P eople
ive ly
b or
z y
Ġa verage
Ġf ast
Ġnum bers
Ġchallen ge
I s
Ġev olution
Ġreal ize
h or
al es
Ġmo le
Ġc y
od e
Ġimp act
Ġprof ess
Ġp ur
Ġse nd
ust ain
dd en
Ġm ar
ent ially
Ġbo x
Ġw in
Ġsu dden
o f
Ġb rought
Ġst e
Ġind ust
ate g
ĠS e
l t
O kay
ang er
Ġphys ical
Ġcr it
Ġfeel ing
er m
Ġse a
Ġmean ing
Ġb orn
Ġdevelop ed
c om
Ġrel ig
Ġris k
Ġre du
Ġcom b
Ġb ene
Ġan al
ow s
Ġro ck
Ġd ie
Ġins p
Ġgrow ing
o le
ac y
Ġexperim ent
en g
Ġknow ledge
T o
b on
Ġsee ms
Ġfor ward
Ġmo v
Ġwr ote
Ġbook s
e y
l u
Ġrun ning
Ġgiv ing
Ġliter ally
Ġthe ory
Ġo pt
Ġfor ce
Ġtechn ologies
Ġinst it
A n
g ing
Ġde g
Ġf ac
Ġma in
Ġcir c
C h
e xt
Ġre le
if ied
Ġfund am
ĠCh r
Ġfil m
an ces
Ġwh ite
Ġst ra
Ġv ol
Ġsp read
v ent
ore d
Ġcl imate
le ep
n ed
Ġa st
Ġh or
Ġre pl
ch ie
Ġma p
Ġunderstand ing
Ġmed ic
Ġscient ists
ĠEng lish
Ġsim ilar
Ġelect ric
Ġhundred s
c r
Ġf avor
Ġne igh
Ġstart ing
Ġmil es
o on
Ġde pe
Ġany one
C A
p ar
Ġwor th
ag ed
Ġpr in
u g
Ġv ill
Ġ There
Ġser ious
Ġgiv es
gg est
Ġcol or
Ġciv il
ch an
Ġimag es
Ġaud ience
Ġb all
Ġm illions
ĠW orld
Ġcur rent
O ur
om en
Ġal one
Ġte le
Ġsu ggest
Ġtell ing
Ġtool s
Ġh ot
Ġso on
Ġthan k
Ġcomp et
Ġgu ess
p or
ass ion
Ġdes crib
ad es
Ġtrad ition
Ġ ice
ic y
Ġs il
Ġpr om
pl oy
Ġnorm al
Ġpro per
Ġte xt
Ġfl o
Ġ Th
Ġc ars
Ġh osp
Ġp ath
ra cy
il ities
Ġde ad
Ġiss ue
Ġav ail
i et
Ġsh o
ens ive
Ġr ul
Ġcent er
Wh ere
Ġincl ud
it es
ĠA s
i ant
Ġplay ing
Ġcreat ing
Ġdevelop ment
Ġdisco vered
b it
Ġs ustain
Ġl if
Ġsee m
Ġam ong
Ġty pe
Ġaff ect
Ġshow ed
Ġst at
Ġst age
Ġsu ff
he ad
Ġmove ment
Ġcon cept
a i
Ġare n
Ġro ad
Ġmod ern
p ed
am ed
Ġvis ual
Ġabsolute ly
Ġ est
Ġt ouch
J ust
Ġse ll
pe cially
Ġrecent ly
Ġ er
Ġs n
Ġc op
as ing
im ens
b y
ou d
Ġpo ll
i od
Ġdevelop ing
Ġcam p
Ġindust ry
Ġintell ig
Ġon line
Ġtra ck
Ġh on
Ġar m
Ġtalk ed
Ġ Well
Ġa chie
Ġf u
ur ity
oo se
Ġch ance
iqu e
Ġpro p
Ġtr uth
ĠS outh
Ġres ources
Ġincred ibly
Ġs ong
Ġcon vers
Ġiss ues
l ike
Ġre act
Ġas king
Ġar r
Ġtrans form
Ġpat ient
Ġreas ons
Ġsub ject
ere nce
Ġv oice
ish ed
Ġexper ien
Ġmath em
Ġshap e
Ġf ur
le ar
Ġbene f
Ġl ay
Ġprodu ce
Ġinnov ation
Ġ Z
Ġknow s
iv al
Ġavail able
ph ere
Ġb ra
as c
Ġr ate
Ġper iod
Ġsol ution
Ġso ld
Ġme chan
ap t
Ġinv olved
Ġf ire
Ġha ven
un g
Ġev idence
ĠN o
Ġatt ack
Ġsa ve
ĠH ow
Ġsitu ation
S t
Ġ2 5
Ġt iny
en cy
Ġch oice
ab or
ict ion
Ġdesign ed
Ġey e
Ġfl u
Ġfl ow
Ġsol ve
Ġpict ures
Ġne ur
is ter
Ġd in
y ond
Ġbec omes
Ġes pecially
en ces
Ġd ou
Ġcomp assion
Ġchang ing
if y
Ġse arch
Ġmess age
Ġbig ger
Ġbab y
Ġ19 9
Ġcomput ers
ĠChin ese
i k
p an
ar ily
Ġex cept
Ġcl os
Ġcar bon
Ġstre et
Ġput ting
l ight
Ġu lt
Ġun f
Ġsm art
Ġs leep
Ġim m
Ġfun ction
Ġf air
Ġli ved
Ġem p
Ġem erg
Ġwr iting
Ġn uc
ist an
Ġgrou ps
C an
l ict
o ices
Ġb ird
Ġse ver
Ġtr ust
Ġmed ical
Ġlike ly
Ġgirl s
Ġb ed
Ġdr ive
p id
Ġta ble
Ġfore st
Ġs at
Ġc e
Ġd ied
st r
ĠC an
is hing
Ġbe yond
Ġgener al
Ġsoft ware
Ġ6 0
Ġb acter
Ġto wards
Ġd om
Ġn ine
ay be
Ġne cess
Ġle a
Ġsound s
oo gle
Ġsol ar
Ġrul es
Ġb ar
or ing
ct ors
um b
Ġte nd
Ġrep ort
ip s
Ġpr im
Ġgener ation
Ġa w
Ġm ount
Ġdef in
Ġdev ice
Ġsever al
p re
Ġ rain
Ġpe ace
ress ed
f ort
n am
us ion
Ġpl ant
ous ly
Ġdru gs
l o
Ġw ish
Ġd anger
Ġr ich
Ġb reat
Ġspe ed
Ġparticular ly
Ġrev olution
W ith
h ow
in a
Ġf a
Ġany body
Ġcons cious
om s
Ġcap ital
Ġdru g
Ġsaf e
us ed
un e
Ġqu ality
Ġsy n
Ġbl ock
B y
ou n
Ġe c
Ġmo ved
Wh o
Ġon to
ver t
Ġchar acter
med i
Ġextra ord
ie f
Ġact ion
Ġoff ice
b ook
g round
r ast
x y
Ġf em
Ġg ames
Ġre ce
Ġbas ic
Ġschool s
Ġpot ential
i res
v iew
Ġa f
Ġst ru
Ġne g
Ġl ink
Ġprin ci
Ġshow ing
ĠF r
Ġexam ples
c ome
Ġh it
id ge
pp ed
Ġwalk ing
Ġobvious ly
Ġcertain ly
i ar
u ly
Ġl og
ir th
Ġvis ion
Ġmaterial s
Ġjour ney
Ġp a
ĠA n
Ġfur ther
o ke
Ġscient ific
as k
th e
Ġtot ally
M an
n ers
Ġd iv
Ġcont ext
A l
h ere
Ġa ware
Ġe p
Ġwant s
ore s
Ġstart s
Ġproject s
Ġchem ical
m a
Ġn ational
Ġno body
Ġbig gest
Ġsc reen
Ġeff ic
Ġlar gest
Ġexc iting
on se
Ġg as
Ġg al
ig her
Ġextreme ly
ou ght
Ġf ix
ĠP h
Ġstud ent
te nd
Ġteach ers
p ut
ver ty
Ġdo or
Ġevery where
ĠG oogle
Ġacc ount
Ġfundam ental
Ġpartic ip
Ġresult s
u it
L ook
et er
Ġact iv
Ġad m
Ġfar m
Ġmem ory
Ġvir t
Ġdig ital
Ġo kay
Ġh igher
Ġme ant
ant ly
Ġdet ail
Ġrepres ent
Ġneigh bor
it iz
ci ent
Ġcam era
Ġs on
Ġnot ice
Ġcar ry
it ary
et h
Ġcomp lic
M aybe
Ġpos itive
Ġap art
O f
Ġ Now
Ġc ross
ic le
ap an
Ġro le
Ġsk in
om ing
Ġhapp iness
Ġthous and
Ġcontin ue
m ore
Ġtr ial
Ġsupp osed
Ġviol ence
Y es
f or
Ġl ed
itt en
Ġresp onse
Ġsec urity
Ġ8 0
oh n
Ġp u
Ġint rodu
Ġcle an
Ġjob s
Ġth reat
Ġmo b
Ġbo y
Ġconf lict
Ġb irth
Ġn amed
Ġsp ir
ĠN orth
Ġfavor ite
is ions
os phere
Ġpo verty
Ġche ck
Ġtre es
Ġevent ually
Ġdemoc racy
Ġdepe nd
re st
id s
Ġst ick
ĠD e
Ġad ult
Ġread y
Ġcap t
Ġconnect ed
Ġindividual s
Ġimpro ve
a ur
i ation
Ġf ill
an n
Ġse par
Ġv ac
ru ction
Ġcons ider
Ġcr is
Ġear l
ught er
Ġb unch
Ġd ro
Ġse qu
Ġgra ph
Ġterr or
m b
Ġt ar
Ġc itiz
ag n
oss ible
Ġtrans l
ĠBr it
Ġf ant
ul ate
Ġprog ress
Ġmodel s
Ġwatch ing
urb an
Ġact ivity
Ġmind s
me nd
Ġdisco ver
Ġess entially
I V
Ġf aster
im s
ig er
Ġtell s
ak es
ĠW est
ĠJ apan
Ġca use
Ġcra zy
A fter
Ġp en
id ing
ra d
Ġan n
Ġmag n
. ,
z e
Ġpl ants
od ies
Ġpers pect
Ġl ose
Ġg rew
Ġim medi
ĠC al
co nds
Ġret urn
j oy
er ve
Ġwe bs
Ġwor se
Ġcon cer
Ġcl in
Ġcommun ities
Ġass um
Ġcond itions
Ġsudden ly
Ġmov ie
Ġvill age
Ġmathem at
Ġm ine
Ġp ush
Ġsh own
Ġdis app
ound s
Ġac cept
ortun ately
i ers
Ġgo al
Ġ1 6
Ġbrain s
Ġcreat ive
Ġnuc lear
F irst
Ġs ource
le x
Ġbuild ings
Ġstr ateg
Ġmet h
Ġobject s
Ġgal ax
O K
Ġb om
ĠH IV
Ġapp ear
Ġind eed
Ġcoll abor
Ġhosp ital
Ġwas te
Ġch oose
Ġsort s
Ġla unch
Ġc art
Ġ1 1
Ġpub lish
Ġpass ion
Ġcolle ag
Ġl ate
Ġsome where
ip t
Ġfind ing
Ġrem ark
r ing
Ġs ite
ca pe
Ġimp ossible
Ġph en
Ġextraord inary
n ces
at ory
Ġm arr
Ġl ands
le t
Ġlar ger
Ġteach er
Ġlab or
in ct
Ġs and
Ġ20 1
ĠAfric an
Ġmedic ine
c ise
an a
Ġab ove
Ġmin ute
A ny
r or
es tern
Ġ1 4
Ġta ught
Ġkill ed
M ost
u ed
Ġfor ms
Ġdo ctor
Ġde b
Ġen joy
Ġsign ific
Ġallow ed
e ch
w o
Ġbl ind
oth ers
Ġdet ect
Ġproduct s
Ġsk y
Ġinf lu
Ġinclud ing
Ġcomplic ated
n al
Ġw ife
Ġm is
se ct
ra ge
Ġph il
Ġc at
iz ations
Ġend ed
Ġtem per
Ġf ine
Ġd am
st er
th ough
Ġhe av
ure d
Ġus ually
Ġc ases
ur t
am m
Ġallow s
Ġincre ase
Ġb al
Ġtr uly
Ġ1 7
Ġman age
Ġun ivers
Ġstud ies
iss ion
Ġpos ition
Ġdisc uss
Ġtradition al
Ġphen omen
Ġb ank
Ġb urn
Ġal ive
od ay
olog ists
Ġear th
Ġaff ord
Ġtrain ing
in ing
Ġm ist
Ġf ing
ra p
Ġexc ited
Ġfamil ies
! "
E ven
Ġw ild
Ġo xy
Ġp ack
ff ic
Ġbeing s
Ġpoint s
Ġmor al
Ġdec ision
Ġold er
Ġdist rib
Ġstand ing
Ġaut hor
Ġsuccess ful
Ġintern ational
I m
Ġf ram
ed om
Ġl uck
Ġst ars
use um
Ġpr ice
Ġpr ote
Ġcrit ical
Ġc ard
Ġm ention
Ġd y
ĠA m
Ġreg ion
Ġwa it
Ġsqu are
u gh
Ġth row
Ġdo c
Ġk il
Ġfin an
Ġpur p
p o
Ġb ur
Ġl ower
iv en
Ġcolle ge
Ġelectric ity
Ġbacter ia
g o
Ġt ree
Ġl ines
Wh ich
Ġpr ison
Ġread ing
Ġinf ect
Ġconvers ation
Ġcris is
D on
is ms
Ġup on
Ġsome how
Ġco ld
Ġser ies
Ġeng age
Ġpie ces
Ġachie ve
Ġperspect ive
in ated
re l
Ġc ook
Ġf asc
ĠI f
ĠA ll
Ġprov ide
Ġpattern s
Ġstra ight
r ation
ĠJ ohn
Ġpol icy
Ġhealth y
Ġresp ect
Ġspec ific
f act
l a
m en
Ġt rou
Ġc ode
Ġst ar
ĠW ar
Ġsmall er
ĠChr ist
Ġ ign
Ġ urban
re ct
Ġp an
Ġse conds
so ci
Ġke pt
Ġphys ics
Ġen orm
Ġqu ant
Ġright s
Ġwr itten
Ġocc ur
Ġh op
Ġf ra
Ġpr int
ĠP r
ĠT V
Ġbi ology
Ġrecogn ize
Ġneur ons
â Ļ
Ġto wn
ag ine
Ġany where
Ġcont ent
Ġsl ight
Ġorgan ization
Ġtreat ment
Ġp age
ent ly
ra b
Ġhim self
Ġter m
Ġrob ots
Ġvers ion
Ġs ou
Ġs we
im b
am a
Ġact ual
Ġro ll
Ġmil itary
Ġcal cul
p ing
Ġs al
Ġwe ight
ay s
Ġdo ctors
Ġany more
ub e
Ġincre asing
c ies
ic ed
op s
ĠE ast
Ġbo ard
Ġ19 8
Ġple ase
Ġmole c
d om
Ġdo g
ustr ial
Ġserv ice
Ġarchitect ure
ĠG e
ep end
Ġeff ort
m et
Ġb odies
Ġgen es
Ġresp ond
Ġadd ress
er man
Ġwh e
um ents
Ġtr ick
ĠM an
Ġcont rib
Ġem ploy
ĠIs l
Ġve h
T oday
il ing
ag ing
Ġtrans port
b ol
b ack
z z
Ġp ort
Ġwe b
ul f
Ġstr ange
Ġmag ic
Ġearl ier
Ġle gs
Ġgreat er
Ġbec oming
Ġmach ines
Ġpain ting
Ġpriv ate
r ied
Th ose
Ġlo ved
Ġem ail
Ġdec isions
Ġpol ice
ĠAf gh
Ġsk ills
t ime
Ġc atch
Ġy eah
Ġe th
ther n
Ġwill ing
Ġdes p
Ġrem ind
Ġclear ly
Ġlisten ing
it ation
ra ms
ol es
Ġ1 3
Ġwere n
Ġthrough out
Ġgl ass
le br
ers on
ĠS w
Ġexp ensive
ĠP ro
Ġla ugh
Ġfamil iar
o es
Ġs am
ar ies
Ġcom fort
Ġsh ot
Ġj ump
Ġfam ous
it ude
Ġm ental
Ġwor ry
Ġthere fore
Ġsp ect
Ġun ique
Ġ2 1
ĠL e
ac ity
Ġdr ink
Ġsol utions
ĠY eah
b b
ĠC ar
ĠB ra
Ġcl oud
ĠAmeric ans
Ġcost s
in ating
Ġst ore
Ġex h
Ġal g
Ġprodu ction
Ġexpl ore
Ġsoci et
Ġ9 0
Ġstru gg
al y
se qu
Ġfor th
Ġdet erm
Ġlevel s
Ġwebs ite
Ġth r
en n
Ġp ark
ce ed
Ġr id
Ġgen etic
Ġwa iting
Ġpract ice
Ġfant astic
er al
ain ed
Ġco ver
Ġdanger ous
ĠAfgh an
k y
m ic
Ġt ap
it i
Ġr ange
Ġsur ger
Ġaut om
Ġfre edom
Ġintellig ence
e c
f er
ies t
el ess
ab les
Ġgreat est
Ġfin al
Ġdire ction
Ġperform ance
y stem
at ives
Ġsa ving
ĠR ight
Ġbeaut y
Ġce lebr
S omet
Ġwe ap
im ately
Ġr ise
Ġpre p
Ġra nd
Ġwalk ed
Ġenvironment al
Ġz ero
R ight
or ry
ut ed
Ġsec ret
Ġinstit utions
Ġcitiz ens
is es
or row
Ġat m
os ing
ĠC ity
res h
Ġdec ade
Ġspir it
at ically
as hing
il s
ĠUn iversity
Ġval ues
Ġeffect ive
Ġvar i
An other
Ġfu el
Ġimmedi ately
Y eah
o id
re es
Ġc ry
Ġc row
ist ics
Ġdr iving
Ġmeet ing
y r
ot y
olog ist
Ġrand om
Ġl ad
Ġwe alth
Ġsh ark
ĠS p
Ġinv ented
Ġopt im
Ġflo or
Ġm atch
Ġr an
Ġpl astic
Ġcou n
ond on
Ġteach ing
Ġmass ive
Ġvar ious
Ġtyp es
Ġa head
it or
Ġdec ades
air s
Ġdem on
Ġlaw s
att le
Ġenc ou
Im agine
Ġinc ome
ĠO r
Ġserv ices
Ġmult ip
v ision
ch es
Ġj ud
ĠL ondon
Ġhuman ity
Ġinter view
Ġcare er
Ġgovern ments
Ġconnect ion
Ġneighbor hood
b all
p ro
il es
Ġgra du
rast ruct
âĻ «
ant ic
ĠM us
ĠG erman
Ġdec ide
Ġapp ly
Ġcond ition
i ot
Ġcon cl
Ġinst ance
Ġfollow ing
Ġbab ies
6 0
S A
en y
Ġin sect
Ġor d
Ġal though
Ġus es
ĠH ar
Ġuse ful
Ġsim pl
Ġinst r
Ġ i
Ġf it
ĠC ent
ric ult
Ġpop ular
Ġphys ic
Ġterr ible
Ġmeth od
Ġremark able
S e
Ġn ation
st it
ke y
Ġch oices
ĠA t
ĠW estern
Ġrel ative
Ġposs ibly
Ġinf rastruct
Ġelect ron
Ġenorm ous
e f
Ġsur ve
Ġstand ard
Ġhon est
a ign
Ġ X
Ġd ram
Ġfor get
ĠO kay
Ġsc r
Ġeffect s
Ġdemon str
w ise
Ġra ise
Ġpolit ics
Ġfly ing
Ġatm osphere
g ain
i ate
y l
Ġany way
Ġchallen ges
Ġbro ad
bo ard
Ġs us
Ġs ad
Ġc ust
Ġh ous
Ġha ir
Ġst ress
Ġas soci
Ġ2 4
Ġtra de
Ġopp os
Ġvir us
Ġfinan cial
Ġsociet ies
Ġy ell
Ġn ut
erv ation
an ced
if orn
Ġint eg
Ġv ict
Ġexp ress
Ġhelp ed
Ġsl ide
Ġdise ases
Ġengine ering
Ġmot iv
Ġdy nam
Ġslight ly
L ike
u ct
Ġt iss
re pre
Ġm amm
ar m
Ġal tern
Ġra ce
Ġunderst ood
Ġ19 7
Ġsupp ly
Ġ7 0
Ġsym bol
Ġpress ure
Ġsum mer
repre ne
n ow
r ay
Ġm ut
Ġwor st
ĠA ustr
itt ed
Ġspe ech
Ġsur round
Ġb an
ir ing
ĠS ch
ĠM ars
Ġcomm er
Ġsc an
Ġcap acity
Ġhy d
Ġmicro b
Ġpurp ose
w in
Ġb ase
Ġm al
Ġp ig
Ġd rop
ud d
ib er
Ġbel ow
Ġtele vision
Ġphil os
c les
Ġw ood
Ġart ist
Ġshare d
Ġsw itch
Ġsurv ive
Ġdirect ly
Ġdest ro
Ġfem ale
ĠCal iforn
Ġcolleag ues
Ġ Q
Ġ ir
Ġt ens
Ġwho se
ci ence
ĠC ong
Ġmost ly
Ġcult ural
Ġsw im
Ġ5 00
Ġpa id
Ġtemper ature
u fact
Ġr ule
Ġoff ic
Ġcent ral
Ġprog rams
Ġtre mend
an cy
ar ian
Ġst ates
Ġag ricult
ĠInd ian
Ġrelationship s
Ġrelig ion
y le
Ġfor ces
Ġcon sequ
un k
Ġpre vent
Ġinv ent
Ġbo ys
i os
Ġd ad
Ġd imens
Ġe t
ce ll
ĠA rab
Ġca uses
Ġdou b
Ġpublish ed
Ġinfrastruct ure
ĠCaliforn ia
c ope
ol ve
Ġdiffere nces
Ġbl og
Ġcreat ivity
Ġbelie f
Ġmet ers
Ġorgan izations
I D
w ood
Ġa id
Ġl oss
ra q
Ġnot iced
Ġcon c
ĠB l
Ġfun ny
Ġansw ers
Ġcontro ll
Ġref lect
Ġprof ound
Ġtot al
lo ad
Ġmob ile
Ġt un
Ġt ask
oo per
Ġma le
Ġoxy gen
g y
k ed
en ed
st ead
Ġhe at
ck s
cul es
Ġrad io
Ġclos er
r is
ra id
Ġli ber
iz es
Ġexp and
Ġspe aking
Ġdi agn
Ġleg al
Ġcamp aign
ĠAfghan istan
A re
in ate
Ġm id
em ent
Ġtw ice
ru pt
ren ch
Ġ3 00
Ġent reprene
Ġbi ological
Ġstop ped
Ġorig inal
Ġmount ain
Ġtrou ble
Ġsurger y
a f
o ff
and a
and er
ĠM ar
Ġplay ed
Ġaf raid
ĠMus l
es is
al ing
Ġsp aces
ĠS te
Ġwork ers
Ġman ufact
Ġev olved
ĠN ational
ĠO ne
Ġprodu ced
Ġmark ets
Ġnetwork s
Ġstre ets
Ġcommunic ate
i ra
p es
u ing
Ġh ole
ĠI raq
Ġan g
Ġcomp on
ĠM y
Ġgot ten
Ġsustain able
v est
w ater
Ġb ought
ic les
Ġsh ock
Ġact ive
Ġpo et
Ġdis pl
ph one
Ġapp lic
Ġhigh ly
Ġjour nal
Ġo h
Ġh us
ar ter
ra el
Ġfeel s
Ġmiss ing
Ġm ix
Ġsee med
Ġta x
Ġsm ell
Ġeas ily
Ġexperim ents
Ġrespons ibility
Ġcust om
h y
Ġ ut
Ġd ance
Ġd ying
Ġfor t
am b
ad em
ate ll
Ġv ast
cept ion
ash ion
Ġemot ional
Ġmole cules
ĠIsl am
or ith
Ġl ack
em pt
ord er
Ġcor ner
Ġhist or
Ġclass room
ex ic
Ġsurpr ising
Ġsho ot
S h
b and
z il
Ġf at
st e
Ġr ough
ib r
Ġdifferent ly
ĠR uss
ac ed
Ġind epend
Ġbas is
ic a
Ġe ating
ul ner
Ġknow ing
ĠA d
Ġco ff
ĠF ace
Ġcreat es
Ġhelp ing
Ġplan ets
Ġdeg rees
Ġexperien ces
Ġbird s
Ġalg orith
Ġ Why
ed ia
Ġha ll
ist ry
Ġdesign ers
Ġdel iver
Ġredu ce
Ġeffic ient
Ġsignific ant
Ġw ire
Ġd iversity
ĠI ran
Ġgo ld
Ġra pid
av id
Ġatt ract
Ġmem bers
Ġwind ow
m on
r ical
Ġs ick
Ġc ru
it ter
Ġn one
ct ually
ĠS he
ĠO h
Ġda ughter
re g
Ġs atell
Ġwe ird
Ġha bit
Ġind ustrial
Ġcommunic ation
cr ipt
en ing
ear s
Ġback ground
In stead
Ġra re
Ġbring ing
Ġcomplex ity
Ġbro ken
Ġnear ly
Ġdin os
Ġi P
Ġ $
Ġ ver
Ġ ur
Ġse as
ter m
ĠC om
Ġfl ight
Ġgen ome
Ġscient ist
Ġspend ing
ĠBra zil
F rom
m p
Ġh om
Ġg ent
ĠS an
ĠC l
ĠM exic
Ġag ree
Ġcl imb
Ġvis it
Ġair pl
Ġet c
T wo
r atic
ic king
os ystem
Ġcont act
Ġstud ying
Ġlight s
Ġdem and
Ġconf erence
Ġphot o
ĠBe cause
Ġconscious ness
Ġtar get
Ġcommer cial
Y our
g th
is co
ic on
Ġre b
Ġre co
Ġst ren
Ġtr ip
ang ing
Ġres ist
Ġadd ition
Ġhear ing
Ġdev ices
Ġanal y
ĠAustr al
3 0
Ġs ke
Ġf old
Ġsh ift
Ġent er
Ġbre ast
Ġopportun ities
Ġvol unt
Ġcrow d
Ġtremend ous
Ġw ide
re ci
Ġbe es
ro gen
Ġv ulner
ord ing
Ġbo at
Ġmet ap
Ġfocus ed
Ġjo in
Man y
Ġlands cape
ID S
ĠFace book
Ġin j
Ġha ck
Ġch im
Ġtr ib
ĠL et
Ġec osystem
Ġstren gth
Ġt um
Ġf ro
Ġr out
ĠD r
Ġfl ag
Ġfair ly
a ul
e es
ed d
Ġst em
Ġbr ill
Ġimag ination
Ġfore ver
Ġfull y
Ġm aster
Ġpass ed
Ġsex ual
Ġident ity
r ie
Ġthe rap
Ġc ooper
Ġb read
Th ink
ain ing
ber t
Ġdes ert
ĠIs rael
Ġmiss ion
i am
Ġm useum
Ġbe at
Ġan cient
Ġsh op
Ġcor rect
Ġpar ad
Ġcoff ee
h and
h ouse
n a
Ġc red
Ġas pect
Ġcreat ures
Ġcons id
Ġple as
Ġinsp ired
Ġbom b
Ġphenomen on
Ġluck y
Ġoppos ite
Ġyell ow
U n
b ased
d o
g ra
pp ing
Ġal t
ĠM iddle
Ġpart y
ord ers
Ġart ists
Ġposs ibility
Ġche ap
Ġarg ument
Ġrelig ious
Ġfarm ers
Ġdesp ite
t ies
at r
Ġc ore
Ġm ort
Ġam b
Ġturn ing
Ġmag az
Ġfail ure
Ġc ogn
Ġh ost
if ying
Ġacc om
Ġacc ident
Ġeas ier
idd en
ograph y
Ġadv ant
ipp ed
Ġdescrib e
Ġbra nd
Ġgent le
c est
m ark
v al
at ures
Ġm outh
or ge
Ġg iant
Ġre pe
Ġhe ll
Ġsh aring
Ġnot ion
Ġte en
Ġev ents
ite ly
ĠR e
Ġpartic les
Ġfigure d
Ġdream s
r ont
Ġg un
us ing
ir t
Ġsh ip
Ġnot e
Ġpart ners
Ġra ised
Ġimportant ly
ific ation
Ġmom ents
Ġstruct ures
l ies
z en
ed ic
Ġn or
ul pt
ĠD o
ĠR o
Ġsc ulpt
ĠWe b
Ġfore ign
Ġentire ly
Ġbenef its
c op
r im
Ġ ing
Ġan cest
Ġj oy
Ġex er
rou d
ag er
Ġco ast
ĠT w
Ġgen e
Ġhar m
c ra
f ord
Ġf ol
ve re
Ġfor g
Ġhe ld
ul ations
Ġpl at
Ġbr ight
ĠY es
Ġreg ular
pr int
ĠAs ia
2 0
r ated
Ġ Wh
re et
Ġs orry
Ġb atter
ic ians
et t
ad a
ĠM ich
Ġcl a
Ġpo em
Ġcall s
Ġbr ings
Ġele ments
Ġsuff ering
Ġnecess arily
Ġneg ative
Ġpu zz
Ġvac c
Ġb le
Ġb illions
Ġto m
Ġsp ort
ĠP ar
Ġtra ffic
con nect
Ġchar ge
Ġrequ ire
v ity
Ġw is
Ġf ashion
le y
Ġn orth
ent y
ro ll
Ġst ream
Ġcon cent
Ġqu ote
ĠN or
Ġatt empt
Ġacc ur
Ġrest aur
Ġrespons ible
Ġkil omet
d imens
e qu
m y
r ate
Ġt ough
in c
Ġm ill
Ġp roud
ĠM c
Ġbr other
Ġbr idge
Ġapp reci
Ġrem ote
Ġdist ance
Ġphot os
Ġleaders hip
Ġcompet ition
A gain
Ġb ud
Ġb ound
Ġp ounds
Ġse ed
Ġdis p
Ġpre vious
Ġsm o
Ġinv is
Ġhelp s
Ġcor por
Ġopen ed
ĠEurope an
Ġcoun ter
Ġtiss ue
u gg
Ġ Ġ
Ġ iron
ar ia
ver se
ce ler
if ically
ul ated
Ġch ick
ru ption
ĠF or
ĠF rench
Ġstud ied
Ġind ic
Ġed ge
Ġ4 00
Ġlead ing
Ġnecess ary
Ġdefin ition
Ġep ide
Ġvirt ual
Ġweap ons
gy pt
ste in
e ared
u ild
in ally
it able
Ġin form
Ġe gg
id ents
Ġse ctor
ib ilities
ĠN iger
ĠF ran
ys is
Ġgr ass
Ġoce ans
Ġintell ect
Ġemot ion
Ġdoc ument
Ġphilos oph
Ġc and
Ġre ve
Ġad apt
Ġshould n
Ġbelie ved
Ġmatter s
Ġhold ing
Ġult imately
Ġbal ance
Ġhus band
Ġbrill iant
A ctually
C om
k n
l in
Ġma int
Ġher o
Ġrel ated
Ġstu ck
How ever
Ġdoll ar
Ġmot or
Ġfail ed
Ġunf ortunately
Ġfa ith
Ġadult s
Ġdestro y
s es
Ġt ast
art ment
Ġtr uck
Ġcomp l
Ġoff er
Ġchild hood
Ġlead s
Ġsign al
Ġcol ors
Ġsuc ceed
Ġconv in
ĠChr is
Ġdou ble
H is
a ff
i ors
u ros
v ant
ct ions
ur ch
Ġu nd
Ġsh el
Ġr iver
ĠD ar
ĠK eny
Ġinvest ment
Ġgrand m
Ġinstit ution
dimens ional
i age
t le
w ord
Ġm ouse
Ġn arr
Ġcl ick
ia ble
ĠD avid
Ġhead s
Ġconcer ned
Ġinsect s
Ġplat form
m ar
in ist
Ġh ate
Ġp et
Ġf ab
Ġf oss
ca re
Ġno ise
Ġun iversity
ograph ic
Ġdisco very
Ġlea ving
Ġwhe el
h old
i j
m it
Ġf le
Ġl unch
oo p
ĠA b
os es
ĠS un
ag ers
Ġun like
ĠE gypt
He y
Ġele ment
Ġnews p
Ġdeep ly
Ġconst ruct
Ġslow ly
Ġsequ ence
Ġinflu ence
Ġexh ib
r ight
Ġ When
Ġmo ves
ter day
Ġex ch
Ġno vel
Ġun c
Ġpr ior
Ġcr ash
Ġless on
Ġca ught
Ġfre qu
Ġdeg ree
R e
Ġwe ak
ill ed
Ġcomp ared
Ġtrans p
Ġprot oty
Ġconst antly
Ġtyp ical
ipp ing
Ġprofess ional
l ands
o x
Ġb ag
Ġm ig
all ed
ĠM r
ĠB ang
ĠG reat
Ġlet ter
ĠCh ar
Ġcre ation
Ġpres ident
Ġtrain ed
Ġarg ue
Ġemb ra
Ġfight ing
Ġsyn th
Ġprote in
Ġs ister
le ction
Ġn ames
ot ed
Ġan ts
Ġr ot
pp er
Ġcl osed
Ġfact ory
Ġins ight
Ġgra d
Ġfin ished
Ġbegin s
Ġhy p
Ġmajor ity
Ġwall s
Ġfasc inating
Ġfra g
M ore
i us
s on
Ġb one
Ġf resh
Ġd en
Ġg ard
th rop
Ġsp ot
ort ex
ud ience
Ġac celer
Ġph ones
ath y
Ġop in
Ġcap able
Ġpain t
Ġcollect ive
Ġinteract ion
Ġemot ions
Ġsurpr ise
Ġdescrib ed
Ġstrateg y
D P
O ver
m ission
o om
Ġt it
Ġt our
Ġto r
Ġf aces
es th
Ġre ward
am i
ess ed
Ġ1 50
Ġman aged
Ġother wise
Ġtalk s
ĠF l
Ġatt ach
Ġequ al
Ġequ ival
Ġdep ression
eng th
Ġhor r
Ġmathemat ics
Ġquant um
Ġmetap hor
I T
o e
Ġse at
Ġmo s
Ġro of
Ġad op
Ġcor al
Ġpay ing
Ġoper ating
Ġsepar ate
Ġadvant age
Ġt on
Ġc os
an cing
es ign
ur ally
Ġorgan isms
Ġengine ers
Ġperfect ly
ĠBrit ish
Somet imes
Ġcogn itive
O nce
T ake
Ġ era
Ġp un
ent ally
ur ies
Ġmo on
Ġso il
Ġjust ice
ap ers
Ġdis aster
Ġfollow ed
Ġav oid
Ġcurrent ly
Ġbenef it
Ġprinci ples
Se cond
o int
Ġo dd
Ġb and
Ġp urs
an es
Ġwh om
Ġk ing
Ġhas n
Ġart ific
Ġconsum ption
Ġcivil ization
Ġbreat h
Ġgalax ies
Ġmention ed
Ġvolunt e
Ġinvis ible
W ould
v ention
Ġc ateg
Ġh omes
as ion
ul ous
Ġch ann
Ġor g
ĠC O
Ġem pt
Ġele ph
Ġsurpr ised
Ġfeed back
a e
or ation
ic ity
Ġst im
Ġwor ried
Ġme at
ck ed
Ġbr ief
Ġhard er
Ġgr own
Ġequ ip
Ġtreat ed
Ġlim ited
Ġrepl ace
Ġfing er
kn own
Ġm ir
Ġin cent
Ġwe aring
all ey
ir m
ĠC on
ĠP l
Ġlead er
Ġbusiness es
Ġveh icle
ashing ton
Ġequival ent
D id
g ar
Ġd ue
Ġl apt
Ġg ar
ad s
Ġevery day
Ġfe ll
Ġcont ract
Ġdes ire
Ġpre cise
Ġbel ong
Ġlangu ages
Ġinvest ig
Ġrece ived
Ġgalax y
ĠFran c
o k
Ġs outh
is her
on om
ar a
Ġwe ar
Ġn erv
um an
ck et
Ġcomp are
ap se
ild ren
Ġar ms
Ġinv ited
ĠEng land
Ġcy cle
Ġwis dom
r ict
w ide
Ġto x
Ġex tend
Ġch air
um e
ich ard
Ġfe llow
ĠE d
ĠG u
Ġbu ll
ĠW ashington
Ġ3 5
Ġplan ning
Ġfour th
Ġwatch ed
Ġcir cle
Ġmarr ied
Ġmolec ule
Ġaltern ative
ĠMexic o
ĠAustral ia
Ġmagaz ine
c ar
c il
p et
Ġa x
Ġw ave
Ġp ow
Ġwe ather
Ġse lect
um ber
Ġag re
Ġun less
Ġimp lic
ĠP ark
ell ing
ak ed
ub lic
iss ions
Ġlaunch ed
G o
Ġt al
Ġm others
ro ph
Ġex ists
Ġint u
ens ity
Ġsur ge
Ġdesign er
Ġhigh est
Ġsym met
Ġsurv ival
Ġagricult ure
cra ft
Ġequip ment
a u
Ġb attle
Ġp ages
Ġf ed
ir ation
Ġus ers
Ġqu iet
ĠG o
Ġac adem
Ġcomm it
Ġexper t
Ġstu pid
Ġant i
Ġserious ly
Ġsold iers
Ġdeb ate
stit ute
g n
Ġh un
Ġto ward
Ġd ry
om an
Ġdo l
Ġthink s
Ġco al
ĠD an
Ġput s
Ġorgan ic
Ġcur ious
Ġhope fully
Ġnorm ally
Ġvers us
Ġdraw ing
Ġdin ner
E ach
l ied
ad d
Ġpro s
ĠE x
Ġeconom ics
Ġshap es
Ġident ify
Ġmultip le
ĠTw itter
Ġnerv ous
s et
Ġp oo
Ġre ef
ag o
Ġpol ic
Ġtest ing
Ġve get
Ġstep s
Ġdistrib ution
Ġincreasing ly
Ġassoci ated
Ġnut r
Ġkilomet ers
b el
h ab
Ġh idden
Ġin it
us hing
ant ed
Ġr ound
Ġv es
ĠC ol
ĠM in
ĠG l
ĠH ere
pl ace
Ġplay ers
Ġplan e
Ġart icle
Ġprocess es
Ġwar m
Ġsign als
Ġexist ence
Ġsent ence
Ġyes terday
Ġproper ty
Ġstat istics
Ġfol ks
h a
Ġc ro
en cies
Ġre form
Ġst ation
Ġne uro
Ġne uros
Ġr ural
Ġmy th
est ic
Ġsa ved
Ġag g
Ġres ource
Ġtechn ical
fore st
Ġtrans formation
Ġinter p
Ġacc ording
Ġmot ion
Ġast ron
Ġlea ves
Ġord inary
Ġdol ph
E x
R I
r um
Ġt ick
Ġg ather
ot ic
Ġch ain
ĠJ ust
oc ol
Ġdr iver
Ġgener ations
Ġinf in
Ġwar ming
Ġsit es
Ġill ness
Ġant ib
Ġcirc um
Ġfill ed
Ġcomfort able
Ġstrugg le
ĠGerman y
Ġairpl ane
o ot
r i
Ġt all
in stein
Ġd ate
Ġin ner
al ed
Ġis land
Ġst ood
ca le
Ġta il
ĠE n
ĠE very
ĠG ra
Ġfl at
Ġca used
Ġdi et
Ġda ily
Ġsaf ety
Ġlif et
Ġaw ful
Ġdimens ions
b l
v ard
Ġt ons
in o
Ġl osing
Ġre in
Ġsh ut
ol ves
Ġfr ustr
Ġsp l
ĠS c
ĠP al
ĠN A
Ġimport ance
Ġdesign ing
Ġsub st
Ġset ting
Ġresearch ers
Ġcond uct
Ġdeal ing
Ġge nder
Ġexperien ced
Ġprinci ple
Ġintellect ual
Ġves sel
a urs
c ast
Ġthe ater
er ves
Ġh ide
Ġto ile
Ġd ial
le ase
Ġn an
Ġab st
ess ion
Ġsp oke
Ġhad n
Ġco vered
ress ive
Ġsc en
Ġcr ime
Ġexpl an
Ġelect rical
Ġcol on
Ġsho es
Ġheav y
Ġsou l
Ġconsequ ences
a it
l om
Ġc ow
Ġg ap
se mb
Ġli br
ĠB ig
Ġsc ene
Ġfin ish
Ġval u
Ġwonder ing
Ġfield s
eng u
Ġmov ies
Ġcop y
Ġarr ived
ĠJapan ese
Ġclin ical
Ġconvin ced
Ġartific ial
Ġs oph
Ġto w
al d
ur d
Ġfor ced
Ġli ked
Ġgo d
Ġr ow
ĠA IDS
Ġen em
ĠM ay
Ġpart ner
ak er
ak istan
Ġfact s
Ġbit s
Ġsign s
Ġkill ing
Ġlim it
Ġlay er
for ce
Ġdam age
Ġunivers al
Ġpoet ry
ĠKeny a
P er
n s
u x
re te
Ġd ots
ci pl
ĠM IT
Ġcl oth
Ġcall ing
ĠT imes
Ġconnect ions
Ġcontin u
Ġpick ed
Ġess ential
Ġprofess or
Ġintellig ent
Ġneg ot
Ġmicrob es
Ġconsid ered
I nd
b ble
u ff
z ing
er as
Ġh oles
le ment
Ġbe ar
Ġre con
Ġhe ight
Ġpe ak
od es
ĠP aul
Ġad vert
ne ath
ĠK ore
Ġmus cle
Ġopen ing
Ġref uge
Ġcontin ent
Ġdeep er
Ġappro pr
Ġengine er
Ġanal ysis
Ġrepl ic
ĠBrit ain
Ġsatell ite
Ġgrandm other
Ġw ond
Ġp il
Ġn ar
ce nd
Ġli e
Ġman ip
Ġres c
Ġlet ters
Ġfeel ings
Ġplay er
Ġcons ist
Ġposs ibilities
ien cy
Ġcut ting
Ġreact ion
Ġchemical s
Ġmanage ment
Ġfoss il
f ish
h i
z ed
Ġs ources
or gan
Ġg all
Ġk ick
Ġr at
Ġwhen ever
ab et
Ġqu al
Ġexp ression
ĠG ree
ĠP akistan
Ġbl ow
Ġsur f
Ġgra de
Ġrec y
Ġhealth care
Ġexpect ed
Ġchem istry
Ġest ab
Ġtrial s
Ġvari ety
Ġmos qu
c ers
m as
m ber
en er
Ġg rain
ic ip
Ġper ce
Ġpr ay
ĠW ill
ĠK ing
Ġwa ves
Ġmess ages
Ġcred it
Ġbatter y
Ġempt y
l ife
m in
Ġe nds
Ġst ock
Ġli es
Ġv ote
os ition
res ident
ĠB ill
ĠN e
Ġunder neath
Ġexper ts
Ġcr im
Ġvide os
Ġconst ruction
Ġcollect ion
Ġill ustr
Ġrev iew
oll y
hy th
Ġdinos aurs
Ġtom orrow
Ġt en
Ġw ake
it ness
Ġh urt
Ġp engu
Ġf al
ul ating
Ġr ates
act ers
Ġsol id
wh at
Ġcor ruption
Ġadv anced
Ġbro ke
Ġrequ ires
Ġmarr iage
Ġdynam ic
Ġexer cise
g l
Ġl at
Ġg ang
est s
Ġun s
ens ion
ĠR ep
ne w
Ġtrans ition
Ġchar acters
Ġloc ation
Ġmic ros
Ġill eg
Ġconsum er
ĠHar vard
Ġrelative ly
Ġindepend ent
ĠDar win
a el
Ġsh if
Ġpro ve
Ġch ap
Ġus er
Ġte eth
og en
Ġide al
Ġthought s
Ġinter face
Ġcare fully
Ġ4 5
Ġorgan ized
Ġkeep ing
Ch ris
Ġcart oon
Ġshark s
Ġfort un
Ġrough ly
Ġrapid ly
Ġvalu able
Ġsoph istic
S ee
r s
Ġg ift
Ġis ol
Ġbe e
The ir
Ġmy st
Ġte les
Ġv oices
Ġev il
ĠB ar
Ġdes k
Ġfew er
Ġcult ures
Ġlaw y
iqu es
Ġrepres ents
Ġpriv ile
Ġfac ing
Ġemerg ing
Ġcapt ure
ĠSw ed
Ġbud get
Ġepide mic
Ġexch ange
Ã ©
at ers
Ġh ang
Ġl ength
Ġg ain
Ġch art
ĠA pp
Ġ2 000
Ġpre fer
Ġprodu cing
Ġsl a
Ġgener ate
Ġspec ifically
Ġmem ber
Ġbehav iors
Ġsym pt
Ġconv ince
Ġvict ims
Ġdispl ay
Ġvulner able
Ġinterp ret
g ets
Ġc ards
Ġb ul
Ġp al
Ġp ure
Ġl ic
Ġn ations
st ate
ly ing
ĠC o
Ġfl ies
ĠSt reet
Ġpass word
Ġcam eras
Ġaut h
Ġeffect ively
pect ed
ony m
Ġsitu ations
Ġproper ties
Ġstat us
Ġprim ary
Ġdisapp ear
Ġencou rage
ĠCent er
Ġhous es
Ġentreprene urs
Ġchim pan
ĠFranc isco
V ery
c an
d own
o ver
u h
Ġp ip
Ġre ven
st ream
Ġme l
Ġr ide
Ġint r
ĠS at
ĠD on
Ġem issions
Ġbr an
ĠJ ew
Ġext ract
Ġrep rodu
Ġbott le
Ġdepe nds
ĠCan ada
Ġdetail s
Ġlad y
ĠAt l
ĠSch ool
Ġcla im
. '
H ave
e ff
m ers
u ary
Ġp ian
Ġf lex
ic ago
ir ty
Ġsh all
Ġsh ad
ul s
os is
Ġcont ain
Ġent ertain
Ġmove ments
ĠIn stitute
Ġadd ed
Ġvir uses
Ġrele ase
Ġinstr ument
Ġhyd rogen
Ġk itch
Ġsp in
ĠB en
ĠG reen
ĠR ed
Ġart s
Every body
Ġcarry ing
Ġhyp oth
Ġlifet ime
A meric
e al
y m
Ġs ight
Ġc ure
it an
Ġin ev
Ġl ect
ĠI I
Ġex ec
Ġma ps
Ġsu gar
ĠG DP
ĠP resident
chn ology
ĠCh icago
Ġinterest s
Ġgener ally
Ġdef ine
Ġpolit icians
Ġass ign
Ġ9 9
Ġrad ical
Ġsend ing
Ġprom ise
Ġmathemat ical
Ġmolec ular
Ġmort ality
Ġcircum st
it als
it arian
Ġp ed
Ġg ay
ig m
Ġli qu
ĠC E
Ġhow ever
ab ilities
Ġun it
ĠH a
Ġac qu
Ġrem ain
ĠAnd erson
Ġeng aged
Ġgr id
Ġris ks
Every thing
Ġrele ased
Ġhon or
Ġdiscuss ion
Ġprep ared
Ġoffic ial
ĠMusl im
Ġcompon ents
ĠNiger ia
A udience
f it
l og
p her
Ġbe ach
Ġst aff
Ġr ing
Ġtr illion
Ġun ex
Ġdis h
ĠL os
ĠR ichard
Ġsm ile
Ġtechn iques
old s
Ġmin im
Ġreg ions
Ġocc up
Ġsell ing
Ġsn ow
Ġintrodu ce
Ġintrodu ced
Ġsam ple
Ġgradu ate
Ġrestaur ant
1 1
T ube
a ving
Ġb ow
Ġb ath
Ġf isher
al t
ot ing
ro g
Ġgo als
Ġat oms
Ġr om
Ġr ub
Ġsp o
Ġsp ring
Ġcomp ar
ĠE l
Ġbu ying
Ġbu bble
Ġmet al
Ġser ve
Ġconv ention
Ġprofess ion
Ġwin ter
Ġanal og
Ġterror ism
ĠCong ress
Ġorg ans
Ġestab lish
b ors
f l
Ġth in
at in
ĠE instein
Ġfact or
Ġfact ors
con t
Ġdra g
Ġste el
Ġemploy ees
Ġencou ra
Ġmal aria
Ġpleas ure
Ġforg ot
Ġabst ract
8 0
Ġs an
Ġs ides
er ved
Ġfor mer
Ġsp here
ĠC am
Ġworld s
Ġthan ks
Ġun us
ĠG P
ĠG h
ĠP ac
ĠN ot
Ġinv ention
Ġgra vity
Ġmed ium
Ġenviron ments
Ġrad iation
Ġprotect ion
Ġhy per
Do es
Ġhor se
por ary
Ġdefin itely
Ġblock s
ĠAn ge
Ġmist ake
Ġnewsp aper
Ġmir ror
G ood
u el
Ġb ill
Ġm er
et ics
Ġqu e
Ġph r
Ġinst all
Ġ19 6
Ġless ons
Ġrun s
Ġreg ard
Ġsca red
Ġpract ical
Ġcomb ination
Ġaffect ed
Ġpoll ution
Ġmount ains
Ġspect rum
Ġtum or
b ur
h one
i at
Ġo ption
or ous
ic ing
Ġcon ver
Ġen s
ĠM il
Ġcl ip
ĠT e
ĠT ur
ĠN ob
Ġgood s
ĠW ik
Ġdr iven
ĠYou Tube
Ġaut onom
Ġref er
Ġass ist
Ġrecord ed
Ġtyp ically
Ġreach ed
Ġdemoc ratic
Ġevolution ary
ĠAm az
Ġseas on
rie nd
Ġopin ion
Ġkitch en
C ould
l ines
Ġt ank
Ġc ortex
Ġb are
ing u
Ġf ishing
es h
ol ving
el ine
Ġworld wide
Ġper ception
Ġcl ock
tern al
Ġcent ers
Ġincl ude
Ġpull ed
Ġneigh bors
Ġest im
Ġaf tern
Ġing red
Ġfal se
5 00
S ince
s s
u its
Ġo ught
Ġc ere
it a
Ġe ld
se c
ur ance
Ġdo gs
Ġr ational
ĠS m
Ġact ions
ĠM o
ĠG en
ĠT r
Ġsing ing
Ġkeep s
Ġliter ature
Ġpsych ology
Ġpriv acy
Ġrequ ired
Ġtravel ing
Ġrele vant
Ġforest s
Ġsat is
Ġdro pped
Ġcollabor ation
po int
Ġchick en
Ġsophistic ated
L ast
e an
h am
Ġc ast
Ġm ira
Ġd ip
Ġin put
oo s
Ġse vere
Ġnot es
Ġpl us
Ġfe ature
Ġfe atures
Ġdis s
Ġad j
Ġapp lied
Ġperson ally
Ġnat urally
Ġhar vest
ĠPh il
Ġparticip ate
Ġveh icles
g ment
s pe
Ġc ord
Ġh its
us ive
Ġre ci
Ġj u
um ps
Ġv ent
ab led
Ġper man
Ġag ing
Ġtechn ological
Ġsk ill
Ġcou rage
Ġ200 8
arr ass
Ġ7 5
Ġsens es
Ġdest ruction
Ġmeaning ful
Ġcomb ined
Ġrock et
Ġfundam entally
Ġult imate
Any way
Ġhop ing
Ġancest ors
Ġsport s
Ġilleg al
Ġliqu id
Ġunus ual
Ġw ine
Ġb icy
Ġm ile
Ġd edic
if th
Ġas p
Ġr ig
um s
ĠB er
ĠB ro
ĠG al
Ġrem o
Ġsc ore
Ġgl am
ost on
Ġform ed
Ġtop ic
Ġincre ased
Ġoper ate
Ġstrong er
Ġmechan ism
ĠFr ank
Ġaware ness
Ġeffic iency
Ġactiv ities
Ġalgorith ms
Ġegg s
Ġaftern oon
o ly
v able
x im
it ual
Ġse es
os h
Ġact ing
Ġunder water
Ġpre gn
ew ork
Ġsol ved
Ġprocess ing
Ġfun ctions
Ġcle ver
Ġphys ically
Ġmem ories
Ġtre nd
Ġrecord s
Ġsun light
Ġemb arrass
Ġintern al
Ġhosp itals
Ġ199 0
Ġ201 0
Ġmist akes
Ġfram ework
Ġoccur red
Ġswe et
ĠGe orge
Ġtransport ation
Ġmanufact uring
ĠRuss ia
Ġaccom pl
ĠNA SA
c red
s cale
u per
en ced
Ġp air
Ġp itch
Ġin equ
Ġg ut
Ġwas h
ĠO b
Ġstud io
Thank s
Ġfound ation
Ġ19 4
Ġbi om
gg ed
Ġtest s
Ġjo ke
Ġemp athy
Ġcook ing
Ġsurve y
Ġgard en
Ġastron om
Per haps
B as
b re
b ed
m aking
n el
z a
Ġw itness
as ks
ul a
Ġma k
Ġthem e
Ġtr ig
Ġsome what
are n
ĠB ank
ĠB oston
be ing
Ġcons ervation
Ġsupp ose
Ġmus ical
Ġequ ally
Ġlarge ly
Ġfall ing
Ġdom in
ĠFr ance
cript ion
ĠPac ific
O s
P lease
Y et
Ġw ars
Ġf ert
Ġin iti
Ġn av
Th ree
Ġst orm
Ġsh ame
Wh ile
ab ol
Ġco ord
Ġpr ime
Ġdis cipl
ĠL ife
Ġdr ives
Ġcomput ing
Ġadv ice
Ġcollect ed
ret ch
Ġamount s
Ġhor iz
Ġbirth day
Ġburn ing
Ġprote ins
Ġtap e
Ġdram atic
Ġswim ming
Ġdoub t
Ġlapt op
f ortunately
m m
t a
v is
Ġ These
Ġc ave
it z
Ġh ung
Ġd iction
se m
Ġan x
Ġch a
Ġbut ton
Ġcl ub
ĠT o
ber g
Ġdes per
ĠJ ames
Ġdec l
Ġapp arent
wh el
Ġvis ible
Ġfig ures
Ġadv ent
end ed
Ġprotect ed
Ġpot entially
Ġphotograph s
Ġsil ence
Ġconcl usion
Ġconc rete
Ġantib iot
7 0
n ight
r at
s ource
x ide
Ġs ets
Ġto y
Ġf ake
Ġu pper
Ġsu it
ĠM ont
ĠP ort
ang ers
Ġlo ad
Ġcont rast
ell y
ak ers
Ġpercent age
Ġele ction
Ġ19 60
hip s
Ġpres ence
Ġdef ined
Ġconst ant
Ġpsych ological
Al so
Ġrid ic
Ġtox ic
Ġpian o
ĠAmaz on
y n
Ġ vert
Ġth ick
Ġc ents
is ters
Ġb es
Ġre new
Ġch ose
ĠA re
Ġqu arter
ĠG ood
Ġover all
Ġover whel
Ġcont em
Ġob st
Ġcreat ure
Ġstr ing
Ġext inct
ĠV alley
Ġconf idence
Ġconf ront
Ġroom s
Ġmarket ing
Ġsens itive
Ġoper ation
Ġcrit ic
Ġroad s
Ġtrack ing
Ġconvers ations
Ġsubject s
Ġattack s
Ġemp ower
Ġadm inist
Ġfram e
ĠPro ject
ĠiP hone
Ġaccur ate
Ġton ight
Ġexplan ation
A r
R em
f oot
in ction
Ġm ere
Ġh ook
Ġh unt
Ġwe l
ro b
Ġr itual
Ġout come
Ġint ense
ĠC oll
Ġrem ains
Ġproduct ive
Ġfil ms
Ġdi ag
ane ously
Ġprov iding
Ġinnov ative
Ġexist ing
Ġexplain ed
Ġstay ed
Ġinsp iration
Ġsil k
Ġsustain ability
Ġinfect ed
Ġsurround ed
Ġcloth es
Ġappropr iate
olly wood
Ġcircumst ances
l s
it ure
ll y
Ġl ens
as er
Ġn urs
ow ered
Ġre ject
Ġre verse
Ġor ch
est yle
ĠA lex
Ġco ck
Ġnow here
ank ly
ob al
Ġmon key
Ġrec om
ĠSt an
Ġsub s
Ġelect ro
Ġtest ed
Ġclose ly
Ġpresent ation
Ġmeasure d
Ġcirc uit
Ġsong s
Ġbreat he
Ġassum e
Ġauthor ity
Ġspirit ual
Ġelectron ic
ios ity
Ġfle w
O ther
t ail
it ors
Ġm ent
Ġp ill
Ġf urn
es ome
Ġd ot
Ġn est
st and
ke ys
ad ic
Ġcom ment
Ġch urch
Ġun com
Ġun known
Ġres il
Ġcomm and
Ġdec line
Ġdi am
Ġabs or
Ġsens ors
Ġjo ined
Ġopt ions
Ġer ror
Ġ198 0
Ġapplic ations
Ġwire less
ĠPar is
Ġappreci ate
Ġhorr ible
Ġspl it
d en
i h
o ch
o ons
Ġt ack
Ġb ones
Ġp in
Ġp ump
Ġp apers
Ġl oud
al u
Ġwh ales
Ġe ars
all el
ill ing
Ġj ail
Ġde ploy
Ġv an
Ġpl ate
Ġeven ing
ĠR es
ĠR ev
Ġfl ower
ĠJ an
Ġele v
Ġdat ab
ĠSt ate
Ġeconom ists
Ġcur ve
Ġchallen ging
Ġz oom
Ġdeath s
Ġdep th
here nt
Ġhous ing
Ġcontroll ed
Ġtherap y
Ġtast e
Ġsympt oms
ĠAnge les
H er
c al
l ook
it ers
Ġb oring
Ġm ad
Ġh orm
Ġp ool
Ġl ying
om as
Ġwh ist
ip edia
Ġdis g
pt ember
olog ically
ĠD ep
Ġrem ove
Ġrel ate
Ġtrans pl
Ġcent uries
Ġhand le
ĠUn ion
Ġ200 7
Ġadv ance
Ġstate ment
Ġprov ided
On ly
Ġmult i
Ġcomb ine
Ġvol ume
Ġsuff er
Ġpassion ate
Ġlabor atory
Ġfing ers
Ġsam ples
Ġgentle men
Ġnarr ative
Ġ Who
in ations
Ġn ose
Ġit em
ĠM ic
ĠM art
Ġwhere ver
Ġimp lement
Ġ2 2
ath ers
Ġinst ruct
Ġcoll apse
Ġexpl oration
Ġbus y
Ġglob e
Ġdist inct
Ġallow ing
Ġaut ism
Ġfall s
Ġvill ages
Ġhot el
Ġtransform ed
Ġflow ers
oun ced
Ġcloud s
Ġparad igm
Un fortunately
Ġchann el
ĠGP S
A m
a ult
ou nce
en ess
Ġf an
Ġwe igh
Ġst one
ant a
qu e
Ġout c
ĠM useum
ĠG ulf
Ġ2 3
ĠL aw
Ġtechn ique
te ch
Ġext ent
Ġbi ke
Ġexpl os
Ġgr as
ogra pher
Ġmem or
Ġ6 00
bo x
Ġcy ber
Ġmar ine
Ġdiv ide
ĠChrist mas
Ġdeterm ine
Ġang ry
Bas ically
Ġnav ig
A b
B G
T alk
f in
f ather
h our
Ġ Where
Ġ icon
Ġa th
Ġb arr
Ġf iction
Ġd ress
ly mp
Ġat tend
ate ful
em b
Ġexp on
Ġpr ize
Ġpo ly
ĠP er
Ġro ot
Ġhum or
Ġcor res
Ġstand ards
Ġprof it
Ġmil k
cle ar
Ġbehavior al
Ġenc oun
Ġfoot print
Ġrock s
Ġfac ed
Ġsuggest s
Ġpoll en
Ġcapital ism
Ġlink ed
Ġlog ic
Ġfix ed
Ġinstr uments
Ġapplic ation
Ġembra ce
Ġpolic ies
Ġmosqu it
d r
h ol
u ce
Ġt ent
Ġs en
nd a
nd ing
Ġd ancing
ot ion
ig gs
ol a
Ġr u
Ġv ibr
Ġsu ic
Ġen able
ĠM on
Ġimp l
Ġdown load
ons cious
Ġpol ar
Ġmus h
Ġorgan ism
Ġbre ed
Ġlab el
Ġlim its
Ġident ical
ĠSe ptember
Ġarm y
Ġadm it
Ġpuzz le
ĠChar les
Ġinfin ite
ĠRep ublic
g ent
m al
w ell
at o
nd ed
Ġb order
Ġh ur
Ġp ushing
Ġg est
ve y
et ically
st ers
Ġan ger
Ġhe m
il ed
Ġsp inal
Ġpl ans
ĠO lymp
ac ing
Ġdec re
Ġsc ar
Ġca using
Ġyoung er
Ġeduc ational
Ġref erence
Ġcontin ued
Ġdire ctor
Ġfund ing
ĠThank s
Ġmeas uring
Ġocc asion
Ġfeed ing
Ġarchitect s
Ġbox es
Ġflo ating
Ġmechan ical
ĠMich ael
Ġimplic ations
Ġpoo rest
Ġnar row
l ock
v an
Ġa ck
es ity
Ġin ject
ar ant
Ġwh ale
Ġse lection
Ġfr ight
Ġfr ankly
Ġch ocol
Ġv ag
ĠA nt
Ġact s
Ġ2 50
Ġdis orders
Ġshe ll
Ġgu ide
Ġown ers
Ġcor als
Ġequ ation
Ġclass es
Ġincre ases
Ġconst rain
Ġant icip
Ġgreen house
Ġrobot ic
Ġtele phone
Ġearth qu
pro fit
Ġmamm als
ĠSte ve
Ġvacc ine
connect ed
Ġagre ed
bel ie
Ġwond ered
onym ous
Ġunex pected
ĠWik ipedia
9 0
g ly
i ety
r ors
u ps
ing ly
Ġp y
Ġf irm
ot a
im eter
ill e
ill y
ĠM ed
Ġcl us
ĠH iggs
Ġph arm
Ġoff ered
ĠF ound
Ġcar ried
Ġtrans fer
Ġinter f
Ġ19 50
Ġel im
Ġpar king
Ġsec ure
Ġexist ed
Ġarg uments
Ġviol ent
Ġdirect ions
Ġobs essed
Ġmathem atic
Ġbreat hing
Ġstru ck
Ġclin ic
Ġign or
Ġdrink ing
Ġautom atically
Ġir r
ĠMusl ims
Ġlibr ary
Ġdip lom
e ast
i op
er ge
it ory
Ġm ice
Ġd ign
ct ic
ro so
Ġst ro
Ġdo zen
Ġat om
Ġpro port
Ġmy ster
Ġkn ock
Ġsp ider
Ġpl aced
em oc
ĠT om
ĠL atin
Ġfl ood
Ġinst inct
he im
Ġmon keys
Ġcare ful
Ġeconom ies
Ġ200 9
Ġz one
Ġwind ows
Ġinteract ions
Ġperform ing
Ġrepres ented
Ġast ero
Ġdistrib uted
Ġdram atically
Ġscr ipt
Ġresist ance
Ġfab ric
Ġcos m
Ġsurge on
Ġrecy c
Ġmyst ery
b an
i as
u pp
re ts
at a
Ġc ash
Ġb en
Ġd ense
ut ing
et ch
im p
Ġst ands
am in
Ġch ip
Ġr hyth
Ġour s
are t
Ġar rest
Ġph ase
ict ed
ĠJ er
Ġtra ged
wh ile
Ġgr ateful
Ġteam s
Ġconsum ers
Ġrecogn ition
Ġmain ly
Ġspread ing
Ġproper ly
Ġdom estic
Ġbom bs
Ġcelebr ate
Somet hing
Ġcompon ent
Ġcorpor ate
Ġeleph ant
Ġtoile t
Ġoutc omes
F inally
b age
w ich
Ġs ed
ot es
et ers
st ruct
Ġst yle
ill ance
Ġne ither
ĠA ir
ĠS a
ain t
Ġta b
Ġover come
ĠJ ul
ĠU S
Ġcoll aps
Ġsol ving
Ġmet abol
Ġeng aging
Ġpop ulations
Ġ200 5
Ġexc l
Ġhouse hold
Ġill usion
Ġast on
Ġlif estyle
Ġsaving s
Ġprototy pe
Ġenem y
abet es
Ġpengu ins
c alled
i ance
o ca
Ġt ight
Ġt ube
is l
Ġb orders
Ġm ales
Ġh oney
if orm
Ġte a
ĠM e
Ġpr ices
ĠR ob
Ġsc ary
Ġob esity
Ġstory t
Ġgrow s
Ġhard ware
Ġbi od
Ġcol um
Ġpain ful
Ġfil ter
Ġcra ck
app y
Ġpract ices
Ġrece ive
iven ess
Ġ197 0
Ġcontroll ing
Ġmaint ain
ĠKore a
Ġphr ase
Ġobst ac
Ġack now
b al
r ary
t es
Ġl ung
Ġl oop
Ġst ack
Ġst retch
th rough
am s
Ġse m
Ġpro ced
rou s
Ġsee k
Ġtr ies
Ġpl enty
Ġwork er
ĠM ount
ĠH aw
ĠP e
ĠL a
ĠF e
ak s
Ġsm oke
Ġbr others
Ġra ising
Ġlet s
Ġcons erv
Ġgra b
Ġent ered
Ġpol io
Ġstr i
Ġpres ented
Ġgr ay
Ġrecord ing
Ġentreprene ur
Ġcooper ation
Ġphilosoph y
Ġdestroy ed
Ġexhib ition
Ġprecise ly
Ġacadem ic
ĠSwed en
Ġlic ense
Ġrom antic
Ġconvention al
ĠGh ana
Ġinequ ality
ĠOb ama
Ġantibiot ics
ĠRev olution
ĠFound ation
1 0
s um
Ġs ales
Ġp our
ed y
Ġl un
ra de
Ġab use
Ġgo lf
Ġne ut
og ue
ĠM a
ĠM al
ĠE m
ĠE th
ĠH ouse
ell o
Ġpre tend
Ġra w
Ġapp eared
Ġdesign s
Ġsl ides
Ġpartic le
Ġconnect ing
Ġpar allel
Ġris ing
Ġexpect ations
Ġtravel ed
Ġconcept s
Ġimm une
Ġprint ing
Ġsculpt ure
Ġunc ertain
Ġtit le
Ġvessel s
Ġscen ar
ĠApp le
ĠJan uary
C ome
P A
t op
w r
w alk
Ġt ip
Ġt asks
on ed
Ġd ict
Ġd io
Ġd ensity
as tern
Ġst ere
ce an
ra ction
Ġex cell
ĠA c
Ġ2 7
Ġpo cket
Ġgu arant
Ġperson ality
Ġimag ined
Be fore
Ġexpl o
Ġwalk s
Ġacc um
Ġcol ony
Ġsure ly
Ġclass ic
ĠHe alth
app ing
Ġinteract ive
Ġdep artment
Ġemb edd
Ġemerg ency
Ġdepend ing
Ġtransl ate
Ġappear s
Ġfasc inated
Ġspect ac
Ġthr own
Ġsurve illance
Ġrepe at
Ġattach ed
Ġlat est
Ġentertain ment
Ġlect ure
Ġperman ent
Ġrecom mend
Ġmush room
T e
g ers
p ower
Ġt ill
Ġm im
Ġy ield
id ers
ere nces
ke ep
Ġli ver
Ġat e
Ġor bit
ap e
ud es
Ġwhere as
ĠB udd
Ġun its
Ġdis order
ĠL eg
Ġcomm itted
Ġpre m
Ġwr iter
ub es
oc al
Ġshould er
Ġlove ly
Ġbeh ave
Ġexpl oring
pr ing
Ġheart s
ĠIs land
Ġinteract ing
Ġreach ing
Ġge omet
Ġaw esome
Ġdiv ided
Ġlaugh ing
ĠCong o
Ġconc ert
ĠIslam ic
Ġhabit at
Ġcand id
Ġcommit ment
Ġhun ger
Ġresc ue
ĠNob el
aren cy
Ġfurn iture
Ġchocol ate
roso ft
S S
g ic
u ous
u nder
Ġthe r
am ing
Ġu gly
Ġde lic
ear ch
qu ar
Ġus ual
Ġpl ot
ĠG old
ĠJ une
Ġpers u
Ġinv olves
Ġsc ream
Ġrep air
Ġmus cles
Ġcur iosity
Ġbre aking
Ġtreat ing
Ġdi abetes
Ġrecogn ized
Ġmagn etic
rel ated
Ġpainting s
Ġmanufact ure
Ġcustom ers
Ġreco very
Ġax is
Ġspo ken
Rem ember
Ġdio xide
D H
N ob
h att
i ated
u k
in als
Ġto ler
Ġp ace
or king
th at
th ink
Ġse ction
Ġsh r
Ġch est
Ġr ush
ĠA ct
os en
Ġsa cr
ĠH om
ĠD ay
ĠR w
Ġfl ash
Ġbr own
Ġplay s
Ġgl a
az z
Ġfin ance
Ġcontro vers
Ġsign ed
Ġopp osed
arr ator
Ġproduct ivity
Ġ6 5
ĠAr t
ĠSe cond
Ġball oon
Ġest imate
Ġachie ved
Ġce iling
Ġvirt ually
Ġconcer n
go ing
Ġshoot ing
Ġaspect s
Ab out
Ġpy ram
hatt an
M S
W ow
c ence
d oll
p ass
v as
Ġt ired
Ġw ings
re y
er ation
Ġp ink
or g
id a
Ġas semb
Ġmo ld
Ġli kes
Ġma xim
Ġwant ing
Ġta g
ag ger
ĠB ab
ĠB ush
ĠN G
Ġshe ep
Ġmon itor
Ġanim ation
Ġcor n
Ġage nda
Ġche aper
ex as
Ġes cape
Ġpur ch
Ġer adic
Ġreport ed
Ġconflict s
Ġdisapp eared
Ġcolleag ue
Ġsand wich
Ġport ra
ĠCent ral
Ġscr atch
Ġreb uild
ĠRo bert
Ġincent ives
Ġprivile ge
Ġadj ust
Ġbicy cle
Ġdign ity
Ġembedd ed
A R
n ic
o ir
Ġt ro
Ġc ute
Ġd iverse
Ġg ig
le vel
le te
Ġbe g
id ay
Ġab and
Ġcon ven
Ġv ital
Ġback wards
ĠP eople
ĠT or
ĠL ook
Ġher oes
ph ones
Ġpre f
Ġins urance
Ġprodu ces
Ġmet er
Ġhard ly
Ġgener ated
Ġdev ast
Ġconst it
cl ass
Ġleg isl
Ġgrand father
ĠSe c
Ġapart ment
ze es
Ġaccept ed
Ġengage ment
Ġign ore
ĠMan hattan
Ġlad ies
Ġneighborhood s
Ġfro zen
Ġvolunte ers
Ġauth ent
Ġremo ved
Ġvert ical
Ġorch est
ĠStan ford
Ġdisg ust
Nob ody
A h
S P
h en
r as
Ġc ens
Ġb on
Ġl in
le ton
Ġn it
im ent
ur ation
Ġst ations
Ġas ide
Ġsh ake
ter y
Ġch amp
Ġal ien
ĠC op
Ġen h
Ġun belie
ĠT exas
ĠN ations
ang le
cent ury
ph as
ĠO x
Ġtra um
Ġsc ales
ost er
Ġ3 2
Ġbo om
Ġrep ut
Ġinf l
Ġorgan ize
Ġdef end
Ġcontin ues
Ġmeet ings
aw s
Ġleg it
Ġleg acy
Ġdark ness
Ġfoot ball
Ġredu ction
ĠTh omas
Ġfunction al
Ġrain forest
Ġcapt ured
Ġstrateg ies
Ġjud ge
Ġnor thern
Ġadop t
Ġdolph ins
Ġteles cope
Ġeld er
Ġdedic ated
ĠMic rosoft
ĠEth iop
f all
p art
u a
Ġthe ories
Ġc up
ar p
Ġch osen
and em
ĠS cience
Ġact ors
Ġexp ans
Ġexp osed
Ġbu bb
Ġimp er
Ġfl ip
Ġinst ant
Ġla ughter
arch y
ĠSo v
Ġgovern ance
Ġglob ally
Ġchar ity
Ġequ ality
less ly
Ġcollect ing
Ġmiss ed
Ġaccess ible
Ġsil ent
for ward
Ġdro ve
Ġunivers ities
Ġcontrib ute
Ġcry ing
Ġoptim istic
Ġsus pect
Ġmotiv ation
Ġalgorith m
Ġpun ish
Ġpow ers
Ġadvert ising
Ġshad ow
ĠHa iti
Ġhung ry
1 00
h ib
i ology
Ġa im
Ġb at
Ġm arch
Ġf ulf
an throp
Ġe ast
us ions
ch ildren
Ġan gle
th al
Ġme g
un clear
Ġtr i
Ġev olve
pt ions
ĠT alk
Ġres olution
ĠJ ack
Ġfind s
ĠU g
Ġpat ent
Ġatt rib
Ġold est
Ġsk ull
Ġprob ability
Ġdist ant
Ġpar as
Ġprov ides
Ġamong st
Ġtouch ed
Ġmechan ics
Ġsearch ing
po x
Ġeffort s
Ġweap on
Ġhistor ical
Ġrout e
Ġtal ent
Ġinit ial
Ġneuros cience
Ġmicros cope
Ġsatis f
Ġencoun ter
Ġearthqu ake
m un
Ġt ears
Ġw ip
Ġb orrow
Ġh ol
Ġd ust
as y
ic op
Ġyou th
Ġbe er
ul se
Ġfr uit
ck ets
ĠM ad
Ġle ap
Ġqu ad
Ġun p
Ġ2 6
Ġlo cked
Ġher self
Ġlet ting
Ġinv ite
Ġcar r
Ġsch ol
Ġmin ister
ĠAfric ans
Ġelse where
Ġcontrol s
ĠIntern ational
Ġlim b
Ġess ence
iet nam
Ġflu id
Ġneur on
Ġfa cial
ĠChrist ian
yr ight
Ġsimpl icity
Ġelectron ics
Ġbound aries
Ġseed s
Ġsmo oth
Ġtransp arent
ĠAtl antic
Ġbare ly
Ġingred ients
Ġapparent ly
Ġtranspl ant
Ġsuic ide
doll ar
C l
M A
O b
P l
S im
W omen
c ut
c ase
h an
n ov
Ġ 0
Ġ id
Ġw ound
Ġb oss
Ġp ra
Ġf ifth
Ġd er
Ġd ump
or ter
ar i
Ġg on
Ġwe t
Ġre ly
Ġab und
Ġj un
Ġr ating
Ġint ention
ĠS am
ĠS ome
ast roph
ard o
Ġag es
Ġlo b
Ġspe ll
Ġcont ains
Ġunder ground
Ġpre v
ĠJ es
oc in
Ġob l
Ġdr ill
Ġmin or
Ġair craft
Ġtre nds
Ġview s
Ġinnov ations
Ġcommunic ations
Ġmar gin
Ġheav en
Ġut ter
Ġsymmet ry
Ġreef s
Ġcrim inal
Ġpregn ant
Ġtraged y
1 9
d ing
i xt
k a
Ġh ire
Ġf ib
Ġd irty
or al
Ġl aser
Ġn a
ut ch
ur a
Ġst ages
ce l
Ġsh rim
Ġor ange
Ġcon ce
ive red
qu are
Ġint ent
Ġpo ison
ĠT al
Ġlo ck
Ġbl ank
Ġreal m
Ġafter wards
Ġgl ad
Ġpoint ed
Ġvis ited
ĠV ietnam
Ġair port
Ġ200 4
Ġpar aly
Ġret ire
Ġdel ight
Ġball s
Ġlay ers
Ġmechan isms
Ġlink s
Ġmethod s
Ġsymbol s
Ġbelief s
Ġtransp arency
ĠPal est
Ġsurf aces
ĠJew ish
Ġdomin ant
Ġfert il
Ġuncom fort
l i
r ant
r ons
w ar
z ens
Ġth umb
ou st
it ate
Ġh at
Ġto ys
Ġd ive
Ġd iver
Ġl ift
om a
ro l
ig ation
Ġst able
Ġse ats
Ġex ternal
Ġr ic
Ġma il
Ġyour s
Ġev alu
ĠB ible
ĠE ve
ĠP ol
ĠD el
Ġcomm od
ĠIt aly
Ġele g
Ġlight ing
Ġbi as
ird s
Ġcap ita
Ġadd ing
Ġgr anted
Ġstop s
vious ly
Ġspeak er
Ġ12 0
Ġconsum e
Ġinsp ire
Ġterror ists
Ġcat astroph
Ġcru cial
ĠWh ite
Ġcro ps
ĠGra nd
Ġpil ot
Ġpassword s
Ġdiag ram
Ġdatab ase
Ġath let
F our
I nt
t ocin
Ġt rop
Ġw aters
Ġh ier
an z
es ter
Ġg ro
ion e
se ction
st h
ind er
Ġout put
ĠC ount
od ed
Ġtw e
Ġdis rupt
ĠH y
ph or
Ġem phas
Ġgen oc
Ġgen ius
Ġstr angers
Ġrec ru
Ġfar mer
Ġear n
Ġcap ability
Ġpass ing
arent s
Ġmusic ians
de f
Every one
Ġdel ivered
Ġdep ressed
Ġpost er
Ġsuggest ing
Ġtext book
Ġvac u
Ġann ounced
Ġafford able
Ġcalcul ate
Ġeth ical
Ġdemonstr ate
Ġjournal ist
Ġsmo king
ĠFl or
Ġintu itive
Ġisol ated
Ġchimpan zees
Americ an
Ġspectac ular
ĠOx ford
ĠUg anda
N arrator
a j
b its
d am
r it
w est
Ġ x
Ġa er
Ġw ing
Ġc ab
Ġp ile
Ġp andem
al ian
Ġn ets
Ġne at
Ġne ural
Ġch ief
Ġpe er
ide o
Ġup set
em en
iz oph
ĠM ac
Ġhapp ier
Ġcl im
ĠE astern
ia c
ĠL ad
Ġrel ax
Ġmon it
Ġed ges
Ġacc idents
Ġelect ions
Ġdist rict
Ġtreat ments
Ġdra wn
Ġspeak ers
Ġbreak through
Ġextre m
Ġorig ami
Ġpull ing
Ġinsp iring
Ġdeg rad
Ġcirc les
Ġparticip ants
Ġinteg rated
Ġtun a
Ġcateg ory
ĠWill iam
ĠSm ith
Ġshrim p
Ġuncomfort able
Ġric her
2 00
N umber
U s
f ess
p en
r id
Ġw id
is phere
Ġb ars
Ġin k
om b
Ġan throp
Ġdo zens
Ġso ap
Ġch rom
Ġsp r
os al
os ure
ĠS il
og ether
Ġper pet
Ġqu it
Ġman if
ach es
Ġun h
Ġpart ies
Ġshe et
co hol
Ġem erge
Ġtra ject
ub a
Ġhel icop
Ġbas k
Ġcons ult
Ġbi ologists
Ġreg ret
Ġdist urb
Ġdef ense
ming ly
Ġvar iation
Ġve ter
Ġprotect ing
Ġpredict ions
Not hing
Ġorig in
Ġphotograph y
Ġredu ced
Ġinclud es
Ġcharacter istics
Ġdepend ent
Ġsepar ated
Ġdeb t
Ġbank s
Ġtrick s
Ġconcl ude
Ġdynam ics
Ġagricult ural
ĠBl ack
Ġchap ter
ĠCam br
Ġridic ulous
heim er
Ġlun gs
Ġreput ation
F ive
b ra
f old
o or
o nds
Ġa esth
Ġs ession
en ger
Ġp icking
ĠI ce
ut ical
ly n
ch e
op her
am ine
Ġj elly
est ed
Ġsp ark
Ġsp ots
ĠM ark
Ġag encies
ĠD emoc
Ġbl ame
Ġra il
Ġinter vention
Ġla id
ĠV ir
Ġset tle
Ġphot ographer
Ġpain ted
Ġident ified
Ġobs erv
Ġimpact s
ĠSe a
Ġfu els
Ġreport s
Ġimprove ment
Ġreturn ed
Ġdeterm ined
Ġphysic ist
Ġinteg r
Ġconsequ ence
Ġtrib es
Ġecosystem s
Ġteen agers
Ġunlike ly
Ġsynth etic
Ġbrief ly
Ġfed eral
Ġpros per
Ind eed
Ġreven ue
Ġdiction ary
Ġanx iety
Ġignor ance
ĠSov iet
ĠFlor ida
T r
b ul
o ber
Ġt ied
at om
Ġm ate
on ic
Ġg h
Ġst ores
Ġk iss
Ġkn ee
Wh ether
ĠC A
od ing
ace utical
Ġcl iff
Ġun pre
Ġdis ag
ĠP ole
Ġad ap
ob s
Ġinc ident
ĠO cean
Ġapp le
Ġsch izoph
Ġent h
Ġ19 5
Ġstr ip
Ġsmall pox
Ġop ens
rib ly
Ġ200 6
Ġglobal ization
Ġrob ust
Ġland ed
Ġexperim ental
Ġdig it
Ġorig inally
Ġsou thern
Ġremind ed
Ġcry st
Ġdimens ion
ĠAd am
Ġreco ver
Ġrepe ated
Ġtruck s
Ġwheel ch
Ġconstruct ed
Ġbran ch
Ġbath room
iat ric
Ġwel come
B C
G od
T w
b ut
e k
m od
r ich
z heimer
Ġth rew
Ġw ise
at ts
er ving
Ġm all
Ġh anging
Ġf iber
Ġin ches
Ġl on
Ġl ux
Ġn aked
Ġbe et
Ġre nt
ct ober
ra w
Ġdo ors
Ġpro of
ca pes
ist ed
Ġal cohol
Ġact or
ĠM and
ĠM ary
ĠB ay
ĠB ur
Ġag ency
Ġcl ients
ĠN et
Ġunder lying
Ġad oles
ick s
ob ile
Ġbr ib
ĠO n
Ġsim ult
Ġbi o
Ġcap s
ĠV en
ught ers
ĠTED Talk
Ġpos itions
Ġsens ory
Ġsent ences
Ġpredict ed
Ġfac ility
Ġcop yright
Ġbra ve
Ġult ra
Ġnuc le
Ġprim arily
Ġcross ing
Ġcitiz en
Ġdiscover ies
Ġassum ptions
Ġoxy tocin
ffic ient
ĠPr ize
Ġrare ly
Ġinj ury
ĠGl obal
ĠGen eral
Ġcha os
Ġnurs es
ĠDep artment
ĠRw anda
Ġgla ci
Ġpyram id
Ġlin ear
Ġvacu um
A f
G et
h al
k in
p ond
r ome
t ical
y a
z ero
Ġth resh
Ġw ra
Ġs le
Ġs ulf
Ġp unch
Ġf ool
Ġf ract
Ġf ought
Ġin herent
ic ious
Ġst om
op ard
Ġsp a
ĠS ing
ĠS uper
Ġcomp rom
ach e
ĠG and
Ġar row
ĠR iver
Ġcour t
Ġcar ing
Ġdr ivers
Ġmod e
Ġart istic
Ġfar ming
Ġreg ener
Ġfig uring
Ġ7 00
att ered
Ġhold s
Ġgrand children
Ġstick s
Ġtar gets
Ġtransl ated
Ġpush ed
Ġsal t
ĠSp ace
Ġexpand ing
Ġdinos aur
Ġhack ers
Ġshop ping
Ġreve al
Ġshel ter
Ġextend ed
Ġinev itable
Ġbeg un
Ġbubb les
Ġschizoph ren
B I
L ife
b ru
b orn
i ens
l ar
m akers
Ġs its
Ġh ip
on ia
ar an
Ġg ases
ur se
op y
Ġme al
Ġch airs
ca p
ie l
ĠS im
ĠS yr
el f
Ġsa cred
ment ed
iz ar
Ġper mission
Ġexp ed
Ġcl ar
Ġ2 8
ĠH ollywood
Ġres on
ell er
ĠR io
ĠW all
Ġinv olve
Ġown er
Ġsc ores
Ġatt itude
gg ing
Ġansw ered
Ġobject ive
Ġfocus ing
ĠAl zheimer
Ġobs ervation
ĠBe ij
Ġvol can
Ġemerg ed
Ġprim itive
Ġpu pp
Ġthrow ing
Ġbur st
Ġpan els
ĠCar ol
ĠQ ue
ĠArab ic
mark et
Ġfrequ ency
Re ally
Ġconsist ent
ĠSat urn
ĠMart in
ĠAnt ar
Ġelder ly
Ġgon na
Ġchrom os
P M
a uc
f ree
h alf
l iam
o cent
r iger
Ġs ink
Ġs isters
er d
er r
it udes
en a
Ġh ill
ar l
al i
ow ing
Ġab ilities
ill a
Ġsh arp
ul um
Ġr ice
Ġde ar
Ġsa v
ap or
ĠB ob
Ġpart ly
Ġac id
Ġfl our
ath ered
Ġsm arter
ĠJ eff
ĠO ctober
Ġwr iters
Ġhelp ful
Ġhigh light
Ġimag ery
Ġser ved
Ġstu nt
Ġsub tle
Ġreg ime
Ġconf ident
Ġmag ical
Ġmeas ures
Ġdifficult y
Ġsens or
ove mber
Ġoper ations
gen cy
Ġsuggest ed
Ġprom ote
Ġprop osed
Ġarr ay
Ġsleep ing
Ġbar rel
Ġparticip ation
Ġgraph ic
Ġdisapp oint
Ġcollabor ative
Ġphil anthrop
Ġdoc uments
Ġdiagn osed
Ġsatell ites
Ġpurs ue
Ġflex ible
ĠCE O
Ġforgot ten
Ġens ure
Ġautonom ous
Ġresil ience
Ġmyster ious
ĠEthiop ia
Ġexpans ion
ĠVir gin
" ]
D A
E C
E T
E n
Q u
e ep
Ġt ear
at ural
er able
Ġc as
Ġc ott
Ġm ur
Ġh itting
Ġp ione
ar ry
Ġwh is
ot hing
Ġwhat so
Ġhe y
Ġpro sth
ear t
Ġpl ain
Ġpl ug
iz er
ĠM RI
ud i
ĠB on
Ġneed le
Ġbu cks
ĠD ere
Ġro ots
ĠL ab
ĠW al
ĠJ im
Ġtrans m
ĠSt ar
Ġel ite
Ġopen ness
Ġcur ren
Ġdef e
Ġ200 3
Ġref riger
ins on
Ġass ess
Ġprogram ming
Ġaud io
Ġrad ically
Ġfail ing
Ġsupport ed
Ġjo int
Ġkey board
Ġphotograph ed
Ġimm ense
Ġimmedi ate
Ġbur ied
Ġstrugg ling
Ġvict im
Ġbase ball
Ġliber al
Ġaddition al
Ġanaly ze
Ġske pt
Ġenter pr
Ġtrib e
atr ix
Ġmill enn
Ġeleph ants
Ġgather ing
Ġdial ogue
Ġcolon ies
Ġmere ly
Ġaston ishing
Ġbiod iversity
izar re
Ġwhatso ever
1 8
G reat
l ow
m ates
w orth
Ġt one
Ġthe ore
Ġs illy
it ous
Ġm ood
on ing
Ġd uck
or a
or an
or por
Ġl amp
Ġg ee
al a
Ġha m
ol i
Ġch ron
Ġcon vert
un ction
ĠS und
Ġle verage
Ġag ent
ĠG ates
ĠP an
ib an
ĠT itan
Ġph os
ĠF in
ĠF irst
Ġfl ows
ars h
Ġend ing
Ġfound ed
Ġcomple ted
Ġinteresting ly
Ġgr at
Ġself ish
Ġcra ft
Ġ9 5
Ġsuccess fully
Ġexpect ancy
Ġshap ed
ĠBr own
Ġda ughters
Ġdel iber
Ġexplain ing
Ġindust ries
Ġarr ive
Ġsold ier
Ġexcept ion
Ġdom ain
Ġfra ction
Ġdemonstr ation
Ġshock ed
ĠRuss ian
Ġclimb ing
Ġrout ine
Ġfab ulous
esth es
Ġdolph in
Ġrefuge es
Ġlawy er
Ġsla very
sem ble
Ġinstruct ions
Ġgenoc ide
ĠCambr idge
Ġwheelch air
bru ary
liam ent
f e
s c
y ard
Ġa qu
Ġw ider
er b
Ġc ig
Ġc able
Ġc ert
Ġc ats
Ġb izarre
en ly
ed ay
Ġl it
ĠI nt
Ġst ab
if ice
Ġwas hing
Ġbut t
Ġte ch
el a
Ġcomp os
ĠM or
ag os
Ġdes cription
int erest
Ġown ed
con f
Ġcap abilities
Ġpub l
Ġwar ning
Ġconf used
Ġcur ric
Ġ200 1
Ġcra w
Ġfund ed
Ġinvest ed
Ġsurv iv
Ġstrong ly
Ġarchitect ural
eng ine
Ġsuff ered
Ġrepresent ation
Ġtransl ation
Ġmeth ane
Ġprep are
Ġsurprising ly
Ġske let
Ġske leton
cop es
Ġinform ed
Ġtor t
Ġrefuge e
ĠGree k
Ġperce ive
Ġintr ig
Ġhypoth esis
oos ing
Ġaccompl ish
emb ered
Ġcorres pond
Ġproport ion
Ġunbelie vable
Ob viously
Ġmanif est
Ġbask et
L A
P h
p arents
s p
u ity
v ille
Ġt ong
Ġa in
en cing
Ġd im
ed a
as on
ic ian
Ġn erve
Ġn urse
Ġbe ars
se y
st age
ro ad
Ġst ake
ce mber
Ġu b
Ġse w
Ġch am
Ġch oosing
Ġr ivers
Ġde cent
um es
ist ically
Ġtr ash
ment al
ab y
ĠB ron
ĠL ED
pl ay
Ġsim ulation
Ġent ering
Ġstr anger
az e
Ġcor rel
Ġhome work
Ġelect ed
Ġwee ke
Ġeduc ated
Ġche ese
Ġadv oc
Ġ8 5
Ġ8 00
ĠAr ch
ĠAr ctic
Ġbreak s
Ġtem pt
Ġlea f
Ġthreat s
ĠDe cember
Ġcart oons
Ġinfect ion
ĠIsl ands
Ġtun nel
Ġmix ed
Ġgold en
Ġattract ive
Ġtum ors
ĠNor way
Ġsynth es
Ġfrag ile
Ġadop ted
Ġgar age
Ġnutr ition
Ġneuro log
Ġfortun ate
Ġlawy ers
Ġmira cle
Ġhem isphere
Ġpharm aceutical
Ġstro ke
Ġuncertain ty
fess or
B M
B ack
T urn
W ill
f riend
h op
s un
v iol
w orking
y al
Ġw ired
at i
Ġb oo
Ġb ored
en h
Ġd umb
st one
Ġsh out
Ġsh ips
Ġne ck
il ize
Ġr ats
Ġor ph
um ble
ate ver
ĠA h
ĠC oun
Ġcomp elling
Ġsu ck
ĠD et
rain ed
other ap
Ġreal izing
pl ed
Ġbr ut
Ġgen etically
Ġpers ist
Ġrem embered
Ġdist ingu
Ġmem br
Ġrest ore
Ġrest rict
Ġkill er
cl ock
Ġexpect ing
Ġsqu ee
Ġfast est
Ġcompet itive
Ġaffect s
Ġexperien cing
Ġclos ing
Ġterror ist
Ġmagn itude
Ġauthor ities
Ġjud gment
Ġphysic ian
Ġmicrob ial
Ġgrad ually
Ġintu ition
Ġreplic ate
Ġadvent ure
Ġtack le
ĠTal iban
Ġparaly zed
ĠBeij ing
M e
N ever
V ideo
] .
f lies
g ence
k ins
m aker
r un
s ch
Ġs in
Ġc ous
Ġto oth
Ġp ale
ow ers
Th rough
ur able
Ġsh ots
Ġch ances
Ġcon g
Ġsp ray
Ġup d
ĠS pan
Ġen ables
ĠM iss
Ġle ather
ach ing
Ġun able
ĠG ore
Ġpr ide
Ġdis m
ĠP eter
ang ible
Ġdes erve
ĠL ib
ĠW ith
Ġrem aining
ĠCh urch
Ġsch em
Ġtrans cend
ost ic
Ġimag ing
Ġart icles
Ġmin ing
Ġfood s
Ġhead ed
Ġdem ands
Ġca ke
Ġadd ict
Ġchar ges
Ġinn ocent
Ġocc urs
Ġimpro ved
Ġtrad itions
Ġstay ing
Ġwin ning
Ġbene ath
ug ust
Ġinclud ed
Ġjump ed
Ġcover ing
yr us
ĠQ u
Ġprofound ly
Ġfort une
Ġhom eless
Ġwide ly
Ġinstitution al
Ġinit ially
Ġnegot i
Ġprofession als
Ġbes ides
Ġexpon ential
Ġsen ior
Ġtraject ory
Ġenth us
Ġthresh old
ĠDere k
B F
H i
N ext
S ah
b ar
d es
f our
f ield
g u
i ogen
k ind
l im
n es
s hip
x ual
Ġ Then
Ġa h
Ġp airs
Ġd an
Ġd ile
Ġl ap
Ġg aps
ic ient
Ġn urt
ct u
all ow
op ath
op les
ad ing
ad ays
Ġcom ments
Ġsh ore
Ġch ips
Ġr h
Ġpe oples
Ġal ph
Ġsp ont
ĠS ou
act ive
ĠM ah
Ġle an
ag ue
Ġbu g
ang ed
ound ing
ĠL ou
ĠL ike
ĠF re
ĠJ o
Ġdr one
Ġmet ric
ced ented
Ġpres erve
Ġdist ort
Ġval id
ott ed
Ġmusic ian
Ġsec rets
ien ces
Ġdel i
Ġsurv ived
Ġapproach es
Ġciv ic
Ġobs erve
Ġfoot age
Ġmar ry
Ġste al
Ġfac ilities
Ġprin ter
Ġer rors
Ġtrack s
Ġreact ions
Ġtend ency
Ġdetail ed
Ġassum ption
Ġinflu enced
Ġburn ed
Ġphysic ists
Ġvulner ability
edd ing
ĠMin ister
Ġsubst ance
Ġgod s
Ġqual ities
ĠFe bruary
Ġscenar io
Ġshr ink
Ġpandem ic
Ġcurric ulum
ĠBron x
G ive
G irl
S pe
a a
Ġt sun
in arily
er ies
Ġc ub
Ġd ow
Ġl one
Ġg athered
Ġn om
Ġre hab
ere r
if er
Ġdo p
ad ed
ol ic
Ġcon vey
Ġout er
Ġsp ons
ĠA ugust
ĠS quare
em ploy
Ġen gin
are s
ag en
Ġcl othing
Ġun iform
ĠD is
ĠL ong
ire ct
Ġfact ories
Ġbr ows
ĠO s
Ġask s
Ġinst antly
Ġform ing
Ġform al
Ġdist ract
Ġsoci ally
Ġwo ke
Ġprof ile
rop y
Ġinvest ing
Ch ina
Ġminds et
Ġsignific antly
Ġsou p
Ġport ion
Ġoptim ism
Ġsus p
Ġpig s
Ġur ge
Ġfro g
Ġinsight s
Ġodd s
Ġchann els
Ġnutr ients
Ġagg reg
Ġagg ressive
Ġfrustr ated
Ġsubst ant
Ġconduct ed
Ġinterpret ation
Ġcompar ison
Ġque en
ĠTur key
ĠBro ok
Ġglam orous
ĠJes us
Ġunpre cedented
Ġsimult aneously
Ġdile m
Ġengin es
M T
T ell
b ing
f ast
p ress
in i
Ġw est
is c
is y
Ġd ies
Ġd ung
Ġl ions
Ġbe ll
se e
Ġan onymous
est r
qu is
Ġte nds
and ering
Ġtr iv
ĠM oo
Ġexp ort
Ġco ca
ĠH igh
Ġac oust
ĠO k
Ġind ig
Ġrem ained
Ġcour ses
ail s
ĠK en
Ġ3 3
Ġla ke
Ġext ension
Ġser ving
Ġhealth ier
Ġsub way
Ġdem ographic
Ġmor ality
Ġkill s
end ing
Ġstruct ural
Ġbott les
Ġexplain s
Ġimpro ving
Ġcomb at
Ġmedic ation
Ġlif es
Ġarr ange
Ġflow ing
Ġaccount s
Ġstrateg ic
Ġwild life
Ġpurp oses
Ġroll ing
Ġwealth y
Ġir re
Ġhall uc
Ġcru el
Ġgentle man
ĠNor thern
Ġrestaur ants
Ġgar bage
Ġexpert ise
Ġrub ber
Ġanalog y
Ġtrig ger
Ġcontem porary
look ing
Ġowners hip
Ġobstac les
Ġconserv ative
quar ters
ĠHom o
otherap y
Ġdeli very
4 0
D r
E M
] ,
f ram
h uman
l ings
p rodu
u ke
at ar
it ating
an i
an gh
Ġin hab
Ġg ear
Ġg ate
as m
ĠI m
us iness
Ġbe nd
Ġre cept
im al
ch ron
Ġsh ipping
ant om
Ġsom eday
Ġout s
ĠS ar
og ram
ast y
ag on
ud ed
Ġimp ression
ĠH ill
Ġgot ta
ĠD utch
Ġcont rad
co st
Ġpre c
ath an
ĠJ oe
ren ce
Ġpoint ing
Ġ3 6
lic it
Ġinter rupt
Ġdr ones
Ġcr ick
Ġprot o
Ġcam ps
Ġloc ated
Ġexc it
Ġtrain s
Ġnon profit
Ġsupport ing
Ġfriend ly
Ġvers ions
Ġfear s
Ġdraw ings
Ġflu ores
Ġcompassion ate
With in
Ġfem ales
Ġthreat ened
Ġtrou b
Ġpan el
Ġprint ed
Ġremind s
ĠSp ain
Ġblog s
Ġclassroom s
ĠiP od
Ġairpl anes
Ġcos mic
Ġcateg ories
Ġtick et
Ġestablish ed
Ġhunt ing
Af ric
Ġub iqu
ĠCoun cil
Sah aran
ĠSou thern
L e
W oman
a ves
k ward
y ou
z ee
re ens
Ġm atrix
Ġh ors
Ġf ile
ar ge
om in
Ġis lands
Ġon going
ust ed
um in
ect ive
Ġint im
Ġup side
ĠC D
Ġen erg
ĠM arch
ĠB u
ip ts
Ġun cle
orm al
ĠH ave
Ġar med
ass es
Ġlo ves
per form
Ġcount ing
ord s
Ġgen u
Ġgen etics
Ġrel iable
Ġbelie ves
Ġent ropy
Ġplan es
Ġext inction
Ġcre w
Ġcomput ation
ote chnology
Ġfun g
ĠInd ians
Ġconnect s
Ġbad ly
Ġsix th
Ġnight s
Ġclass ical
Ġ[ "
Ġred esign
Ġperform ed
Ġredu cing
by e
Ġclos est
Ġaw kward
Ġpeace ful
Ġpa use
Ġgraph ics
Ġdetect ion
Ġdesp air
Ġsus pe
Ġscan ner
Ġoffic er
Ġalt ru
Ġpoem s
Second ly
Ġincent ive
ĠSc ott
min ute
.' "
Ġinev it
Ġdiscipl ine
Ġritual s
Ġexplos ion
Ġoccasion ally
ĠSa udi
Ġcolum n
Ġstere oty
Ġexcell ent
Ġcig aret
Ġtong ue
Ġdop amine
Ġexcit ement
P ut
P ro
R B
R S
m ade
w ind
Ġt ut
Ġt ie
in ter
it ative
Ġb ats
Ġh o
Ġg am
Ġn erd
Ġbe ating
ct ica
Ġcan opy
Ġas h
Ġcom edy
Ġor ient
Ġde ck
Ġup load
ĠS om
ĠM other
Ġper cept
Ġcl ay
Ġcl ient
Ġover l
Ġimp ressive
ĠH all
ĠT es
ang es
ĠD es
Ġpre cious
Ġpre val
Ġinc om
ĠO f
ne ys
row ing
Ġtra gic
Ġgra m
Ġter ribly
Ġstr ike
Ġbus h
Ġsub t
ĠV er
Ġprof its
Ġcontin ents
Ġcontin uing
Ġdev il
Ġinvest ors
app ed
Ġoper a
Ġlow est
Ġgrand parents
Ġrobot ics
Ġapproach ing
Ġnear by
Ġhar ness
Ġspread s
ĠAs ian
Al though
put er
Ġearl iest
Ġann ual
Ġmagn ific
Ġappear ance
Ġ201 1
Ġphenomen a
Ġpack age
Ġstraight forward
Ġcatch ing
Ġglass es
ĠLe on
ĠOr gan
Ġgradu ated
Ġapply ing
Ġtiss ues
ĠBl ue
Ġjournal ists
Ġgun s
cop ic
Ġcorpor ations
Ġstim ul
Ġveget ables
Ġrein vent
Ġtow er
Ġrecon struct
Ġshif ting
Ġfortun ately
Ġencoura ged
bur gh
Ġitem s
Ġsacr ifice
ĠDel hi
phor us
Ġlux ury
ĠSpan ish
Ġgenu ine
G l
K B
N one
a id
c ro
e fficient
h ist
Ġt une
Ġt ubes
Ġw ires
Ġc ath
it age
it ated
Ġb ind
Ġf its
Ġf ancy
an ia
Ġd ressed
ed s
ed ge
ic ial
Ġre think
Ġst ability
if ully
Ġan ge
Ġne oc
il ty
Ġj ew
Ġex cess
Ġpro l
um ines
Ġal b
Ġal ign
Ġsee mingly
ĠA ny
Ġsa uce
ast ics
ĠM ag
Ġman agers
ud ge
ĠB as
Ġun employ
Ġdis ability
ĠT el
ĠT anz
ang ered
ĠD en
Ġro se
Ġlo an
Ġph antom
Ġam ate
Ġtra its
av a
ĠIt alian
Ġgra v
Ġdr own
Ġ20 50
Ġfar ms
ĠY our
ĠIn ter
Ġsk etch
ĠV ery
Ġpass enger
Ġsign ature
Ġresearch er
ush ed
ane ous
Ġfree ly
Ġspeak s
Ġrev ol
Ġtem porary
Ġeat en
Ġpredict ion
Ġrelig ions
ey n
Ġcirc uits
Ġcompet e
Ġaffect ing
Ġprop ose
Ġprop ag
With out
Ġec ological
Ġann oy
Ġlands capes
Ġdam n
Ġbur den
Ġachieve ment
Ġeth nic
Ġinterview ed
Ġbroad cast
Ġnut s
Ġaltern atives
Ġphilos opher
Sh ould
ĠCom m
Ġparad ox
gra de
Ġteen ager
Ġprevious ly
uild ing
Ġperce ived
Ġchimpan zee
Ġbran ches
Ġped estr
itz er
ih ad
Ġnavig ate
Ġarrest ed
Ġcollaps ed
ĠNG Os
Ġschol ars
Ġmonit oring
Ġcott on
Ġcurren cy
esthes ia
Ġdow nt
angh ai
1 2
N ew
T en
a way
l ist
m ony
nd rome
Ġb in
Ġh iding
Ġd ys
Ġd ating
or age
Ġin ex
le nd
Ġre cess
Ġha bits
Ġst atic
am ps
Ġsh irt
nt il
Ġyour selves
our t
ĠC ome
ĠC amp
Ġwork force
reat ing
are st
Ġman ager
Ġ2 9
Ġpo ckets
ĠT as
Ġro pe
Ġlo ving
Ġres olve
pl ess
Ġcomm ission
Ġoff ices
Ġoff ering
Ġra pe
Ġend angered
ĠK oran
Ġnum er
Ġrec all
Ġsmall est
Ġhard est
Ġed itor
Ġgener ous
Ġsk i
ĠV an
Ġca ves
ĠInd ones
Ġdist ances
ash ed
Ġvir al
Ġcollect ively
els on
Ġimpro v
Ġsaf er
ev in
Ġrespons es
Ġrepl aced
Where as
Ġcamp us
Ġtransform ing
Ġsyn chron
Ġdiv or
Ġ201 2
Ġprison ers
ĠJohn son
Ġhyd ro
iber ia
Ġdiagn osis
Ġcustom er
Ġflag s
Ġrat io
Ġassign ment
cont roll
Ġdrag on
Ġassist ance
Ġmak ers
Ġadminist ration
Ġsubs id
Ġdecre ase
Ġvag ina
Ġastero id
Ġproced ure
Ġguarant ee
Ġfib ers
Ġjelly fish
Ġstom ach
ĠAntar ctica
ĠSund ay
Ġtsun ami
O L
P re
S ame
S ix
V oice
d ig
l ers
Ġt att
at ivity
Ġc rop
is ons
en ry
Ġh ired
Ġp atch
Ġf usion
Ġd iving
Ġg ained
Ġst orage
ch anging
ol n
ci p
ĠS ud
ĠS ystem
iz ers
Ġco at
ĠB o
Ġag ents
Ġcl ue
ĠH i
ĠP art
ĠT wo
ĠD V
Ġad s
ĠR ay
ĠF BI
ĠJ uly
Ġbuild s
we ight
Ġsc rew
Ġrel ation
he a
Ġsci ences
Ġins ul
Ġinter ven
Ġinter ior
Ġsl ime
Ġsl ums
Ġwar r
Ġadd iction
Ġpass ive
ĠNew ton
Ġloc om
Ġterr ifying
omet own
Ġwind s
Ġaud iences
Ġsens ation
Ġbreak fast
Ġspecial ized
Ġenc ry
Ġpredict able
Ġcy cles
Ġste pped
cr im
Ġsil ver
Ġest ate
Ġbed room
Ġfa ult
Ġmob ility
Ġdiscover ing
Ġmis erable
Ġign ored
Ġwhe at
Ġwhe els
Ġpark s
Ġteen age
inc oln
Ġsucceed ed
Ġunc onscious
ĠNe ander
Ġencoura ging
Ġestim ates
ĠMo z
Ġdesper ately
ĠAlex ander
Ġmathematic ians
Ġrhyth m
Ġtro ops
Ġhelicop ter
Ġschizophren ia
Ġphos phorus
ĠMoo re
Ġcoca ine
Ġubiqu itous
B oy
E ight
H ello
M ake
P r
P art
R N
S p
a o
c ol
e ge
l ades
r ance
s ized
in th
in ery
Ġw edding
Ġb old
Ġh al
on a
Ġto es
Ġp iz
Ġd rought
Ġl es
Ġn ative
ut s
ut her
Ġre ct
Ġre def
se ll
ra ham
Ġan ten
ir lf
out s
Ġwor ms
Ġhe al
Ġsh it
Ġsh ine
Ġpro ven
Ġkn ife
ist ot
Ġint ended
Ġv en
Ġsp ill
Ġsee king
ĠA ge
ie ce
Ġpl ank
ĠS ee
ĠS now
ĠS anta
ĠM om
ĠM ike
Ġdon or
Ġman ual
Ġco inc
ĠB ell
ĠE ric
Ġover night
ens us
ĠT y
ĠN ic
ep s
Ġcont rary
Ġres idents
Ġam pl
ick ed
ĠR and
ĠR os
Ġpre vention
ĠF ord
Ġbr id
Ġmay or
Ġtra ce
ious ly
Ġob t
Ġinter connected
Ġside walk
Ġreason able
Ġdef ic
Ġequ ations
Ġlab s
Ġchallen ged
Ġterr itory
Ġabs ence
Ġ5 5
ĠYork er
Some body
Ġda wn
Ġarg uing
Ġrequ est
Ġdest iny
ĠSh anghai
Ġmar vel
Ġmain stream
Ġdescrib es
Ġimm ig
Ġemp owered
Ġsafe ly
Ġec ology
Ġconcer ns
Ġclin ics
udd enly
Ġcooper ate
Ġpuzz les
Ġbag s
ĠBang lades
Ġpurs uit
Ġvolunte er
Ġbull et
ĠCol umb
Ġminim um
Ġhoriz on
ĠRes earch
Ġhorm one
Ġwhist le
Ġconstrain ts
Ġclus ter
Ġacknow ledge
Ġstri king
Ġconven ient
ĠPalest in
Ġunh appy
B oth
C ons
D uring
b ow
g ram
g ments
u ctor
Ġa the
Ġf allen
Ġf ires
Ġg if
et e
ere nt
Ġst ored
if ty
Ġme lt
Ġj et
Ġj azz
Ġj ihad
Ġpro ved
Ġpro ceed
Ġch ains
ure auc
Ġma pping
Ġv ia
Ġv alley
Ġen abled
ĠM ill
Ġexp osure
Ġshe ets
ĠL ake
ict or
Ġoff ers
ĠJ ose
Ġra ped
Ġhuman itarian
Ġtrans mit
Ġtrans mission
Ġins ane
Ġgra bb
uc ose
Ġter rain
Ġstr ict
Be ing
conom ic
Ġbi ol
Ġeconom ist
.. ."
Ġinf ant
Ġ4 2
Ġform ula
Ġhead lines
Ġset t
Ġhalf way
Ġstop ping
ead y
Ġprot est
Ġ200 2
Ġref lection
Ġloc ally
Ġloc ations
Ġass ets
Ġadv ances
Ġmarket place
Ġlisten ed
Ġmot ors
Ġfail ures
Ġpsych ologist
Ġtem por
Ġstay s
ĠTh ree
ĠZ eal
Ġattack ed
Ġextraord inarily
ĠFr iday
Ġinfect ions
Ġcalcul ations
Ġcontrib uted
Ġemail s
Ġprep aring
Ġhonest ly
Ġsurround ing
Ġtens ion
Ġdoub led
cript ions
Ġcla ims
Ġconcent rated
Ġcompl ain
Ġelement ary
Ġnewsp apers
Ġking dom
Ġlimit ations
Ġcontinu ous
Ġmanip ulate
Ġpal m
Ġreprodu ce
Ġelectro des
Ġbarr ier
Ġrecyc ling
ĠPe ace
Ġgeomet ry
Ġeleg ant
ĠCarol ina
ĠBrook lyn
Ġinevit ably
Ġdownt own
, '
B l
g a
g rad
h h
o en
y e
Ġt urb
Ġa ug
Ġw rap
Ġs ons
er ry
Ġb other
Ġb ills
Ġf ate
Ġf athers
Ġin ch
Ġl oose
ar ians
Ġn odes
ut y
Ġre nder
ent h
if act
ir ts
ul es
Ġpro state
Ġr ib
Ġma nd
Ġv it
Ġv oting
Ġsp erm
ĠS ur
ĠS ir
ĠS ky
Wh atever
Ġsa il
our nal
ap ed
Ġwork place
Ġen force
Ġman ner
ens es
ell ed
ĠL incoln
Ġam bit
Ġgu ard
Ġob ese
Ġsch ed
Ġke ys
Ġbelie ving
Ġbo ats
Ġfound ations
Ġdr um
cy cl
Ġread ers
ĠY emen
Ġcor rupt
Ġconf ig
Ġbeaut ifully
Ġcol ored
Ġamaz ed
Ġamazing ly
Ġfollow s
Ġdeep est
Ġterr ified
Ġsuper market
Ġconsum ed
Ġemb ry
Ġapproach ed
Ġdisc rim
Ġsum m
Ġobs erved
Is n
Ġcy l
Ġpur ple
ĠHow ard
Ġimm un
Ġconscious ly
Ġlog ical
cient ists
Ġphysic ians
Ġdemonstr ated
Ġcorrect ly
Ġexer c
Ġconcent ration
ĠPl ay
Ġtoile ts
Ġscen es
Ġinstall ation
yn th
stand ing
Ġgras p
Ġgest ure
Ġben ch
Ġstoryt elling
Ġlegit imate
Ġretire ment
Ġmur der
Ġorph an
Ġtriv ial
Ġcrick et
Ġproto cell
eyn man
ĠIndones ia
Ġinsul in
ĠZeal and
B A
W as
a eda
d is
m ill
p y
p at
p ers
p erson
p owered
t wo
v ation
w orld
y d
Ġa ward
Ġo d
Ġo oh
Ġs ir
Ġc ows
Ġb att
en ous
Ġh ub
Ġh ometown
Ġp ir
Ġp ills
Ġd ent
Ġin her
Ġl anes
Ġg re
Ġn erves
Ġe ch
im a
Ġst ones
Ġst aring
Ġse vent
Ġcan cers
ad o
il ized
ol ine
Ġpro ph
ist en
el ing
od ied
ĠM oon
ĠM edic
Ġle ver
ans as
Ġexp licit
ip her
ĠP at
ĠT im
Ġdes cend
ph ony
pe are
Ġuse less
ĠF our
ĠW omen
Ġra bb
Ġtra il
Ġgu ilty
Ġrel ief
Ġinst alled
Ġgl ue
Ġgl ucose
ĠK e
Ġ3 50
Ġcr imes
Ġart ifact
Ġmin es
Ġbeh alf
Ġsupp lies
Ġmem es
Ġpolit ically
Ġpar am
Ġhy br
Ġpsych ologists
Ġcommunic ating
Ġcal ories
Ġsum mar
Ġorig ins
Ġpost ed
Ġcivil izations
Ġsuff icient
Ġfu nds
Ġprop osition
Ġ199 8
Ġprinci p
Ġactiv ist
akes peare
Ġinterview s
Ġord ers
adem y
Ġfat al
Ġver b
ĠCl int
Ġtherap ies
Ġbeat en
gra du
Ġamb ig
Ġpartners hip
ĠAb raham
Ġselect ed
forest ation
Ġenem ies
Ġillustr ate
Ġteles copes
ĠCo ast
Ġintr ins
Ġexec ut
Ġofficial s
Ġestim ated
Ġasp ir
Ġglam our
Ġmak er
Ġiniti ative
Ġhoriz ont
Ġmosquit o
Ġbreed ing
Ġatom ic
Ġneut ral
Ġportra it
Ġdevast ating
Ġorchest ra
li hood
Ġtrop ical
Ġgro cer
Ġcab in
ĠSil icon
Ġprosper ity
Tw enty
ĠMand ela
Ġexped ition
Ġmagnific ent
oen ix
Ġambit ious
A IDS
S ure
S te
S uddenly
j o
r ating
t r
Ġt iles
Ġth read
in ent
Ġo ct
Ġb inary
Ġh ipp
Ġto ss
Ġp it
Ġd rew
om ics
ĠI re
ent er
ro f
ere y
Ġfor b
ra cies
Ġan atom
Ġme me
Ġr ank
Ġde ce
Ġde als
um ented
Ġcon gest
Ġlike lihood
Ġbut ter
It s
Ġsa ke
Ġcomp re
Ġpo le
Ġdis abled
ĠH er
ĠH uman
Ġcont am
Ġsy ndrome
Ġhum il
pl us
Ġtechn ically
Ġrem ix
ĠCh e
Ġinst ruction
Ġgra ve
Ġhigh way
Ġcell ular
Ġcare d
Ġbi ologist
Ġbus es
Ġhead ing
Ġpar ach
ats on
ĠHe y
Ġdel ay
Ġpersonal ized
Ġcal m
Ġste am
Ġworth y
Ġcompet ing
Ġrece iving
Ġactiv ists
Ġmagn et
Ġenjoy ing
Ġblind ness
Ġpack ed
Ġworry ing
ĠLe ban
Ġexh a
Ġvari ations
Ġexpress ions
Ġmotiv ated
Ġpig e
Ġtax es
Ġhistor ically
Ġepide m
Com p
Ġshel f
Ġopin ions
Ġlapt ops
Ex cept
Ġcrim inals
Ġspin ning
Ġsan itation
Ġregard less
Ġreci pe
ĠBer lin
Ġrenew able
Ġnit rogen
Ġpunish ment
Ġathlet es
Ġadap ted
ĠDet ro
Ġlone ly
Ġindig enous
Ġjew el
ĠTas man
ĠDV D
Ġpiz za
Ġbiol umines
cycl op
H uman
P rob
b i
r ane
r ats
t ake
z es
Ġ .
Ġ ..."
Ġt ur
Ġt act
ou g
Ġc ree
Ġb ite
Ġb ump
Ġb amb
Ġm urd
Ġm esh
Ġd ough
Ġg irlf
Th ird
Ġst air
Ġas leep
Ġcom ic
Ġhe aling
Ġme als
Ġsh y
Ġj ugg
Ġch op
Ġor b
Ġpe ers
Ġcon qu
Ġout do
Ġsp an
os n
Ġsa le
ĠC ap
ap ore
Ġen zy
Ġco ach
Ġco vers
ĠB ol
ĠH enry
ĠD ra
ep hen
Ġres erves
ĠF ar
ful ness
igh th
ĠCh ile
Ġcar pet
velop ment
Ġ20 20
Ġelect rons
Ġconnect ivity
Ġcur ves
Ġtop ics
Ġappro ved
Ġmess y
Ġengine ered
Ġpred ator
ale m
ĠBr ian
Ġsex y
Ġpsych opath
Ġstra w
Ġprom ised
Ġreact or
St ud
Ġdom inated
Ġdiv ision
Ġdro ps
Ġpen cil
Ġwebs ites
Ġenjoy ed
Ġrespond ed
Ġalg ae
Ġrandom ly
Ġsimpl er
Ġban king
Ġhistor ic
Ġresist ant
ĠMc Don
Ġreve aled
Ġnarr atives
Ġbelong s
Ġbul b
uls ion
ĠRed wood
Ġfisher ies
Ġcere mony
bre ak
Ġbarr iers
Ġimpl ant
ĠHaw ai
keep ers
Ġlegisl ation
Ġlob by
Ġhier archy
Ġdisag ree
Ġpubl ishing
ĠLeon ardo
ĠTanz ania
ĠBanglades h
Ġbamb oo
" ?
C O
U p
a ware
d a
f ive
f ront
g ie
u ilt
Ġt in
in em
re me
Ġs ne
Ġb ang
Ġb ureauc
ing ing
Ġp ound
Ġd il
Ġd ivers
as semb
ut an
ot o
et te
Ġst ad
th ur
th eless
Ġj unk
Ġr ings
ck ing
ess ions
Ġout l
Ġint ensive
Ġsp at
Ġpl astics
ĠS pe
ĠC ourt
ĠM od
ĠM edia
Ġun re
Ġover head
ĠH el
ĠH ong
Ġkind ness
ĠT un
ĠN ature
ĠN ovember
ĠD id
Ġro les
Ġlo ads
Ġac cent
ĠL es
Ġbl ink
Ġinc orpor
ĠU C
ĠU SA
Ġgen omes
Ġdec or
oc ation
Ġ19 00
Ġ19 30
Ġcr iter
Ġstr ings
Ġart work
Ġatt itudes
Ġel abor
Ġgener ating
Ġcor ners
ĠV ictor
pr il
Ġeduc ate
Ġexc use
Ġview er
Ġappro x
Ġname ly
Ġz ones
Ġpred ators
Ġmeasure ments
Ġstra nds
Ġsho e
Ġbacter ial
Ġtemper atures
Ġcalcul ated
ĠGe ographic
ĠSw iss
ĠSw itzer
ĠPro fessor
Ġautom obile
Ġsimpl est
Ġscan ning
Ġwood en
Ġindepend ence
Ġalt itude
Ġregular ly
Ġbatter ies
Ġvacc ines
Ġiron y
ĠChar l
Ġagre ement
ĠBen j
ĠTur k
ĠPort ug
Ġcock ro
Ġanticip ate
Ġmim ic
Ġauthent ic
Ġenh ance
ĠQue en
Ġdilem ma
ĠClint on
ĠSwitzer land
A cc
U ntil
c ons
i ots
l an
u an
u ction
in come
ing er
Ġm ask
Ġm entally
Ġd irt
or ic
or ough
or ient
Ġin hib
Ġl ists
Ġg orge
se en
st orm
ig ma
ra ine
Ġdo se
th irds
Ġse nds
Ġcom ics
ol en
Ġj ar
Ġv ary
ĠS en
ĠC ath
Ġcomp ound
Ġcomp ounds
Ġexp ressed
Ġco verage
Ġnow adays
Ġhapp ily
ĠG ene
ĠH is
ĠH ans
ĠT ib
ĠN ord
Ġshe er
ial s
ĠR ome
Ġbl ess
Ġbl ah
pl ic
ress ing
ĠW alk
Ġsm iling
ĠJ on
ĠJ ud
ĠJ ane
ĠJ ones
Ġtra pped
Ġapp e
Ġapp la
Ġ3 7
Ġent ry
Ġla wn
Ġrec re
Ġ20 30
Ġmin us
Ġsub m
ĠInd ustrial
Ġelect rom
ĠNew s
Ġfore cast
Ġmach inery
Ġnorm s
Some one
Ġdep os
Ġpick s
crib e
ĠSh akespeare
Ġhar bor
Ġprofess ors
Ch ildren
Ġmedic ines
Ġfavor ites
Ġstat istic
Ġvisual ization
asc ular
Ġ199 9
Ġunf old
Ġwish es
Ġintrodu ction
Ġpen et
Ġremark ably
Any one
Ġhop es
Ġcontrib ution
stit ution
ĠBrazil ian
Ġinj uries
Ġharm ony
Ġble ed
Ġaccur acy
ĠFor ce
Ġund erest
Ġfrequ ently
Ġpros pect
Ġcontinu ously
Ġembarrass ing
ĠMont erey
ĠColl ege
Ġdiam eter
Ġhorm ones
dr iven
imp se
ĠLeg o
Ġmaxim um
Ġabund ance
Ġaesth etic
ĠIce land
Ġobserv ations
Ġcomprom ise
ET I
Ġskelet al
Ġrehab il
Ġfluores cent
istot le
ĠIre land
Ġelectrom agn
C on
G e
H A
M om
N e
R ather
S upp
T ry
[ "
a ired
e u
f unction
m o
m es
n ut
t t
y on
in ity
Ġh ated
or ph
ĠI BM
Ġe rect
Ġbe lly
ot on
Th ings
im eters
ch er
Ġse ctors
ad or
Ġne arest
ge nd
ist ical
Ġint act
Ġint ensity
ĠA pril
ĠS us
iv ate
ĠC ra
ĠC oke
ast e
Ġen velop
ĠM ur
ĠM ach
Ġman kind
ĠP ower
ĠT ony
co ver
ĠR ock
ĠR oy
Ġreal ities
Ġreal ization
Ġoff s
ĠW atson
Ġfind ings
Ġhel pless
Ġrel atives
Ġcar p
Ġgl impse
ĠK ong
Ġgra ce
Ġbi of
Ġspace craft
Ġmoment um
Ġplanet ary
Ġcra p
Ġland ing
Ġmass es
Ġcut s
Ġcool ing
Ġsuggest ion
Ġtext ure
Ġlif ted
Ġflu ctu
Ġimm ers
Al most
eth eless
Ġann ounce
Ġphenomen al
Ġpan ic
Ġhop eless
Ġrespond ing
Ġbroad er
Ġreflect ed
Ġexpand ed
Ġattract ed
Ġhack ing
Ġaccom pan
Ġcoast al
Ġgrad es
Ġju ice
Ġaccompl ished
Ġoverwhel ming
Ġadminist r
ĠOlymp ic
Ġfright ening
Ġclus ters
Ġrecyc led
Ġtab les
Ġcandid ate
Ġdelic ious
Ġcontrovers ial
Ġaband oned
ĠSec urity
Ġtraum a
mun ic
Ġtextbook s
Ġglaci er
Ġchron ic
Ġsuspe nded
ĠOrgan ization
Ġbrid ges
Prob ably
1 5
C or
D es
J H
L ad
M ean
R es
c reat
f are
g al
m at
m ind
u ana
v ia
w art
Ġ Which
Ġs lic
Ġs izes
Ġc attle
Ġp orn
Ġf est
or se
le an
al ia
Ġn u
Ġre vel
Ġre vers
Ġre wards
Ġst olen
ke ley
th ree
am as
Ġse al
Ġli vest
Ġso vere
ad ian
Ġch ew
Ġr iding
Ġde af
Ġpe cul
est y
Ġv ocal
ĠA udience
ie ve
Ġtr ips
Ġpl a
Ġcomp aring
Ġcomp osition
Ġbu ff
Ġdis par
Ġback yard
ĠH ol
ĠN elson
ĠD a
ĠD ad
ĠD esign
ber ry
ĠL in
ĠR om
du c
Ġreal istic
Ġshow er
ĠF ore
ĠW ay
ĠW ol
Ġbr ush
ĠJ osh
Ġra p
Ġsc reens
Ġend e
Ġtrans it
Ġunderstand s
Ġcons p
Ġinter section
Ġbo ots
Ġkid ding
Ġdr if
Ġcr ude
Ġpat ents
Ġcre am
Ġear ning
Ġteach es
Ġform ation
ĠV al
Ġdist inction
lf are
Ġdef ault
arr hea
Ġpublic ly
Ġanswer ing
Ġret ail
aw ater
Ġliter acy
Ġill um
Ġreach es
Ġap olog
Ġast h
Ġhor ror
Ġdescrib ing
Ġvisual ize
Ġtouch ing
Ġtransform ative
Ġexcept ions
Ġactiv ate
Ġcross ed
Ġsepar ation
Ġdro pping
Ġheav ily
Ġdiscuss ions
ĠChrist ians
Ġoccur ring
Ġlaugh ed
ĠCar l
Ġdeterm ines
Ġdestro ying
Ġclimb ed
Ġchim ps
Ġbound ary
Ġindic ate
Ġprior ity
Ġprototy pes
Ġden ial
Ġdisaster s
ĠPark inson
ĠSc ot
Ġpengu in
Ġprivile ged
Ġauth ors
Ġvent ure
ĠBer keley
Ġclub s
Ġcontem pl
Ġabsor b
Ġlabel ed
Ġscream ing
Ġna ive
Int erest
ĠCount y
Ġtheore tical
Ġcham ber
Turn s
Ġmembr ane
ĠDetro it
ĠMcDon ald
ĠBenj amin
Ġgorge ous
Ġlivest ock
Ġpecul iar
A M
D e
H C
I S
J ohn
L isten
T M
b ag
c re
c ity
h ear
p oll
t ra
Ã Ń
Ġ vel
Ġt ies
Ġth us
re str
Ġm ast
Ġm ud
Ġm ixt
Ġh ob
Ġp ad
Ġf ence
Ġl oses
Ġl ingu
Ġg ains
al og
us alem
Ġst rain
Ġst amp
if ies
Ġso le
Ġsh ops
ge vity
il a
Ġj ack
Ġde ception
ist ory
Ġal arm
ci ety
ĠS ah
ous es
ose xual
ag an
Ġman eu
Ġco in
ach er
Ġtw ist
Ġun w
Ġun st
ĠP C
ĠP enn
Ġar bit
ĠT ime
ĠN ether
ell ow
ĠL ord
ĠR ick
Ġpre par
ĠF DA
ĠF eynman
Ġra cing
ĠU N
Ġapp eal
Ġind ex
Ġshould ers
ian ces
Ġhel ium
Ġend less
Ġcar ries
Ġtrans ist
ĠK ir
Ġsl ower
Ġdr unk
Ġart ic
ĠSt age
Ġcare g
Ġcomput ational
Ġhand ful
Ġinf er
Ġcou ples
Ġche f
Ġche at
bs olute
Ġret reat
Ġfree zing
Ġprogram mers
Ġrad i
ĠAr my
Ġpull s
Ġwin ner
com ing
vent ions
Ġlif el
Ġprop osal
Ġimm ort
Ġplant ed
Ġep is
Ġfill ing
Ġsequ ences
Ġsequ encing
Ġunivers es
Ġdiscuss ing
Ġdoc umented
fact ion
Ġswe at
Ġ13 0
Ġthr illed
Ġsurger ies
Ġmut ations
Ġswitch ed
Ġshock ing
Ġanaly zed
ĠIsrael i
Ġhost ile
Ġsculpt ures
Ġing en
ett i
Ġinform al
ij uana
Ġexhib it
Ġsurge ons
Ġbiom ass
Ġment or
Ġdeploy ed
Ġicon ic
Ġmathematic ian
ĠJer usalem
Sim ilar
ĠLad en
ĠSing apore
Ġdistingu ish
Ġneoc ortex
Ġcriter ia
ĠNether lands
9 9
D R
G u
H alf
O ut
h ar
i racy
l or
m atic
n o
n et
n ormal
v ir
w ith
in ci
Ġw ard
Ġw atts
er als
it ar
Ġm ant
Ġm ild
Ġh int
Ġp estic
Ġp ulse
an as
Ġd are
Ġl ion
as ive
Ġwe lfare
Ġn asty
Ġe go
Ġre ass
Ġst icking
am ent
Ġse l
Ġcan vas
art en
Ġal ter
Ġint imate
un ks
Ġv oted
Ġsp are
Ġsp iders
ĠA I
ĠA gain
ĠS omet
iv il
ĠM et
ab eth
Ġev olving
ĠB el
Ġimp r
ĠD oes
ep her
ple te
Ġunder gradu
ell ig
Ġad vers
Ġher d
Ġher itage
Ġpre y
ak en
ĠW ow
Ġfl ock
ath on
Ġra ises
ĠO ur
Ġwr ist
Ġsystem atically
Ġlet hal
ĠCh ild
Ġsc aling
Ġ3 1
Ġinter ventions
Ġimag ining
ruct ive
Ġhand ed
Ġvis ually
Ġpass es
ortun ate
Ġeas tern
Ġhope ful
Ġnight m
Ġterr ific
omet er
Ġav o
Ġsens it
gen er
Ġsex ually
Ġdep art
Ġsym p
Ġarg ued
Ġfre ak
Ġrecogn izing
Ġdemoc racies
Ġsum mit
Ġdest ination
Ġmicro phone
Ġste ep
Ġrisk y
Ġfac il
Ġsoon er
Ġtext s
Ġflo at
Ġpath ways
umb led
Ġfant asy
Ġcollabor ate
Ġcard iac
ĠAm y
Ġmatch ed
ĠArab ia
ĠIran ian
mon th
Ġpleas ant
Ġble w
Ġconcent rate
Ġremote ly
Ġemotion ally
Ġcand y
ĠEgypt ian
Ġrot ate
Ġacceler ate
Ġacceler ating
Ġkick ed
ĠGree ce
hyth m
Ġshif ts
Ġbul bs
bur g
Ġoverwhel med
ĠOlymp ics
Ġastero ids
Ġexplo it
Ġassemb ly
Ġminor ity
Ġwra pped
ĠSyr ia
ĠVirgin ia
Ġenterpr ise
Ġinhab it
Ġhors es
dig it
Ġanten na
Ġcyl inder
Ġgrocer y
ĠCath olic
B ig
D ay
J A
R M
S m
S orry
f ly
h ot
l ong
v iron
Ã ¡
Ġ &
Ġt u
Ġa we
Ġa unt
Ġw ins
Ġs ib
at oes
en ance
Ġd u
Ġin du
Ġin sec
Ġg ross
as ure
le g
Ġn ic
et ter
ct ive
Ġst ressed
Ġse als
ol it
Ġj e
Ġex agger
Ġpro be
Ġch ess
Ġde forestation
Ġout rage
Ġus age
Ġv ivid
Ġv oca
Ġwho ever
ĠS ETI
our se
Ġen light
ĠM ond
ĠM aybe
Ġdon ors
ĠB a
ĠB oy
iff erent
Ġun lock
ĠG i
ĠG et
Ġdis cl
ĠH ind
ĠP o
ĠP itt
ĠT am
Ġlot tery
In ter
ĠL ove
Ġbl own
Ġide ology
Ġpre ced
ĠF ive
ĠW i
Ġfl avor
Ġra c
ub ble
Ġapp s
be es
Ġins ert
Ġbo ards
Ġkid ney
Ġplan ned
erg arten
Ġmod est
Ġ19 0
Ġ19 2
ĠSt one
az a
Ġeconom ically
Ġ4 8
Ġorgan izing
Ġmark s
Ġyoung est
Ġcam el
Ġvir gin
Ġalong side
Ġ7 2
ĠAr gent
Ġpract ically
Ġtrad ing
ĠSe attle
Ġcrit ically
Ġopt ical
Ġcop ies
Ġperiod s
umb ai
Ġreport ing
Ġlog ging
Ġaccount ability
Ġrepresent ing
Ġvac ation
Ġann ivers
Ġsignific ance
Ġdam aged
Ġfram es
Ġprison er
yl on
Ġinvent or
off s
Ġang iogen
Ġsmell s
ĠMexic an
Ġinj ured
Ġcooper ative
Ġstream s
ĠNiger ian
Ġdocument ary
Ġprior it
ĠCon f
Ġpow ered
Ġgall ery
Ġpip e
ĠJew s
Ġacqu ire
Ġwitness ed
Ġelim inate
Ġirr ational
Ġacknow led
Ġpour ing
Ġutter ly
Ġcommod ity
Ġadoles cent
ĠGand hi
Ġphilanthrop y
Ġboo st
Ġalph abet
ĠLou is
ĠDis ney
Ġlifes pan
Ġrecess ion
Ġlocom otion
Ġprincip al
Ġstad ium
ĠTun is
Ġelabor ate
Ġapprox imately
Ġoffs pring
Ġprepar ation
Ġsel ves
3 00
K ids
M ar
a ver
f ood
k er
o ked
Ġt urt
Ġw ow
Ġw estern
ou red
Ġc ope
Ġc ables
Ġm as
Ġm ater
Ġm ating
Ġh arsh
Ġf ier
Ġf uck
an ium
es cope
or r
or ters
Ġl oo
ar n
om ed
Ġn ap
Ġre per
ur f
ere n
Ġwas ted
ir ms
am an
Ġwor m
Ġme ets
Ġsh orter
ol ar
Ġex otic
Ġde pr
Ġmy cel
ist ine
un ning
os ov
Ġpl ates
Ġact ively
ĠC ape
ment ation
iz abeth
ĠM umbai
Ġev apor
ĠB rad
ount ered
ĠT ake
ult ure
Ġac res
Ġac ids
Ġdes erves
Ġres erve
Ġbl ur
Ġcount s
ĠO l
Ġsur g
Ġsc ans
Ġcar c
Ġsl ice
Ġkid n
Ġser ves
Ġcor rid
Ġcou ch
Ġreg ist
Ġform at
Ġpres cription
ĠInd us
ier ra
Ġadd s
Ġreason ing
io let
Ġsw allow
Ġdi arrhea
Ġsca ff
Ġdig est
ĠAl bert
Ġple ased
sh aped
Ġconv icted
Ġenc ountered
unt ing
ustain able
Ġtele com
Ġconcept ual
Ġunf ortunate
Ġsmart phone
Ġtrust ed
umb ling
Ġrain s
Ġlog o
Ġgas oline
Ġrepresent ative
ĠDe f
Ġpen al
Ġassum ed
Ġswe ep
Ġjump ing
Ġmultip ly
pro of
yl ac
Ġassoci ate
Ġmut ation
Ġfold ing
Ġdisp ers
Ġphilosoph ical
Ġinvestig ate
Ġveget able
Ġresc ued
ĠAtl anta
Ġacqu ired
Ġingred ient
Ġastronom y
Ġcoord ination
Ġreject ed
Ġcock tail
Ġimplement ed
Ġmosquit os
Ġcandid ates
Ġadopt ion
Ġprosth etic
Ġbasket ball
viol ent
Ġalb um
ĠMoz art
Ġenforce ment
Ġhybr id
Ġhorizont al
Ġcongest ion
cyclop edia
Ġgirlf riend
Acc ording
Lad ies
bsolute ly
A A
A G
K now
P oint
U nder
g r
h r
p os
p ack
r ants
t z
Ġw re
Ġw ore
at ories
Ġc ube
Ġp iss
Ġp ants
Ġf iring
Ġg er
ĠI D
Ġbe ef
Ġre ck
Ġha mb
Ġon stage
st ar
ur day
Ġdo od
Ġse awater
Ġhe ating
Ġsh aking
Ġsh ining
ul ative
ol era
ol itan
Ġex quis
Ġch at
Ġr ip
qu ality
Ġal ert
Ġal iens
Ġv ot
Ġthem es
os ity
ĠS al
ĠS pring
Ġcomp ute
Ġen ab
Ġen rich
ĠM er
ĠM as
Ġta gs
ag ra
Ġsomet ime
ff ice
Ġun int
Ġkind ergarten
ĠN at
ĠD ub
Ġcont ained
ĠR on
ĠR oss
There fore
ank ind
per cent
Ġcount ed
ĠJ ord
Ġsystem atic
Ġgu ards
Ġsim ulate
Ġlong est
Ġcreat or
Ġgl or
Ġcons ensus
ĠK evin
ĠK osov
Ġcoll ision
Ġ19 3
ĠSt ud
Ġfar ther
Ġgener ic
Ġgener ates
ps y
Ġvis iting
Ġ4 4
Ġreg ulation
Ġdem o
Ġca us
Ġprot ocol
Ġche ating
Ġadv is
uck s
Ġpay s
Ġnet working
br ush
Ġinvest ments
Ġvar iable
Ġdig ging
Ġpract icing
Ġtem ple
ĠAl ask
Ġfeed s
Ġge ography
Ġcal c
osp ital
Ġobs er
ĠTh ose
Ġachie ving
Ġemp ath
Ġemerg ence
Ġrich est
oun cing
Ġtransl ator
Ġpen is
Ġreturn s
Any body
Ġauthor itarian
Ġluck ily
Ġinfect ious
la im
Ġhop ed
Ġcalcul us
Ġemploy ment
Ġeth ic
ky o
Ġcrow s
ĠHar ry
Ġinteg rate
Ġmamm al
af e
Ġdeliver ing
Ġhabit ats
Ġtarget ed
Ġconsid ering
Ġprior ities
Ġmig ration
Ġtor n
Ġroof s
Ġtal ented
Ġreform s
ĠEvery body
Ġnegot iate
Ind ia
ĠKing dom
Ġreven ues
Ġmel ting
ĠSat urday
eff ective
ĠGreen land
Ġdish es
Ġconver ted
Ġju ven
Ġdiscipl ines
Ġdesper ate
Ġgest ures
ĠMed ical
Ġhousehold s
Ġsem i
ĠAc ademy
Ġtoler ance
Ġtri ang
Ġlon gevity
Ġcas ual
enh agen
Afric a
ĠTel escope
Ġparach ute
ĠTib et
ĠNord en
epher d
Ġannivers ary
A d
M ich
N C
R A
b ling
e em
f ire
p age
p read
u f
v iolet
z one
Ġth ro
re ction
er on
Ġc age
Ġb ust
Ġm erg
Ġto ll
Ġp ix
Ġp osed
Ġf oster
Ġd rain
Ġd read
Ġe ighth
et ing
st ep
ur ger
ra nd
Ġan ec
Ġas semble
ation ally
il ation
ul ses
Ġall ies
Ġma pped
Ġv ice
Ġsp ite
ĠA g
Ġthink ers
ĠC or
ĠC ons
ĠC ont
act ion
ĠM id
Ġman aging
ĠB M
ĠB osn
Ġun le
ĠE mp
ĠT re
ĠT ar
Ġac ute
Ġres ur
Ġpre cip
ĠF rom
ĠW right
Ġfl esh
ĠJ up
ric ane
Ġdec ides
Ġdec iding
Ġgu err
Ġinv olving
Ġcons ent
ĠK y
Ġprodu cers
Ġent it
Ġent ities
ific ations
Ġcare s
ĠSo ciety
Ġsub mit
Ġproject ion
Ġvis ions
Ġreg ulations
ues day
Ġprog ression
Ġca f
Ġenv ision
Ġgr ant
Ġchar ged
Ġref use
Ġref used
ograph ical
Ġcond oms
Ġhuge ly
Ġparent ing
Ġinnov ate
Ġsens ing
ides pread
Ġchem otherapy
Ġtravel s
Ġpredict ing
com puter
Ġdead ly
Ġcop ied
Ġunf air
Ġbacter ium
Ġdefin ing
Ġspeed s
Ġfa vel
Ġcheck ing
Ġdetect or
Ġcat aly
Ġenorm ously
âĻ ª
Ġroll ed
Ġsal mon
epend ent
Ġaddress ing
Ġcontrib uting
Ġtransport ed
Ġcoun sel
Ġinteg ration
Ġprevent ing
ibr ary
Ġplatform s
Ġinvestig ation
Ġblow ing
Ġgrain s
ĠBar b
Ġrig id
ĠTo kyo
Ġrenew ables
Ġconfront ed
Ġcosm os
ĠSec ret
Ġchamp ions
ĠCop enhagen
Ġfulf ill
Ġparas ite
Ġultra violet
Ġinherent ly
Ġmillenn ia
Ġgrav it
Ġcompre h
ĠLeban on
Ġpige on
ĠHawai i
Ġangiogen esis
Ġanec d
ĠJup iter
H aving
M art
S W
T K
T om
T ime
W atch
c onscious
e lect
m ate
n ie
s ize
v a
Ġt angible
Ġth ylac
in ished
Ġc ul
Ġc ups
Ġh ills
Ġf ans
Ġf ired
es es
Ġd ens
Ġy ards
im ag
im ents
Ġst er
ch ing
th ood
Ġab road
Ġse gment
ad el
ol as
Ġj am
Ġex ceed
Ġch olera
est one
Ġkn ees
Ġv o
Ġup stream
ĠS and
og ens
ĠC r
ĠC old
ĠC amb
ĠC yrus
ard ed
ĠM ass
Ġper ipher
Ġman us
Ġno isy
Ġun ac
Ġun seen
Ġdis connect
ĠP re
ĠP ot
ĠT rade
ĠT uesday
ĠN ep
ound ed
Ġlo ans
Ġlo yal
Ġcont ag
Ġres ident
Ġhum ility
Ġhum ankind
Ġbl ast
ĠF ed
ons ense
Ġsur re
te en
Ġsc al
be at
Ġbas ement
ĠAnd rew
he ld
Ġins ist
Ġcons ists
Ġmet als
Ġmin i
Ġbeh old
Ġexpl ored
Ġfo ie
Ġ4 6
Ġreg ional
Ġprocess or
Ġhead quarters
Ġpres um
Ġair line
Ġaut istic
Ġprof itable
Ġequ als
Ġpar liament
Ġfil ters
Ġcra cks
Ġabs urd
Ġpot ent
Ġes cal
Ġocc as
Ġlim bs
ĠAr thur
ĠAr istotle
Ġsqu id
Ġsuper nov
bo ards
Ġdemoc rat
ey ed
vent ually
ned y
Ġflo ors
Ġbenef icial
Ġbra nds
St op
Ġep ip
Ġscreen ing
ĠPh oenix
ĠDe velopment
Ġimprove ments
Ġsquare s
enn is
Ġcelebr ation
Ġsurve ys
yl via
Ġwood s
Ġloss es
Ġfro gs
gra nd
Ġamb ition
Ġmagaz ines
Ġattempt s
Ġmill imeter
Ġphilosoph ers
Ġmaint enance
Ġembra cing
Ġgard ens
Ġsymmet ries
Ġastron aut
ĠKore an
Ġnar c
Ġshif ted
Ġdesk top
Ġoccup y
Ġbow l
Ġembarrass ed
Ġdiction aries
Ġbes ide
Ġweigh s
Ġinterf aces
Ġdiplom acy
Ġmetabol ism
Te chnology
Ġintent ions
ĠEve rest
Ġcatastroph ic
Ġdisturb ing
bul ary
ĠTEDTalk s
Ġsurviv ors
Ġweeke nd
Ġschem e
Ġsubstant ial
ĠKen nedy
Ġhalluc inations
Ġprec ision
Ġrevol utions
Ġpedestr ian
ĠPalestin ian
Ġgrabb ed
Ġod or
mind ed
Ġvoca bulary
ĠCamb od
? '
A S
C he
C ont
D avid
D esign
F ortunately
K eep
c cer
h ors
i atr
l ah
m ass
n ik
o ves
p res
p ound
Ġ ]
Ġw rest
Ġw idespread
Ġm at
Ġf og
Ġy og
Ġy east
al ysis
Ġe ternal
us ter
Ġbe am
id al
st airs
ro ots
ig an
Ġst ew
Ġst agger
Ġsh ed
Ġne gle
Ġj umps
Ġch asing
um ans
um bs
Ġal umin
un es
Ġv oy
Ġup ward
ĠS ierra
em ents
og an
Ġtim ing
gh etti
ĠM at
ĠM os
Ġta gged
itt ee
ĠB i
so lete
ĠE r
Ġpr icing
Ġimp ress
ĠH imal
ĠD al
ĠD ick
Ġdes ires
ict ions
Ġbl essed
ĠW ind
Ġgreat ly
Ġtra ces
be an
Ġbas eline
ail and
ĠK h
Ġbo nd
Ġsl ip
Ġsl ave
Ġent rance
Ġla und
Ġcare ers
Ġinf ra
Ġwar mer
Ġdem ograph
Ġcur t
Ġpass age
Ġmodel ing
iter ate
Ġequ ity
Ġmor ph
Ġass ault
Ġfil med
Ġview ed
Ġfund ra
Ġris es
cc oli
ium ph
Ġill usions
Ġfail s
Ġnon etheless
Ġsurv iving
Ġpress ing
Ġpress ures
Ġnice ly
Ġcy cl
Ch ild
Ġrepl acing
Ġmedic ations
Ġice berg
Ġprom oting
head s
Ġer u
Ġhon ored
ĠZ ero
St art
Ġbed s
ĠCan adian
Ġfem inist
Ġparticip ating
cient ific
ann a
Ġgraph s
Ġdisapp ears
Ġdetect ed
po nds
Ġtown s
Ġunique ly
Ġstrugg led
Ġcelebr ity
Ġord ered
Ġoppos ition
Ġmut ual
Ġliber ty
ĠSte ven
Ġang les
Ġflight s
Ġcrowd s
Ġalt ered
Ġamb ul
Ġiron ic
Ġchick ens
Ġindic ates
Ġshel ves
Ġfrequ encies
Re cent
Ġstim ulate
Ġtal ents
Ġsymmet rical
ĠGo als
Ġfrustr ation
Ġpray ing
Ġfisher men
Ġautonom y
ĠTr ans
Ġsatis faction
spe ed
ĠMont ana
Ar t
Ġelev ator
Ġexpon entially
Ġcorres ponds
Ġmetabol ic
Ġcolum ns
Ġproced ures
Ġstri kes
Ġdict ators
Ġmushroom s
Ġauthent icity
Ġintegr ity
Ġbeet les
Ġclar ity
Ġchromos ome
engine ering
Ġbrut al
Ġsquee ze
Ġbrows er
Ġintim acy
ĠSud an
Ġwarr ior
Ġplank ton
Ġdefic it
ĠColumb ia
Ġsevent h
Ġartifact s
Ġoct op
Ġspat ial
Des p
Mean while
restr ial
Ġmixt ure
Ġmaneu ver
Similar ly
Ġsensit ivity
ĠMond ay
Ġmycel ium
Ġscaff old
ĠAlask a
Ġnegle ct
ĠHimal ay
F i
G en
T S
c od
g on
k i
l aw
m illion
o nder
p a
p iece
r ange
r ition
s m
w ing
w an
y g
Ġth orough
in ational
Ġo we
Ġo ven
Ġs ang
Ġc inem
Ġb ip
Ġh oly
Ġf ont
Ġd ivid
Ġl ately
om y
Ġg y
Ġg reet
le ts
ĠI M
Ġn ode
id i
ur rent
Ġst airs
ch em
Ġso ccer
ill as
il ated
ul ator
Ġr ays
Ġthere by
ind ing
rou p
Ġup right
ĠS l
ĠM all
ĠM ore
Ġcl ues
Ġcl ips
ĠG ard
Ġpr on
Ġdis k
Ġar c
ĠN ick
ĠN az
Ġro d
Ġunder m
ĠL uc
ĠL ibrary
Ġgood ness
Ġgood bye
ĠF und
Ġcount less
ĠO ver
row th
ac qu
Ġapp lies
Ġapp oint
ĠCh ap
Ġob solete
Ġrel ativity
Ġ3 8
Ġsl ope
Ġfam ine
Ġfam ously
Ġimag in
When ever
ĠSt ephen
iss ance
Ġser ver
Ġbi ases
Ġvis cer
Ġmark er
Ġca lend
Ġphys iology
ogra ms
Ġrese mb
Ġscient ifically
ash a
Ġpolit ician
Ġass et
Ġass ure
aster s
uck y
Ġfront ier
Ġpast e
Ġz oo
Ġmass ively
Ġarch ive
Ġprogram med
Ġshort ly
Ġblue print
Ġconsum ing
Ġpersonal ities
Ġemb odied
Not ice
Ġobs c
Ġintern et
Ġmar ijuana
Ġste aling
Ġtext ing
ĠTh ailand
Ġpath s
iet ies
ĠAs soci
Ġstat istical
Ġsell s
ĠZ imb
St ill
Ġfunction ing
Ġprim ates
Ġvirt ue
Ġapart ments
Ġspir al
Ġaccept ance
Ġcard board
Ġsal ary
Ġ198 4
Ġmatch es
Ġjud gments
Ġsad ness
Ġmotiv ate
Ġsymbol ic
Ġreflect s
Ġfold ed
Ġsexual ity
gra ph
Ġaccom mod
Ġancest or
ĠMich el
Ġbud gets
Ġfoss ils
ĠEgypt ians
Ġreplace ment
ĠGu ard
Ġhun ter
Ġmicros copic
Ġchap ters
Ġpip eline
Ġlect ures
Ġtank s
ĠBro ad
Ġempower ing
Ġempower ment
Ġtight ly
vas ive
Ġportra its
Ġtri angle
Ġwip ed
Ġjun gle
Ġemphas ize
Ġsle pt
Ġsulf ide
Ġspa ghetti
Ġchromos omes
Ġdisappoint ed
Ġcorrel ation
Ġcous in
Ġdism iss
Ġrecept or
Ġcath ed
controll ed
ĠJose ph
Ġconfig uration
Ġrehabil itation
Supp ose
Ġasth ma
Ġsurg ical
Ġpenal ty
Ġcalc ulation
Ġgravit ational
Ġstagger ing
Desp ite
. ]
C ar
C lear
C ola
E S
M r
M us
e ys
r in
r hythm
v ance
w id
z zy
Ġt ide
Ġa pe
Ġw are
Ġo y
er os
ou nder
Ġc ram
is an
Ġm ature
Ġh ut
Ġh eter
Ġf ame
an ch
Ġd orm
ic an
al ities
ot ect
ver ted
Ġst are
Ġst eady
th als
am ib
Ġsh epherd
ul ates
ol unt
Ġfr iction
Ġpro sec
Ġch ase
Ġpe an
um en
Ġint ric
Ġv iable
ĠA ra
ort ion
Ġtr iumph
our cing
ĠC ivil
od d
Ġsu its
iz ational
ĠM ath
Ġta le
Ġle x
Ġworld view
ab we
Ġper m
Ġco h
ĠB ern
red ict
Ġbu gs
Ġdis abilities
pt ed
pt ic
ĠH ad
ĠH ospital
Ġar ise
ĠN ative
ody nam
ell e
ĠR NA
int u
ph ia
pl ing
ĠU p
Ġgu itar
Ġapp l
Ġapp les
Ġinv itation
Ġbel t
Ġcour ts
Ġplay ful
Ġrel ates
Ġins ult
ĠK ansas
Ġinter sect
Ġlight er
Ġlight ning
Ġed it
Ġbi osphere
Ġsk illed
Ġsub sequ
Ġsub mar
Ġproject ed
Ġsecond ary
Ġreg ulate
Ġsing ular
Ġhead line
Ġmark ers
Ġconf irm
Ġdet er
Ġref lex
Ġsw ing
Ġwa ited
Ġindivid ually
Ġfront al
Ġcir cul
Ġes ca
Ġpsych iatric
Ġpsych iatr
Ġimpro vis
Ġjo kes
Ġfre ed
Ġmult inational
Ġdest ructive
Ġrespons ibilities
ĠBe ach
Ġap es
Ġmar row
Ġmar athon
Ġste pping
Ġfac ult
Ġcirc ular
Ch ar
Ġsil icon
ĠTh ink
Ġsustain ed
Ġ199 5
Ġ199 7
Ġcharacter istic
ĠFr ied
Ġactiv ated
Ġpu ff
Ġcheck s
Ġreturn ing
Ġcollabor ators
Ġ201 5
Ġrespect ed
Ġquant ities
ĠGe org
Ġmagic ian
Ġhonest y
Ġdram a
ĠQ aeda
Ġinvent ions
Ġdiagn ostic
Ġdispl ays
Ġjournal ism
ibr ium
Ġanaly zing
Ġhack er
Ġtherap ist
hand ed
Ġmouth s
Ġpartners hips
Ġforg ive
Ġtom ato
Ġkilomet er
Ġappreci ation
Ġfrag ments
Ġstim ulation
Ġmir rors
ĠPl an
ĠDan iel
Ġfrustr ating
Ġnan o
Ġmanip ulation
ĠGree ks
Ġisol ation
Ġpip es
Ġreprodu ction
Ġcontain er
Ġminim al
ĠMil ky
ĠPhil adel
Ġwash ed
rob i
Ġresil ient
Ġdiam onds
ĠRepublic ans
Ġfright ened
Ġobstac le
Ġentrepreneur ial
Ġaccum ulate
Ġpurch ase
Ġgig antic
Ġunp redict
Ġdisrupt ive
Ġgh ost
Ġbeet le
ĠVen us
Ġskept ical
Ġbutt ons
Ġadvoc ate
sch ool
Ġspont aneously
ĠSar ah
Ġorient ation
Ġnumer ous
Pre tty
ĠNeander thals
Cons ider
Ġsummar ize
Ġstair case
orient ed
Interest ingly
Ġsib lings
Ġalumin um
ĠZimb abwe
ĠPhiladel phia
2 5
4 7
A c
E ventually
L ater
P at
R ichard
W ait
a ire
f ight
n atural
Ġ /
Ġt iger
Ġw ives
Ġo l
nd ered
Ġb ay
Ġp ose
Ġf aint
an ol
ar ly
Ġg or
Ġe B
Ġe ats
ot al
et ween
se a
ro ve
oo f
Ġli ps
Ġgo at
Ġhe ck
Ġsh red
il ibrium
Ġall eg
Ġj an
Ġfr uits
Ġde br
um ental
Ġma cro
ist ant
Ġal ar
Ġal ike
ĠA v
ĠA ctually
ĠA poll
iv a
ap agos
iz z
ack s
ĠM ove
Ġqu ar
Ġfe ver
ĠB h
ĠB re
Ġtw ins
ĠE ver
ĠE xt
ĠG ive
Ġpr imate
Ġbu zz
Ġimp ulse
ĠH ung
ĠP en
ĠT ed
ĠN umber
ĠL ama
ĠL uther
ĠR am
ĠR em
form ed
ĠF ort
ors hip
Ġbr ick
ĠO per
Ġtra p
we g
ĠCh ildren
Ġsc roll
ew is
Ġplay ground
Ġgl ow
Ġins pect
Ġnever theless
Ġbo nds
Ġnum b
Ġmon ster
Ġpat ience
Ġrec laim
Ġmin erals
Ġfin ishing
Ġear ned
Ġed itors
Ġprocess ed
Ġpres erved
Ġmark ed
Ġconf ined
Ġpass ions
Ġphys i
Ġeas iest
Ġremember ing
Ġaff airs
br al
aw a
Ġ5 2
ĠBr un
gen eration
Ġbro ccoli
Ġsupport ive
Ġchem ist
ĠAr du
Ġpsych o
Ġimpro b
Ġbreak down
Ġdream ed
ĠAl ice
Ġrecogn izes
crib ed
Ġobs ession
Ġobs erving
Ġdraw s
Ġpost ers
Ġsimilar ly
Ġsn akes
Ġpoll ut
Ġ199 4
ĠCan yon
Ġadm ire
Ġcheck ed
Ġaccept able
Ġlabor atories
Ġ14 0
Ġcalcul ating
Ġvari ables
Se ven
Ġban anas
Ġreflect ive
Ġmid st
Ġmix ing
Ġut ility
Ġvolunt ary
Ġharm ful
Ġfol k
Ġgrass roots
Ġdocument ing
Ġcand le
Ġreve als
Ġadapt ation
Ġcrash es
Ġweak ness
Ġmig rate
Ġpresident ial
Go vern
Ġillness es
Ġexplan ations
Ġpure ly
Ġshad ows
ĠGal apagos
Ġastronom ers
Ġstorm s
Ġcha otic
Ġmemor ial
Ġbombs ight
ĠBudd ha
ĠBudd hist
Ġprem ise
Ġcontrovers y
Ġconstit ution
Ġabund ant
Ġrating s
Ġbrib e
ĠLib ya
Ġpercept ions
Ġpreval ence
Ġamate ur
Ġpropag anda
Ġdys function
Ġtatt oo
Ġexerc ises
Ġanatom y
ĠPortug al
Ġelectromagn etic
ĠCra ig
duc ation
ĠDef ense
Ġenab ling
ĠKosov o
ĠSecret ary
lah oma
Clear ly
6 00
A K
A round
A dam
B J
C C
E s
G oogle
I M
L ittle
N ature
P T
R ed
W K
a is
c ore
c ific
h ed
j a
p ay
p ons
r ist
s ight
u gs
Ġ ic
Ġt ips
in ates
ou b
Ġc um
Ġc ement
Ġb os
Ġm um
Ġh urd
Ġp ess
Ġp iles
Ġp add
Ġp umps
an o
Ġd ates
Ġd uty
Ġy ard
Ġg ad
Ġg el
al ore
Ġn onsense
ro se
Ġst y
Ġst igma
am ous
Ġk it
ad ow
ust ice
Ġj aw
Ġpro hib
Ġch oir
Ġr idge
Ġor th
Ġde ple
um or
Ġcon j
Ġout break
ĠA fter
ĠA ng
em an
Ġsu cks
act ic
ĠM ost
Ġle ak
ĠB y
ĠB ert
ach ed
ach el
Ġtw in
Ġpr isons
Ġimp ressed
ĠP ent
ĠT en
ĠN ike
ĠN amib
ĠD ie
Ġres erv
ĠR ad
ĠR oman
ob iles
Ġfl aw
Ġsm ugg
ĠJ ill
ĠJ ournal
ĠO pen
ne gie
Ġrem em
oc ratic
Ġsc aled
av en
Ġhel met
Ġinst ances
Ġexam ine
Ġprodu cer
Ġsl um
Ġsol o
ĠSt ory
Ġmed itation
Ġbi ologically
Ġexpl ode
Ġrep et
Ġsub mers
vers ion
Ġ4 3
Ġ4 50
Ġwar fare
Ġconnect ome
angu age
Ġresearch ing
Ġequ ator
Ġequ ilibrium
Ġmor ally
Ġdev oted
Ġfriends hip
Ġmust ache
Ġview ing
Ġcra cked
Ġ9 8
app ro
Ġprotect ive
Ġoper ates
gen esis
Ġsupport s
Ġ12 5
Ġjo ining
Ġpract iced
Ġ18 0
Ġspecial ist
Ġhar ass
Ġsea food
Ġinstit ute
Ġcivil ian
Ġprom ises
Ġpath way
Ġtouch es
Ġsn ake
Ġcop ying
Ġfu zzy
Ġsubject ive
Ġlay ing
Ġattack ing
Ġemp ire
Ġemerg es
Ġaw ake
Ġplant ing
Ġblock ed
Ġfem in
Ġlink ing
Ġadm itted
Ġintrodu cing
Ġdepend ence
Ġconsider ation
Ġperspect ives
Ġlaunch ing
Ġmis under
ster dam
Ġcelebr ated
ils on
Ġjud ges
Ġban ned
Ġdoub ling
Ġtun ed
ĠSte wart
Ġefficient ly
isco ver
Ġstrength s
Ġmuseum s
Ġalt ogether
ĠNor weg
Ġaccur ately
ugg ing
Ġconvin cing
Ġpet ition
hold ers
ĠBang alore
ĠEvery thing
Ġlibr aries
Ġconsist ently
Ġgall eries
Ġpray er
ĠCo ca
spe cific
Ġhook ed
Ġdepth s
Ġcyber crim
Ġtent h
Ġhur ts
ias m
Ġben ign
Ġther mal
ĠGold en
Ġpersu ade
Ġbon us
Ġinfl ation
Ġrainforest s
Ġmargin al
Ġfertil izer
Ġhat red
Ġrecru it
Ġbreakthrough s
Ġrepeated ly
Ġnucle us
opard y
ĠJeff erson
Ġdeliber ately
Ġintrig uing
Ġenthus i
Ġenthus iasm
Ġdan cers
Ġfung i
Ġaltru ism
Ġash amed
Ġgram mar
Ġange ls
ĠSnow den
ĠTasman ian
ĠPower Point
ĠJosh ua
Ġende avor
ĠSah ara
Ġarbit rary
Ġnightm are
Ġjuven ile
ĠDal ai
Ġinfra red
Ġambul ance
Ġoctop us
Ġcinem a
ĠAssoci ation
Ġpess im
A B
D an
E l
H ope
M od
S uch
a co
c us
m n
m ile
m eter
o is
o ved
r ish
r ays
z ler
Ġa rous
in ch
in burgh
Ġw ished
Ġw andering
Ġo v
Ġc od
Ġc odes
Ġb ore
Ġm it
Ġh atch
Ġto ast
Ġf irms
Ġin mates
Ġl ou
Ġl ane
Ġl ump
Ġg erm
as ant
le thal
ĠI P
ĠI d
ut en
et on
ct ure
st ory
ro vir
ir med
th em
am ie
Ġse am
Ġse ctions
il izing
un a
os aur
ci um
el iness
iv als
ĠC uba
Ġcomp osed
Ġle opard
Ġdon ated
Ġexp ense
ff iti
so on
ĠG all
ĠP op
ĠP lease
ib ati
Ġnew born
Ġspe nds
Ġcont est
ult ural
vel ength
Ġres id
ru g
Ġad equ
ĠL ev
Ġhum p
Ġhum ble
Ġcomm ons
ak ota
ĠW as
ĠW ould
ĠO d
ĠO ffice
ne um
ac re
ac le
Ġpers ons
oc racy
av ors
be e
Ġcons cience
ĠK ib
Ġproblem atic
ert ips
Ġent ity
Ġcr ushed
Ġquestion ing
Ġext r
cept able
Ġgener osity
Ġcountry side
Ġsub urban
Ġpres ents
Ġadd ressed
Ġwonder fully
irl ing
ene z
Ġstate ments
Ġcra b
Ġret ina
Ġexpect ation
eg as
Ġaud itor
Ġleg ally
Ġoper ated
Ġcommon ly
Ġincl usive
Ġident ities
Ġsqu ared
Ġsuper her
Ġdream ing
ax is
Ġpresent ing
Ġviol in
Ġmult iverse
Ġfight s
Ġslow ed
Ġblood y
Ġwin ners
Ġmeaning less
Ġprom ising
Ġaffect ion
Ġaren a
Ġcop per
Ġtruth s
Ġtransform ations
light s
Ġemp ir
ĠAn n
Ġclean ing
Ġcapt ain
Ġmathemat ically
Ġ16 0
Ġbal anced
Ġfinan cially
ĠPr inc
Ġtrick y
Ġport ray
Ġeth ics
Ġwilling ness
ĠCar negie
Ġlad der
Ġgradu ates
Ġmamm oth
Ġscan ned
Ġmid night
ira ble
Ġindepend ently
Ġur gent
Ġvisit ors
Ġreco vered
ĠAustral ian
Ġfold s
Ġtrib al
Ġmaster s
ĠPar liament
Ġhero in
Ġcompl aining
Ġpet ro
Ġpow der
ĠCol omb
Ġadvert is
Ġappropr i
ĠSwed ish
Ġdisappear ing
ĠCE Os
ĠNob ody
Ġcere bral
Ġanx ious
Ġscar ce
Ġrhyth ms
Ġexcl usive
Ġstoryt eller
Ġmanufacture rs
Ġaband on
Ġattrib utes
Ġdegrad ed
Ġadoles cence
Ġtransm itted
Ġrefriger ator
Ġroutine ly
Ġupd ate
Ġdan cer
Ġaggreg ate
Ġacoust ic
ĠOk lahoma
perform ing
Ġho llow
ĠTes zler
ĠDen mark
Ġdivor ce
Ġinterven e
Ġtempor al
Ġvit amin
Ġdiscrim ination
Ġoutdo or
Ġenvelop e
Ġapolog ize
Ġvel oc
Ġepis ode
Ġvot ers
ĠJord an
ĠEmp ire
wid th
Ġdebr is
ĠArdu ino
ĠPrinc eton
A T
B el
C ertain
I A
L S
M ark
R ob
T ogether
b one
b uilding
d esign
f ig
f lu
g ered
l ical
m ia
r r
r ise
v ascular
w he
y an
in er
Ġs ands
at ical
Ġc ort
Ġm und
en ch
en ment
Ġp neum
Ġd ome
Ġd ug
Ġin qu
ar ial
Ġg aining
Ġg ait
ĠI g
Ġe ase
Ġbe ast
ot er
ot an
ct ar
se cond
ur ge
ere rs
ch ill
ra vel
Ġab normal
ad vant
Ġwor ship
Ġne ctar
Ġnot ions
Ġde ci
ear ning
Ġint end
Ġv otes
Ġby pass
ĠS T
ĠS k
ĠS up
ĠS erv
ĠS ylvia
el p
Ġsa p
ĠC reat
ine a
ous y
ĠM el
Ġexp ose
Ġfe e
ĠB ook
ĠB and
ff e
Ġany time
Ġhapp iest
Ġdiff er
Ġneed ing
Ġneed les
ĠE ven
ĠE conom
Ġimp aired
Ġdis advant
ĠH arr
ĠP et
Ġnew ly
ber ty
Ġunder p
ĠL ee
ĠL agos
ĠL HC
pl an
Ġcomm ands
ark s
ange lo
ĠF red
ĠW ars
Ġra ces
Ġra cial
Ġwell s
Ġinv asion
Ġafter ward
Ġbas king
Ġ3 4
Ġcr ust
Ġcr ank
Ġcr ied
Ġdevelop ments
Ġatt raction
cond ition
cy cle
Ġread er
Ġexpl oded
Ġresp onds
Ġ4 7
ĠV enez
Ġconf usion
Ġconf erences
Ġmen u
Ġstand point
Ġeduc ators
Ġequ ipped
As k
Ġcertain ty
Ġpar ap
Ġwa velength
Ġworks hop
uck ily
ĠTED x
Ġsuccess es
sy l
Ġav atar
Ġvar ieties
Ġexist ential
ĠBr others
Ġoper ator
Ġsym b
Ġtyp ing
Ġsuper ior
Ġpoor ly
sh ine
Ġcal cium
Ġsum s
Ġslow ing
Ġrock ets
eng ers
Ġrele ases
Ġfilm maker
Ġvol umes
Ġcolor ful
ĠTh ings
Ġstat istically
Ġtrack ed
Ġaccount able
cient ist
Ġsequ enced
Ġassum ing
Ġaccept ing
Ġdiscuss ed
ĠAm sterdam
Ġcook ie
ĠMan y
Ġeth anol
ĠLe one
Ġcelebr ating
Ġoptim ize
iot ic
Ġhair s
Ġir res
Ġtremend ously
Ġcampaign s
Ġdispl aced
Ġtax i
Ġhall s
Ġinj ustice
Ġmaster y
ront al
cop y
ĠMich igan
Ġrequire ment
Ġsynth esis
Ġhorr ific
Ġcateg or
Ġorg asm
ĠEd inburgh
Ġquiet ly
ĠDan ny
Ġveget ation
ĠMin istry
Ġtick ets
Ġinfin itely
Ġtall er
Ġtow el
Ġheight s
Ġreview s
Ġsla ves
Ġentrepreneurs hip
Ġflex ibility
Americ ans
rog ram
fl ow
Ġmira cles
Ġharvest ing
ĠPhil ipp
Ġpregn ancy
Ġfirm ly
Ġscenar ios
Ġsacr ific
Ġassemb led
ĠBab ylon
Ġeradic ation
Ġpref rontal
Ġdisgust ing
Ġimper ative
Ġevalu ate
Ġcatastroph e
Ġtwe et
Us ing
ĠDemoc ratic
Ġregener ate
EC D
Ġwhis per
Ġgrat itude
friend ly
Ġdistort ed
fram e
Ġcigaret te
Gl obal
Ġimprov ise
Ġdragon flies
Ġcoinc idence
Ġobt ained
Ġgif ts
Ġparam eters
Ġjewel ry
ĠCharl ie
Ġcockro ach
nut rition
ĠRoy al
Ġhob by
ĠKir ibati
Ġimpr ison
Ġundergradu ate
ĠArgent ina
Ġobser ver
ĠNep al
Ġdemograph ics
ĠeB ay
ĠDie go
ĠVenez uel
B run
J C
L G
L T
O thers
P R
P o
R L
b ird
b led
c use
d est
f und
g age
j an
l ad
m etic
o ven
p it
r ine
r ip
r ations
v y
v ol
z o
in as
in ety
Ġw oo
at us
Ġc oding
is a
Ġh ug
Ġf is
or ado
ll a
ar on
ar cer
om p
Ġn ail
Ġe ager
ot ics
ver b
im ed
st ick
Ġan esthesia
ir atory
Ġdo ses
op oly
am il
Ġwith d
Ġgo sh
Ġsh ipped
Ġnot icing
ter ing
ge bra
ul ators
Ġch ore
Ġr ides
um my
Ġjust ify
Ġsp ouse
Ġsp ike
ĠS um
ĠS orry
ĠS MS
ĠC la
act ly
Ġen cyclopedia
ĠM uh
Ġco ined
ĠB ud
Ġun in
ĠE lect
Ġback s
Ġback pack
ĠH istory
ĠP ost
ib bean
ĠT ower
ĠN av
ĠN ai
ĠN SA
ĠD AR
Ġcont ents
ber cul
Ġres ort
ru ce
Ġday light
ĠL ine
Ġide ological
ob ic
Ġoff sh
ĠW ilson
Ġfl ed
Ġinc on
Ġinc ons
Ġinc ub
Ġinc arcer
ĠO ut
ĠO ECD
ac ities
Ġinv iting
Ġind irect
Ġsc ope
Ġbrain storm
Ġlast s
Ġgra ffiti
ven ue
ros pect
Ġinter d
Ġsl ogan
Ġdr ift
Ġlearn s
Ġmom s
Ġlar v
ĠY ear
ger ia
Ġbi ased
Ġsk ip
ock s
Ġsecond ly
Ġreg rets
ĠV i
ĠV oice
ĠV egas
Ġpass port
Ġreason ably
Ġlist ed
Ġglobal ized
less ness
Ġsw amp
undred s
uck ed
Ġsec ular
Ġdeal t
rop olitan
Ġthird s
Ġinnov ators
app iness
Ġmiss ions
uss ani
Ġlim estone
Ġsqu e
Ġpost ure
Ġste er
Ġredu ces
Ġexperiment ing
Ġcirc ulation
Ġrele asing
cr ipts
Ġcivil ians
Ġdevelopment al
Ġer otic
Ġsearch es
Ġ199 1
Ġ199 3
pan y
Ġrain fall
Ġrevolution ary
Ġblock ing
Ġfix ing
put nik
Ġpu berty
Ġstick y
ann ah
amm ad
Ġbank ers
Ġdistrib ute
Ġquant itative
ĠPr ime
back s
ĠCar ibbean
Ġsociet al
ĠRight s
Ġconcl usions
Ġvict ory
Ġban ana
Ġmal nutrition
Ġvast ly
Ġdemand ing
Ġrout es
ĠRe ally
Ġphotos ynth
ugg ed
Ġadapt ive
Ġmaint aining
Ġtast es
ĠAb ed
Ġtit les
ĠCon nect
Ġbattle field
Ġrein for
Ġtow ers
Ġpil ots
Ġgall on
Ġqual ified
Ġsympt om
Ġreprodu ctive
ĠNot hing
Ġrefer red
Ġassist ant
Ġeld ers
Ġreci p
Ġiniti atives
Ġcoord inate
Ġdecl ared
Ġdecl ining
Ġpool s
ĠPer u
Ġru ins
ĠRepublic an
van ia
Ġknock ed
Ġgeomet ric
Ġdelic ate
ĠNG O
Ġcens orship
Ġchamp ion
Ġlegit im
Ġimper fect
Ġsatisf ied
Ġobl ig
Ġcommod ities
ĠCount ry
Ġperpet r
ĠDemoc rats
Ġcryst al
Ġspa wn
Ġflour ish
Ġdefe at
Ġtort ure
Ġweeke nds
Ġtempt ation
Ġcous ins
Ġirre le
Ġcontrad iction
Ġcigaret tes
Ġunemploy ed
Ġannoy ing
ĠPart y
Ġredef ine
Ġsett led
Ġsumm ary
rane an
assemb ly
Ġsubm itted
Ġunst able
ĠGi ussani
ĠPitt s
Ġfier ce
Ġreper to
Ġwre ck
Ġunac ceptable
ĠCambod ia
Ġlaund ry
Recent ly
intu itive
ĠGeorg ia
ĠApoll o
Ġbos on
Ġlou der
Ġauditor ium
Ġmund ane
Brun o
ĠNai robi
bercul osis
C E
E ng
H umans
J F
L uckily
O ft
O pen
c up
h as
j ud
k now
l come
m ble
o ft
p ot
p hing
r ia
u ci
v in
w all
Ġt read
Ġt ennis
Ġa rose
in ators
Ġb udd
Ġm un
Ġh ij
on al
Ġp iv
Ġp oured
Ġd uration
Ġin ade
Ġin ert
Ġin efficient
ed uc
Ġl ith
Ġg ym
as so
ic ut
Ġe co
us et
Ġre h
Ġre pt
Th irty
all ing
im ony
st an
ur p
ur bs
Ġst ir
ch ool
Ġfor cing
th en
th ird
Ġso y
Ġhe h
Ġsh ield
Ġsh uff
il age
ul ed
Ġch unk
Ġr iots
ca v
Ġte nder
Ġv ig
ide press
ĠA sh
os ion
Ġpl um
ich e
ĠS i
ĠS er
em on
og er
Ġsa iling
Ġtheir s
Ġcomp act
Ġcomp ressed
ĠM ot
ĠM att
ab a
Ġfe ared
Ġag rees
ach ers
ach uset
Ġno ble
ĠG ar
Ġbu cket
Ġimp ose
ign ant
Ġdis connected
ĠH ubble
ĠP I
ens ed
ĠT ell
ĠT uring
ĠN ever
ep ler
Ġlo be
king s
Ġdes al
Ġres olved
Ġunder t
Ġad ul
ĠL ind
ĠL ester
ict ional
Ġbl ade
int eg
ob o
ph a
ress es
ĠJ ay
Ġwr ink
Ġwr ites
Ġsur plus
te xt
te nds
oc ke
oc amp
ft s
Ġlast ed
Ġgl ory
Ġbit ter
Ġ3 60
Ġke en
Ġinter connect
Ġent ers
Ġmon soon
Ġmod er
Ġmod ified
alth y
Ġdevelop ers
ĠY ellow
Ġed iting
Ġel bow
ont o
air y
Ġreg ister
ĠYou ng
Ġsing ers
Ġfun eral
ĠV ill
Ġca fe
Ġgr im
Ġopp on
Ġcult urally
ott o
Ġref ined
Ġshare s
Ġenvironment ally
Ġtreat y
Ġiss ued
Ġcond om
Ġcond uctor
ĠTED sters
Ġdra gged
Ġ9 00
Ġ8 6
Ġliter al
Ġprogram mer
Ġshap ing
Ġant idepress
Ġbeginning s
Ġshort cut
ĠAr m
Ġsuper cond
Ġspecial ists
sh ah
Ġcool er
ĠBe ck
Ġrele vance
Ġreact ors
Ġemerg ent
Ġrece iver
Ġdiv ine
ĠPh D
Look ing
Ġcart ilage
Ġinflu ences
Ġmis ery
Ġcat alog
Ġroll s
Ġthr ust
Ġthr ive
Ġcitizens hip
Ġrandom ness
Ġcondition ing
Ġsad ly
Ġassoci ation
Ġ197 5
Ġoffic ers
Ġprevent able
cell ular
ĠRuss ians
Ġtrip le
Ġcrowd ed
Ġdesert s
Un like
atr ina
Ġble nd
Ġattempt ed
Ġmill ise
Ġhero ic
Ġfle e
Ġacceler ation
Ġacceler ated
Ġband width
Ġpurs uing
car bon
Ġselect ive
ĠGo vern
Ġcro cod
Ġneuro genesis
Ġmyth s
Ġmyth ology
RI SP
Ġnegot iation
Ġpeak s
Ġmosqu e
ogen ic
ym met
Ġexec uted
Ġrom ance
Ġcompar able
Ġsphere s
Ġmer it
Ġphr ases
Ġmyster ies
Ġtab oo
ĠHaw king
Ġguarant eed
oster one
Ġparas ites
Ġhol iday
Ġprev ail
Ġdelight ed
Ġclim bers
Tr ans
Ġnucle i
Ġsulf ur
Ġarrow s
ĠSim on
Ġreson ance
Ġassess ment
sc reen
Ġcert ific
ĠInt el
Ġsurviv or
Ġdecent ral
Ġshout ing
Ġsusp icious
Ġincom plete
Ġinex p
Ġmarvel ous
Ġinher ited
Ġaspir ations
Ġappla use
Ġsovere ign
ĠScot land
ĠPenn syl
Ġpestic ides
Ġtu berculosis
Ġcorrid ors
ĠBosn ia
Ġentit led
Ġcalend ar
Ġcathed ral
Ġfacult y
Ġunpredict able
Ġappropri ately
ĠSup reme
Ġlarv ae
Ġreperto ire
Ġinade qu
achuset ts
RISP R
ĠPennsyl vania
4 00
8 00
A pp
E v
F ifty
H undreds
I N
M en
P ar
R el
S B
S M
U lt
a use
b ot
b ons
b oy
c ou
c am
c ular
d y
k ers
l if
l am
p ace
w a
Ġth umbs
Ġo zone
Ġs ought
Ġs essions
at ics
er am
Ġc av
Ġc ues
it is
Ġb ent
Ġb ands
Ġb ounce
Ġp ity
Ġd well
Ġl ure
om ic
Ġg aze
ic ism
le m
Ġn ick
ot ive
all as
Ġst umbled
ch ar
ra ce
Ġan onym
Ġmo ist
ul u
Ġex cer
Ġch alk
Ġch ee
Ġor ang
ck o
ate mal
est ion
Ġal gebra
Ġsp ine
ĠS her
ĠC art
ĠC ost
ĠC up
ĠC RISPR
Ġtim ber
iz a
iz ona
ĠM T
are r
Ġman g
Ġman ages
Ġfe es
ĠB or
Ġag ed
Ġno ises
Ġun ity
Ġun ified
Ġun equ
ĠE s
Ġover se
Ġpo nd
Ġdis ruption
ĠH an
ĠH am
ĠH ello
ĠP ers
ĠP ass
Ġar ter
ens itive
ens ively
ĠT it
ass ador
Ġfirst hand
ĠD i
ĠD ev
cent ric
Ġro yal
Ġunder w
ĠL G
ĠL iberia
ĠL ewis
Ġhum ming
ish a
Ġbl ob
Ġide als
pe ople
ĠW oman
Ġbr ow
Ġgu ilt
Ġsim ulated
Ġind oor
be cause
Ġrel uct
Ġins ur
Ġins isted
ost ics
Ġbo oth
Ġfound ing
Ġplace bo
Ġwater fall
Ġschool ing
Ġstr ang
Ġfin ite
Ġcell phone
ative ly
ĠY ale
Ġbi och
Ġbi otechnology
Ġsk ies
Ġsk ys
Ġanim ations
Ġsupp l
Ġsub urbs
Ġproject ions
atter ing
Ġorgan izational
Ġconf using
Ġcur ator
Ġpop s
Ġgr an
Ġgr ip
Ġhist ories
Ġsound ed
aps es
Ġchar ities
iter ranean
Ġtest osterone
Ġpain ter
Ġsw ap
Ġlab els
Ġwa x
aster y
ex p
Ġfree ze
Ġrad ar
Ġrad ius
Ġoper ational
Ġpot ato
Ġnon violent
Ġdig its
ĠAr izona
Ġblue fin
Ġtem pl
Ġarg u
Ġ18 5
Ġge ographic
Ġobs ess
ĠSh ir
Ġphotograph ers
Ġstra nd
Ġworth while
Ġhot ter
Ġtradition ally
Ġsn aps
pan ies
Ġep ile
Ġaccount ing
eth oven
Ġclean ed
Ġbal con
Ġkil ograms
ĠAll en
ĠWar ren
Ġpan creat
Ġcontrib utions
Ġemploy ee
Ġdrink s
Ġautom atic
Ġbroad ly
Ġstress ful
Ġblog ging
Ġdiagn ose
Ġver ge
ĠDo aa
ĠRo ver
Ġstream ing
Ġappreci ated
Ġcorpor ation
Ġpet als
Ġnovel ty
Ġprototy ping
Ġembra ced
ĠEd ward
Ġhun ters
add y
Ġwond ers
Ġgall ons
Ġrecy cle
Ġprefer red
Ġassign ed
Ġped iatric
ĠMo MA
ĠPhil ip
ĠFrank lin
Ġ194 0
bre aking
Ġload ed
Ġdistinct ive
Ġvibr ating
Ġimpl anted
ĠMed iterranean
ĠJer ry
oca ust
ĠMount ain
ĠEm ily
ĠTor onto
Ġsatisf y
Ġsatisf ying
Ġwound ed
Ġprev ents
ĠPalest ine
Ġrelax ed
ĠWilliam s
Us ually
Ġincident ally
Ġlon eliness
Ġglaci ers
Ġbarrel s
Ġgee ks
Ġaqu atic
conf lict
Ġaddict s
Ġnegoti ations
Ġnegoti ating
Ġnurt uring
Ġrh in
Ġrh et
Ġspont aneous
produ ct
ĠSom alia
ĠDes ert
Eight y
Ġstrict ly
Ġturb ul
ĠSky pe
Ġsched ule
ĠMedic ine
Ġexplicit ly
Ġintrins ic
Ġhipp ocamp
Ġforb id
Ġbleed ing
Ġerect us
Ġaccompan ied
munic ations
Ġpriorit ize
Ġhamb urger
Ġunint ended
ĠMass achusetts
Ġcontag ious
ĠGard en
Ġviscer al
Ġappl iances
ĠEver gl
Ġpollut ants
ĠNamib ia
ĠNorweg ian
Ġveloc ity
whe el
Ġsap iens
ĠMuh ammad
ĠConnect icut
ĠPitts burgh
shah idi
Ġpancreat ic
1 4
1 6
B en
C S
D ar
E A
E ither
F G
F r
K A
L ess
M O
S ad
T B
T y
T oo
b ro
b row
b ands
b uilt
d le
d og
e opardy
f ur
f ill
g ue
g rowing
h ind
h ops
i ologists
p ical
t ic
u j
Ã §
Ġt ect
Ġt ink
Ġt ilt
in ator
Ġw ages
Ġw ounds
Ġs ere
Ġc ass
Ġb umps
en ergy
Ġp up
Ġf ictional
Ġl os
Ġl ined
Ġl akes
ar in
as king
le ans
al in
Ġwe ts
et ches
id ity
se x
im ic
st op
Ġwas ting
ra z
ith metic
Ġgo ats
So on
Ġcom ed
ant ing
il i
ol is
ol ith
Ġex it
Ġch er
Ġr anging
Ġde er
Ġpe e
est eem
Ġint angible
ĠA gency
ie val
Ġup s
Ġpl un
ĠS el
ĠS cr
iv ation
og y
ĠC N
ĠC ould
Ġper vasive
Ġqu o
Ġqu otes
Ġfe as
res istant
ĠB ul
ĠB ah
Ġag n
Ġun ited
Ġun imag
ĠE c
ĠG irl
ĠG erm
Ġpart ial
ign ed
orm an
ĠH on
ĠH ot
ĠH op
ĠH eart
ĠP eps
Ġar rog
ib les
ĠT oy
ĠT ai
ater al
ĠD yl
ple x
ell s
ĠL en
ĠL as
ĠL abor
Ġam ph
ĠR ose
Ġbl ows
ob i
Ġoff ensive
ĠF ood
ĠF ree
ĠW ood
ĠW ater
Ġbr on
ĠJ obs
ĠO p
ĠO w
ĠO tt
Ġhuman ities
Ġapp et
Ġinv aded
Ġind o
Ġbel oved
oc ate
oc ated
ty pe
Ġmean ings
Ġmean while
Ġinst ability
Ġtrans f
ĠK le
ĠK am
Ġgra bs
Ġsl am
Ġkid neys
Ġdr illing
Ġhigh ways
ween ey
Ġcr ashing
Ġimag inary
Ġext ensive
Ġbi ote
ĠSo cial
Ġsk etches
Ġsing er
Ġconf irmed
Ġdist ress
Ġdef ines
ortun e
Ġprot ests
Ġval ued
Ġcam els
ash es
Ġpublic ation
Ġcontin ually
Ġpar alysis
Ġwa king
Ġappro val
Ġpos es
ret t
Ġarch ae
Ġsens ible
Ġ5 4
Ġpot atoes
Ġsym phony
Ġident ifying
ran ny
Ġsurpr ises
Ġge o
Ġge ological
Ġfight ers
Ġmeasure ment
ĠBe ethoven
bor ne
Ġcomb inations
Ġrepl ied
Ġsimilar ities
Ġcurrent s
Ġsuggest ions
Ġcompet itors
ĠTh ird
ai ro
Ġer osion
ĠZ ip
Ġclos et
str ong
Ġsyn c
view er
Ġcontext s
Ġmeant ime
Ġthreat en
Ġcheck list
Ġappear ing
Ġ201 3
Ġheav ens
Ġcard io
Ġkil os
ĠJohn ny
Ġurban ization
Ġquant ity
Ġexh ilar
Ġmatch ing
ĠOr leans
Ġexpress ing
Ġsurround ings
Ġinvent ors
ĠIraq i
Ġbackground s
Ġver bal
Ġseas ons
Ġcontact s
Ġmetap hors
Ġjoy ful
Ġrequire ments
Ġindic ation
ĠAb u
Ġmig raine
Ġden ied
Ġattach ment
Would n
Ġcontract s
ĠFranc is
Ġtox ins
ĠGu atemal
Ġshut tle
Ġsetting s
Ġnan otechnology
Ġillustr ation
Ġillustr ates
Ġuns ustainable
Ġbul k
Ġbeach es
Ġfisher y
Ġsan ct
ĠMil o
Ġperman ently
Ġcourage ous
Ġbicy cles
Ġ194 5
Ġtrig gered
ĠLaw rence
Ġirr igation
Ġinstinct s
ĠJul ian
bal ance
ĠMount ains
wr iting
Ġexcell ence
ĠBab bage
Ġeradic ate
AR S
Ġconstit u
Ġcens us
ĠCop ern
Ġpra g
Ġmargin s
Ġtrop ics
Ġveter in
ĠVen ice
Ġvolcan o
Ġvolcan ic
Ġham mer
oli ath
ĠFin land
Ġcompos er
Ġcraw l
Ġintrig ued
aby tes
Ġnurt ure
Ġstereoty pes
Ġoverl ap
ĠTes la
Ġreinvent ing
Ġunemploy ment
Ġencry ption
Ġles b
Ġrect angle
ĠKe ith
Ġambig uity
Ġexecut ive
Ġepidem ics
Stud ents
ĠUC LA
Ġunderest imate
ĠWol fram
Ġlifel ong
Ġdepart ments
ĠTunis ia
Ġloo ps
Ġregist ered
Ġexquis ite
Ġcompreh ensive
Ġepip han
Ġvoy age
Ġfundra ising
Ġimprob able
PT C
Ġremem bers
Ġcybercrim inals
Ġpneum onia
ĠVenezuel a
Ġincons ist
Oft en
Ġbioch em
Ġunimag in
ĠDyl an
A dd
B r
B ill
E uro
H a
H igh
H mm
I P
J eopardy
L ove
P aul
S c
W orld
a cent
b es
b ast
d ad
e en
f ashion
g ree
g iving
g aret
i ro
j ust
r ates
s is
t ion
w ired
w andering
Ġ +
Ġt id
Ġw ig
Ġw age
Ġw ander
Ġw olves
re r
Ġo w
Ġo ve
er ness
Ġm oth
Ġm arsh
Ġh ats
Ġf er
Ġd eny
or rect
ĠI Q
Ġn ud
ot ent
et ical
et ary
Ġha z
ld er
ver bal
st ruction
Ġst ated
ra pe
Ġab used
So cial
Ġwor ries
Ġhe ct
Ġj ur
Ġpe el
ear ing
ect ion
Ġv ib
Ġv apor
Ġsp ong
Ġsp ades
ĠA st
ĠS ty
ĠS low
ĠS iberia
our ced
ĠC ub
ĠC airo
od s
Ġcomp at
Ġcomp ens
Ġle gend
ab b
Ġper se
Ġqu iz
Ġdon ation
Ġev ident
ud son
age ment
ĠB usiness
Ġun ne
ĠE ll
ĠE st
ĠG ord
Ġpr iest
Ġpr izes
Ġover t
Ġover look
Ġpo ets
Ġback ward
ĠP le
ĠP ra
ĠP ier
Ġar ises
ĠT op
ĠN ev
ĠN BA
ĠD ave
Ġro oted
Ġro oft
Ġam put
Ġam ino
ob e
ĠF al
ĠW in
Ġfl own
ĠJ u
Ġra mp
ĠO ak
ĠO reg
ric s
Ġwr it
Ġtra it
Ġtra ff
Ġown s
ian a
Ġcreat ors
Ġrel i
ĠK atrina
Ġcoll ar
Ġinter medi
Ġinter rog
Ġbo iling
Ġla zy
Ġdevelop er
Ġmed i
Ġmin isters
Ġcent imeter
Ġed ited
Ġbi kes
Ġel ites
Ġbook st
Ġresp iratory
Ġsub urb
Ġhand y
ĠV ol
ĠV inci
Ġcur s
Ġpass engers
Ġpop ped
Ġgr ief
Ġdef ect
Ġeduc ating
Ġcult ivate
Ġfore ground
Ġexc uses
de velop
aterial s
Ġfil es
ĠIs a
Ġsca re
Ġmess aging
omet ers
Ġz e
ĠHe b
Ġfocus es
Ġ5 3
Ġlim itation
ĠAr k
Ġimpro ves
Ġwall et
ĠAl pha
Ġweek ly
Ġ18 00
Ġground ed
sh irt
Ġge ese
Ġrequ ests
Ġdirect ors
Ġrespons ive
Ġball oons
Ġhot els
Ġprom otion
Ġtransform s
Ġperiod ic
St ep
Ġ199 6
Ġsyn apses
Ġcross es
Ġmagn ets
Ġ11 0
Ġenjoy able
Ġthrow s
Ġ198 9
epend ence
Ġemploy ed
Ġport able
Ġexplore rs
Ġautom obiles
Ġoptim al
Ġcoun cil
Ġinterview ing
Ġscr ipts
Ġmamm ography
ĠAustr ia
Ġswitch es
Ġreflect ing
amb ia
Ġfat ty
Ġhall way
Ġindustrial ized
ĠiP ad
Ġur ine
ĠCom pany
Ġhom osexual
rie nds
Ġcogn ition
Ġadvant ages
Ġnote book
Ġancest ry
ĠMc C
Ġcounter part
Ġcounter intuitive
lin ear
ĠKeny an
Ġclick s
Re al
Ġinvestig ating
Ġax es
Ġimplic it
Ġacadem ics
ĠEx pl
bel ief
Ġneuros cientists
Ġantib odies
ĠEn viron
Ġsoul s
ĠPaul o
organ ized
Ġstock s
Ġcartoon ist
Ġsla ughter
Ġmel ody
Ġshall ow
uls ive
Ġexec ution
Ġacqu is
Ġring ing
Ġoccup ied
ĠTe le
Ġadj acent
Ġastronom ical
Ġcritic ism
Ġlens es
Ġment ors
Ġdiam ond
Ġpin point
Am ong
Ġweigh ed
Ġinject ion
Ġshell s
Ġelim inated
ĠJer sey
quar ium
Ġmanufacture r
ras ound
Ġattrib ute
Ġpra ise
Ġprev ented
ĠPol and
Ġrecru ited
Ġaesth etics
Ġcryst all
Ġcraft s
Ġcert ified
Ġcraw ling
Ġmanifest ation
Ġsynthes ize
Ġneurolog ical
Ġrestrict ed
Ġarrange ment
ĠScott ish
Ġtut or
Ġorphan age
Ġbatt les
Ġpir ate
Ġexecut ives
Ġexha ust
Ġexha usted
Ġbiolumines cence
Ġjugg ling
Ġorb iting
Ġenzy me
Ġfest ival
Ġconsp iracy
Ġingen uity
Ġavo iding
urf ing
Ġswallow ed
Ġtriang les
Ġthro at
ĠBM W
ĠKy oto
Ġster ile
mass ive
ĠMat th
ĠWind ows
ĠHimalay as
Ġimprovis ation
ĠBh utan
Ġic ons
appro pr
Ġoffsh ore
Ġirrele vant
Ġreh ears
Ġinadequ ate
Ġnick n
Ġexcer pt
Ġhippocamp us
ĠEvergl ades
imic ry
ĠTai wan
Ġindo ors
Ġcardio vascular
Ġunne cess
ĠOreg on
- '
A O
C al
E R
E instein
F re
F ort
G iven
H O
H old
M o
S cience
a ic
a ved
b ucks
g reen
g rowth
h ill
h ouses
i kes
i ages
j u
l ast
o xy
u z
w as
Ã ³
Ġt ad
Ġt ipping
Ġth under
Ġw iring
ou l
Ġc ue
it ler
Ġb ol
Ġb unk
ing o
Ġm ite
Ġm ism
Ġp ets
Ġf ade
Ġf ounder
es ters
Ġd ub
Ġd ash
Ġd unes
Ġl am
Ġl ag
Ġg ira
ic ill
ve t
ĠI T
Ġn inth
Ġre ar
Ġre connect
ay ing
id ance
st s
st al
st yle
ro c
ig ate
ig rade
ch ed
ch ange
if lu
ra h
Ġdo ct
op sy
Ġse iz
Ġse aled
Ġcan e
Ġcan n
Ġmo l
Ġli vel
Ġgo ss
Ġhe el
ould er
ol s
We lcome
ind ustrial
Ġint est
Ġsp ills
ĠA ut
ĠA cc
ĠA gn
ĠA chill
Ġtr unk
Ġup wards
Ġpl ut
ĠS n
ĠS ide
iv able
Ġsa ves
ĠC ass
ĠC ooper
iz able
ĠM en
ĠM ain
ĠM ap
ĠM ama
Ġta ils
Ġle aks
ab ad
Ġdon ations
Ġexp ands
ud ing
Ġco herent
ĠB at
ĠB ot
ach ine
Ġtw ent
ip er
Ġun he
ĠE v
ĠE aster
ĠG oo
ĠG oliath
Ġpr ies
Ġright ly
own ed
Ġbu ck
Ġbu ys
Ġpo etic
ĠH ur
ĠH um
ĠH em
ĠH udson
olog ic
ĠT em
ĠT ah
ĠT oday
ass y
ĠN O
ĠD am
ĠD av
Ġdes criptions
co al
ĠL ast
ĠL ittle
ĠL ead
ĠL arge
Ġdifferent iate
ick r
ĠR ub
Ġbl o
ph al
Ġcomm ittee
Ġpre jud
ĠF O
ĠF ire
ĠF ield
ĠF ox
ĠW atch
Ġfl op
Ġsm iles
ĠJ en
ĠO oh
ĠU k
ĠU shahidi
ac on
te br
Ġgu idance
Ġapp ar
Ġinv ade
Ġinv asive
Ġind ul
be c
Ġrel ie
Ġexam s
ĠK elly
ĠK epler
Ġstr at
Ġlearn er
Ġdevelop s
ĠSt ock
az ing
az ine
Ġlight weight
Ġcent r
Ġcent imeters
Ġrep orter
Ġreg imes
Ġadd icted
Ġenv y
Ġsign ing
ogra phing
Ġrese mble
Ġaut o
Ġchar ter
Ġunt ouch
Ġcost ly
Ġdev ised
de gree
Ġfriends hips
Ġfollow ers
Ġret ired
Ġ9 6
Ġmic row
Ġthird ly
Ġ8 2
Ġvar ied
Ġliter ary
Ġaud itory
Ġve il
Ġ5 7
Ġ5 8
Ġdep ressing
ipp er
Ġpresent ations
Ġstrong est
osp her
Ġintern ationally
Ġcy c
erm aid
Ġtext ile
Ġstat ue
Ġest rogen
Ġsn ap
Ġarm or
Ġreact ing
Ġdin ing
Ġfunction ality
Ġfair y
Ġtrust ing
Ġtrust worth
Ġrich ness
Ġec st
ĠPh ot
Ġthreat ening
Ġspir its
ĠDe an
ann el
Ġmarr iages
Ġdetect ors
Ġbank er
Ġburn s
Ġfing ertips
Ġpack aging
go vern
Ġachieve ments
Ġcook ed
Ġrespect s
Ġterm inal
Ġstrange ly
Ġremind er
erson al
Ġsecret ly
Ġsimpl istic
Ġmethod ology
ef in
Ġsus cept
Ġ197 3
Ġliber als
ĠMar x
Ġur anium
Ġaccident al
ĠRe agan
Ġnorth east
Com panies
Ġcompl ained
ĠDar fur
Ġnovel s
Ġfrequ ent
More over
Ġtour ist
Ġtour ism
Ġimplic ation
Ġpoo rer
Ex cuse
ĠEvery one
organ izing
Ġstock p
ĠDarwin ian
Ġhypoth etical
Ġunex pl
Ġminim ize
Ġmer ch
Ġ196 8
Ġmira cul
Ġinput s
Ġasp iration
Other wise
Ġabsor bed
Ġelev ated
Ġdatab ases
Ġwhist ling
Ġath lete
Ġconstrain ed
Ġanticip ated
Ġignor ant
Ġflood ing
Ġhoney bees
Ġconserv atives
Ġstere o
keep ing
Ġrush ed
Ġmaxim ize
Ġconven ience
Ġpref erences
Ġfulf illing
Ġcarr ot
Ġhier arch
ĠLad y
Ġsettle ment
Ġfract al
Ġstunt s
ĠStar bucks
Ġtort ured
Ġcorrespond ing
Ġcong ress
Ġshrink ing
Ġcub ic
Ġtroub led
Ġupload ed
Ġstimul us
Ġamate urs
Ġdrown ing
Ġdrown ed
Ġscholars hip
Ġrender ing
dis cipl
yd ney
Ġech o
Ġtrail er
Ġintrins ically
Ġcabin et
Ste ve
Ġhumil iation
Ġbiolumines cent
oug her
Ġenzy mes
cons um
ĠSen ate
Ġappe aling
Ġfluctu ations
Cor ps
ĠLin ux
ĠAI MS
Ġsymp athy
Ġinsec ure
Ġje ans
Ġoutrage ous
ĠHind u
ĠTam iflu
Ġacknowled ged
Ġcarc in
pos itive
Ġger ms
agra ph
ĠNat asha
Ġglor ious
Ġfavel as
Ġstew ards
ĠMichel angelo
Char les
ĠMove ment
ĠKib era
Certain ly
Ġmun icip
ĠVill age
Ġdecentral ized
Ult imately
Ġoverse as
ĠGerm ans
ĠPeps i
Ġbiote ch
ĠGuatemal a
Ġlesb ian
Euro pe
bast ian
Ġtad p
icill in
9 5
E lect
M M
N T
P EC
S R
S il
S ever
S cientists
a ise
b rain
c ur
e er
e ur
f ting
f its
f eed
g i
g ood
g reat
h ome
h ire
h ran
i ary
i hood
i ologist
m art
p able
r us
r ans
s en
s aving
t ent
u ate
y our
Ã £
Ġ :
Ġt ense
Ġt ales
Ġw att
re al
at ized
er k
Ġc asc
Ġb id
Ġb ru
Ġm ash
Ġm ama
Ġh oo
Ġh unch
Ġh uh
Ġf use
an c
Ġd angers
Ġin h
Ġl y
ar ity
Ġg ru
ic ular
Ġn ests
Ġwh ip
us ively
Ġre n
Ġre un
Ġre ndered
Ġha y
Ġon c
im ated
ig ital
Ġst akes
ch ild
ch arge
ke l
Ġfor aging
ir ming
Ġdo do
Ġab usive
Ġli ed
Ġso ber
ad der
Ġhe ated
Ġj ury
Ġch ord
Ġr ay
Ġr ipped
Ġde leg
Ġout ward
un s
Ġv icious
ĠA ur
ĠA ges
ie ces
Ġpl acing
Ġby product
ĠS putnik
el ve
iv ated
em s
ĠC y
ĠC ro
ĠC her
Ġtim eline
ast ically
Ġcomp r
Ġcomp ass
Ġsu cked
ous ands
act ed
Ġen cl
ĠM P
ĠM oses
Ġexp end
Ġco ch
ĠB ow
ĠB alk
ĠB ruce
Ġcl icking
Ġcl aws
so cial
Ġun ve
Ġun ple
Ġun think
Ġun aware
Ġpr istine
Ġover d
Ġimp at
ign ific
ĠP ink
Ġar ithmetic
ĠT enn
ĠN ov
ĠN ext
ĠD allas
Ġunder way
ell ers
Ġsy ring
ĠL ight
ĠL arry
ĠR ic
ĠR us
ĠR ena
ĠR IS
int o
Ġreal izes
ob os
ĠF all
ĠF il
Ġfl ick
ys ics
Ġcount y
ĠJ ean
ĠJ acqu
Ġra b
ĠU K
ĠU s
Ġdec omp
Ġlet t
we et
oc ative
Ġsc uba
av il
Ġperson nel
Ġlast ing
ĠK u
Ġfound ers
Ġpol es
Ġpol ite
uc ed
uc lear
Ġquestion ed
ĠSt ation
ĠSt and
Ġmed ieval
Ġmin eral
Ġbeh aving
Ġread s
Ġrep ly
Ġcap acities
Ġacc used
Ġwar n
Ġpres ervation
Ġpop ping
For get
Ġchar coal
âĢ Ķ
Ġmil it
Ġpay ment
Ġpay load
Ġmust ard
Ġ6 4
Ġinn oc
ĠIs n
Ġret ain
Ġret rospect
Ġsca nd
Ġ9 7
Ġprov ince
Ġprov iders
Ġpred atory
Ġdifficult ies
Ġve nd
ĠEurope ans
Ġshort age
Ġge cko
ĠBe at
Ġpost c
Ġste ering
Ġcomb ining
Ġtele phones
Ġavail ability
iet h
Ġconcept ion
Ġer ase
Ġpoll s
Ġbra kes
St ar
Ġexcept ional
Ġsmart est
Ġfair ness
Ġtable t
ĠCan cer
Ġprim al
Ġrece ives
Al ready
Al right
put ers
Ġvirt ues
Ġdepend ed
Ġdro ple
Ġtransl ates
Ġpen icillin
Ġcollabor ator
Ġmis con
Ġfra ud
Ġcalcul ator
Ġemail ed
Ġpark ed
Ġvari ability
Ġ197 6
Ġmut ually
Ġban jo
Ġcentral ized
Ġinvent ing
cell ent
Ġliber ation
ĠMar ine
ĠMar garet
Ġhistor ian
ĠCom mission
Ġhom in
ĠCl ub
Ġcommercial s
Ġbreast s
Ġdesert ification
Ġparad ise
ĠWh it
verse ly
Ġmotor cycle
Ġcrash ed
Ġrot ating
Ġfinger print
Did n
Ġbelong ing
ĠGu inea
ĠEx x
Ġpolic ing
ĠCol orado
Ġneuros cientist
ĠPakistan i
Ġbee keepers
Ġextract ed
Ġclaim ed
Ġhypoth eses
Americ a
Ġrub ble
Ġestablish ment
ss entially
Ġreci pes
osh op
cred ible
Ġfert ility
Ġcritic ized
ĠColl ider
Ġfootprint s
Ġru in
Ġguide lines
Ġtransfer red
Ġinterf ere
Ġstro kes
Ġflood s
Ġsed iment
ĠJul ia
Ġther m
Ġtoler ate
Ġmeg a
ĠChristian ity
nov ation
Ġdump ed
ĠVietnam ese
Ġemphas is
Ġaer odynam
Ġextrem es
Ġveter ans
Ġintegr ating
Ġcliff s
Ġdisag re
ĠNet work
Ġinvolve ment
Ġpupp et
Qu ite
Ġjoint s
Ġdeliber ate
Ġsew age
viol ence
ĠFre edom
Ġmetric s
Ġbrows ing
Ġdistract ed
Ġpreval ent
Ġange l
ĠComm and
Ġmurd ered
ĠLes ters
Ġincorpor ate
ĠVictor ian
Ġpenet rate
Ge orge
ĠMur ray
Ġannounce ment
Ġstrain s
Ġartic ulate
Ġcareg ivers
Ġimmort ality
ĠConf erence
Ġadolescent s
Mich ael
Ġcaf eter
Ġperipher y
Ġscal able
Ġfont s
ĠIM F
ĠGuard ian
Ġware house
ĠHad ron
Ġesca ped
Ġjan itor
Es pecially
ĠPent agon
ĠStory Corps
amil iar
Ġlith ium
Ġdesal ination
Ġinexp ensive
ĠCost a
Ġbrow se
fashion ed
Fort y
Ġlivel ihood
Ġgoss ip
ĠFO X
ospher ic
Sever al
Ġunple asant
ĠRena issance
ĠRIS D
A ut
A id
B usiness
C oll
D G
E O
F ree
G reen
H as
J im
L a
M a
N inety
R D
S J
T O
T R
W r
W ar
W ork
_ _
a cious
b ell
c ils
f u
f ty
g ath
h all
h igh
h ole
h eart
k ill
m ies
m ail
n i
n ob
p ol
r ust
t w
Ã ¨
Ġt ire
Ġthe ft
Ġthe sis
Ġo xide
Ġs ank
nd ip
Ġc eram
it ra
Ġb ass
Ġm ites
Ġh i
Ġh ind
Ġh ood
Ġh ull
Ġh orn
Ġto mb
Ġp ier
Ġf ission
es see
or b
ed e
Ġl ent
Ġl ava
Ġl emon
ar ms
Ġg room
Ġg yrus
ĠI V
ĠI ll
ĠI van
et ra
et ah
Ġre ver
Ġha unt
st ood
ro id
Ġst ing
Ġst ain
Ġst ap
Ġst ole
Ġst agn
Ġfor um
Ġan om
op lan
Ġu h
Ġu mb
Ġcom a
Ġwor n
Ġhe ars
Ġat raz
Ġnot ation
ge l
il ia
ol ia
Ġex oplan
Ġpro ves
Ġr ipp
Ġr ows
art ic
pp ers
Ġma j
Ġv ents
Ġsp ear
Ġsp raw
ĠA venue
Ġtr illions
Ġpl ural
Ġpl otted
ci le
ĠS O
ĠS ure
ĠS ub
ĠS ix
ĠS ydney
em or
og s
og ene
ĠC ur
ĠC ir
Ġsu g
act ivity
ack ing
ĠM ald
ĠM ovember
Ġle v
ab s
res olution
ĠB ond
Ġag ile
ff ect
Ġmake up
Ġcl ap
Ġcl apping
ĠE le
Ġpart ially
Ġover weight
ia lect
Ġdis sem
Ġdis belief
ĠP ic
ĠP ope
Ġar tery
ĠT own
ĠN ich
ĠN ik
ĠN orman
ĠD M
Ġro de
Ġph thal
ĠL akota
ish es
ĠR oger
other mal
Ġdown stairs
pl aces
Ġpre con
ĠF ly
ĠF ull
ĠW ide
Ġfl ame
Ġfl ap
Ġfl ipped
Ġinc omes
ĠU V
ĠU nder
ile o
oc aly
ĠCh annel
Ġsc rap
Ġlast ly
Ġcar ve
Ġbit es
ĠK ab
Ġbo il
Ġsl ot
Ġdr ank
Ġmod ular
Ġcr ush
Ġla ure
Ġrec ur
Ġser oton
ĠSo lar
wh ich
Ġgener ator
Ġanim ated
Ġreg ain
Ġhead aches
Ġhead ache
ĠV oy
Ġpres cribe
ĠInd ex
Ġmonth ly
Ġcur ved
Ġpop ulated
Ġval ve
Ġref ers
Ġref erences
Ġwatch es
Ġsw ord
Ġpar agraph
Ġcond em
Ġaff irm
ĠTED ster
Ġresult ed
Ġsec re
Ġinn ate
Ġret rie
Ġfree way
rop ortion
Ġprov in
aw att
Ġ7 3
Ġmeas urable
Ġill iterate
Ġ5 9
Ġextra cellular
Ġred iscover
Ġhands ome
Ġident ification
Ġperform ers
Ġperform ances
Ġtrad ed
Ġsuper power
Ġsuper computer
Ġperfect ion
Ġsun ny
ĠAl an
Ġground s
sh ot
sh aring
Ġdisc ou
Ġmult im
Ġpredict s
Ġpost s
ĠSh ow
Ġste ak
Ġredu nd
Ġvol at
Ġvisual izing
Ġarr anged
ik ed
Ġunf inished
Ġvision ary
Ġneighbor ing
Ġclean er
ĠDe ep
ĠDe ath
Ġcapt uring
Ġtransl ating
Ġprogress ive
ĠCal tech
Ġwaste water
Ġbal ancing
Ġpack aged
Ġstar ving
Ġstar vation
ĠPr ot
Ġ198 5
Ġ198 6
ĠGe or
ĠLe ague
Ġdeterm ination
enn ium
Ġautom ated
Ġautom otive
Ġconcl uded
Ġsimpl ify
stit utes
Ġswitch ing
Ġtens ions
Ġoffic ially
Ġtun as
Ġspaces hip
Ġhus bands
Sh ort
ĠAd m
Ġcru ise
Ġhack ed
mark ets
Ġhell o
Ġdisp osal
Ġindic ators
Ġreve aling
ĠFl ickr
ok o
ĠEx actly
ĠGl ass
ĠJust ice
Ġrein force
ĠPal m
Ġconduct ing
Ġcolon ial
lom on
Ġcontinu ity
ener ation
Ġgang s
Ġchart s
Ġcontain ers
ĠCE RN
Ġoccup ation
ĠEl izabeth
Ġbill board
Ġsevere ly
Ġrig orous
Ġtrig gers
Ġdomin ance
Ġdecl ined
Ġadvent ures
ĠPort land
Ġnurs ing
Ġreject ion
Ġment ality
Ġexplos ions
Ġmemor able
Ġvibr ant
Ġpharm ac
Ġelim inating
Ġinstinct ively
Ġcosm ology
ban isha
Ġstretch ed
ĠLa ure
ĠEm ma
Ġdict ator
Ġexplo itation
Ġeradic ated
Ġdefend ing
Ġwip e
Ġschol ar
Ġid iot
Ġder ived
Ġintention al
Ġobl iv
Ġobl igation
Ġairport s
Ġathlet ic
Ġaer ial
Ġdegrad ation
Ġimmense ly
ĠInt ellig
Ġstab ilize
Ġdim in
ĠLED s
Ġpersist ent
Ġrestrict ions
ĠFre ud
Ġsubstant ially
Ġfung us
Ġpercept ual
Ġgenuine ly
ĠMag azine
Ġcommission ed
Ġtatt oos
Sp ace
Ġsidewalk s
Ġathe ist
Ġgif ted
Ġaug mented
Ġmand ate
Ġrabb its
Ġdece ased
Ġtin iest
Ġbless ing
Ġrecre ate
ĠMach ine
Res earch
Ġslic es
bag s
Ġjack et
Ġtransist or
Ġtransist ors
gener ated
Ġinhabit ants
Sm all
Inter viewer
Ġsweep ing
Ġcasual ties
Ġthylac ine
Ġmanus cript
Ġresident ial
Ġsupernov a
Ġcurt ain
Ġthorough ly
ĠAra bs
Ġsubmar ine
Ġdeter ior
Ġfreed oms
Ġquar ters
osaur us
Ġadequ ate
Ġfis cal
ĠDAR PA
Ġcertific ate
Ġunequ al
Sad ly
ĠCN N
Ġagn ostic
Ġbron ze
Ġepiphan y
ĠCub an
ĠFal con
ĠHeb rew
appropr iate
Ġmism atch
ĠCass ini
Ã£ o
ĠTenn essee
ĠExx on
Ġatraz ine
9 6
B L
B S
C ount
D is
E G
E d
E xt
E ducation
L ight
L ots
R G
R o
R eg
T ext
U h
W orking
Y R
a im
c atch
g ling
h ou
l ene
l ined
l ived
n els
o king
p se
s im
s ome
u ation
w w
w ire
z er
Ã ¶
Ġt ougher
Ġa is
Ġa uction
re qu
Ġo mn
at is
at ma
is ive
Ġb aker
Ġb umble
Ġm otto
en z
en za
Ġh ive
Ġh ives
Ġto dd
Ġp ies
Ġp ist
Ġp ension
Ġf t
Ġd ude
Ġl ining
ar se
ar os
om fort
Ġg ur
Ġg ently
ĠI rish
Ġe g
Ġbe ep
Ġbe ats
ut t
ut ter
Ġre use
im ore
st ra
ig ers
ig ious
ur ther
Ġst ink
Ġfor age
if teen
ra ged
Ġan ch
ir y
Ġdo ve
op ing
Ġk in
Ġk ings
Ġmo ons
Ġli king
Ġso ils
Ġsh ores
Ġsh attered
ant astic
Ġnot or
ter ior
ul ously
ul atory
Ġj eal
Ġpro ving
Ġr ust
Ġr ud
Ġor al
Ġde lete
art s
Ġcon form
Ġma ze
ist rib
un ned
ĠA th
ĠA ust
ĠA bsolutely
os cope
Ġup grade
ĠS ony
ĠS weeney
ĠS ARS
el and
Ġim itate
ĠC at
ĠC as
ĠC ross
ĠC apt
ĠC IA
Ġsu itable
ĠM ind
ĠM ong
ĠM BA
Ġle vers
ag ina
Ġper f
Ġper me
Ġqu ot
Ġqu oted
Ġexp osing
Ġfe athers
ĠB uilding
Ġdiff usion
Ġtw enty
ip e
Ġun m
Ġun ite
Ġun cover
ĠE nce
ĠG am
ĠG round
ĠG aza
Ġback ed
Ġback up
orm ally
ĠH oly
ount ain
ĠP ap
ĠP atr
ens ing
ass ic
ĠN ash
ĠN atural
ĠN athan
ĠD ead
ĠD uke
ĠD oug
Ġcont aining
Ġres h
ĠL ang
ĠL ank
ĠL OL
ick en
ak ery
ĠW il
ĠW ord
ĠW ired
Ġfl ames
Ġbr ute
Ġra ge
Ġgen ital
ac ci
ac ulture
Ġapp end
Ġapp rent
we ed
we ek
Ġrem ed
oc cup
Ġsc ram
Ġend uring
Ġend lessly
Ġcar ved
Ġgl oves
Ġunderstand able
Ġins ignific
ĠK han
Ġbelie ver
ros h
Ġmon ument
Ġmod ify
Ġstr ipped
Be aut
Ġcell ul
cept ions
wh ite
Ġsk ate
ĠV C
Ġdem ol
Ġconf ession
Ġprot ons
Ġphot ographing
Ġeffect iveness
Ġfore head
âĢ Ŀ
Ġsw ear
Ġworks hops
Ġincre mental
Ġ6 8
Ġview ers
Ġview point
Ġcra ving
Ġret rof
Ġ9 3
Ġcollect ions
aw i
Ġ7 8
Ġprogram m
Ġve nding
Ġprotect s
Ġmot ions
ĠBr idge
Ġextra ction
Some how
ĠâĢ ľ
Ġdep ict
ĠAr ts
Ġess ay
Ġsurv ives
oh en
Ġenc oded
Ġvers a
Ġdisc ourse
Ġdisc omfort
Ġmult it
Ġdest ined
Is rael
Ġprofess ions
Ġcrit ics
com p
Ġast ounding
Ġguess ing
Ġrul ed
ai res
Ġpoll inators
Ġprop ulsion
Ġmechan ically
Ġeye brow
ik i
Ġult rasound
Ġunf amiliar
Ġce ase
Ġprim ord
Ġmount ed
Ġdefin itions
Ġrain water
Ġcapital ist
Ġsyn esthesia
Ġep ic
Ġactiv ism
Ġsupposed ly
Yes terday
Ġmob ilize
Ġcris es
rad ition
Any thing
Ġdy e
Ġign oring
Ġprint s
rab ility
Ġswe pt
Ġcontrib ut
Ġdeterm ining
ches ter
ĠWestern ers
Ġstandard ized
Ġradio active
Ġdiagn ostics
ĠIran ians
Ġur gency
Ġcontact ed
isco very
Ġanaly tical
Ġcred ible
Ġhost s
Ġaccident ally
Ġrepe ating
irt ual
Ġdisp roportion
Ġiron ically
Ġweak er
Ġfrag mented
Ġreward ed
Ġstim ulated
ĠEd en
Ġcro ch
Ġnan ot
Ġmanip ulated
Ġsurf ing
Ġpray ers
ĠRep ort
ym ph
Ġconver gence
ĠTe chn
ĠTe chnology
ĠTe hran
Ġseason al
Ġembarrass ment
rat ulations
Ġcircuit ry
Ġcomment ary
dr iving
Ġhur ry
Ġhur ricane
Ġscar city
Ġinterf erence
Ġcollaps es
Ġbiod eg
Ġmim ics
Ġyield s
ĠLeg os
Ġconcert s
Ġrebuild ing
Ġdevast ated
part y
Ġwet lands
Ġjun ior
Ġtwe ets
Ġmonit ored
Ġhelicop ters
Ġcryst als
Ġpione er
Ġenterpr ises
Ġgee k
ĠTitan ic
Ġpale ont
Through out
Ġspons or
Ġintim id
Ġenerg etic
Ġsubsid ies
ĠNeander thal
RN G
ĠNic ole
ĠMill ennium
Ġaug ment
Ġembry onic
Ġprotocell s
Ġgre ed
Ġcontam inated
Ġcree py
ĠTurk ish
Ġporn ography
Ġchew ing
Ġdispar ate
Ġdrif ted
hear ted
Ġlingu istic
Ġinfer ior
Ġimmort al
ĠSomet hing
ĠSomet imes
olit ical
Ġenlight ened
ĠOl iver
Know ing
Ġdood ling
Ġguerr illas
chem ical
Ġimagin ative
Ġaccommod ate
Ġoy ster
otect ed
Ġintric ate
Ġsubsequ ently
ĠFried man
Ġol ive
Ġalar ming
Ġcum ulative
Ġsubmers ible
Ġempir ical
ĠColomb ia
fund ed
lad us
Ġadul thood
ĠLester land
Ġantidepress ants
Ġarter ies
Dar win
ĠScr atch
ĠBul g
ĠToy ota
ĠZip car
PTC HA
Ġunimagin able
Ġjur is
Ġcompat ible
ĠGord on
ĠNev ada
ĠAgn es
Ġunhe althy
ĠPhot oshop
ĠRus sell
Ġseroton in
ĠEnce ladus
1 7
4 5
7 5
8 5
A V
A bsolutely
B ad
C P
C ities
D I
D L
D ad
E ssentially
H uh
I de
J o
K S
L anguage
L earning
M ay
M il
M uch
S L
S er
S ounds
W ater
X L
a ism
b ly
b ound
c uss
d ed
d iving
e or
e id
f ifth
l it
l apse
m ath
m oud
o qu
o llow
o ots
p ost
r ir
t un
t ically
t ension
v o
w atch
w ash
w ashing
w right
Ġ =
Ġ iv
Ġt ires
Ġthe rape
at able
Ġc ured
Ġb otan
Ġm attered
Ġh id
Ġh oc
Ġh itch
Ġh over
on ies
on ics
on ica
on acci
Ġto aster
Ġp or
Ġp ly
Ġp oop
Ġp ads
Ġp ulses
Ġp avil
Ġf ost
Ġf itting
Ġf ences
Ġd une
Ġd urable
Ġd airy
Ġl as
Ġl ymph
Ġg ates
Ġg ears
as is
ic us
le gged
le gic
al o
al one
Ġwe ep
Ġbe ans
Ġbe nding
Ġre arr
Ġre ception
ent ions
Ġon set
Th ough
all eys
im it
ro cess
ig e
ur i
Ġst all
Ġst iff
Ġst arch
Ġfor agers
if eration
Ġan esth
ir rel
op es
th ey
am ents
am eless
Ġab ys
Ġcan s
Ġas ymmet
Ġmo ck
ad i
Ġsh ade
ge nder
il st
Ġall ev
Ġfr ing
Ġex cav
Ġex tends
Ġpro xy
Ġpro stitution
pp y
Ġ" ]
ist ance
ink ed
Ġte ap
un ter
un ky
ĠS in
ĠS ev
ĠS ri
ĠS erb
el ed
Ġim itation
Ġim balance
ĠC ode
iz zy
ack ed
Ġen roll
ĠM ell
ĠM ake
Ġta gging
ab e
ab ama
ag a
Ġev olves
ĠB all
ĠB alt
ĠB BC
Ġcl oned
ice ll
ip otent
Ġun ch
Ġun ravel
ĠG a
ĠG r
ĠG roup
Ġimp osed
ĠH as
ĠH ead
ĠH itler
ĠP y
ĠP ur
ĠP ear
ĠP oint
ib onacci
ĠT ay
ĠT ra
vel t
Ġunder cover
Ġdifferent ial
ĠR ule
ph em
pe er
ĠF a
ĠW ait
ĠW onder
Ġfl ush
ath etic
ys ical
Ġem ission
Ġbr icks
ĠJ ama
Ġra v
ĠO ld
ĠO nce
Ġtechn icians
Ġhuman e
ile y
Ġtra w
Ġsim ulator
Ġsc our
Ġsc rib
Ġob ey
Ġcour ty
Ġthought ful
Ġtrans act
ĠK im
Ġ3 9
Ġinter pre
Ġbo ils
Ġpower fully
erg io
Ġdr ied
Ġsol itary
Ġmod es
Ġmod ules
uc cess
Ġcommun al
Ġcommun ist
Ġter restrial
Ġstr ips
Ġlearn ers
ĠSt r
ĠSt irling
Ġmet ast
Ġser ial
Ġfin est
ĠAmeric as
Ġsupp ress
Ġcor related
Ġsub stitute
Ġsub conscious
Ġcompan ion
Ġfut ures
Ġgovern or
Ġconf use
Ġside ways
Ġsoci oe
man n
Ġaut obi
arth eid
Ġchar ism
Ġrest oration
Ġtest imony
ov ir
Ġpain s
Ġdev ote
Ġche er
Ġadv ancing
Ġresult ing
Ġpay off
Ġfil ed
Ġfil ming
Ġdra ft
Ġdra gging
Ġcra bs
Ġmess ed
end ers
Ġpos it
Ġz ip
Ġav iation
Ġprov ision
Ġprov ider
aw atts
Ġ8 4
Ġpred omin
ĠEuro pa
Ġoil ed
ĠBr other
Ġshort est
Ġtyp ed
ipp i
Ġperform er
ĠAl abama
Ġserv ant
Ġemb ark
bo at
Ġdisc rete
Ġdirect ed
Ġsum med
Ġstructure d
ĠSh ould
Ġexperiment ation
Ġfilm makers
Ġvill agers
chan ical
Ġcompet ent
Ġpath ogens
Ġpoll ination
oose velt
Ġprop osing
Ġarr iving
Ġneur ot
Ġcarbon ate
Ġgeneral ize
Ġdom inate
Ġbar gain
Ġcharacter ized
ĠAn other
the on
Ġeffic acy
Ġparticip atory
Ġvirt uous
Ġrepresent ations
Ġrepresent atives
Ġboy friend
Ġcapt ures
Ġann ouncing
Ġassum es
Ġcollabor ating
Ġpassion ately
ror ism
Ġdetect ing
Ġdam aging
Ġunivers ally
Ġwild erness
Ġpack ing
Ġcontrib utes
ĠPro gram
Ġstrugg les
enn ifer
Ġatmosphere s
Ġsus pected
Ġmamm ogram
Ġspeech es
ĠMars hall
Ġir reg
ĠSte in
Ġtax pay
Ġut op
Ġut il
Ġlack ing
Ġver bs
Ġtrib ute
iam i
Ġmort gage
Ġhost ility
mark s
Ġpuzz ling
Ġattempt ing
Ġtough est
inc ere
Ġgrandm others
Ġconstruct ive
Ġextend ing
Ġbull ets
Ġlifet imes
Ġabst raction
Ġcontinu um
Ġrecon cile
Ġreplic ated
Ġreview ed
ĠBar ack
ĠBar ry
Ġlength s
Ġdisplay ed
Ġmel ted
Ġassign ments
Ġcircumst ance
ĠCam eron
Ġmer ge
Ġque ens
Ġinstall ations
iat ry
Ġconver ting
Ġcere al
ĠGal ileo
Ġremo ving
Ġcoord inated
Ġdesper ation
Ġantibiot ic
Ġsuit case
Ġvert ically
ĠDep ression
Ġattend ed
Ġattend ance
Ġpoly mer
Ġencoun ters
Ġru pe
Ġdownload ed
Ġvag ue
Ġexcl usively
Ġsem inal
Ġpretend ing
Ġprem ature
Ġenh anced
Ġtraum atic
Ġfulf illed
ĠJack son
Ġhol istic
Ġquad ru
Ġder iv
Ġdump ing
ĠSam uel
Ġconce ive
Ġblank et
Ġfertil izers
Ġevalu ation
Ġrail road
Ġdigit ally
Ġdigit ize
Ġrent ed
ĠSyr ian
Ġclar ify
Ġpupp y
Ġsav anna
Ġflour ishing
Ġtear ing
Ġdefe ated
Ġduck s
Ġskelet ons
aby te
aze era
ĠArch itect
Ġalph a
ĠMah atma
Spe ech
Ġarrange ments
Ġinterrupt ed
RS W
Ġprol iferation
Ġbroadcast ing
Ġpedestr ians
Ġdys lex
ĠVan cou
Ġencry pted
ĠTy pe
ĠRos ling
Ġimmig rants
ĠSur vey
Ġinher it
Ġrabb i
Comp assion
Ġsne ak
ĠJud aism
Ne ither
ĠSus an
Ġrevel ation
Ġpla us
ĠHol ocaust
Ġmant is
Ġmant ra
Ġantenna e
Ġrac ism
Ġmater nal
Ġtelecom munications
Ġpiss ed
Ġpix els
Ġcataly st
ĠPot ter
Ġoccas ions
Ġastronaut s
Ġdivid ing
Ġdysfunction al
ĠRad io
Ġenthusi astic
Hope fully
ĠOd ys
ĠServ ice
ĠPhilipp ines
Ġphotosynth esis
Ġmillise conds
Ġrhet oric
Ġsere ndip
Ġexhilar ating
Ġperse ver
ĠOak land
ĠIsa ac
Ġacquis ition
ĠTah rir
Ġmicrow ave
Ġsuscept ible
gi ene
Ġunthink able
Ġrab bit
ĠMald ives
ĠVoy ager
Ġprimord ial
Ġtherape ut
ĠBalt imore
Ġsocioe conomic
Ġirreg ular
ĠVancou ver
. -
1 3
9 8
C L
C ol
E B
E arly
F O
F ast
F urther
J ames
K EA
N D
O M
P O
P oor
R ep
S ook
T ED
U se
a fter
b urn
c art
d s
f at
f ound
f ishing
g ically
g les
i ants
i uses
k o
l as
m ah
m ond
m aster
n ity
n acle
o ys
s aw
s quare
u els
x ic
Ġ #
Ġ ion
Ġt roll
Ġt ucked
Ġa ura
Ġw and
Ġw iz
re f
Ġs ar
Ġs co
Ġc el
is ure
it ters
Ġb ail
Ġh iring
Ġto ps
Ġp ave
Ġf ilt
an ing
an cial
Ġd ated
Ġd ual
Ġd ances
Ġd war
or able
Ġin effective
ed ing
Ġl atter
Ġl ousy
om er
ic ide
ĠI KEA
al an
Ġe tern
Ġit er
Ġre lying
im agine
st ru
ro st
ro ck
ur g
ur ated
ere s
Ġst oring
Ġst unning
op t
Ġab alone
Ġse ize
Ġk ite
Ġ-- "
Ġas yl
Ġme adow
Ġsh ook
Ġne ph
il er
il ot
Ġch unks
Ġr um
Ġr iot
Ġr hy
Ġde le
Ġpe pper
Ġcon e
Ġcon ve
Ġte ens
Ġsp ines
ide l
ĠA B
ĠA mb
ie u
os oph
ci a
ĠS ay
ĠS add
ĠS ergio
our i
Ġcomp ose
ĠM itch
ĠM ax
Ġle isure
ag le
ag ne
ag asc
Ġdon ate
Ġco aches
ĠB uff
ĠB ali
Ġdiff use
Ġcl ash
Ġtw isted
Ġun b
Ġun e
Ġun ion
ĠG rey
Ġstart ling
Ġimp ulses
ry pt
ĠP oll
ĠP RI
Ġar th
Ġkind ly
ĠT er
ĠN ation
ĠN ancy
ang led
ang iogen
ĠD D
ĠD I
Ġlo ver
Ġac ron
Ġdes irable
Ġunder lies
co ll
Ġsy ll
Ġad h
ĠR h
ĠR ou
ĠR ab
ĠR oosevelt
Ġbl ues
Ġbl obs
Ġdown s
Ġpre st
Ġpre hist
Ġpre occup
ĠF ortune
ĠF ibonacci
ĠW ild
Ġfl aws
Ġinc idents
ĠJ F
ĠJ azeera
Ġtechn ologists
Ġtechn ician
ĠU r
Ġgen omics
ac les
Ġgu ests
Ġsc ra
Ġend ow
Ġbas ics
Ġrel ational
ĠAnd y
Ġgl owing
Ġcons ol
ĠK in
ĠK at
ĠK ent
ĠK ind
Ġgra pp
Ġcoll ide
Ġbo ot
Ġbo oms
Ġsl ing
Ġsl ate
Ġsl ipp
Ġdr ip
Ġmon sters
Ġmon opoly
Ġ19 20
Ġ19 18
Ġcr own
Ġdat as
iss ors
iss ippi
Ġcent ered
Ġread ily
ah ren
Ġposs ess
Ġbi ography
wh y
Ġrep orters
Ġfo nd
ract able
Ġopen ly
Ġproject ing
Ġhand ling
atter s
Ġcou pled
Ġreg ulating
ĠV ien
ĠV enter
pr otected
Ġpres erving
Ġgovern ed
Ġdist ill
Ġdist raction
Ġmodel ed
lf red
Ġdef ec
Ġchar ging
Ġref ram
Ġprof iles
Ġrest ing
arr iage
Ġfore ns
ins p
Ġboth ered
Ġass ured
Ġsw arm
Ġheart beat
Ġwa ving
Ġche ated
Ġfront iers
Ġconst ell
Ġquick er
ron ic
Ġdeal er
Ġmess ing
Ġfund ers
Ġland fill
Ġz oning
Ġz eros
icult ural
urs day
Ġ7 4
Ġsens ations
Ġmiss ile
Ġant id
Ġrecord ings
Ġdel usion
Ġfish es
Ġsqu irrel
Ġsuper massive
ran n
ĠAl i
Ġdark er
Ġspecial ize
Ġconv iction
com ed
Ġinsp ir
Ġexperiment er
ey e
Ġmain frame
Ġstra pped
Ġsimilar ity
Ġball ot
Ġthank fully
Ġguess ed
head ed
Ġsn iff
ĠSouth east
Ġreact ed
Ġfire fight
ik h
light enment
Can cer
Ġbar bar
Ġtend ed
Ġspeed ing
Ġpa j
Al ong
Ġsepar ating
Ġprogress ively
Ġclin ically
Ġpush es
Ġpublish ers
Ġ17 0
Ġfram ed
Ġkil ogram
Ġcook ies
Ġfasc ination
Ġrespect ful
Ġsal ad
bol ic
Ġlaugh s
ĠLe ft
Ġexplore r
Ġtap est
ĠOr ch
ĠHar lem
Ġsimpl ified
Ġinstr umental
Ġfit ness
Ġbroad band
Ġexpress ive
Ġmotiv ates
uct ive
Ġ197 4
Ġsurround s
Ġcommer ce
Ġdad dy
Ġliber ating
rench ed
ĠMar ia
ĠMar io
Ġdispl ace
Ġdemand ed
Ġreb el
Ġreb ell
edd y
Ġbrill iance
Ġbomb ing
Ġbomb ed
Ġamb assador
Ġforg iveness
Ġconcent rations
ĠMc L
Ġshel ters
hold er
Ġfle et
Ġrot ten
Ġtit led
Ġreward ing
Ġpun cture
Ġartific ially
cil iation
Ġselect ively
Go ing
ĠDan ish
ha ired
Ġinfin ity
ĠGra ce
ĠGra ham
Ġflat ten
Ġdial s
Ġnan os
Ġrecon struction
Ġmanip ulating
Ġrecy cl
Ġreven ge
Ġextract ing
cont in
Ġsan itary
Does n
Ġregard ed
Ġrefer ring
Ġcast le
Ġreci pro
Ġwel comed
Ġintense ly
Ġdiag rams
Ġpill ar
Ġpump ing
Ġdeploy ment
Ġwhist les
fin ition
hol m
Ġsen iors
Ġvibr ate
Ġimpl ants
Ġdiplom atic
Ġaston ished
wr iter
Ġaccum ulation
Ġaim ed
Ġborrow ed
Ġlob es
ixt y
Ġna ught
Ġlock ing
Ġdiver gence
Ġintuitive ly
rit ic
Ġdistrict s
Ġanthrop ologist
Ġadap ting
Ġ195 7
Ġcaps ule
Ġsle e
Ġexped itions
Ġvolcan oes
Ġmillenn ium
fe ld
Ġlit igation
conf idence
Ġpubl isher
Ġcham bers
ĠArch imed
Ġtunnel ing
Ġnutrition al
Ġmembr anes
Ġtooth brush
ĠMiss ouri
Ġlap aros
Ġshore line
Ġlean ing
ĠJo el
Ġspons ored
Ġtroub ling
ĠiPod s
Pro fessor
Ġexcess ive
Ġannoy ed
ĠComm ons
Ġdivor ced
Ġven om
Ġathe ists
ĠMill er
Bl ue
Ġembry o
Ġlever aging
Ġbureauc racy
ĠMod ern
Ġbiof uels
ĠRom o
ĠFore st
Ġillum ination
Ġadvers ity
Ġturt le
Ġturt les
orr h
ĠID EO
ĠDub ai
ĠMid west
Ġresur rect
Ġanecd ote
Ġdens er
Ġpresum ably
ĠNaz i
Ġunderm ine
Mus ic
ĠMath em
Ġpsychiatr ist
Ġphysi ological
ĠBrun o
Ġrepet itive
Ġpessim istic
El izabeth
rovir al
Bel ieve
design ed
Ġinqu iry
ĠCreat ive
ĠEconom ist
Ġwithd raw
Ġincub ator
Ġlegitim acy
Ġperpetr ators
Ġtread mill
educ ated
Ġrept iles
Ġmoist ure
Ġreluct ant
ĠBah amas
ĠHop kins
Ġamph ib
Ġbookst ore
Ġnickn ame
ĠAchill es
Ġprejud ice
Ġappar atus
Ġstrat osphere
ĠStock holm
Ġmiracul ous
Ġcompr ised
Ġscand al
Ġaerodynam ic
ĠFOX O
Ġrever ber
ĠCapt ain
Ġply wood
Ġlas ers
ĠTay lor
agasc ar
angiogen ic
Ġacron ym
- ,
- -
A llow
B ring
B etween
C o
C ause
E m
H appy
H elp
M ic
M et
M ove
M RI
N ine
N ormally
O C
P L
P ower
R ad
R ock
S ir
S am
S ex
S how
b us
b ule
c ow
c ir
c orn
d et
d ep
d oc
d ream
e enth
g reg
l ance
l ove
l ishing
o ids
s ix
s olving
s ensitive
t own
u ces
w oman
Ġt icking
Ġa ver
Ġa wards
in cent
re m
re ach
Ġs incere
Ġc ough
Ġh es
Ġh ence
on te
Ġto fu
Ġp est
Ġp ine
Ġp ots
Ġf ills
an y
an imate
an cies
Ġd um
Ġd ice
Ġd ialect
Ġof tent
or is
Ġin ability
ed ical
Ġl uc
ar ak
om atic
Ġg a
Ġg oose
Ġg aming
ic ion
ic orn
le um
le ments
Ġwe ars
Ġe u
ut ure
Ġit eration
et ine
et ry
Ġha ul
Th ousands
id ays
im ps
st icks
ro y
ro ads
ig inal
Ġst ance
Ġst unned
Ġfor wards
if iable
ra it
Ġdo o
th is
am ation
Ġli p
Ġso cks
Ġso cket
ill iant
Ġsh iny
ol f
ol ese
Ġj ets
Ġfr anch
Ġr ally
Ġde em
Ġde ment
Ġpe ll
um ann
art ed
ure au
Ġma gg
Ġal be
Ġus able
Ġint ol
and an
Ġsp ores
ĠA R
ĠA z
ĠA ward
Ġtr ump
Ġup grad
ĠS av
ĠS ave
ĠS erge
ĠS uf
Ġact ed
iv ores
Ġsa bb
ĠC orn
ĠC orpor
ĠC ultural
ĠC ohen
Ġcomp uls
Ġsu ed
Ġsu ey
ard on
Ġen for
ĠM A
ĠM R
ĠM S
ĠM es
ĠM ob
ĠM ub
ĠM ola
ĠM iami
ans hip
ag ging
Ġper t
Ġman ure
Ġco con
itt y
Ġwhere by
Ġag on
Ġcl og
ip lom
Ġun lim
ĠE nd
ĠE ffect
ĠG ab
Ġpr ince
Ġbu nd
Ġimp air
Ġimp osing
Ġpo nds
Ġdis integ
ĠH u
ĠH ipp
ĠP R
ĠP age
ĠP ublic
ib lical
ens ible
ĠN I
ĠD H
ĠD ou
ĠD iet
ĠD omin
ĠD iana
sel s
Ġph ases
ĠL and
Ġam yg
ĠR ow
ĠR un
ĠR ich
ĠR ivers
ĠR ush
ĠR ift
ĠR ec
ĠR ica
Ġbl unt
Ġbl aming
Ġbl adder
int end
Ġdown stream
ire t
ob ia
ak a
ak h
ak i
ĠW HO
Ġfl ashing
Ġem an
Ġem itted
Ġbr ig
Ġbr ink
ĠJ oh
Ġra m
ĠO ther
ĠU ru
ne e
ac co
Ġsystem ic
He alth
Ġgu est
Ġgu iding
Ġsim ulations
Ġind efin
ĠCh ief
Ġsc ars
Ġsc issors
ew s
Ġcreat ively
Ġcar n
Ġgl oom
he it
Ġexam ining
Ġcoll eg
Ġplan ners
Ġdr ums
Ġmon ks
Ġmon itors
Ġstr ive
Ġpat ron
Ġ10 1
Ġatt or
Ġmet ropolitan
Ġmed al
ĠIn formation
Ġel usive
ĠSo bule
Ġsk ins
Ġanim ate
Ġsupp lement
Ġsub set
ps on
Ġvis its
Ġinf amous
Ġspec imens
gg y
Ġwalk able
Ġpres idents
Ġelect oral
Ġbad ge
idd ing
man uel
Ġphot ons
Ġref ine
Ġrest ored
arr ot
Ġfore most
ED I
Ġnothing ness
Ġass ass
Ġass ert
Ġpar an
Ġkill ers
Ġwa ist
de finition
Ġclass ified
Ġclass mates
Ġaff lu
Ġtre asure
Ġpast ed
Ġland m
omet ric
Ġz o
Ġmic rop
Ġarch ives
Ġve t
Ġve ins
Ġve ctor
Ġsens ual
Ġant iret
Ġhy giene
Do ctors
Ġjour neys
Ġjo king
year s
Ġsuper star
ĠAl b
ĠAl t
oh a
Ġviol ation
sh elf
Ġconv entions
Ġcal ibr
Ġcool ed
Ġenc ode
room s
Ġdisc ount
oll en
Ġopt ics
Ġfac ade
Ġserious ness
ĠTh ursday
Ġpath ology
Ġsustain ing
Ġlif ting
Ġtype face
Ġsuff ers
Ġsn ail
Ġprop os
ĠZ e
St ories
Ġsearch ed
Ġsmart phones
Ġaw ak
Ġrain y
Ġrevolution ize
Who a
Ġlog istics
Ġfundamental ism
Ġparticip ated
Ġcomplic ations
Ġsky ro
Ġinflu ential
Ġfram ing
Ġbur nt
ĠJohn s
Ġpolicy makers
Ġswe ating
Ġ198 2
Ġweb cam
Ġcatch es
Ġeth n
Ġsam pled
Ġsam pling
Ġthr iving
Ġtap ed
Ġautom ation
Ġatm ospheric
Ġmultip lic
Ġforget ting
Ġdemonstr ations
Ġdemonstr ating
Ġmut ant
ĠQ atar
ĠCong olese
Ġblog gers
Ġcontroll er
Ġliber ated
Ġcampaign ing
Ġhistor ians
Ġpleas ures
do or
Ġcheap ly
Ġmort al
Ġproud ly
Ġdisp ute
Ġgrass es
Ġadapt able
Ġmaint ained
Ġsucceed ing
ĠAb out
Ġrot ates
Ġpaint brush
Ġcognitive ly
Ġvolunte ered
vention al
Ġsouth west
Ġbull do
Ġacadem ia
Ġcommit ments
Ġanti angiogenic
Ġveget arian
Ġwarm th
Ġtransformation al
bl owing
Ġreplic ator
Ġwond rous
organ ic
organ ization
organ isms
Ġqual itative
min ous
ĠCo ch
Ġped al
Ġcord s
Ġasp ire
ĠGal ois
Ġpitch es
Ġextinct ions
Ġconfront ation
Ġcritic ize
Ġelectro de
Ġpill ars
Ġmad ness
Ġmemor ize
Ġnavig ation
Ġattend ing
ĠPer fect
ĠThanks giving
Ġflood ed
ĠUS DA
Ġcollaps ing
oca cy
Ġsem ester
Ġneut r
wr ite
Ġtoler ant
Ġsandwich es
Ġorchest ras
Ġchamp agne
Ġborrow ing
ĠMad agascar
Cl ose
ĠJes se
anz i
Ġwid ow
Ġwid th
Ġanthrop ology
Ġanthrop ologists
Ġperpet ual
Ġdisturb ed
Ġveter an
che ck
Ġrail way
Ġstrip es
Get ting
Ġfool ed
ĠQue ens
Ġpione ers
ĠWal ter
ĠWal mart
Ġgrat ification
ĠMor oc
Ġaccomplish ment
Ġpersist ence
ĠMiss issippi
ĠOs car
Ġouts k
Ġenerg ies
ĠBu y
perform ance
Ġtut oring
Ġgam ma
ĠVer onica
Ġski ing
Ġdrought s
Ġimmun ity
Ġaward ed
Ġambig uous
Ġtact ics
Ġconqu er
Ġcockro aches
Ġunfold ing
Ġcarp enter
Ġdrif ting
Ġsole ly
Ġingen ious
Ġfacil itate
Ġdu plic
Mar cus
Ġkidn apped
Ġdispers ed
gr own
Ġcaus al
Ġprotocol s
Ġguerr illa
ĠBarb ie
ĠBarb ara
Ġloyal ty
Ġoccas ional
Ġobsc ure
Ġheter osexual
Ġpean uts
Ġlex icon
Ġintersect ions
Govern ments
Ġgad gets
ĠBert ie
Ġreserv oir
Ġbore al
ĠGall ery
Ġsuperher o
Ġpetro leum
Ġdeci pher
ĠNav y
Ġincon ven
Ġrecip ient
ĠArm strong
Ġsupercond uctor
Ġcrocod ile
ĠTit us
Ġargu ably
Ġsnaps hot
Ġepile psy
Ġwets uit
ĠLabor atory
ĠOp rah
Ġvib ration
Ġintermedi ate
Ġunnecess ary
Ġcoch lear
Ġpostc ards
Ġcafeter ia
Ġsug ars
Ġsecre cy
Short ly
Ġobliv ious
ĠMong olia
Ġcroch et
Ġjuris d
ĠMell on
Ġdwar f
Ġasyl um
ĠDI Y
ĠRou ge
ahren heit
ĠArchimed es
Ġoftent imes
Ġalbe it
ĠMub arak
Ġunlim ited
Ġamyg d
" .
" :
2 4
3 3
8 4
9 2
B re
B uild
B etter
C T
D own
D ifferent
E th
F ind
G ot
H G
H ad
H IN
L ong
L ocal
N at
N on
P H
Q aeda
S ev
S uper
U V
a vers
a que
b illion
b ury
c ount
c ats
d i
d iv
d ire
d rop
f irst
f rom
f eller
g ress
h ir
h el
k il
l ay
l av
n als
n ational
o zo
p op
p est
p ool
p ically
r ude
r ified
t enth
u y
u ble
u ated
v ably
v ented
v ana
w orm
Ġt an
Ġt ile
Ġt ub
Ġt roph
Ġt igers
Ġa pt
Ġa ph
in ology
Ġw ield
Ġthe or
re plic
Ġo x
Ġs ush
Ġs ane
Ġs orrow
ou x
Ġc ush
is p
is ual
it ious
it ories
Ġb um
Ġb un
Ġb ark
Ġb atch
Ġb ouncing
Ġm our
Ġm uff
Ġm asks
Ġh ike
Ġp its
Ġp uls
Ġf et
Ġf idd
Ġf ifty
es ive
es ian
Ġd ull
Ġd anced
Ġin cap
Ġin appropriate
Ġin organic
Ġl amb
Ġl iters
ar as
ar rett
om pass
Ġg um
Ġg ast
ic ides
Ġwh ilst
Ġbe ard
ut u
Ġre cap
se us
im i
im en
im port
st on
ig nt
ig ms
ur as
Ġst ark
Ġst ub
Ġst itch
ke e
Ġfor ger
Ġfor ged
ir vana
oo ses
th s
am er
Ġgo dd
So ld
Ġcom et
ant or
ant um
Ġall iance
Ġj og
Ġfr idge
Ġpro pr
Ġpro cl
Ġch in
Ġch lor
Ġr ude
Ġr uth
ca ps
Ġma ize
est ing
est ial
Ġkn ives
ist ence
Ġout d
Ġout we
Ġint ractable
ook s
un al
Ġv ic
Ġv oc
Ġv ascular
Ġsp it
Ġsp otted
Ġsp ikes
ĠA K
ĠA ud
ĠA BC
ĠA lfred
Ġthink er
Ġup lif
Ġpl ur
ci ences
ĠS A
ĠS Ã£o
el ines
Ġyear ning
ĠC P
ĠC a
ĠC ore
ĠC ars
ĠC ura
od ka
Ġcomp ress
Ġcomp artment
ĠM t
ĠM u
ĠM aps
ĠM oh
ĠM organ
ĠM ermaid
Ġle ague
Ġper il
Ġqu arks
Ġfe cal
Ġev ange
Ġco er
Ġco co
Ġco ins
ĠB P
ĠB ret
Ġno stal
Ġtw ists
ĠE C
ĠE mb
ĠE van
ĠG ay
ĠG ram
Ġpr one
Ġover load
Ġover fishing
ĠH ome
ĠH amps
olog ues
Ġar sen
ib o
ĠT reat
ĠN ollywood
ĠD em
ĠD od
ĠD ata
ĠD igital
ĠD oha
Ġcont ing
ber y
Ġbet ting
Ġdes ks
In side
In vest
ru gs
ĠL o
Ġhum idity
Ġam p
ish ment
ĠR ain
ĠR ag
ĠR ee
ĠR oll
ĠR ocke
Ġide ally
Ġher b
Ġcomm ute
Ġpre ca
ĠF ahrenheit
Ġfl ipping
Ġem body
Ġsm ash
ĠJ ason
ĠJ ava
Ġra ft
Ġra ging
ĠO PEC
ne c
Ġgen iuses
Ġtra gically
Ġdec ode
Ġdec oration
Ġbuild er
Ġgu ides
Ġapp alling
ĠCh air
Thank fully
Ġbas es
Ġrel ent
Ġrel ies
Ġmight y
ĠK a
ĠK ar
ĠK al
ĠK id
ĠK az
ĠK arl
Ġgra pe
Ġplan ner
Ġcomple ment
Ġcr ipp
Ġimag inations
ĠSt op
Ġser vers
Ġfin s
ĠY ah
Ġed ible
Ġel astic
Ġexpl oding
Ġless er
Ġgener ators
Ġrep os
Ġfo am
Ġproject or
Ġhand ic
Ġspec ulation
Ġreg ulated
ident ally
ĠUn iverse
Ġacc ord
ivers al
sw ana
Ġhead phones
ĠV el
ĠV irtual
Ġpres criptions
Ġset up
Ġroom mate
Ġmoment ous
Ġpass ively
me er
ime e
ilt on
Ġdet erg
For She
ograph ically
Ġexc ites
Ġtreat ies
Ġsw am
Ġsw arms
Ġpar abol
Ġadv ocacy
Ġclass ification
uck er
Ġincre ment
Ġ6 1
Ġ6 6
Ġdi ary
Ġtool box
Ġ9 4
Ġav ian
Ġones elf
Ġ7 7
Ġ8 3
Ġarch ety
cul us
Ġteam ed
Ġinteract s
Ġmiss es
Ġextra pol
Ġsent ient
Ġjour nals
Ġchem ists
Ġjo ins
Ġpract ition
Ġsuper markets
Ġsun shine
port s
Ġ18 7
Ġpersonal ization
Ġbuy er
Ġviol ate
Ġviol ated
sh ell
Ġge ographical
Ġrequ iring
Ġenc ompass
ĠBe fore
Ġphotograph ic
Ġap ocaly
Ġap artheid
Ġevolution arily
Ġpur se
Ġcomb ust
Ġopt ic
Ġvol ts
Ġast rol
Ġworth less
Ġprom oted
Ġprom inent
Ġsho ots
Ġvisual s
Ġsn ails
Ġarr ival
Ġ199 2
Ġbar c
ĠAn as
Ġep it
Ġconsider ably
Ġsequ el
Ġpen ny
Ġbom bers
Ġdeb ates
Ġtemper ate
Ġbal d
Ġpack s
Ġbur gl
Ġquant ify
ĠPr ince
Ġswe ats
Ġroll er
Ġ198 3
Ġ198 7
Ġ198 8
Ġaddress es
bol a
Ġtap es
Ġfuel ed
Ġmultip lied
Ġgradu ation
Ġyell ing
Ġinteg ral
Ġmotiv ations
Ġmotiv ating
Like wise
ĠSch war
Ġmal ignant
Ġconc uss
Ġliber ate
Ġshock s
Ġcustom ization
Ġut ilize
Ġalgorith mic
Ġcru x
Ġtarget ing
Ġstrength en
ĠIsrael is
Ġcheap est
ĠRo ots
Ġharm less
Ġbright est
ĠWh ole
ett es
Ġpuzz led
Ġble nded
Ġmill imeters
ĠMc K
Ġconstruct ing
Ġexhib itions
Ġmig rated
Ġfrag ment
Ġfresh water
Ġden omin
Ġmetaphor ical
Ġpun ished
Ġincent iv
Ġfellow s
Ġintu itions
Ġpolic emen
ĠMin nes
ĠEn lightenment
bl ood
Ġsubst ances
Ġrecon ciliation
Ġkick s
Ġbee h
Ġmyst ical
Ġhang s
Ġsight s
Ġexec ute
Ġoccup ying
Ġspo kes
Ġcompar isons
Ġque ue
Ġ196 5
Ġ196 7
Ġconver ge
ĠGen ome
ĠTr ust
Ġfeature d
Ġharvest ed
spe cies
Ġvent ilation
Ġdedic ate
xim ity
Ġbiom imicry
Ġbiom edical
Ġridic ule
Ġoverwhel mingly
Ġcock pit
Ġspiritual ity
ih ar
Ġelev ation
Ġinstruct or
Ġdecre ased
Ġanticip ation
Ġearthqu akes
Ġdiplom at
Ġproport ional
ĠAc umen
Ġaccum ulated
Ġaccum ulating
keep er
DH D
ĠHom er
Ġpurch ases
Ġpurch asing
Ġscratch ing
Ġpref erence
Ġnit ric
Ġunbelie vably
Ġinfl ate
Ġsuspect s
Ġattrib uted
Sim ple
ĠSome body
oust on
ĠHy per
Ġextrem ism
Ġdegrad ing
Ġspr int
Ġspark ed
Ġsettle ments
Ġprosper ous
Ġrecover ing
Ġbathroom s
ĠMary land
ĠGand o
Ġregener ative
Ġreson ate
Ġcas ually
Ġpione ered
ĠBon o
ĠPan banisha
Ġaqu aculture
engine ered
LA M
Ġstake holders
Ġpharmaceutical s
ĠAh med
Ġtooth p
Ġupd ated
gu ay
ĠIm agine
ĠCD s
Ġaltru istic
Ġnerd y
ĠVer meer
Ġreconstruct ed
Ġbind s
Ġalign ed
Ġalign ment
ĠAny way
ĠCamp aign
Ġsynchron y
ĠBo ard
ĠHi rosh
ĠNewton ian
Ġampl ify
Ġimmig rant
ĠPalestin ians
Ġcomplain ts
Ġrib bon
pat ible
Ġech oes
Ġproph et
tr ans
Ġthread s
Ġbutter flies
Ġoutdo ors
ĠJon as
Ġlawn s
Ġimmers ed
Ġslic ed
lean or
Ġnu anced
Ġrevel ations
Ġsovere ignt
tra ck
Ġlifel ike
Ġfacil it
Ġvivid ly
Ġdiscl ose
Ġfuck ing
Ġdepr ivation
ĠMas low
ĠStud io
Ġdread ful
Ġcounsel ing
Ġfulfill ment
ĠFed eral
Ġsurre nder
Ġnarc iss
Ġyog a
ĠMos cow
ĠBi osphere
Ġeru pt
Ġscaffold ing
Ġcram med
Ġpean ut
Ġsty les
Ġfemin ine
Ġmisunder stood
Ġextr ater
Ġindirect ly
Ġgym n
Ġshuff le
Ġplum met
ĠGovern ment
Ev olution
Ġunderw ear
Ġhumming bird
Ġtect onic
Ġlos er
olith ic
ĠFree Speech
Ġappet ite
Ġtransf ers
Ġsanct uary
ĠCopern icus
Ġprag matic
Ġveterin arians
Ġmedi oc
ĠArk ansas
Ġcounterpart s
Mo ving
last ing
Ġgira ffe
ĠHur ricane
ĠUk raine
Ġrelie ved
Ġtrustworth y
Ġunexpl ored
ĠAur ora
ĠBeat les
Ġumb re
Ġphthal ates
ĠKab ul
Ġmultim edia
ĠLang ley
ĠBulg aria
Ġteap ot
Ġrupe es
ĠKent ucky
ĠVien na
Ġantid ote
Ġdement ia
Ġmagg ots
ĠCorpor ation
ĠRivers ide
ĠUru guay
Ġskyro cket
ĠHamps hire
ĠRocke feller
ĠSchwar z
ĠMinnes ota
ĠHirosh ima
6 5
7 00
A w
B ar
B ab
B ob
C ra
C ity
D ata
E at
F L
F em
F ish
F antastic
H y
H oney
J L
M in
M ath
N atural
O D
O V
P ublic
Q ue
R ab
S l
S al
T radition
V olunt
Z K
b ine
b ish
b acco
c at
c en
c ert
c iful
e ight
e ous
f a
f athers
g ill
g led
n ell
n ote
s ur
s he
s ky
t ics
t ouch
u ish
u ador
v ens
w ed
w estern
y ll
Ġt il
Ġt ides
Ġth igh
in n
in os
Ġw ob
re view
Ġo sc
Ġo minous
at an
at ization
ou az
Ġc ures
Ġb akery
Ġm op
Ġh ott
on ly
Ġto ken
Ġto bacco
Ġp se
Ġp ork
Ġf uss
Ġf ocal
Ġf MRI
Ġd ere
Ġd eng
or ity
Ġin ward
ed nes
Ġl atr
ar ith
om orph
Ġg oof
Ġg iants
le c
Ġwe ave
Ġn ugg
Ġwh oles
Ġe cl
us se
Ġbe aring
Ġbe ams
ot te
Ġre ign
ent ine
ct ed
Ġon ion
id ian
ur an
Ġst alk
ch i
if le
ra wn
Ġan k
th ere
th est
Ġwith stand
Ġab d
Ġk its
Ġas ph
ad vert
Ġsh a
ant e
Ġpro geria
Ġch urn
Ġr Ã©
Ġr anges
Ġde cept
Ġpe l
ear d
um ara
Ġma id
est ra
ind a
qu ot
Ġout let
Ġte eny
Ġv on
Ġv ow
Ġv est
Ġv oid
Ġv alleys
Ġsp lend
Ġsee ks
ĠA x
ĠA TM
ĠA DHD
ort ed
Ġtr ance
Ġtr unks
Ġwho lly
ĠS ue
ĠS af
ĠS aint
em ing
Ġsa uc
our s
ĠC T
ĠC ase
ĠC arr
ast rous
Ġcomp ost
Ġcomp elled
Ġsu ite
Ġsu pre
ack er
ĠM ut
ĠM alt
ĠM olas
Ġle nd
ab ric
Ġexp enses
Ġfe ather
Ġco bra
ĠB il
ĠB est
ĠB ack
ĠB rain
Now adays
Ġun con
Ġun cles
Ġun cont
ĠE is
ĠE ames
ĠE EG
ĠG ill
ĠG il
ĠG ame
ĠG ap
ĠG ert
ĠG eneration
irst y
ry ing
Ġdis sect
Ġdis astrous
ĠH ouston
ĠP ut
ĠT reating
ĠN Y
ĠN ight
ĠD un
ĠD ire
ĠD iver
Ġro pes
Ġunder sea
ell ar
Ġad ren
Ġday dream
ĠL at
ĠL ock
ĠL yn
ict ure
ĠR od
Ġbl amed
int rodu
ank s
Ġpre ach
Ġpre lim
Ġoff ense
ĠF I
ĠF air
ĠW ales
ath e
Ġinc idence
Ġem it
xt ap
Ġgreat ness
Ġgen omic
Ġsur rog
Ġsur pass
Ġdec on
Ġsim ulating
Ġinv olunt
Ġind ifferent
Ġlong ing
oc ene
ĠCh oir
Ġcar bs
Ġcar go
Ġtrans action
ise ase
ĠK ick
Ġgra ves
Ġgra vel
Ġgra pes
Ġcoll isions
Ġinter cept
Ġsl ipped
Ġent ries
Ġpower less
Ġcommun ism
Ġcr ay
Be hind
Ġrec urs
ĠSt at
Ġop aque
Ġcent igrade
Ġbeh aves
ah a
ah umara
Ġed ition
ĠSo l
Ġinf ants
Ġmind fulness
Ġform ats
Ġeng ulf
Ġfun n
ĠV ent
Ġcle ans
Ġstuff ed
Ġcur se
Ġprot esters
ott om
Ġdet rim
Ġchar ming
irl wind
Ġloc ate
Ġsuc c
Ġunt o
Ġsw ine
Ġcost ing
Ġadv ised
Ġpay ments
Ġtre k
Ġ6 7
Ġcra ppy
Ġsca res
Ġcollect s
Ġcollect or
ret ches
Ġmass age
Ġ8 9
Ġaud ition
Ġlisten er
ĠBr ig
Ġhy ena
Do ctor
Ġred istrib
Ġnetwork ed
ĠEng ine
Ġda f
Ġda unting
Ġlow ered
ĠAr chie
Ġpsych e
Ġpsych ologically
Ġpsych iatry
Ġcommunic ates
Ġsuper p
ĠAl h
Ġ18 50
Ġemb od
Ġmult icultural
Ġsum mon
Ġpredict ive
unt u
Ġorig inated
Ġfear less
Ġpost ing
Ġmicro phones
ĠSh ah
ĠSh oots
Ġcy n
ĠSe ven
Ġrock ing
Ch arl
Ch rist
Ġprin cess
Ġprin ters
Ġball et
Ġball ast
Ġcompet ence
Ġcompet itions
Ġrul er
Ġrul ing
Ġlif ts
Ġstat ues
Ġprop elled
Ġarr ives
ĠZ ambia
apt op
Ġclos es
Ġemp ires
Ġsat urated
Ġdom ains
Ġsyn onymous
oun ces
oun cer
Ġlog arith
Ġcontext ual
Ġactiv ation
Ġadm ission
Ġpositive ly
Ġclean ers
Ġconflict ing
Ġbom ber
Ġ201 4
Ġblind ed
Ġblind ly
Ġblind fold
Ġbal ances
Ġbank rupt
Ġmist aken
Ġpack ets
Ġkil ow
Ġfinan ced
Ġcold er
Ġslight est
Ġcalcul ators
Ġsal am
Ġemploy ers
ĠCar ter
Ġenvironmental ists
Ġsecret ary
ĠSp ider
Ġplastic ity
Ġjud ged
ĠHar bor
Ġassoci ations
Ġ197 9
Ġmicrob log
Ġpig mented
Ġpig mentation
Ġtun nels
ris k
Ġmanufact ured
Ġcustom ized
hy d
Ġattract ing
Ġcru c
Ġver se
Ġver tebr
ĠCom p
Ġhom em
Ġmaster piece
Ġbread win
Ġparad igms
Ġconsid ers
Ġamb ient
Ġhost age
Ġbright ness
Ġdisp os
Ġchick s
Ġindic ated
Ġindic ating
Ġgrass land
Ġfaith s
Ġtast ed
Ġrot ation
Ġgrad ing
Ġgard ening
Ġtour ists
Ġstim ulating
Ġinvestig ative
car bons
Ġcurious ly
Ġround ed
ĠGl enn
Ġtall est
bl own
Ġadvert ise
Ġestab lishing
Ġlat itude
Ġideal ism
Ġsophistic ation
Ġinterpret ed
Ġpal ace
Ġlic ensed
ĠSat an
Ġpian ist
Ġsight ed
Ġfisher man
Ġanalog ies
fl ix
Ġformer ly
Ġhyper tension
Ġhyper bolic
Ġ196 9
Ġcast ing
Ġdiss ent
Ġdiss ip
Ġdiss olve
spe aking
cred it
Ġgut s
Ġastronom er
retch ed
vis ible
Ġhook s
ĠAlex and
Ġpin nacle
Ġadvance ment
ĠWho a
Ġimplement ation
Ġmemor ized
Ġdivide nd
fin ance
Ġru ined
Ġvibr ations
Ġsuic idal
Ġpolar ization
Ġvag inas
Ġdiplom ats
emoc racy
Ġtraged ies
ĠAir port
Ġstack s
Ġstack ed
sum Ã©
ĠMal ays
Ġmim icking
ĠBudd h
Ġprem ium
Ġpersu asion
Ġpersu aded
Ġpersu asive
Ġpyram ids
Ġmarch ed
Ġcarr ier
Ġcarr iers
Cl oud
Pl ay
Ġder ive
Ġmail box
ĠHy un
rit is
Ġneat ly
Ġextrem ists
Ġgh arial
Ġdigit ized
Ġmall e
ĠMand arin
ĠAntar ctic
ĠBon obo
Ġtheore tically
ĠMor ning
Ph il
Ġadvoc ating
Ġtempt ing
Ġneurolog ic
Ġdistingu ished
Ġsin ister
Ġcong reg
Ġspray ing
Ġdism ant
ĠMah moud
Ġcub icle
ĠOs ama
Ġbell s
Ġexport s
uke mia
Ġgate way
Ġcontrad ict
Ġprec urs
Ġtroub les
Ġgam ers
ĠBas sem
Ġsynchron ize
Ġhydro carbons
Ġwarr iors
Ġrect ang
Ġobt ain
Ġimmig ration
Ġgrabb ing
Ġtempor arily
grad ers
Ġrib s
Ġbench mark
Ġdescend ants
Ġsufficient ly
Ġhipp ie
Ġforb idden
Comp are
ĠTasman ia
Ġmurd erer
ĠDra ke
da ughter
ĠGene va
ĠWalk er
ĠJud y
ĠSus ie
Ġadministr ative
Ġadministr ators
Ġfest ivals
Ġcontempl ate
Gu ess
Ġreass uring
Ġindu ced
Ġevapor ate
Ġblur ry
ĠDub lin
psy ch
Ġpix el
ĠCons ervation
ĠTar ahumara
Ġthylac ines
Ġmanus cripts
Ġmini ature
Ġsupernov ae
?' "
Ġdictators hip
Ġneglect ed
Ġappoint ment
Ġpsychiatr ists
Ġgor illa
Ġalleg ed
Ġhurd les
Ġmarginal ized
Ġincarcer ation
ĠSi oux
Ġmoder ate
Ġoppon ents
Ġarrog ant
Ġove rest
Ġhaz ard
Ġsuburb ia
Ġrehears al
Ġpries ts
Ġcyc ling
govern mental
ĠCher nob
ĠBalk ans
ĠCommand ments
Ġspraw l
ĠEle ph
ĠAdm inist
Ġinsignific ant
Ġprogramm able
Ġmultit asking
Ġnanot ubes
Ġbiodeg rad
Ġpavil ion
imit ri
Ġtransact ions
Ġneurot rans
Ġutil itarian
Ġpersever ance
Ġcel estial
ĠSadd am
Ġnanos cale
Ġdeem ed
Ġsabb atical
ĠNI H
Ġcolleg es
Ġamygd ala
Ġsush i
Ġoutd ated
Ġoutwe igh
Ġcombust ion
Ġosc ill
Ġhott est
Ġpse ud
ednes day
ĠrÃ© sumÃ©
ĠGert rude
Ġprelim inary
ĠChernob yl
, ]
8 3
8 6
8 7
A nt
B s
B est
B ased
C reat
D ear
D NA
F e
F ore
F ifteen
G G
G ra
G rowing
H ard
L L
L arry
M on
M illions
N E
N ice
P sych
P erson
S G
S it
S ay
S ur
S leep
S ixty
T D
W alk
b irth
c ord
d ies
e astern
g one
g ame
i ard
i ets
i athan
l ass
l oy
l iving
m i
m or
m om
m el
m other
m oor
n ered
o ac
p us
r ial
u ese
u ctors
u fficient
v ao
w ild
w au
w ait
y re
z ers
Ġ icy
Ġt ed
Ġt ang
Ġt eddy
Ġth y
Ġth orn
Ġa ims
in ese
in fect
Ġw akes
at re
at ops
er us
Ġc ater
Ġc ores
is k
it ations
Ġb ree
Ġm ates
Ġh alt
Ġto e
Ġp ic
Ġp od
Ġp ap
Ġp ore
Ġp ac
Ġf ax
Ġf itted
an th
Ġd ared
Ġd uct
or p
or um
or ative
Ġin advert
ar ation
om i
Ġg oo
Ġg our
al m
al ine
al ism
Ġn od
Ġn oun
Ġe uros
Ġbe an
Ġbe nds
Ġbe gging
ut ive
Ġre imagine
Ġre introdu
Ġha w
ent iful
ld om
Th us
Th omas
im ental
st ill
ro log
ig ue
ig ible
ig ator
ur k
ur z
ur ations
Ġst ool
Ġst retches
ce nds
ir al
op er
op edic
th on
th reat
am y
am ily
Ġse ct
Ġse men
Ġse gments
Ġk ios
Ġcan oe
Ġas cend
Ġmo cking
Ġwhat not
ad er
ad ata
Ġhe x
ill ary
Ġat roc
Ġsh ar
Ġsh alt
Ġsh aman
Ġnot ed
ter ol
ol k
ol ph
ust omed
Ġj ars
Ġex ac
ers hip
Ġpro ximity
Ġch oles
Ġch ooses
Ġr ation
Ġr ang
Ġr ug
Ġpe ek
Ġpe arl
Ġcon co
Ġcon not
ess age
ess ica
ca nd
ind uced
Ġout reach
Ġint ro
Ġint ens
Ġint imately
un ci
Ġsp am
ĠA M
ĠA w
ĠA LS
ĠA aron
Ġtr im
Ġup r
Ġup stairs
Ġpl ots
Ġpl umb
Ġpl ague
Ġpl entiful
ich es
ci ating
ĠS W
ĠS on
ĠS ant
ĠS ex
ĠS aul
ĠS ciences
el ope
ain ted
Ġsome place
iv ia
iv ian
ĠC re
ĠC ook
ĠC od
ĠC ast
ĠC level
od ox
ap h
ap i
ap est
ard ing
ood le
Ġen lar
ĠM s
ĠM ak
ĠM ull
ĠM aur
ĠM ouaz
You ng
Ġle aking
Ġle aked
Ġle ukemia
ag u
Ġfe at
Ġev ac
ud a
ĠB F
ĠB art
ĠB ureau
ĠB ihar
Ġcl iche
ip se
Ġun qu
Ġun related
ĠE leanor
ia h
Ġdis l
Ġdis eng
Ġdis son
Ġback stage
ĠH az
ĠH ope
ĠH usse
ĠP u
ĠP sych
ĠP rad
ĠT u
ĠT urn
ĠN aj
ĠD u
ĠD um
ĠD aw
ĠD elt
ĠD iam
Ġnew est
Ġlo vers
Ġlo bb
ber ries
vel ing
Ġres erved
In tern
ru ciating
Ġday time
ĠL y
ĠL ear
ĠL aptop
Ġam use
ĠR eg
ĠR eed
ĠR yan
Ġbl ades
Ġoff line
ĠF est
ĠF old
ĠW ork
Ġfl utes
ys es
Ġsm iled
ĠJ oy
ne g
Ġwell ness
Ġstud ios
te chnology
te acher
oc y
Ġsc ru
Ġhel ix
Ġafter math
ĠAnd ers
Ġtrans national
ĠK n
ĠK ay
ĠK ate
Ġgra ms
Ġgra zing
Ġke l
Ġinter gal
Ġinter tw
Ġsl ap
Ġpol ish
Ġwater front
Ġsol ves
atch ed
Ġcomple ting
Ġcr an
Ġcr unch
Ġcr ushing
Ġpat ented
ĠSt ill
Ġcre ations
Ġcre ase
Ġmet a
Ġop ium
Ġlight bul
Ġhard wired
ah ili
Ġposs ession
Ġposs essions
ĠY ves
ĠIn credible
ĠSo lomon
ĠWe ibo
Ġsupp orters
Ġcor ros
Ġinf lict
Ġcou p
Ġreg ulatory
Ġprocess ors
Ġacc ustomed
aut hor
ĠV on
Ġdem oral
Ġcle arer
Ġgr ind
Ġopp ression
me ga
Ġdef y
Ġval ves
Ġloc als
Ġexc ruciating
Ġsw ollen
Ġlab ore
pect ive
work s
uck le
Ġtre as
get own
ĠIs ab
Ġret ro
Ġabs ent
Ġmic r
Ġprov ocative
Ġbott lene
Ġ7 6
Ġ7 50
Ġwind mill
Ġpred isp
Ġmath s
Ġbab ys
Ġ5 6
ted ly
ĠBr illiant
Ġrev is
Do h
Ġoper ators
Ġbro ch
Ġdel ivers
Ġlim iting
Ġpsych otic
Ġsun s
Ġfre aking
Ġfre aked
Ġaccess ing
Ġdark est
Ġconsum es
Ġspecial ty
Ġspecial ization
ero ids
Ġpriv ately
Ġpress ed
Ġge ologists
Ġcal am
Ġcool est
Ġdisc arded
Ġslow s
Ġimpact ed
Ġmar ries
ĠSe bastian
Ġsea weed
ey mah
lu x
Ch inese
Ġhor ribly
por a
Ġsil ently
Ġpath ogen
Ġdead line
Ġsustain ably
Ġpoll uted
Ġpoll inate
Ġarm ies
Ġreact ive
ĠZ en
asc al
Ġfire men
ĠNo ah
St ay
Ġeye ball
Ġflu ent
Ġflu ids
ik a
Ġimm oral
Ġbed rock
Ġtable ts
ĠCan al
Ġdom ination
Ġnecess ity
Ġrain bow
Ġpeace keepers
Ġec ologist
book s
Ġlog ically
ĠAn onymous
Ġgal van
Ġfundamental ists
Ġthreat ens
ĠNorth west
Ġstick er
Ġvac ant
Ġfant as
Ġpen n
ĠCal ais
Ġwaste ful
let t
Ġmis use
Ġafford ed
ĠAm anda
ĠChrist opher
Ġswe ater
Ġsal aries
ops ies
ĠGe iger
Ġemploy er
Ġport al
Ġport ions
ĠPro v
Ġspect ros
ĠBra nd
Ġcloud y
Ġvari ants
Ġwealth ier
Ġoptim ist
Ġjud ging
Ġscr ut
Ġcust oms
Ġexpress es
Ġdynam ically
Ġmamm alian
Ġ197 8
Ġhyd r
Ġmal ware
Ġdrop out
udd le
ios is
Ġdoub ts
Ġblog ger
Ġblog osphere
Ġliber ties
Ġsmell ed
Ġrough ness
ĠOh io
Ġhabit able
Ġver ify
Ġur ch
Ġhom age
Ġfold er
Ġbrand ing
Ġancest ral
ett a
Ġsport ing
Ġtraffic king
Ġfashion able
Ġinvis ibility
Ġindic ator
Ġgrass lands
Ġcand les
Ġbrilliant ly
Ġcompl iment
Ġund ers
Ġclick ed
Ġexch anges
Ġmig rant
ĠMr s
Ġacceler ator
Ġtour s
ĠFl ore
ĠCon stitution
Ġcontract or
Ġbelong ed
Ġinvestig ations
Ġbull ying
roph obic
ĠEx cellent
Ġnutr ient
Ġneuro bi
Ġagg ression
ino is
Ġfrustr ations
Ġconduct ive
ait rey
Ġcow ork
Ġlibr arians
Ġrecon fig
Ġreplic ating
Ġconsist ency
ĠNe il
Ġsolid arity
Ġuns afe
Ġencourage ment
Ġmel ts
Ġentertain ing
ym phony
Ġanalog ous
Ġthin ner
Ġencoura ges
ĠGP HIN
Ġ196 2
iat ur
ĠMil wau
Ġautonom ously
sec urity
ĠTr uth
Ġju xtap
Ġasp iring
Ġrig ged
ĠGal vao
Ġ194 9
Ġsurvey ed
Ġiniti ated
Ġthick ness
Ġwel coming
ĠStan ley
Ġuncom mon
och ond
Ġtack ling
ĠRes erve
Ġflower ing
Ġdisg u
Ġtranspl ants
hour s
Ġdress ing
Ġscar f
Ġinject ing
Ġinject ed
Ġproport ions
etch ed
ĠJul ie
ĠJul ius
ĠRob b
Ġstretch ing
wr itten
Ġrecommend ed
Ġrecommend ations
under ing
ĠRw andan
Ġpurch ased
ĠTor aj
Ġconstit utes
Ġbon obos
Ġaim ing
Ġmarch ing
ĠTalk s
ĠMad ison
Ġleap f
Cl imate
Ġintention ally
Ġconce ived
Ġconce ivable
Ġpoison ing
ĠPol ice
Ġrecru iting
Ġx en
atom ic
ĠCA PTCHA
Ġbranch ing
ĠNet flix
Ġbrib es
Ġwra pping
ĠSuper man
Ġcomprom ised
Ġburst s
Ġhill side
Ġpione ering
Ġwhis key
Ġrefriger ation
ĠPan theon
ĠFin ancial
Ġcompos ite
Ġaddict ive
Ġsusp ension
Ġsusp icion
Ġdilem mas
Ġcruel ty
Ġrecept ors
Ġcontrad ictions
Afric an
Ġ[" '
Ġnerd s
Ġsubt ract
Ġspreads he
ĠAny body
ĠMag ic
ĠSud hir
Ġscrew ed
Pr ince
Ġles ion
Ġredef ining
sell ing
ĠNic o
Ġconvenient ly
Ġsched uled
Ġdiscrim inate
ĠPlay er
pat tern
Ġbatt ling
Ġdent ist
ĠHer itage
Ġtact ile
Ġpsychopath s
Ġcontempl ating
Ġpestic ide
ĠBel g
Ã¡ n
Ġnap kin
Ġmerg ing
ĠTre k
Ġfavel a
Ġcul m
Ġyog urt
ĠKh mer
Ġcurt ains
Ġbip olar
Ġdivid es
urrent ly
Ġappoint ed
ĠBroad way
ĠBroad moor
ĠPlan et
ĠHung arian
ĠOper a
Ġpsycho an
oub tedly
Ġarous ed
Ġarous al
Ġseam lessly
oter ic
Ġunderp in
Ġparap hr
Ġimprison ed
Ġinterd ependence
Ġreinfor ced
Ġspawn ing
Ġbudd y
Ġinert ia
urp ose
ĠPI SA
Ġwrink les
Ġanonym ity
Ġorang utan
ĠPass age
Ġsuppl iers
Ġtempl ate
Ġbalcon y
uj ah
Ġcomed ian
Ġfeas ible
ĠEc uador
ĠKam en
Ġinconsist ent
Ġmarsh m
Ġtraff icked
Ġhomosexual ity
Ġintest ine
ĠBat man
ĠBot swana
Ġtwent ieth
ĠLead s
Ġhierarch ical
discipl inary
Ġmunicip al
Ġimpat ient
ĠJacqu es
Ġinnoc ence
Ġvend or
ĠIll inois
Ġexoplan ets
ĠPic asso
ĠNich olas
Ġprovin ces
ĠGeor getown
Ro bert
ĠLank a
Ġabys s
ĠPear l
Ġcourty ard
idel ity
Ġarth ritis
ĠDD T
Ġdatas et
Ġinspir ational
Ġfranch ise
Ġpell ets
ĠDou gl
ĠJoh ann
Ġattor ney
Ġmicrop rocess
Ġantiret roviral
ĠCoch rane
ĠMoroc co
Ġoutsk irts
Sev enty
Ġplur ipotent
ĠCP U
Ġdenomin ator
Ġsovereignt y
Ġumbre lla
review ed
Ġdeng ue
Ġwholes ale
Ġasph alt
ĠMalt ese
Ġsurrog ate
Ġembod iment
Ġlogarith mic
ĠMalays ia
ĠAdminist ration
Ġted ious
Ġatroc ities
Ġexac erb
Ġcholes terol
ĠClevel and
ĠHusse in
ĠDelt a
Ġintergal actic
aitrey a
ĠMilwau kee
' ,
2 2
2 9
9 7
? ]
B on
B rain
C K
C all
C am
C ong
C ars
F in
F ar
F inding
G B
G r
H ar
H ence
H istory
I ran
K T
M ars
N G
N M
N orth
O S
O cc
O oh
P S
P e
S K
T ra
T op
U S
W ind
W ide
W onder
b n
b irds
c rap
c ifically
d istance
e ating
e conomic
g ate
g ia
h ard
h ry
h ave
h orn
h ift
i ating
l ov
m inder
n ought
o am
o cean
p ered
p ret
p ared
p ieces
s ub
t i
t te
u is
u ating
w ill
w elling
w aves
Ġt res
Ġt aps
Ġa ids
Ġa version
Ġa quarium
Ġw ool
at ra
er atops
Ġc ubes
is ol
it ic
it ol
Ġb red
Ġb ury
Ġb itten
Ġb ait
Ġm es
en stein
Ġh ust
Ġh edge
on ge
on ian
on ium
Ġp H
Ġp ul
Ġp ater
Ġp als
Ġp aw
Ġp ounding
Ġp arrot
Ġf ist
Ġd ed
Ġd azz
or ia
Ġin oc
Ġl ust
Ġy o
le e
ĠI ow
ĠI stan
Ġn ails
Ġwh aling
ow an
Ġe ll
us al
us able
Ġbe aver
ut ans
ut ches
ot he
et ty
Ġre de
Ġre nov
st im
st ant
st ander
ur ches
ur assic
ere ran
Ġst ead
Ġst yl
Ġst igm
ch a
Ġfor ums
Ġan th
Ġdo d
Ġdo omed
th an
th ony
Ġse greg
Ġse ldom
Ġk m
Ġk ar
Ġcan al
ht aking
Ġso da
Ġgo gg
ad ers
ad ores
Ġhe els
Ġsh ack
ant y
il k
ul as
ul ars
ul ian
ust ered
Ġj aws
Ġex os
Ġpro stitutes
Ġch k
Ġr ick
Ġr ival
Ġr ushing
Ġpe aked
um n
ck er
Ġkn ot
Ġkn ots
ist a
ink y
Ġout standing
Ġv ine
Ġsp ed
Ġsp her
ĠA T
ĠA us
ĠA imee
Ġup take
Ġpl aster
Ġpl umes
ĠS C
ĠS ally
ĠS ymphony
iv ating
Wh ite
em ic
Ġsa c
ĠC e
ĠC ou
ĠC ard
Ġsu ited
ood y
ous ing
Ġen l
ĠM O
ĠM ans
ĠM ead
ĠM ission
ĠM au
Ġta pped
ore n
are foot
ag ged
Ġper sec
Ġfe ces
res pect
Ġco ated
itt ens
ĠB ad
ĠB ear
ĠB og
ĠB oe
ĠB ollywood
iff el
Ġtw elve
Ġun man
Ġun icorn
ĠE U
ĠE t
ĠE PA
ĠE iffel
Ġover board
ree k
Ġimp oss
Ġimp lies
Ġ2 20
Ġpo ke
Ġback ing
pt ure
ĠH al
ĠH ay
ĠH im
ĠH ard
ĠH ell
ĠH ero
ĠH erb
ĠH unter
ĠP in
ĠP ay
ĠP ale
Ġar ist
ĠT so
ĠT win
ĠT ri
ĠT umor
ass um
ĠN y
ĠN an
ĠN ice
ĠN eg
ang ar
ĠD ark
ĠD iplom
sel ess
cent ure
Ġro gue
Ġlo af
Ġcont ra
Ġcont empt
Ġcont ested
ult s
ber to
Ġbet a
Ġdes ired
rain ing
Ġres ign
In cre
Ġunder go
co ck
Ġad verse
ĠL T
ĠL ive
ĠL eah
ĠL aur
ĠL ux
ĠL uke
Ġam en
ĠR ap
ĠR edd
ĠR achel
du ardo
Ġbl iss
Ġbl oom
int ensive
Ġdown side
Ġdown hill
Ġcomm ander
form s
ĠF er
ĠF ather
ĠF lu
ak u
ak y
ĠW y
ĠW isc
ĠW ednesday
Ġfl ute
per or
Ġinc orrect
Ġem its
Ġem itting
ĠJ a
ĠJ ere
ĠJ eep
ĠJ uan
Ġra z
ric eratops
Ġtechn ologically
ons in
Ġhuman oid
ac c
He x
Ġtra ils
Ġdec ay
we il
Ġinv ites
mer ce
ĠCh ad
ĠCh allen
ĠCh icken
Ġsc attered
Ġturn ar
Ġplay wright
Ġrel ay
Ġcar ving
Ġgl ove
Ġexam ined
Ġins ulation
Ġcons erve
ĠK ap
ĠK urz
ros per
Ġbo nding
Ġsl ang
Ġent renched
Ġmon k
Ġmon archy
Ġmon astery
Ġmon etary
uc ive
Ġhigh lands
Ġcr ater
Ġcr ane
Ġpat r
Ġpat ri
Ġatt ain
Ġmed ian
Ġlight ly
Ġgrow ers
ah n
Ġfar med
ĠY or
Ġbi ome
Ġbi king
Ġbi oph
ĠIn c
ĠIn vest
ĠIn fin
Ġel oqu
wh en
Ġrep ay
Ġsk im
Ġsk ier
Ġsub mer
Ġsub div
Ġrun ners
ract ive
Ġhand led
Ġhand held
Ġprob able
Ġinf lection
Ġ4 1
Ġ4 9
Ġdoll s
Ġspec ulate
ĠV e
pr om
Ġpres cribed
Ġconf ess
Ġcle ared
ĠInd ust
Ġcur l
Ġgr ie
Ġbusiness man
Ġwo ven
Ġdef l
Ġdef lect
Ġmakes hift
Ġyoung sters
Ġty ranny
Ġprot on
Ġprot agon
Ġey el
Ġphot oc
Ġpicture d
Ġchar itable
Ġrest rain
Ġrest oring
arr ing
arr ied
ograph ers
Ġboth ers
Ġtreat s
Ġsw ell
Ġsw ims
Ġdev ise
Ġdev oid
Ġlab yr
Ġcond ucive
de c
de ath
Ġmag ically
Ġadv ise
Ġorder ing
uck ing
ex pl
ĠTED Women
ĠTED Global
Ġmarket places
Ġincre ments
Ġ6 3
Ġvir ul
atic a
Ġappro xim
ator ium
Ġpast ing
Ġdi ets
Ġdeal ers
Ġsca ven
Ġmess enger
ien cies
rop onte
Ġprov oke
ĠHe ForShe
Ġ8 7
Ġhy pe
Ġhy ster
Ġcommon place
Ġ... ]
Ġeyes ight
Ġdep ress
Ġincl usion
Ġes c
Ġes oteric
ipp ers
Ġpsych otherapy
Ġsqu ish
Ġpick le
Ġpick up
Ġsun set
Ġtem ples
ĠAl geria
Ġ40 4
Ġbuy ers
sh it
sh irts
Ġge ology
Ġge ographically
Ġcal ving
Ġcy mat
Ġimpact ing
Ġrisk ed
Ġanal yses
Ġinsp ires
ey er
Ġdeg rade
Ġmain land
Ch ange
Ġstra p
Ġast roph
chie f
Ġguess es
Ġprom pt
Ġprom otes
ĠTh ula
Ġmodern ity
Ġer ased
Ġprop eller
ĠZ oo
Ġbra ce
Ġfire man
Ġattack er
St ephen
Ġforest ry
Ġdom inating
Ġbar n
Ġdefin itive
Ġrain ing
Ġbreat htaking
Ġsyn ag
Ġec ologically
Ġneg atives
Ġneg ativity
ores cent
Ġdoor step
Ġparticip ant
Ġadm ired
eth ical
Ġsepar ates
Ġconsider able
Ġtransl ations
Ġclin icians
Ġ17 5
Ġmanage able
Ġbur ial
la ci
ĠWar ner
ĠTV s
imb a
Ġsal ute
Ġ198 1
ĠGe hry
Ġtransport ing
ĠSw ahili
ĠLe o
ĠBra h
eral d
Ġcelebr ities
Ġcry pt
Ġran ch
Ġgradu ating
Ġinfrastruct ures
Ġscr ip
Ġnut shell
Ġmut ilated
Ġcommer cially
Ġscan ners
Ġdestro ys
ĠIndian a
Ġdad s
ĠBl air
ĠIslam ist
Sh ame
ĠAd v
ĠAd ams
ĠCl imate
isco vered
Ġreb uilt
Ġtrip led
Ġcred ibility
Un less
do ing
Ġalt ar
ĠRo ad
Ġsculpt or
Ġsculpt ural
Ġbright er
Ġvacc inated
Ġconcent rating
ĠNor se
ĠĠ Ġ
Ġintellect ually
Ġdocument ation
Ġcompl aint
Ġcompl iance
Ġund o
ij i
Ġden ounce
Ġtit anium
Ġtor ch
Ġadop ting
asion ally
ĠPl ato
Ġcontract ors
Ġinvestig ated
onom y
Ġwear able
ĠEd ison
Ġax e
Ġselect ing
Ġagre ements
Ġcoal ition
Ġpolic eman
Ġnutr itious
bel ts
ĠEn ergy
bl ock
bl owers
ĠNA TO
Ġnan ometers
Ġcow boy
Ġrow ing
ĠMay a
ĠMay or
Ġreplic ation
Ġqual ify
min ster
ĠBill y
ĠNe umann
Ġlat ent
Ġcartoon ists
Ġisol ate
Ġhang ers
Ġpal ms
ĠBen ki
Ġsmile y
Ġcompar ative
Ġdrag line
uel ing
Ġinstall ing
Ġens la
ĠMil an
ĠSm all
Ġclever ly
Ġbiom aterials
Ġwitness es
Ġcoord inates
Ġdecl are
Ġpill ow
Ġcommand ment
Ġwireless ly
Ġpump ed
Ġvan ished
Ġhur ting
Ġconstrain t
Ġknock s
Ġknock ing
Ġgrateful ness
Ġsed uctive
ĠUS B
ĠMe chanical
Ġstack ing
ĠMa o
ĠMal awi
walk ing
ĠAc centure
Ġexplo ited
Ġther most
Ġflash light
ĠBab y
Ġadjust ed
Ġdisgust ed
Ġenh ances
Ġimper ial
Ġmeg awatts
Ġlimb ic
cut ting
Ġpra ir
Ġwet land
Ġspell ing
Ġspell ed
Ġdelight ful
Ġpandem ics
Ġchief s
Ġanthrop omorph
Ġspr ink
Ġspr ings
Ġconsult ant
Ġconsult ants
ĠDemoc rat
Tr ue
Ġkiss ing
ĠOn ly
Ġpunch ed
Ġfract als
Ġschizophren ic
ĠSim pson
Ġhighlight ed
Ġphilanthrop ic
ĠJim my
Ġrefriger ators
Ġskept icism
ĠPan ama
ĠBrown e
Ġmanifest ations
Ph ot
Ġdim inished
Ġsynthes ized
Ġorph ans
Ġbrut ality
Never theless
sch ild
Ġschem atic
Ġtranscend ence
ĠJo an
Ġdistort ion
Spe cifically
Ġspons ors
Ġdistract ions
Ġacoust ics
ĠHill is
ĠHill ary
ĠCD C
ĠBu en
Ġredesign ing
Ġbush es
Ġimprov ising
Ġpatch es
Ġproceed ed
pat ient
Ġpir ated
Ġgre edy
Ġproph e
Sure ly
rof oam
Ġrank s
Ġhumil iated
Ġdelay ed
Ġoutl iers
ĠMod el
Ġunre al
Ġdecor ated
Ġdecor ative
ĠPortug uese
Ġjar gon
Ġdepos it
Ġunderest imated
Ġimmers ion
Ġimmers ive
Ġpla que
Ġbuff er
ĠFore ign
ĠVal de
Ġcareg iver
Ġchef s
Ġhint s
ĠAgain st
ellig ent
Ġinsec urity
olit ics
ĠBa gh
Ġpreced ent
Ġinsert ed
Ġvirgin s
Ġreck less
Ġexquis itely
Ġenrich ed
ĠRon ald
Ġempath ize
NC RA
Ġdrain ing
Ġdens ities
Ġvo ic
Ġupstream ists
Ġperipher al
Ġdemocrat ization
Ġwrest le
ĠEr n
Ġimpress ions
Ġpron ounced
ĠChap el
Ġresemb les
Ġperm its
Ġsubsequ ent
Ġpuff s
Pat ient
ĠAv iv
Ġgad get
Ġorth opedic
Ġreserv ations
Ġsuperher oes
Ġcort ical
Ġdisadvant age
Ġsymb iosis
ĠCla us
Ġbrainstorm s
Ġtender ness
Ġvig il
ĠPI PA
ĠYellow stone
Ġprevail ing
Ġmang rove
Ġinsur gency
Ġskys crap
exp ression
Ġrhin ovir
Ty pically
Ġcher ish
ĠGirl s
ĠOtt oman
Ġconstitu ency
Ġlegend ary
Ġoverlook ed
Ġrooft op
Ġreli ably
Ġcurs or
ĠMatth ew
ĠMain e
ĠDav is
Europe an
Ġtadp ole
Ġly rics
Ġsober ing
ĠBow l
Ġsyring e
Ġlett uce
Ġdrople t
Ġhomin id
Ġdisagre ement
gath erer
Ġhaunt ed
Ġredund ancy
ĠIntellig ence
Ġais le
enz hen
Ġtodd ler
ĠAust in
ĠPap ua
Ġiv ory
Ġhoc key
Ġcharism atic
Ġdyslex ic
Ġtherapeut ic
Ġetern ity
ĠOrch estra
Ġrecycl able
Ġlaparos copic
ĠMathem atica
ĠCorn ell
Ġcocon ut
dire ction
import ant
Ġextrater restrial
ĠSchwarz schild
Volunt eer
Ġsupre me
ĠNY U
Ġdecon struct
ĠBrig ades
Ġsuperp owers
ĠAlexand ria
Ġupr ising
Ġintertw ined
Ġhydr othermal
Ġparaphr ase
Occ asionally
Ġtres pass
ĠIow a
ĠIstan bul
ereran a
Ġgogg les
Ġexos ke
ĠWisc onsin
ĠKurz weil
Ġlabyr inth
Ġcymat ics
Ġskyscrap ers
2 3
6 4
9 1
9 4
A lex
B rit
C y
C ur
C urrently
D J
D M
D emocracy
E arth
F orm
F ollow
G old
G ener
G rand
H P
H ome
H eart
I d
J apan
J osh
L ead
N K
N or
N ear
N ick
O ops
P op
P ol
R ead
R aise
S ub
S elf
S chool
T er
W estern
Y o
Z E
a iting
b as
b ene
b ao
b uster
c or
c ion
c ury
f ed
f ran
g ras
g roup
h ake
j ad
l os
l ider
m ad
m and
n on
o ard
p ill
p aper
r iction
s ses
x ter
y o
z ac
Ġ erg
Ġth irty
in is
in et
in ness
in formation
re x
re act
Ġo ily
Ġs ip
Ġs ins
at z
at on
er ting
Ġc ad
Ġc alf
is er
is crim
Ġb od
Ġb ise
Ġb usted
Ġb iblical
ing ton
Ġm art
Ġm ars
en abled
Ġh ers
Ġh ates
Ġh ots
Ġto re
Ġp orous
Ġf are
Ġf aked
Ġf aded
Ġf ountain
es ium
Ġd ar
Ġd ess
Ġd ental
Ġd otted
Ġd arn
ed ed
Ġl bs
Ġl itter
Ġl umber
Ġl amps
ar io
Ġg n
Ġg amb
Ġg rey
as semble
ic ated
ĠI mp
al ie
Ġn our
Ġn oses
Ġn udge
ow itz
Ġis ot
Ġe el
Ġe uth
Ġe aves
Ġbe ers
Ġbe ads
ot or
ot omy
Ġre ju
Ġre usable
ver ning
ay a
id ated
se ven
im m
im ation
im mer
st arter
ro Ã§
ig hing
Ġst ats
Ġst ared
Ġst eroids
ch s
ce ived
if ting
if ier
Ġwas p
Ġwas ps
Ġdo able
ith a
op ran
Ġu l
Ġse mic
Ġk r
Ġk angar
out e
Ġli ars
Ġli ability
Ġso fa
Ġhe ap
Ġsh ru
Ġsh irts
ant ically
Ġnot able
ter rorism
il ization
il ateral
ol ate
ol ocation
Ġall erg
Ġj ams
Ġfr iv
Ġfr own
Ġex em
Ġex tern
Ġex ile
Ġex ert
Ġex terior
Ġpro verb
Ġr ut
Ġr ider
Ġr ounds
Ġr ivals
Ġor bits
Ġde xter
Ġmy ri
Ġpe eling
um i
um atic
ure ka
Ġma c
Ġma f
ist ing
Ġout wards
Ġte ase
ook y
Ġsp onge
ĠA ld
ĠA ction
ĠA uth
os lav
Ġtr u
Ġtr an
Ġpl ugged
Ġby catch
ĠS ach
ĠS ac
ĠS ene
ĠS lo
ĠS ending
ĠS istine
ĠS afe
ĠS cientific
em a
em in
Ġsa us
Ġsa ils
Ġim am
ĠC ru
ĠC reek
Ġcomp ression
act s
ĠM ir
ĠM eth
ĠM aitreya
ĠM eyer
ab etic
ag ic
Ġexp o
Ġman ually
Ġman ned
res ent
Ġev ol
Ġev oke
age ll
ĠB ed
ĠB ia
ĠB erg
ĠB io
ĠB uck
ĠB ax
ĠB lo
ĠB omb
ĠB etter
ach ines
Ġno on
Ġcl oning
ip ur
Ġun ions
Ġun co
Ġun ison
Ġneed less
ĠE ar
ĠE ducation
ĠE bola
ĠE SG
ĠE duardo
ĠG it
ĠG ot
ĠG ould
ĠG ib
ĠG reg
ĠG rove
ĠG ranny
Ġover hear
Ġover coming
Ġover sight
own ess
Ġimp ending
Ġpo ker
Ġpo achers
Ġdis contin
ĠH ab
ĠH oney
ĠH alf
ĠH ills
ĠH unt
ĠH orse
ĠH annah
ĠP as
ĠP ack
ĠP ool
ĠP rodu
ĠP ET
ib a
ĠT B
ĠT aj
ĠT riceratops
ass ium
ĠN ie
ĠN ap
ĠD own
ĠD oc
ĠD iscovery
ĠD isease
cent ered
Ġcont amin
ult an
Ġac re
Ġres et
Ġunder dog
ru p
Ġad ore
Ġad age
Ġday care
ĠL i
ĠL ion
ĠL iving
Ġhum bling
Ġam id
ick y
ick ers
ĠR ail
ĠR aj
Ġbl oss
int ention
int osh
ank ton
pl ash
Ġcomm itting
cess ion
Ġoff enders
ĠF urb
ĠF arm
ĠW r
Ġfl oss
per ger
ath ons
Ġem ulate
Ġsm ashed
Ġbr ist
Ġbr iqu
ĠJ e
ĠJ r
ĠJ aco
ĠJ amie
ĠU t
ĠU ber
ne ut
Ġtra ct
Ġtra ps
Ġbuild ers
we aving
Ġind iscrim
Ġrem n
Ġrem ot
ĠCh and
ĠCh ev
ĠCh arter
Ġend ure
Ġbas in
Ġcar ic
ĠAnd roid
Ġgl ance
Ġgl uten
Ġexam ination
ĠK ara
ĠK anzi
Ġinter v
Ġsl ick
ix on
oth y
Ġsol vable
Ġmon umental
uc us
Ġcr ies
Ġcr aters
read nought
Be yond
Ġart isan
Ġquestion able
Ġrec urrent
Ġ10 5
Ġext ensively
Ġcre st
Ġmet adata
Ġser if
Ġmin istry
Ġmin iatur
Ġcell o
Ġcell phones
Ġcomput ations
Ġbeh aved
ĠY ug
Ġbi opsy
ĠIn uit
Ġeconom ical
Ġrep ublic
Ġbook sh
Ġsupp ressed
Ġcor pus
Ġsub str
Ġrun way
ract ical
Ġhand ing
Ġvis ibility
Ġcou mar
Ġspec imen
gg ie
Ġreg ards
Ġorgan izers
Ġprog ressed
Ġwar med
Ġwar ned
ĠV ideo
ĠV isual
Ġgovern ors
Ġca ution
Ġconf er
ĠInd ependent
Ġcur v
Ġcur ate
der abad
Ġey ew
Ġmem oir
Ġlist ing
Ġrest orative
ins ky
Ġpain ts
lish ed
Ġdev otion
Ġadv ising
bers pace
Ġpay check
Ġmarket ed
Ġmarket ers
Ġfil th
Ġline age
Ġdi abetic
Ġcra ve
Ġobject ives
Ġpos ing
Ġexperim ented
ret ion
Ġcomplex ities
icult ure
cl ick
Ġaud acity
Ġaud acious
Ġsens ibility
Ġblack board
Every where
ĠYork ers
Ġpot tery
Ġpot assium
Ġnon violence
Ġdep icted
Ġchem o
Ġsqu ad
Ġsqu atter
Ġsuper f
Ġsuper st
Ġsuper natural
Ġperfect ed
ĠAl ban
Ġ18 3
Ġple a
Ġemb ed
Ġemb assy
Ġground breaking
sh ed
sh ield
Ġge op
Ġrequ ested
oph obia
osp ace
Ġtravel ers
Ġfear ful
ĠSh ack
ĠSh are
ĠSh enzhen
Ġhar ming
Ġblood line
Ġblood stream
eed less
Ġap athy
Ġcy bor
Ġmar ble
erm at
com pet
Ch im
Ġcivil ized
ĠWorld changing
ĠWorld Wide
Ġtele graph
Ġsil ks
Ġflo ats
Ġpath etic
ĠAs s
ĠAs perger
Ġlif esty
Ġtype writer
ai rability
Ġsn uck
Ġsn ipp
Ġcop s
Ġpoll ing
Ġpoll ute
Ġsubject ed
Ġbenef ited
Ġlay s
ĠZ et
Ġfire flies
Ġflu ke
Ġunf olds
Ġbed side
Ġbed time
Ġbar ren
Ġpeace building
Ġdanger ously
Ġsyn apse
ĠAn thony
Ġfurther more
Ġaccount ed
Ġactiv ates
Ġskin ny
Ġmob ilized
Ġdepend ency
ĠDe cl
Ġann ih
Ġconcer ning
Ġhospital ity
Ġlaunch es
let ter
Ġ201 6
Most ly
Ġenjoy ment
Ġdetect s
Ġsky diving
Ġinflu encing
Ġinflu enza
Ġheav ier
Ġauthor ized
Ġmention ing
Ġkil o
Ġcold est
ĠAll ey
Ġstar ve
Ġstar light
Ġterm ites
ĠMan chester
iling ual
Ġport s
ĠPro gress
Ġcomfort ably
Ġ21 00
enn ett
iti ative
Ġlaws uit
ĠOr ange
pro ve
iot ics
ricult ure
Ġpopular ity
Ġnation wide
Ġsad dle
Ġstress es
Ġaltern ate
reprene urs
Ġir red
cell ed
af a
ĠMar ines
Ġut erus
amb ra
Ġmembers hip
ĠCom mun
ĠCom puter
Ġhom icide
ĠCl ark
Ġreb els
Ġchim p
Ġbread th
na issance
Ġamb itions
ĠDo ctor
Ġforeign ers
ĠTw ain
vere r
ĠMich oac
Ġtom atoes
Ġnorth west
ĠFor bes
Com puters
Ġhero ism
Ġcompl iant
Ġund oubtedly
Ġnarr ator
Ġpet ri
ĠSun shine
Ġexhib its
Ġexch anging
Ġmig rating
ĠChar iot
Ġrot ting
Ġhyp not
Ġhorr ified
Ġhorr ifying
Ġseat belts
Ġpun ctu
Ġpurs ued
Ġcontract ions
ĠPark er
Ġneuros urge
Ġtick le
ĠJust in
Ġantib ody
Ġspl itting
cast le
Ġdial ed
Ġtow els
Ġnegot iated
ĠKore ans
Ġrat ios
Ġconsumer ism
Ġfortun es
Ġmyst ic
ĠSwed es
Ġsla ught
Ġpal pable
Ġlic enses
ĠCo ach
uh an
Ġpip elines
ĠDon ald
Ġbath e
Ġrub bish
ĠCam ero
Ġhyper text
Ġmer cy
Ġconver ts
ĠWik i
Ġcere mon
Ġdiss idents
Ġvent ilated
Ġdedic ation
Ġremo ves
Ġ194 7
Ġiniti ate
ĠAre a
Ġcritic izing
Ġhunt ed
Ġnest ing
Ġelev ators
ĠMart ian
Ġexplos ive
Ġcyber att
Ġnavig ating
Ġdress es
Ġmosquit oes
ĠMon ologues
ĠTom orrow
Ġsed uction
Ġsed iments
ĠAir bn
ĠSa o
ĠUS C
Ġexcl uded
Ġstoryt ellers
ĠMal i
Ġdict ate
Te acher
Ġlegisl ative
Ġcens or
Ġbon uses
Ġtraum atized
ĠEthiop ian
Ġbat hing
Ġhol idays
Ġcarr iage
Ġsmooth ly
Ġspell s
Ġminor ities
Ġpoison ous
Ġevalu ating
Four th
ĠHy derabad
ĠMac intosh
Ġtraject ories
ĠBlack berry
Ġkiss es
Ġunpre pared
ĠOn line
ĠGand h
lar gest
Ġpupp ets
Ġdisappoint ment
Qu antum
ĠBon net
ĠLab s
Ġcurren cies
Ġskept ics
Ġsew ers
Ġadvoc ates
Ġtempt ed
Ġbrut ally
Ġpale tte
Ġdism ay
Spe aking
Ġnom adic
Ġuniform s
see king
ĠHigh way
Ġenerg ized
Ġoverl apping
Ġincom patible
Ġsubt it
Ġstimul i
Ġprol ong
Ġprol ific
ĠDen is
ĠInter face
Ġsketch ing
Ġeditor ial
ĠBo ys
Ġunconscious ly
ĠMoz amb
col m
Ġven ue
Ġinterconnected ness
Ġsett ling
Ġturb ine
Ġturb ines
Ġloose ly
Ġmand atory
ĠYemen i
Ġembry os
Ġexerc ising
ĠPat ent
Ġdece ive
Ġbutter fly
Ġcontam ination
Ġcontam inate
Ġmagnet ism
ĠDVD s
Ġbump ing
Ġbureauc ratic
Ġdil ig
ĠSpe ed
ĠSpe cies
ĠHel en
Ġblink ing
ĠVictor ia
Ġenhance ment
ĠHis pan
Ġappe aled
Ġrecre ation
Ġdepos ited
Ġelectromagn et
Try ing
Ġgrace fully
munic ation
Ġdispar ity
Ġearning s
cre ation
Ġmast ered
Gu ys
Ġimpr int
Ġundergradu ates
Ġnic er
Ġexagger ation
Ġrac ist
Ġcorrid or
Ġrip e
ĠCont rol
Ġunle ashed
Ġresur rection
Ġexceed s
Ġcycl ist
Ġeru ption
ĠTrans ition
Ġgreet ing
Ġgreet ed
ĠLuc y
Ġimagin able
Ġresemb lance
Ġdismiss ed
Ġape x
Ġoy sters
Ġsubmar ines
Ġshred ded
ĠRem ember
Ġweakness es
Ġdeple ted
Ġflaw ed
Ġrepet ition
Ġharass ment
Ġadmitted ly
Ġmit igate
Ġresid ual
Ġhump back
Ġportray ed
Ġpetro chemical
flu id
ĠIg bo
ĠHarr is
ĠHarr iet
Ġwavelength s
Ġirres pective
Ġsacrific es
Ġimprison ment
Ġincarcer ated
Ġoblig ations
Eng lish
Ġoppon ent
Ġchee ks
Ġorang utans
ĠDev il
Ġobsess ive
ĠShir ley
Ġbalcon ies
Ġturbul ent
Ġturbul ence
Fr ank
TB P
Ġcass ette
Ġplun ge
ĠHon or
ĠHot el
Ġhect ares
Ġspong y
ĠSty rofoam
Ġcompens ate
Ġramp ant
Ġwrit ings
ĠEnviron mental
Ġdash board
Ġdoct rine
Ġseiz ure
Ġplut onium
ĠField s
Ġuntouch ed
Ġecst asy
Ġcarcin ogens
Ġstewards hip
Ġexpend iture
ĠKu wait
Ġceram ics
ĠSO PA
Ġcondem ned
Ġvolat ile
Ġgur u
Ġeg os
stra nded
Ġrud der
ĠNash ville
Ġapprent ice
Ġcellul ose
Ġskate board
Ġintimid ating
Ġhover ing
Ġrearr ange
Ġallev iate
Ġenroll ed
Ġunch anged
ĠJama ica
Ġautobi ographical
ĠOdys seus
Ġdele ted
ĠMitch ell
Ġprehist oric
Ġslipp ery
Ġslee ve
cir c
ĠSuf i
akh stan
Ġbrig ade
Ġzo oming
Ġethn icity
ozo ic
Ġincap able
Ġstub born
ĠCars on
Ġcoer cion
Ġamp ute
Ġpreca ution
ĠKaz akhstan
ĠYah oo
Ġpractition ers
Ġastrol abe
Ġburgl ar
Rab bit
cen ium
Ġdere g
Ġdecept ive
ĠGap minder
Ġinvolunt ary
ĠAlh ambra
Charl ie
Ġsalam ander
Ġmalle able
ĠEleph ant
Ġinadvert ently
threat ening
ĠDaw kins
ĠFest ival
Ġpsychoan aly
Ġmarshm allow
ĠDougl as
ĠJohann es
ĠBoe ing
ĠHerb ie
ĠNeg roponte
ĠDiplom at
Incre asing
Ġthermost at
ĠValde z
ĠBagh dad
Ġbise xual
Ġdess ert
Ġreju ven
Ġfriv ol
ĠBax ter
readnought us
ĠYug oslav
Ġcoumar in
Ġlifesty les
ĠAirbn b
5 3
8 2
8 8
A ir
A bed
B O
B ra
D ead
E ve
E ast
F l
H ot
H and
I ce
I CE
J une
J eff
L M
L iter
L iving
M ed
M al
M ur
M ass
M ary
M oney
M att
M achine
N elson
O k
O ld
P C
P I
P ick
P eter
P arents
R P
R on
R ich
R ives
S E
S F
T H
T im
T aking
T ech
W in
W ere
Y ears
Z ero
a wn
a ways
a ug
b a
b ad
b og
b ud
b les
b order
b etween
c as
c ourse
d on
d em
e at
e ers
f ied
f ocus
f requ
f etched
g assum
h o
h em
h av
i ates
i ability
j ac
k ids
k illed
l on
l ain
l ord
l ave
m us
m aterial
m udd
m achine
n as
p ublic
r ity
r als
r ings
s l
s urfing
t oo
t to
t ale
v ar
w ave
w itz
x it
y ards
z ra
in ic
in ical
in ement
Ġw ack
Ġw retched
re ne
Ġs our
Ġs ine
at ered
at izing
er ick
ou fl
Ġc ess
Ġc em
Ġc ite
Ġc ited
Ġc oded
is en
it o
it ney
Ġb ount
Ġb ake
Ġb ounds
Ġb aff
Ġb aked
Ġm ul
Ġm ans
en et
Ġh ast
Ġto sses
Ġp ens
Ġp ins
Ġp iracy
Ġf us
Ġf used
an za
Ġd ing
Ġd un
Ġd ives
Ġd wind
or i
or ical
or ously
ed ged
Ġl apse
om od
Ġg ib
Ġg asses
ic se
ĠI C
ĠI ron
al ians
Ġwe ed
Ġn iece
Ġwh ol
Ġwh ipped
Ġe ject
Ġe gal
ut o
ut er
ut ers
ot ional
et o
Ġre x
Ġre charge
se conds
st art
st ates
st eps
ur ous
Ġst amps
Ġst umbling
ch el
ch oma
ch witz
Ġfor k
ra ble
ra ib
ra ging
Ġdo om
Ġdo ck
am n
am el
am ph
Ġab ol
Ġab du
Ġab rupt
Ġu gl
Ġse ism
Ġk icking
Ġk ett
Ġk ittens
Ġcan t
Ġcan als
Ġas c
Ġmo du
Ġli ken
Ġso ck
Ġsh ave
Ġsh ines
il itating
ul k
ol o
ol ta
Ġall ocate
ust y
Ġj ig
Ġfr y
Ġch or
Ġch ased
Ġr ationally
Ġor anges
Ġde generation
Ġthere after
Ġpe nd
Ġpe ar
um ed
pp ings
Ġlike wise
est ant
Ġkn ob
ect ed
ist rict
qu er
Ġout line
Ġout bre
Ġout lets
Ġint ake
Ġv ain
Ġv ase
Ġv ault
Ġv odka
Ġsp un
Ġsp ans
ĠA D
ĠA S
ĠA bor
ĠA ires
ĠA quarium
os a
os o
os ures
Ġpl ugging
Ġby stander
ci ble
ĠS y
ĠS id
ĠS pr
ĠS oph
ĠS elf
ĠS ala
ĠS agan
og o
ĠC ut
ĠC ond
ĠC els
ĠC ritic
ine e
Ġwhich ever
ast s
ment o
ap hor
." ]
iz ens
ous a
Ġen act
Ġen sh
Ġen list
Ġen caps
reat ed
ĠM ig
ĠM em
ĠM ard
ĠM ouse
ĠM BI
Ġta pping
ab out
ab bar
Ġper ip
Ġper mit
Ġper col
Ġqu art
Ġqu ery
Ġqu arry
ace y
Ġwill power
Ġco y
Ġco ating
ĠB in
ĠB ion
ĠB ach
ĠB arr
ĠB ee
ĠB etty
Ġno zz
Ġcl an
Ġcl am
Ġcl aw
Ġcl inging
Ġun natural
Ġun condition
Ġun ethical
ĠE p
ĠE qu
ĠE conomic
ĠE LAM
ĠG ary
ĠG oth
ĠG owan
Ġstart up
Ġstart ups
Ġpart isan
Ġimp ost
Ġimp over
Ġpo nder
Ġpo inter
Ġdis like
Ġback bone
ĠH ers
ĠH ob
ĠH oll
ĠH ole
ĠH mm
ĠH appy
ĠP A
ĠP ow
ĠP and
ĠP ress
ĠP ath
ĠP ants
ĠP TS
Ġar k
ib i
ĠT est
ĠT rib
ĠT erm
ĠT erence
ĠT ask
ĠT iger
ĠT ech
ĠT roy
ĠN a
ĠN arrator
ĠN ano
ĠN ixon
ang a
ĠD ream
ĠD istrict
Ġlo cks
Ġbet s
Ġbet ray
Ġdes olate
Ġres in
Ġres ervation
In formation
co in
ĠL is
ĠL ar
ĠL im
ĠL ist
ĠL iz
ĠL inked
Ġam ber
Ġdifferent iated
ĠR ot
ĠR ice
ĠR ead
ĠR idge
ĠR eady
ĠR Hex
Ġher ring
ph y
pe ace
Ġpre acher
Ġpre tz
ĠF E
ĠF ight
ĠF ifth
ak able
ĠW ang
Ġfl ips
Ġsm ack
Ġsm ashing
ful f
ĠJ un
ĠJ ennifer
ĠJ PL
ĠJ arrett
ĠJ essica
ĠO S
ĠO z
ĠU h
ĠU NA
row s
ile ver
we y
Ġown ing
Ġimport ed
Ġbel ts
Ġrem od
Ġrem ake
Ġrem orse
Ġrem inis
ĠCh uck
Ġwom b
ew orm
Ġafter life
Ġgl and
Ġgl aze
he av
Ġtrans cripts
Ġbefore hand
Ġcons ort
ĠK B
ĠK as
ĠK night
ĠK iva
Ġbelie vers
Ġcoll agen
Ġinter state
Ġbo oming
Ġsl im
Ġsl iding
Ġwater proof
velop ing
Ġsol uble
Ġmod ification
uc l
Ġcr utches
Ġter abytes
Ġstr iving
ather ine
Ġquestion na
Ġrec l
Ġrec reating
ĠSt alin
Ġmet eor
Ġmed it
Ġmed iated
Ġmed itate
Ġhard working
Ġposs essed
Ġbi oc
ĠIn itiative
Ġexpl or
Ġexpl odes
ĠSo lly
Ġcor rection
Ġsub atomic
Ġhand outs
Ġinf ilt
Ġspec ulative
Ġorgan izer
Ġacc us
Ġform ulas
Ġeng ra
Ġwar p
ĠV as
ĠV ice
ĠV ander
ĠV ivian
Ġsocial ism
ĠInd eed
Ġcur led
Ġsign atures
Ġgr ips
Ġgr izz
Ġsoci o
Ġsoci ologists
Ġopp ressed
Ġopp osing
Ġdef ensive
Ġdef enses
ortun ity
Ġty ing
Ġval uing
Ġeduc ator
Ġaut os
Ġcol oss
arth a
Ġref res
Ġbre w
Ġshare holders
ĠNew castle
Ġfore see
ov al
Ġexc ite
Ġtreat able
Ġsw all
Ġsw ings
Ġpar all
Ġpar able
Ġcost umes
Ġdev al
Ġdev ils
Ġche etah
Ġnight time
Ġclass ify
Ġgovernment al
Ġ6 2
Ġindividual ity
Ġpast or
ron om
Ġobject ion
Ġfree zes
Ġcollect ors
Ġris en
omet hing
Ġmass acre
cl inical
Ġprov oked
Ġ7 1
Ġ7 47
Ġwind shield
Ġ15 00
Ġhold ers
Ġve iled
Ġinnov ating
app ear
Ġteam work
Ġ5 50
Ġlisten ers
Ġinteract ed
Ġant ip
Do ing
Ġdeath bed
orth and
Ġnon verbal
Ġsent enced
Ġsent iment
Ġsent iments
ump ed
Ġlim inal
Ġbreak up
Ġperform s
Ġtrad ers
Ġsun gl
Ġsun fl
ax y
ero x
Ġpersonal ize
Ġ40 1
Ġgrand ma
Ġpriv atization
Ġviol ations
Ġviol ently
sh oulder
Ġcal ves
ev olution
Ġpredict ability
urb ation
Ġmicro RN
Ġmicro organisms
Ġmicro credit
Ġmicro seconds
Ġsoft ly
bor ough
Is lam
Ġcy berspace
Ġmar kings
of i
Ġste alth
Ġcrit ique
ole cular
Ġmov able
Ġrepl en
Ġrepl ay
Ġrepl ica
Ġfavor able
Ġthank ful
Ġcompet ed
ĠTh ai
Ġaren as
Ġmodern ism
Ġsell er
Ġcamp ing
Ġconvers ion
Ġlay ered
Ġbra ke
St age
St ars
Ġmount ing
Ġpeace fully
nam ent
Ġplant ation
Ġrevolution ized
ĠFr aser
ĠAn a
ask et
Al ways
Ġnational ity
Ġnational ism
Ġactiv ating
Ġadm iration
Ġcapt ion
Ġcapt ivity
Ġsequ ester
Ġtransl ators
Ġprogress ing
Ġmagn esium
Ġ16 00
Ġcollabor ated
Ġcart s
Ġremark s
Ġblind s
Ġsky line
Ġmis le
Ġunivers ality
Ġposition ing
Ġposition ed
Ġafford ability
Ġmist rust
Ġwild est
ffic ial
Im p
Ġprote omics
ĠAm el
Ġthrow away
Ġfinan cing
ĠAll ah
Ġrespect ing
Ġpan cre
Ġoccur rence
Ġsal ts
Ġweight s
Ġboard ing
ĠGe off
Ġgenes is
Ġtrick ster
Ġemploy ing
Ġeth ically
Ġfamiliar ity
Ġcomfort ing
bb ing
eral a
Ġzero es
ĠOr well
Ġmultip lying
pro cess
Ġgradu al
ĠMus ic
ĠX ia
Ġdemonstr ates
Ġ24 0
Ġ197 7
Ġmut ilation
Ġban al
udd led
Ġprevent ive
Ġdoub les
ĠBl ake
Ġdiagn osing
Ġdiagn oses
af i
Ġapplic able
Ġsmell ing
Ġvast ness
Ġlack s
Ġshoot er
Ġfat igue
Ġsick ness
ĠCl ay
Ġreb reat
Ġreb ound
Ġanaly st
ĠAustral ians
Ġcrowd source
Ġmaster pieces
rie l
Ġtherap ists
Ġbomb ard
val ue
Ġvacc ination
Ġble nding
Ġwis er
ĠMc N
Ġdisp utes
Ġcounter act
Ġtast y
Ġund es
Ġfle eting
Ġlunch es
Ġconstruct ions
Ġrot ated
Ġfrag ility
Ġfrag rance
Ġfresh man
Ġspot light
Ġmos aic
Ġodd ly
onom ous
ara oh
ĠGu inness
Ġbull y
Ġimplic ated
Ġacadem y
Ġpros cenium
hab ited
Ġreform ers
Ex per
ĠEn o
Ġdiet ing
ĠPal o
Ġintellectual s
Ġfinish es
ĠMay an
Ġlimit less
Ġheight ened
Ġfossil ized
Ġmosqu es
Ġperce iving
Ġillustr ated
Ġten ure
Ġuns c
Ġideal istic
Ġprefer ably
Ġinterpret ations
Ġmel odies
Ġhypoth es
Ġacqu iring
Ġgrid lock
Ġbath ed
Ġrub bing
cont rol
ĠGh raib
Ġbill boards
Ġmer ry
Ġ196 6
Ġclock s
Ġestim ation
Ġdiss olved
ĠGal axy
Ġpitch ed
Ġ194 8
Ġwitness ing
Ġfert ile
vis ual
Ġadvent urous
Ar ch
tail ed
Ġabsor bs
Ġabsor bing
Ġloud ly
Ġexplos ives
Ġpoly mers
Ġtent acles
Ġpolar ized
Ġpharm acy
Ġtransfer ring
imp act
Ġrhyth mic
ĠJul iet
ĠRob icse
Ġfilter ing
ĠEm manuel
Ġrecommend ation
Ġther mo
Ġshr unk
Ġgla cial
Ġtro op
Ġvital ity
Ġdevast ation
Ġcens ored
Ġinstant aneously
Ġcarr ots
Pl an
Ġid le
Ġboss es
ding er
Ġeleg ance
Ġeleg antly
Ġtwe ak
Ġwid ening
Ġspr out
Ġconsult ing
Ġobserv able
Ġwise ly
Ġbrib ery
Ġbio energy
Ġstom at
Ġregener ation
Ġburst ing
Ġacid ification
Ġdisappoint ing
En viron
Ġmur m
Ġprosth eses
ĠBon nie
Ġtransm itter
Ġgee ky
Ġphos ph
Ġcompos ers
engine er
Ġcorrel ate
Ġhemisphere s
Ġsquee zing
ĠLib by
ĠChurch ill
Ġschem es
Ġtranscend ent
Ġlean ed
ĠJo ey
irect ed
Ġexport ing
Ġfluores cence
Ġredesign ed
Ġstereoty pe
ĠSom ali
Ġprol ifer
ĠComm ittee
Ġscholars hips
Ġfault y
Ġhal ved
Ġles ions
sell er
Ġven ues
ĠTy ler
Ġampl ified
Ġwhistle blowers
ĠSky car
Ġconfig urations
Ġimmun ization
mill imeter
Ġhub ris
Ġdent ists
ĠMedic are
Ġdescend ed
Ġsummar ized
Ġrank ed
Ġcompre he
ĠLeban ese
Ġpige ons
bi ased
Ġorb ital
Ġconqu ered
ĠCap itol
ĠBol ivia
Ġpsychopath ic
Ġoutl aw
ĠCharl otte
ĠSen ator
ĠJane iro
Ġrecre ational
Ġstatistic ians
ĠIceland ic
gend ered
Ġadministr ator
Ġrevers ed
Ġrevers al
Ġbuff alo
ĠLin us
Ġende avors
Ġillum inate
De ath
tra umatic
ĠUN ES
Ġavo ided
Ġenlight enment
ĠBoy le
Ġ190 8
Ġ192 9
ĠConf uci
Ġmas cul
orr idge
Ġdepr ived
Ġdispers ants
Ġchat ting
ĠStud y
Ġadvis er
Ġtorn ado
Ġmerg ed
ĠBM I
Ġcaf es
Ġchampions hip
Ġchampions hips
Ġcul pr
imag ining
ĠPre tty
Ġpresum ption
Che ck
Ġbip ed
ĠNaz is
Ġrod ent
Ġunderm ining
Ġblueprint s
Ġlex ic
Ġcoh erence
Ġconfirm ation
Ġesca ping
ĠHung ary
pons ible
Ġgel atin
Ġorth od
Ġdeple tion
Ġconj unction
Ġsubmers ibles
Ġfemin ism
Ġrecruit ment
Ġov arian
Ġadvertis ement
Ġcort isol
Ġbeast s
Ġdisadvant aged
ĠVi king
ĠVi agra
Ġrecip ients
Ġfierce ly
Eng ine
know ledge
Ġpiv otal
ĠSer ra
Ġundert aking
Ġflee ing
char ged
Ġanonym ously
Ġchee k
Ġstrang eness
Ġgran ular
Ġpediatric ian
Ġtink ering
Ġfeas ibility
ĠOw ens
Ġbiochem istry
Ġspong es
Ġrooft ops
Ġamput ation
Ġreli ability
develop ed
Ã³ n
Ġdub ious
Ġseiz ures
ĠTem pest
Ġblo oms
Ġindul ge
Ġcentr if
feed ing
anc et
Ġreun ited
Ġdeleg ation
Ġbyproduct s
Ġunve il
ĠFil m
Ġmiscon ception
Ġtherm odynam
orb ital
Ġanom aly
emor ial
ĠCir cle
Ġprecon ceived
ĠFull er
Ġrecur ring
ĠPalm P
Ġbumble bees
Ġjeal ousy
ĠAth ens
Beaut iful
tun ed
Ġpor ch
Ġpredomin antly
Ġtaxpay er
Ġutop ian
Ġplaus ible
Ġserendip ity
cart es
Ġsar gassum
Ġpave ment
Ġfilt ered
ĠPRI ZE
Ġsyll ab
Ġprest ige
ĠKin ect
Ġrefram e
Ġpaj amas
Ġrebell ion
Ġamphib ians
Ġagon izing
Ġclog ged
tenth s
Ġvoc ational
Ġuplif ting
Ġevange lical
ĠBret on
Ġrepos itory
Ġtoothp aste
Ġabd omen
ĠBil bao
ĠGill ian
ĠGil bert
Ġadren aline
Ġcyn ical
Ġdispos able
ĠBuddh ism
Ġprecurs or
Ġcater pill
Ġkel p
Ġcorros ive
Ġbroch ure
Ġpenn ies
ĠBelg ium
ĠAus chwitz
ĠRedd it
Ġraz or
ĠInfin ity
Ġsynag ogue
laci er
Ġprair ie
ĠBuen os
Ġexem pl
Ġmyri ad
ĠSach s
ĠSene gal
intention ed
plash y
neut ral
Ġsuperf icial
ĠZet as
ĠMozamb ique
ICE F
mudd in
Ġfus iform
Ġwhol eness
Ġegal itarian
Ġmodu le
Ġoutbre aks
ĠCels ius
Ġensh r
ĠGowan us
ĠPTS D
Ġquestionna ire
Ġsungl asses
ĠmicroRN As
Ġpancre as
ĠRobicse k
ĠUNES CO
. ?
0 5
1 50
2 1
: "
; "
A g
A ctor
B T
B i
B acter
C r
D ep
E le
E ver
E ric
E conom
E LA
F C
F S
F ood
F riends
G erman
H E
H el
H ands
H uge
J S
K evin
L aw
M ad
M obile
N ic
N iger
N eedless
O il
P P
P al
P resident
P hone
R C
R un
R NA
S ort
S ound
S ec
S uccess
T P
V eron
W ent
W oo
a gh
b our
b ase
c uff
c ultural
c orrect
d ro
d el
d ough
e b
e very
e ffic
f o
f ar
f lo
f ires
f rost
g ard
g rain
g rim
h oo
h ones
h arm
h elp
i ations
j ournal
k ens
k ash
l ie
l iness
l ift
l antic
m id
m ite
m outh
n an
n ith
n ine
n ish
o it
p ad
p our
p ans
p arent
p arency
r ian
s er
s ense
s upp
s cientific
t age
t urn
t aking
t rained
v oc
w ives
x iety
Ġ Ã
Ġt ant
Ġa ce
Ġa irst
Ġa vert
Ġa rable
in f
in j
in ja
Ġthe e
re pres
Ġo un
Ġo ste
Ġo asis
Ġs ie
Ġs way
Ġs eren
at um
at hing
er art
er ance
er ator
ou p
ou le
it ized
it ism
it iveness
Ġb if
Ġb og
Ġb ast
Ġb aking
Ġb anging
Ġb achel
Ġb ilingual
en ny
en burg
en cia
Ġh ides
on i
on est
on ary
Ġp ing
Ġp ony
Ġp ores
Ġp ests
Ġp aren
Ġp orridge
Ġf iddle
Ġf ero
Ġf ading
an ian
es y
es ar
es ion
Ġd ut
Ġd rained
Ġd ummy
ll i
Ġin ver
Ġin co
Ġin version
Ġin animate
Ġin aug
Ġl ur
Ġl itt
Ġl av
Ġl att
ar med
om be
Ġg ulf
as i
as ca
as ma
ic c
ic it
ĠI de
al ized
Ġwe ighing
Ġn ameless
Ġn iches
Ġwh ack
Ġe er
us p
et ed
et ric
Ġre nd
Ġre integ
Ġre naissance
Ġha il
Ġha be
id an
all ic
im et
st ock
st ellar
ro ves
ig in
ig ot
ig rams
ur istic
ur ga
Ġst ent
Ġst aged
Ġst ares
if es
ra x
Ġan archy
ir s
ir sh
Ġdo s
oo ps
oo sh
am us
am ber
Ġu m
Ġu ber
Ġse ated
Ġse min
Ġk ites
Ġcan ce
Ġso d
Ġgo verning
ad ap
ad ors
ad ows
Ġcom ets
Ġhe ats
ill ery
ill usion
Ġsh ove
Ġsh anty
Ġsh aky
Ġsh orthand
Ġne cks
ant age
Ġnot ices
ge ist
il ate
il ocks
Ġall ocation
Ġall iances
Ġj um
Ġj itney
Ġfr ies
Ġfr ied
ers et
Ġpro se
Ġch urches
Ġr umor
Ġr ifle
Ġmy c
pp el
Ġma iling
Ġkn itting
ind ers
qu o
Ġbut ch
Ġbut term
Ġout n
Ġout source
Ġout look
Ġint ra
Ġte eming
Ġv ouch
Ġv antage
Ġsp y
Ġsp ins
Ġsp acing
Ġsp arse
Ġsp ooky
ĠA ff
ĠA ctor
ie ber
Ġtr ay
Ġup beat
her tz
Ġpl ow
Ġpl ight
ĠS ans
ĠS end
ĠS cient
ĠS cra
ĠS upp
ĠS isy
ĠS abb
ĠS UV
ĠS plashy
iv or
Ġmore over
og h
og ical
Ġsa iled
Ġim itating
ĠC ab
ĠC ities
ĠC ash
ĠC ole
ĠC urt
ĠC auc
Ġtim eless
iz on
ous and
act ivated
ĠM ust
ĠM un
ĠM ush
ĠM essage
ĠM artha
Ġle aps
ore al
are z
Ġtime ly
Ġhas h
ag ons
ag les
ag ues
Ġper ma
Ġper imeter
Ġqu ir
Ġdon ating
Ġman ia
Ġman go
Ġfe ud
Ġev ils
Ġco il
itt ees
ĠB C
ĠB it
ĠB ull
ĠB ever
ĠB rent
ĠB eth
ĠB uild
ĠB aker
ĠB irds
ĠB irming
ĠB arefoot
Ġag ony
iff s
Ġno b
Ġcl o
Ġcl one
Ġcl itor
Ġtw ink
Ġtw itch
so le
Ġun att
Ġun iqu
ĠE mer
ĠE asy
ĠE DI
ĠE ucl
ĠG M
Ġover r
Ġbu ckets
Ġimp ed
Ġpo ised
Ġdis emb
Ġdis mal
Ġback side
ĠH ew
ĠH ond
ĠH urt
ĠH olly
ĠH irsh
ĠP a
ĠP av
ĠP ix
Ġar ctic
ĠT ol
ĠT od
ĠT ree
ĠT ob
ĠT ogether
ĠT owers
ĠT ulu
ĠN i
ĠN ear
ĠN one
ĠN irvana
ĠD J
ĠD ow
ĠD eng
ĠD rug
ĠD rugs
ĠD imitri
Ġro ast
Ġro be
Ġac umen
ber gh
Ġph oenix
Ġdes cent
In sp
Ġunder going
ell ows
ĠL ess
ĠL ower
ĠL iber
ĠL isa
ĠL ocke
Ġhum bled
ick ly
ĠR anger
ĠR oute
Ġbl oop
int elligent
ank ed
ph il
Ġcomm uting
Ġcomm ittees
Ġpre re
form ing
ĠF uture
ak enly
ĠW oo
ĠW ag
Ġfl avors
chn ya
Ġinc isions
Ġem ble
Ġem peror
Ġbr ine
Ġbr ass
ĠJ ov
Ġra ced
ĠO pp
ric ity
Ġtechn ologist
ĠU top
ne x
Ġpers ists
Ġpercent ile
Ġtra ction
Ġtra choma
Ġdec ou
Ġgu ided
Ġchild birth
Ġinv ading
Ġrem oval
Ġsc ored
Ġturn over
av ored
Ġob ed
be ans
Ġrel ating
Ġrel ocated
ail ing
Ġgl ut
Ġgl ide
Ġgl ued
Ġtrans lu
Ġtrans gendered
Ġins ufficient
ĠK ath
ĠK ool
ĠK now
ĠK alu
ĠK eep
ĠK erala
Ġpoint less
Ġcoll ateral
ros so
Ġinter play
ert o
Ġsl ipping
Ġpower ing
Ġdr astic
Ġdr astically
Ġmon st
Ġmon uments
Ġmod ulation
Ġcr us
Ġart illery
Ġrec line
ĠSt ep
ĠSt range
Ġatt ent
Ġmet am
Ġmed iate
az ed
Ġread ings
Ġbi og
ĠIn st
ĠIn stead
ĠIn novation
wh o
Ġsk ating
Ġsk irt
Ġbook ing
Ġsupp lements
Ġfo x
Ġrun away
Ġopen ings
Ġhand writing
Ġhand bags
Ġprob iotics
Ġinf used
Ġmind ful
aut h
Ġform ulation
Ġhead lights
Ġwar ps
Ġwar rant
Ġwar heads
pr ising
Ġpres chool
Ġsocial ization
Ġdem ob
Ġdem ise
Ġca ffe
Ġconnect ive
Ġsign aling
Ġgr illed
Ġgr inding
ner y
Ġbusiness people
Ġsoci ology
Ġwo ken
Ġtop ography
Ġopp ose
Ġopp ressive
Ġmen us
Ġmen stru
Ġsound ing
ĠThe ir
ĠThe ater
Ġair borne
Ġlater al
Ġsit com
Ġaut opsy
Ġaut umn
Ġdet ached
Ġlist ens
Ġresearch ed
Ġrest less
Ġrest riction
Ġfore man
Ġmach o
Ġtest ament
Ġamaz es
Ġvide ot
Ġbillion th
Ġbillion aire
Ġass ay
Ġsw ore
Ġsw irl
Ġheart break
Ġpar ade
Ġiss uing
Ġkill ings
uro bot
Ġwa its
de af
Ġcancer ous
Ġpay back
to oth
Ġ6 50
Ġdeep ening
ron ics
Ġcra dle
Ġret ard
Ġret reating
Ġterr itor
br as
br ight
end e
Ġris king
ĠHe in
Ġinvest or
Ġarch e
Ġill iter
not hing
app er
erv ice
ale en
Ġprotect ions
Ġmot ive
Ġinteract ivity
Ġmiss iles
Ġant iqu
Ġrecord ers
ĠBr its
Ġrev ive
Some where
Ġgreen er
Or d
Or gan
Ġhands hake
Ġdel ta
Ġnon verb
Ġfish ed
Ġes p
Ġpsych ic
Ġpsych oph
Ġsaf est
Ġsqu irt
Ġsuper intend
Ġtem b
Ġfall out
Ġfre aks
ĠAl ger
ĠAl to
port ed
Ġ18 6
Ġpresent ly
Ġeat ers
Ġsitu ated
Ġviol ating
On line
crib ers
sh ifting
Ġconv ictions
At t
Ġmult id
Ġsum mers
Ġdest ab
Ġorig inate
Ġdraw ers
Ġmorning s
ĠBe au
Ġmicro finance
ĠSh adi
Ġhar med
Ġfoot steps
Ġpur ity
Ġredu ctions
Ġrock y
Ġknowledge able
Ġcirc us
Ġcirc led
Ġfilm making
vent h
Ġast rolog
cr ime
ug o
chan ics
Ġtele v
Ġguess work
Ġtext ures
Ġtext iles
Ġhosp ice
Ġsho ved
Ġrul ers
ĠAs pen
Ġsn ack
Ġsn ob
Ġpoll uting
Ġcamp fire
Ġintellig ently
Ġprop ensity
Ġbenef iting
St r
St and
St range
Ġflu x
Ġflu ff
Ġneur omod
Ġdin er
Ġimm inent
Ġtable top
Ġgeneral ization
Ġbar ber
Ġbar ric
Ġbar bed
Ġaw fully
lo e
Ġcapital ists
medi ately
ĠFr ont
iar ies
Ġlog s
Ġpa used
ĠAn ne
ĠAn cient
Ġdiv isions
Al bert
Ġfix es
Ġaccount ant
uit ous
Ġpu ps
ann ica
Ġsepar ately
Ġcris p
ĠBrit annica
Ġappear ances
Ġsand stone
Ġdeb ut
Ġdeb ated
Ġdeb ating
Ġdeb ilitating
Ġmis f
Ġmis er
Ġcat ap
Ġcat adores
Ġmist akenly
Ġpack et
Ġpack ages
Ġlower ing
Ġcook s
ĠAll iance
Ġrespect able
ĠWar craft
Ġign ite
Ġurban ism
ĠPr ay
ĠPr inci
ĠPr otect
Ġboard room
ĠAfgh ans
Ġeth os
ĠPro zac
Ġspect ral
ĠCar gill
ĠBra ille
Ġdeterm in
Ġthr ill
Ġrandom ized
ĠSp ir
Ġlaws uits
pro v
pro fits
Ġbroad en
Ġsad dest
Ġsupply ing
Ġmut ates
Ġinvent ive
Ġdimens ional
ĠBl ock
Ġcontroll ers
ĠMar ie
ĠIraq is
Ġmix es
amb ig
Ġlack ed
ĠAd vent
ĠAd min
ĠiP hones
Ġur ging
Ġhom ogene
ĠCl ar
ĠCl oud
Ġanaly tics
Ġmission ary
Ġcorrect ness
Ġbomb ings
Ġbomb arded
do ch
Ġhost ing
Ġhost ed
Ġship yard
ĠRo vers
cra per
ĠWh atever
roll ing
ĠMc G
Ġappreci ating
Ġsmo ked
ĠFor um
Ġinform s
Ġinform ing
Ġinform ant
Ġadapt ability
Com ment
Com plete
Ġfaith ful
Ġsucceed s
Ġgrandm aster
Ġheads et
Ġpet rol
hold ing
Ġtor so
Ġmos ses
Ġvolunte ering
ĠCon vention
Ġgar ment
Ġtox in
Ġchair man
Ġfellow ship
Ġbull shit
craft ed
ĠEx per
Ġagg ress
bl ack
Ġrein vented
Ġcolon ized
Ġcow ard
urd y
Ġpil grim
organ ize
organ ism
Ġsurf ers
ĠWill ie
Ġilleg ally
ĠDarwin ism
ogen ous
ĠBar n
ĠCo al
ĠEl vis
Ġprofession ally
Ġens lave
ĠMil k
ĠTe am
Ġassist ants
Ġdiss ert
Ġdiss atis
Ġju icy
Ġtrend ing
Ġinequ alities
Ġwash es
Ġhoriz ons
Ġridic ulously
ĠColl ins
Ġdiag onal
Ġdot com
Ġcomment ing
Ġwhist led
box etine
Ġcyber crime
Ġbreed s
Ġdecre ases
Ġanticip ating
Ġunexpected ly
Ġspider we
Ġinstinct ive
Ġdomestic ated
Ġexcl ude
ĠRob inson
Ġcrack ing
Ġcrack ers
Ġgolf er
ĠMa jor
ĠMal colm
Ġdict ated
Ġspectac le
Ġplot ting
Ġscream ed
Ġpace maker
Ġwings pan
Ġeradic ating
Ġaband oning
ĠTor ah
Ġboom ers
Ġinfl amm
Ġshadow y
Ġmarch es
Ġskull s
Ġparas itic
Ġweapon ry
Ġwip ing
Ġquad rip
Pl us
cut ter
Ġid iots
ĠSam ar
Ġconce it
Ġlock er
Ġfertil ize
Ġdiver gent
Ġcatastroph es
Ġwaters hed
Ġupset ting
Ġclim ber
Ġveter inary
Ġspark s
Ġobserv atory
mod ern
ĠBur ger
ĠBur ma
ĠNet ra
Ġsimult aneous
Ġwra ps
Ġpunch line
Ġfool ish
Ġfract ure
Ġsalt water
cap ital
Ġsink ing
ĠBob by
En ough
Qu estion
Ġtransm itting
Ġastonishing ly
Ġchron ically
Ġselfish ness
Ġaccomplish ments
play ing
Ġsynthes izing
Ġsynthes izer
Ġbored om
Me et
Ġcong ratulations
Ġspray ed
Ġupd ates
ĠWith out
ĠMah ab
Ġvalid ated
Ġnom inate
Ġexport ed
ĠOk api
Ġirre vers
Ġhalluc ination
produ cing
Ġouts iders
Ġouts ourcing
Ġ36 5
Ġhors esh
umin ous
Ġsuspe nd
inter rupt
Ġgam ble
ĠSom erset
Ġharness ing
Ġharness ed
Ġreconstruct ing
ĠBas in
Ġsubsid ize
Ġinterven ing
col or
Ġhal ve
Ġcoinc identally
Ġcluster ing
Cons um
Ġprotest ing
Ġsumm aries
ynth etic
Ġorphan ed
Ġhub s
Ġpir ates
Ġproph ets
ĠMedic ines
Ġhybr ids
Ġhorizont ally
Ġcabin ets
Ġtoss ed
ĠChe chnya
Ġtact ical
Ġjugg ler
ĠBol t
Ġstraw s
ĠHawai ian
aware ness
front al
Ġsne akers
ĠHel p
ĠHel vet
Ġaccent s
Ġinhib it
ĠJon athan
Ġappla ud
Ġdepos its
Con nect
Con versely
Ġcarp ent
Ġcarp ool
Ġbiof lu
Ġbiof uel
Ġfluctu ation
Ġhopeless ly
Ġrevers ing
Ġdispar ities
Ġillum inating
hear se
ÃŃ n
Ġtwist ing
Ġepis odes
Ġmild ly
Ġadvers aries
Ġnightm ares
Ġsymp athetic
Ġsteep ed
Ġnic kel
Ġexagger ated
Ġpreced ing
ĠTunis ian
Ġmas se
Ġcarc asses
Ġkidn apping
gr ass
tz mann
Ġdood le
ĠMas a
Ġcaus ality
Ġadvis ers
Ġempath ic
Ġunle ash
Ġprecip ice
ĠSand y
ĠCr ick
ĠPre go
Ġcontag ion
ĠFed Ex
Che f
Ġwrest ling
ĠDick inson
Ġcrowds ourcing
Ġmaneuver able
ĠLuc as
Car bon
Ġprosec ut
Ġcourts hip
Ac ademy
Ġjan itors
ĠOper ations
Ġconstitution al
hed ron
Ġprohib ition
ĠAng ola
Ġsmugg led
Ġmit ochond
ĠLev iathan
ĠColomb ian
Ġadvertis ements
fig ure
ĠST EM
ĠServ ices
Ġwhisper ing
Ġnail ed
Ġperpetr ator
has a
ĠMot or
ĠLind bergh
Ġshortcut s
Ġcrocod iles
Ġunderw ent
Ġskys craper
Ġtempl ates
Ġtink er
Ġplun ged
Ġarrog ance
ĠWood s
ĠOtt awa
ĠKle in
Ġtraff ickers
ĠExpl ore
Fre edom
Ġbunk er
Ġmol ten
ĠAcc ra
ĠHem isphere
bec ue
Ġecst atic
Ġstockp ile
consum ing
Ġtadp oles
your self
Ġcasc ade
Ġren amed
Ġoverd ose
Ġlivelihood s
Ġhorn s
Ġtomb stone
Ġstain less
Ġstap le
Ġanom al
artic ulate
Ġdissem inate
ĠDM CA
Ġlaure ates
ĠProt estant
ĠFreud ian
sim pl
Ġnotor iously
ĠPatr ick
Ġresh ape
ĠLOL cats
Ġeyebrow s
Ġcontribut ors
Ide as
fifth s
Ġfost ered
Ġweep ing
Ġasymmet rical
Ġfring es
ĠSerb ia
Ġinterpre ting
Ġposit ives
Ġquadru ple
ĠArchitect ure
Further more
Ġwand ered
Ġbail out
Ġrhy me
Ġunb ear
Ġadh esive
Ġpreoccup ied
ĠWild life
Ġforens ic
Ġconstell ations
Ġbarbar ic
Ġtapest ry
ĠMcL uhan
Rad io
Ġcompuls ively
Ġenfor ced
ĠEffect s
ĠDomin ican
Ġgloom y
Ġparan oid
ĠAlt os
Ġpropos als
Ġjurisd iction
Ġtroph y
Ġtheor ist
Ġrecap it
Ġgodd ess
Ġpropr iet
Ġruth less
Ġvic inity
ĠCore xit
ĠEmb assy
ĠGay la
Ġarsen al
ĠRain forest
ĠRee f
ĠVel cro
Ġdeterg ent
Ġbarc ode
Ġconcuss ion
Ġnarciss istic
Ġskyrocket ing
Math em
sur face
Ġgoof y
Ġecl ipse
Ġsha ft
Ġsplend id
ĠCase y
Ġuncon ventional
Ġuncont acted
ĠDire ctor
ĠKick starter
Ġhomem ade
mom ent
Ġbree ze
Ġsect arian
Ġplumb ing
ĠMak oko
Ġdisson ance
ĠNaj muddin
Ġlabore rs
Ġunders ide
ĠFlore nce
Ġcowork ers
Pe ace
Ġsegreg ated
Ġspher ical
Ġarist ocracy
ĠJere my
Ġphotoc op
Ġprophe cy
Ġunreal istic
bene fit
Ġgamb ling
opran o
Ġoverhear d
Ġamid st
Ġbriqu ettes
Ġsubstr ate
Ġcurv ature
Ġslaught ered
ĠCamero on
ĠDenis ov
bog gling
frequ ency
ĠAbor iginal
Ġimpover ished
ĠHoll and
ĠPand ora
Ġpretz els
Ġreminis cent
Ġcoloss al
Ġparall els
Arch itect
Ġstomat op
Veron ica
harm onic
erart u
Ġfero cious
adap ted
Ġbutterm ilk
ĠSisy ph
ĠSabb ath
Ġperma frost
ĠBirming ham
Ġuniqu eness
Ġtranslu cent
ĠKalu za
Ġnonverb als
Ġsuperintend ent
ĠHelvet ica
! ]
4 8
7 6
7 7
A L
A v
A st
A ustr
A rab
A part
B es
B aby
C ap
D iff
D ec
D addy
E nd
E nt
E qu
E mer
F ace
G al
H ero
J B
J E
J M
J an
J es
J ournal
L arge
M L
M c
M s
M ind
M em
M other
M iss
N H
N ame
N ational
N athan
P an
R et
R ay
S a
S w
S an
S low
U E
W all
b ies
b os
b ars
b ably
b ows
b odied
b imet
c in
c os
c ult
c ade
d ale
d irected
e pt
f ol
f ired
f erence
g irl
g aly
h at
h im
h od
h ade
h aul
h appy
j ack
j oice
j esty
k ar
l ace
l age
l eness
l ords
m ap
n old
n arr
o vers
o ks
r d
r idge
r arian
r uten
s a
s ol
s hips
t able
t ered
u i
u ates
v re
v ind
v ag
w omen
w rest
y er
y es
Ã ¹
Ġ ,
Ġth or
Ġa uro
Ġa kin
in ian
in av
in vasive
Ġw icked
Ġthe aters
Ġo o
Ġo sm
Ġo mega
Ġs cent
Ġs aint
Ġs ari
Ġs ixt
Ġs ourcing
Ġs izable
at ross
er ate
nd on
nd an
ou in
Ġc aut
is in
is ch
it ates
it geist
Ġb ison
Ġb ows
Ġb acon
Ġb idding
ing e
ing le
ing ered
Ġm use
Ġm ound
Ġm ills
Ġm ounds
Ġm ason
Ġm ucus
Ġh ose
Ġh ating
Ġh oop
Ġh aters
on ie
Ġto kens
Ġp ant
Ġp arch
Ġf itt
Ġf ren
Ġf avors
an j
an im
Ġd ang
Ġd ime
or ie
ll ip
Ġin ac
Ġin land
Ġl id
Ġl est
Ġg in
Ġg ist
as pora
ic ent
ic ist
ve ll
[...]
